const unsigned char model_data[] __attribute__((aligned(8))) = {0x1c, 0x00, 0x00, 0x00, 0x54, 0x46, 0x4c, 0x33, 0x14, 0x00, 0x20, 0x00, 0x1c, 0x00, 0x18, 0x00, 0x14, 0x00, 0x10, 0x00, 0x0c, 0x00, 0x00, 0x00, 0x08, 0x00, 0x04, 0x00, 0x14, 0x00, 0x00, 0x00, 0x1c, 0x00, 0x00, 0x00, 0x1c, 0x00, 0x00, 0x00, 0x4c, 0x00, 0x00, 0x00, 0x6c, 0x15, 0x00, 0x00, 0x7c, 0x15, 0x00, 0x00, 0x74, 0x2f, 0x00, 0x00, 0x03, 0x00, 0x00, 0x00, 0x00, 0x00, 0x00, 0x00, 0x01, 0x00, 0x00, 0x00, 0x0c, 0x00, 0x00, 0x00, 0x08, 0x00, 0x0c, 0x00, 0x08, 0x00, 0x04, 0x00, 0x08, 0x00, 0x00, 0x00, 0x15, 0x00, 0x00, 0x00, 0x04, 0x00, 0x00, 0x00, 0x13, 0x00, 0x00, 0x00, 0x6d, 0x69, 0x6e, 0x5f, 0x72, 0x75, 0x6e, 0x74, 0x69, 0x6d, 0x65, 0x5f, 0x76, 0x65, 0x72, 0x73, 0x69, 0x6f, 0x6e, 0x00, 0x16, 0x00, 0x00, 0x00, 0x1c, 0x15, 0x00, 0x00, 0x14, 0x15, 0x00, 0x00, 0xfc, 0x14, 0x00, 0x00, 0x9c, 0x14, 0x00, 0x00, 0x6c, 0x14, 0x00, 0x00, 0x64, 0x14, 0x00, 0x00, 0x14, 0x12, 0x00, 0x00, 0xe4, 0x11, 0x00, 0x00, 0xdc, 0x11, 0x00, 0x00, 0xd4, 0x11, 0x00, 0x00, 0x44, 0x0d, 0x00, 0x00, 0xf4, 0x0c, 0x00, 0x00, 0xec, 0x0c, 0x00, 0x00, 0xdc, 0x03, 0x00, 0x00, 0x8c, 0x03, 0x00, 0x00, 0x84, 0x03, 0x00, 0x00, 0x7c, 0x03, 0x00, 0x00, 0x74, 0x03, 0x00, 0x00, 0x44, 0x00, 0x00, 0x00, 0x2c, 0x00, 0x00, 0x00, 0x24, 0x00, 0x00, 0x00, 0x04, 0x00, 0x00, 0x00, 0x5a, 0xeb, 0xff, 0xff, 0x04, 0x00, 0x00, 0x00, 0x10, 0x00, 0x00, 0x00, 0x31, 0x2e, 0x31, 0x34, 0x2e, 0x30, 0x00, 0x00, 0x00, 0x00, 0x00, 0x00, 0x00, 0x00, 0x00, 0x00, 0x30, 0xd2, 0xff, 0xff, 0x7a, 0xeb, 0xff, 0xff, 0x04, 0x00, 0x00, 0x00, 0x08, 0x00, 0x00, 0x00, 0x69, 0xfd, 0xff, 0xff, 0xa2, 0x02, 0x00, 0x00, 0x8e, 0xeb, 0xff, 0xff, 0x04, 0x00, 0x00, 0x00, 0x20, 0x03, 0x00, 0x00, 0x1f, 0xec, 0x0f, 0xe9, 0xe1, 0x12, 0xf8, 0xd6, 0x1f, 0x10, 0x99, 0x01, 0x35, 0xfb, 0x2a, 0xfe, 0x49, 0x11, 0x15, 0x01, 0xd5, 0xf4, 0xe9, 0xe1, 0x0a, 0xfd, 0xea, 0x00, 0x32, 0x10, 0x4d, 0x08, 0x1c, 0xf9, 0xdc, 0xd5, 0x11, 0x10, 0xf4, 0xfd, 0xef, 0xcc, 0x03, 0x0b, 0xf7, 0x47, 0x29, 0xea, 0x00, 0xd7, 0xf9, 0xdf, 0xdb, 0xfe, 0x09, 0x14, 0xfb, 0xed, 0xdb, 0x02, 0xfe, 0x41, 0xee, 0xee, 0xec, 0xf7, 0xd2, 0xe7, 0xf7, 0xfc, 0xf6, 0xd4, 0x9b, 0x00, 0x4a, 0xe9, 0x11, 0x18, 0xe1, 0xef, 0x0c, 0xeb, 0xe3, 0xde, 0xdb, 0x08, 0xec, 0xf7, 0x07, 0xf1, 0xdc, 0xfb, 0x0a, 0xec, 0x1a, 0xe3, 0x20, 0xe8, 0xe8, 0xec, 0xe0, 0xff, 0xef, 0xc0, 0xde, 0xe5, 0xf5, 0x1a, 0x2d, 0x0a, 0x25, 0xe9, 0xf5, 0x12, 0x0b, 0xef, 0x00, 0x15, 0x03, 0xe6, 0xeb, 0xda, 0xe7, 0x0e, 0xda, 0x3f, 0xf5, 0xee, 0x15, 0xf2, 0xf2, 0x03, 0xfa, 0xe6, 0xfa, 0xef, 0x09, 0xf5, 0xd7, 0xff, 0xe0, 0x29, 0x05, 0xf3, 0xeb, 0xe4, 0xe6, 0xd4, 0x19, 0x0b, 0xe6, 0xe7, 0xbf, 0xd0, 0x3e, 0xee, 0xea, 0xf0, 0x11, 0x04, 0x02, 0xe3, 0xf2, 0xd8, 0xeb, 0xdf, 0xe0, 0xe3, 0x09, 0xf1, 0xd5, 0xea, 0x0e, 0x10, 0x28, 0xf3, 0x1d, 0xc4, 0xeb, 0xe2, 0xeb, 0xef, 0xd9, 0xd3, 0xde, 0xda, 0x16, 0xfc, 0x1f, 0x01, 0x07, 0xd9, 0xf7, 0xea, 0x06, 0xec, 0xf6, 0x07, 0x11, 0xe4, 0xfe, 0x02, 0xfc, 0x02, 0xed, 0x0f, 0x0a, 0xf9, 0x1f, 0xf2, 0xea, 0xea, 0xd2, 0xe2, 0xde, 0x0d, 0x29, 0x23, 0xb9, 0xec, 0x1e, 0x01, 0x0a, 0xed, 0x14, 0xda, 0xe0, 0xe9, 0x15, 0x1b, 0xf8, 0xfb, 0xd5, 0xf4, 0x3c, 0x0d, 0x05, 0xfd, 0x20, 0xda, 0x1d, 0xcb, 0xf1, 0xe4, 0xd9, 0x02, 0xff, 0xe1, 0x0d, 0xe2, 0xda, 0x06, 0xf5, 0x12, 0x34, 0xf3, 0x16, 0x0b, 0xe2, 0xec, 0xd8, 0x07, 0xd0, 0xe0, 0xe1, 0xc6, 0xf2, 0xff, 0x01, 0xec, 0xdd, 0xe3, 0x08, 0x12, 0xf0, 0x0c, 0xf3, 0x02, 0x04, 0x0b, 0x07, 0x16, 0x07, 0xe5, 0xe4, 0xe9, 0xfe, 0xf7, 0x1c, 0x15, 0xeb, 0x03, 0xe7, 0xf9, 0xf1, 0x0e, 0x27, 0xf5, 0xaa, 0xf7, 0xfb, 0xf1, 0x01, 0xfa, 0xfa, 0xed, 0xe2, 0xdd, 0xff, 0x05, 0x07, 0xf9, 0xdd, 0xee, 0x4d, 0x14, 0xf3, 0x0d, 0xd8, 0xed, 0xf6, 0x00, 0xf8, 0xe3, 0xf5, 0x17, 0xe6, 0xee, 0xe6, 0xe2, 0xbb, 0xff, 0x10, 0x02, 0xc6, 0xf6, 0xdc, 0xf0, 0x16, 0x18, 0xd3, 0xed, 0xdf, 0xe4, 0xc0, 0xf0, 0xf9, 0x00, 0xfe, 0x08, 0xdc, 0xf8, 0xed, 0x03, 0xf7, 0xfa, 0x0e, 0xe8, 0x08, 0x17, 0x08, 0xff, 0xd4, 0x01, 0xea, 0xde, 0xf7, 0x08, 0xe3, 0xfc, 0xe2, 0x11, 0xfe, 0x09, 0xf9, 0xf2, 0x27, 0x03, 0xc2, 0x06, 0xfd, 0x06, 0xb9, 0x0e, 0x98, 0x05, 0x03, 0xf3, 0xeb, 0xe6, 0x10, 0xf5, 0xd7, 0xfa, 0x11, 0x0c, 0x12, 0xfb, 0xb9, 0xec, 0xe0, 0xf7, 0x0c, 0xf8, 0x16, 0xf4, 0x0d, 0x00, 0xf7, 0x04, 0x7f, 0xf5, 0xe0, 0x22, 0xd1, 0x00, 0xd8, 0x03, 0xf7, 0x0e, 0x3c, 0xfc, 0x26, 0x1c, 0xeb, 0xfe, 0x21, 0x08, 0xe6, 0xdb, 0xe0, 0x02, 0xea, 0x08, 0xff, 0x06, 0xef, 0xef, 0x0e, 0x1d, 0x10, 0x06, 0xff, 0xfb, 0x1c, 0xaa, 0xd6, 0x22, 0xea, 0x04, 0x0c, 0x0d, 0x16, 0x02, 0xf5, 0xfa, 0x11, 0xf8, 0x2c, 0xf5, 0xee, 0xe3, 0xe9, 0xfc, 0x09, 0x1d, 0x07, 0x2c, 0xfa, 0xf7, 0xf3, 0x33, 0x6c, 0x19, 0xcc, 0x12, 0xfe, 0x0b, 0x1d, 0x0e, 0x02, 0x03, 0x12, 0x16, 0xfa, 0x0f, 0x01, 0x1d, 0x00, 0xf5, 0x38, 0xed, 0x00, 0xe7, 0xe6, 0x00, 0xe0, 0x07, 0x0e, 0xff, 0x16, 0xef, 0x27, 0x1c, 0x00, 0x14, 0x0a, 0xe8, 0xf7, 0xd3, 0xde, 0x09, 0x19, 0x19, 0xfd, 0x01, 0xf6, 0x17, 0x01, 0x1f, 0x1e, 0x13, 0xf8, 0x15, 0x22, 0xea, 0xe1, 0x0d, 0xf6, 0x05, 0xfd, 0x13, 0x28, 0xee, 0x0e, 0xec, 0xfa, 0x0f, 0x27, 0xe6, 0x0b, 0xfc, 0xe7, 0x08, 0x10, 0x15, 0x0f, 0x01, 0x02, 0xf4, 0xea, 0x25, 0x40, 0x1d, 0xdb, 0xec, 0x0b, 0xf5, 0xfc, 0x21, 0xe5, 0x3a, 0x33, 0x3c, 0x0d, 0x06, 0x02, 0x07, 0xf6, 0x08, 0x20, 0x0c, 0xeb, 0xf6, 0xd7, 0x2e, 0xe7, 0x12, 0x27, 0x36, 0x08, 0xff, 0x2c, 0x3e, 0x20, 0x1e, 0x12, 0x15, 0xe2, 0xe5, 0xd3, 0x28, 0x09, 0xfe, 0x0b, 0xfe, 0xec, 0x0d, 0xe4, 0xfd, 0xfd, 0x19, 0x02, 0x0b, 0x10, 0xcf, 0xfe, 0x18, 0xdd, 0x0d, 0x0c, 0xf4, 0x18, 0xf7, 0xee, 0xf1, 0xfa, 0xfc, 0x40, 0xe8, 0xfd, 0xdf, 0xe3, 0x0c, 0xe9, 0x12, 0x23, 0x12, 0x12, 0x0a, 0x26, 0x24, 0x2e, 0x0c, 0xb6, 0x0e, 0xe6, 0xf8, 0x06, 0x27, 0x0d, 0x0c, 0x0e, 0x2e, 0x23, 0x12, 0x1e, 0x26, 0x1b, 0x1a, 0x15, 0x06, 0x01, 0x14, 0xe7, 0x3d, 0xe9, 0xf7, 0xf8, 0x20, 0x1a, 0xfe, 0x14, 0x29, 0x4f, 0x1f, 0xf2, 0x0c, 0x00, 0xf3, 0x08, 0x21, 0x05, 0x0e, 0x03, 0x0e, 0x04, 0x1f, 0x00, 0x0f, 0xea, 0xfd, 0x1a, 0xea, 0x03, 0x08, 0x0e, 0x03, 0xe3, 0x16, 0x07, 0xf7, 0x22, 0x07, 0x0a, 0xf3, 0xef, 0xf9, 0x79, 0x11, 0x06, 0xe8, 0xf2, 0xec, 0x13, 0x1b, 0x2a, 0x0c, 0x11, 0x02, 0xfb, 0x1b, 0x46, 0x22, 0xd0, 0xf9, 0x10, 0x0c, 0x0e, 0x12, 0x27, 0x02, 0xf9, 0x16, 0x29, 0x1d, 0xf5, 0x1f, 0x02, 0x1c, 0x43, 0x09, 0x1c, 0xf9, 0x40, 0x0b, 0x39, 0xe7, 0x0a, 0xf7, 0x30, 0x06, 0x26, 0x31, 0x5c, 0x1a, 0x12, 0xf3, 0xed, 0x04, 0x52, 0x09, 0x27, 0x07, 0x01, 0x0d, 0x13, 0x0c, 0x1a, 0x19, 0xfd, 0x03, 0x04, 0x08, 0x12, 0x26, 0x3b, 0xf1, 0x3a, 0x09, 0x00, 0x0a, 0x1b, 0xe8, 0x0b, 0xec, 0x08, 0xf2, 0x5a, 0xe8, 0xfd, 0x27, 0x4a, 0x05, 0x73, 0x0d, 0x01, 0xf6, 0xfa, 0xeb, 0x12, 0x12, 0x29, 0xf8, 0xdc, 0xf2, 0x0e, 0x1e, 0x5a, 0x00, 0x74, 0xd5, 0xff, 0xff, 0x78, 0xd5, 0xff, 0xff, 0x7c, 0xd5, 0xff, 0xff, 0xc6, 0xee, 0xff, 0xff, 0x04, 0x00, 0x00, 0x00, 0x40, 0x00, 0x00, 0x00, 0x54, 0xfe, 0xff, 0xff, 0x12, 0x01, 0x00, 0x00, 0xa8, 0x02, 0x00, 0x00, 0xb9, 0x03, 0x00, 0x00, 0x84, 0xff, 0xff, 0xff, 0xb2, 0xfe, 0xff, 0xff, 0x30, 0x03, 0x00, 0x00, 0x66, 0x04, 0x00, 0x00, 0xc5, 0x01, 0x00, 0x00, 0xe9, 0x02, 0x00, 0x00, 0x80, 0x03, 0x00, 0x00, 0xd1, 0xfe, 0xff, 0xff, 0x85, 0xfd, 0xff, 0xff, 0xeb, 0x00, 0x00, 0x00, 0x56, 0xfd, 0xff, 0xff, 0x93, 0x01, 0x00, 0x00, 0x12, 0xef, 0xff, 0xff, 0x04, 0x00, 0x00, 0x00, 0x00, 0x09, 0x00, 0x00, 0x1a, 0x1a, 0x1c, 0xd6, 0xe2, 0x7f, 0x00, 0x4f, 0x09, 0x11, 0x12, 0xd8, 0xc6, 0xee, 0x0c, 0xec, 0xf6, 0x19, 0x22, 0xde, 0xf8, 0x39, 0x03, 0x3e, 0x1a, 0x0b, 0x08, 0x14, 0xcc, 0x14, 0x04, 0x1a, 0xe6, 0xfe, 0xfb, 0xe2, 0x19, 0x3f, 0x05, 0x07, 0xe8, 0x17, 0x1a, 0xe2, 0x23, 0xf4, 0xf1, 0x0e, 0x16, 0xfd, 0xe7, 0xd6, 0xe3, 0x27, 0x24, 0x39, 0xf5, 0xea, 0xf8, 0xfe, 0xf5, 0xcc, 0x17, 0xde, 0xee, 0x1a, 0xe5, 0x0f, 0xef, 0x0e, 0x12, 0xf3, 0xe7, 0xf7, 0x07, 0xec, 0x1f, 0xd0, 0xf8, 0x11, 0xd9, 0xdc, 0xee, 0x07, 0x0b, 0xf7, 0xf3, 0xe4, 0xec, 0xd0, 0xf8, 0x1e, 0x2d, 0xda, 0xeb, 0xe9, 0xe6, 0xf2, 0xd3, 0x1c, 0xdb, 0x09, 0x11, 0xd4, 0xf2, 0xfe, 0xda, 0x1a, 0x06, 0xeb, 0xff, 0xd6, 0x0e, 0x02, 0xde, 0x0a, 0x0b, 0x2a, 0xcf, 0x12, 0xcc, 0x1b, 0x14, 0x20, 0x21, 0xfa, 0xf9, 0xe5, 0xc9, 0xd4, 0x0b, 0x20, 0xe6, 0xf3, 0xea, 0xd4, 0xce, 0xe1, 0xe4, 0x10, 0x14, 0xde, 0xf0, 0xf4, 0x15, 0x19, 0x2a, 0x81, 0x0d, 0xf7, 0x37, 0xf2, 0x4d, 0xed, 0x21, 0xf3, 0x83, 0xf8, 0x12, 0x21, 0x3d, 0x02, 0x17, 0x08, 0x08, 0x1e, 0x2f, 0x47, 0x23, 0x02, 0x14, 0x08, 0xca, 0xcd, 0xe4, 0x32, 0x00, 0xd5, 0x0b, 0x68, 0x25, 0xf2, 0xcb, 0xd5, 0xfc, 0xdb, 0x14, 0x27, 0x28, 0x15, 0x08, 0x18, 0xed, 0x03, 0x1d, 0xc5, 0x16, 0x34, 0xd9, 0xfb, 0x1c, 0x18, 0x06, 0xdc, 0xfa, 0x05, 0x18, 0x38, 0x34, 0x00, 0xdb, 0x31, 0xfb, 0xd4, 0xd0, 0x36, 0xcf, 0xca, 0x21, 0xf5, 0xe7, 0xaa, 0xd7, 0x35, 0x21, 0x29, 0xd4, 0x35, 0xdb, 0x1f, 0xde, 0x06, 0xf6, 0xf2, 0xce, 0x07, 0x45, 0xd9, 0xf6, 0x00, 0x06, 0x21, 0x26, 0xb7, 0x3e, 0x0b, 0x12, 0x27, 0x34, 0x02, 0xcb, 0xe6, 0xc4, 0xc9, 0x12, 0x42, 0xc9, 0xee, 0x06, 0x11, 0x3e, 0xf2, 0x32, 0x21, 0x2d, 0x20, 0x0f, 0xd0, 0x9b, 0xd8, 0xed, 0x04, 0x10, 0x12, 0xe8, 0x0d, 0xf6, 0xb5, 0x32, 0xd2, 0x00, 0xcc, 0xbd, 0x01, 0x04, 0xdc, 0x24, 0xf4, 0x04, 0x16, 0x3b, 0xa1, 0xff, 0x17, 0x19, 0x3e, 0x23, 0xdd, 0x2a, 0x9e, 0xc9, 0xe4, 0x0a, 0xf4, 0x33, 0xd9, 0x2c, 0x24, 0x0f, 0x05, 0x0c, 0x41, 0x17, 0x32, 0x37, 0x0a, 0xb3, 0xc0, 0xf3, 0xe6, 0x28, 0x2f, 0xd4, 0x7f, 0x01, 0xf9, 0x39, 0xe6, 0xdb, 0xda, 0xd5, 0xf0, 0x31, 0xe1, 0x35, 0xe9, 0x3a, 0x45, 0x42, 0xfd, 0x4b, 0xf4, 0x13, 0xeb, 0x48, 0xe2, 0x3e, 0x0a, 0xae, 0x23, 0xd5, 0x05, 0xd1, 0xe9, 0x2f, 0xe2, 0x07, 0xf4, 0x0c, 0x36, 0x08, 0x3b, 0x30, 0xed, 0xd6, 0xbd, 0x03, 0x45, 0xeb, 0x18, 0xf1, 0x21, 0xf5, 0xf3, 0x3b, 0xd5, 0xbb, 0xe0, 0x3b, 0x2c, 0x35, 0xbc, 0x4c, 0x2a, 0x12, 0xec, 0xea, 0xef, 0x40, 0xd1, 0x44, 0xe8, 0xdb, 0x20, 0x0c, 0xfe, 0xd5, 0xf8, 0x4a, 0x39, 0xe2, 0xeb, 0x20, 0xe3, 0xde, 0xf3, 0x0c, 0x1c, 0x0e, 0x26, 0xff, 0xcc, 0xde, 0x0a, 0x1a, 0x05, 0xf6, 0x01, 0x35, 0x27, 0xe6, 0xb0, 0x0b, 0xf7, 0xca, 0x21, 0xec, 0xbf, 0xca, 0xb3, 0xe6, 0xf2, 0x51, 0x14, 0x08, 0xa8, 0x30, 0x36, 0x4d, 0x6c, 0xd4, 0x61, 0x0f, 0xb3, 0x9d, 0xce, 0xd7, 0x61, 0x34, 0xe2, 0x29, 0xc8, 0xed, 0x38, 0xe0, 0x20, 0xd7, 0xfc, 0x21, 0xfd, 0x25, 0xdd, 0x28, 0x2d, 0x19, 0xea, 0x08, 0x51, 0xc2, 0x1b, 0xcf, 0x07, 0xa6, 0xf9, 0xd0, 0x7f, 0x4d, 0x07, 0xec, 0xdd, 0xed, 0xfc, 0xe3, 0x94, 0x2d, 0x3f, 0xde, 0x29, 0x04, 0x57, 0x40, 0x1e, 0x04, 0xf5, 0x0f, 0x0a, 0x36, 0x15, 0xf6, 0xea, 0xcb, 0x2d, 0x1c, 0xdc, 0xd1, 0xd9, 0x39, 0x08, 0xc2, 0xbb, 0x3b, 0x14, 0xed, 0xd0, 0xdd, 0x7d, 0xc3, 0xb4, 0xed, 0xfe, 0xcb, 0x3b, 0xda, 0x36, 0x30, 0xc6, 0x1e, 0xdd, 0x3c, 0x60, 0x43, 0xde, 0x6a, 0x2a, 0xfd, 0xe2, 0xe6, 0x0a, 0x19, 0xc6, 0x89, 0x02, 0x51, 0x41, 0x0d, 0xe7, 0x36, 0x1b, 0xfb, 0xf7, 0x38, 0x13, 0xf7, 0xe3, 0x20, 0xa6, 0xb6, 0xfd, 0x24, 0xf9, 0xc8, 0xde, 0x30, 0x13, 0x24, 0x9f, 0x01, 0x1f, 0xf0, 0x1d, 0xd7, 0xd1, 0xbf, 0x19, 0x1f, 0x3b, 0x08, 0xce, 0xfc, 0x0d, 0xfa, 0x10, 0x02, 0x08, 0xea, 0xce, 0x0a, 0xf6, 0xc7, 0x48, 0xe9, 0xe3, 0x0e, 0x33, 0xdb, 0x94, 0xf6, 0x26, 0xf8, 0x36, 0xec, 0xf0, 0x20, 0xf5, 0xd0, 0xfb, 0xd4, 0xd1, 0x08, 0x15, 0x2c, 0x97, 0xee, 0x02, 0xe6, 0x10, 0x20, 0xe6, 0x16, 0xbb, 0xc2, 0xe3, 0xda, 0x2d, 0xd1, 0xc4, 0x0c, 0x17, 0xe2, 0xea, 0xe2, 0x1b, 0x0c, 0xe8, 0xe2, 0x09, 0x34, 0x3c, 0x21, 0xd8, 0x1e, 0x1b, 0x03, 0xa1, 0xf0, 0xc7, 0x2b, 0xe7, 0xe4, 0x05, 0x24, 0xe1, 0xca, 0x2d, 0x1e, 0xdf, 0x26, 0x2a, 0x09, 0x92, 0xcc, 0xef, 0x20, 0x2b, 0x0d, 0xe7, 0xd6, 0x85, 0xc7, 0xd5, 0x33, 0x1a, 0x1b, 0xe4, 0xf0, 0x62, 0xda, 0xce, 0xc3, 0xdd, 0x08, 0xf4, 0xe3, 0x44, 0x16, 0x73, 0x15, 0x03, 0xff, 0x0d, 0xfb, 0xda, 0xfa, 0xf5, 0x0b, 0x04, 0x1d, 0x0c, 0x23, 0xe5, 0xed, 0xf2, 0xeb, 0x2c, 0x04, 0x02, 0x22, 0xb3, 0xd4, 0x13, 0xe9, 0x22, 0x06, 0xd6, 0x12, 0xb7, 0x81, 0xea, 0x1c, 0xf9, 0xb1, 0xbc, 0x2a, 0x3a, 0xec, 0xeb, 0xfa, 0x18, 0x1e, 0x9f, 0x40, 0xf3, 0xac, 0xd4, 0x5f, 0x9a, 0xec, 0xf1, 0x3c, 0xa5, 0x1a, 0x03, 0x34, 0xfe, 0x98, 0x89, 0xa4, 0x89, 0x1f, 0x42, 0xfb, 0x54, 0xfd, 0xaf, 0x01, 0xfb, 0x39, 0x35, 0x97, 0x63, 0xf9, 0x4f, 0xc5, 0xf7, 0x93, 0xe7, 0x2e, 0xc9, 0x60, 0x44, 0xfd, 0x33, 0xc8, 0x48, 0x8b, 0xb3, 0x2b, 0x91, 0x62, 0x36, 0x9a, 0xa0, 0x25, 0x8e, 0xd1, 0xc8, 0xe5, 0x3c, 0x46, 0x57, 0xa5, 0x0d, 0x97, 0x9a, 0x35, 0xdb, 0xf4, 0xbd, 0x60, 0x0a, 0x36, 0x5f, 0x98, 0x28, 0xd9, 0x8d, 0x08, 0xe2, 0x0a, 0x57, 0x81, 0xb6, 0xb3, 0xa9, 0xcc, 0x52, 0xed, 0x49, 0xe2, 0xff, 0x3c, 0x66, 0x3d, 0x26, 0xb4, 0xcc, 0x89, 0x8c, 0xf4, 0xc9, 0x19, 0x9d, 0x0c, 0x52, 0xbc, 0x47, 0x8e, 0x29, 0xe1, 0x3d, 0xe0, 0x3e, 0x94, 0xa5, 0xc9, 0x81, 0x14, 0x41, 0x45, 0x2b, 0x17, 0xa8, 0x2b, 0x21, 0x5f, 0xd4, 0x1c, 0x25, 0x9b, 0x98, 0x53, 0xe6, 0x0e, 0xbf, 0x19, 0x09, 0xe4, 0xe4, 0x11, 0x16, 0x3b, 0xd7, 0xf5, 0x09, 0x1f, 0x0e, 0xce, 0x0a, 0xd0, 0xfc, 0xf7, 0xd4, 0x0b, 0xe2, 0x22, 0x13, 0xf6, 0xb8, 0x07, 0xef, 0x1b, 0x06, 0xc2, 0x01, 0x12, 0xff, 0x22, 0xf8, 0x0d, 0x14, 0xcf, 0xef, 0xf3, 0x2a, 0x1a, 0xde, 0xdb, 0xec, 0xee, 0x2f, 0x1d, 0x14, 0x44, 0x28, 0x01, 0xe1, 0x0e, 0x9f, 0xf2, 0xc8, 0x46, 0x41, 0xf9, 0xe0, 0xfc, 0x09, 0xee, 0xef, 0x22, 0x23, 0x23, 0x13, 0xe0, 0x97, 0x05, 0x10, 0xbf, 0xf4, 0xe0, 0xf2, 0x08, 0xf2, 0xde, 0xd7, 0x30, 0xde, 0xfe, 0xed, 0x03, 0x04, 0xe2, 0xcd, 0xcc, 0x34, 0xff, 0x1d, 0xce, 0x2c, 0x27, 0x27, 0xf8, 0xe9, 0x01, 0x35, 0x40, 0xc9, 0x25, 0xee, 0x4e, 0xf5, 0xf2, 0x3d, 0x21, 0x6c, 0x2c, 0x3a, 0x21, 0xd8, 0x29, 0xd7, 0xc0, 0xc6, 0x1e, 0xf9, 0x05, 0x15, 0xdf, 0xf0, 0xd2, 0x21, 0x2c, 0xc1, 0x16, 0x22, 0xdf, 0xaf, 0xe8, 0x0a, 0x0a, 0xce, 0x33, 0xde, 0xe4, 0xd9, 0x81, 0xea, 0x20, 0xfe, 0xf6, 0x07, 0x37, 0xc5, 0x2c, 0x41, 0x37, 0x36, 0xe3, 0x23, 0x26, 0xcd, 0xda, 0xd2, 0x3d, 0x37, 0x0d, 0x30, 0x24, 0x29, 0x0f, 0xe8, 0xfa, 0xde, 0xc9, 0x0c, 0xf8, 0xf7, 0x10, 0x13, 0x0e, 0x32, 0xf9, 0x17, 0x0d, 0x68, 0xcb, 0xce, 0x1c, 0xef, 0x81, 0xc6, 0xd4, 0x67, 0x48, 0xfb, 0x16, 0xf4, 0xf6, 0x04, 0xe2, 0xf2, 0x2e, 0xf8, 0x06, 0x05, 0xc6, 0x28, 0x28, 0xb1, 0xd9, 0xaf, 0x3d, 0x46, 0xf4, 0xdf, 0xff, 0xda, 0xe8, 0xed, 0xdb, 0x16, 0x0d, 0x21, 0x02, 0x2f, 0xda, 0xf8, 0x00, 0x2b, 0xb2, 0x0a, 0x16, 0x46, 0xdd, 0xcf, 0xe7, 0xa5, 0xa4, 0x26, 0xd0, 0x3a, 0x24, 0xbb, 0xc9, 0x03, 0xdc, 0x3f, 0x40, 0x8f, 0xf5, 0x10, 0x04, 0x13, 0x20, 0x38, 0x11, 0xa0, 0xb5, 0xee, 0xeb, 0x20, 0xf6, 0x01, 0xe1, 0xeb, 0x26, 0x14, 0xfd, 0xb2, 0x0b, 0x33, 0xea, 0x1b, 0xd3, 0xbf, 0xdc, 0x47, 0xbd, 0xb5, 0xee, 0x29, 0xe3, 0xd8, 0x0a, 0xad, 0xe1, 0x11, 0xb4, 0xf0, 0x31, 0xfd, 0x21, 0x2d, 0xf0, 0x08, 0x09, 0xcd, 0x00, 0x0c, 0x06, 0x3e, 0x37, 0xe4, 0x14, 0xbb, 0xbf, 0x00, 0x20, 0x1d, 0xe8, 0x08, 0xee, 0xe1, 0x2b, 0x10, 0x1d, 0x05, 0xf9, 0x05, 0x45, 0x1b, 0x26, 0xee, 0x00, 0x14, 0xe2, 0xbe, 0x1d, 0x3f, 0xeb, 0x01, 0xe2, 0xd8, 0xaf, 0xea, 0x15, 0x75, 0x29, 0xf1, 0xe3, 0x24, 0x15, 0x1f, 0xfb, 0xc5, 0x00, 0xfc, 0x15, 0xf2, 0x25, 0x08, 0x34, 0xbe, 0xab, 0xe5, 0x10, 0xe3, 0x0d, 0x0c, 0x05, 0xd6, 0x1d, 0x37, 0xf2, 0xf4, 0xe0, 0xd9, 0x19, 0x04, 0xd5, 0xeb, 0x1d, 0x06, 0xfc, 0xec, 0xca, 0x49, 0x25, 0xe7, 0xfa, 0xa5, 0xa4, 0xc4, 0xf3, 0x7f, 0x16, 0xbf, 0xcf, 0xf6, 0xed, 0x0f, 0xd8, 0xd7, 0x05, 0x1b, 0xde, 0x32, 0x11, 0x28, 0x04, 0xcb, 0x0d, 0xef, 0xf5, 0xdd, 0xfb, 0x1e, 0xf0, 0xeb, 0x1b, 0x1f, 0x0b, 0x1f, 0x1b, 0x14, 0xef, 0xe9, 0x1c, 0x36, 0x13, 0x0a, 0x10, 0xfe, 0xfa, 0x39, 0xe9, 0x2f, 0x19, 0xfe, 0xde, 0xf6, 0x1d, 0x45, 0x4c, 0x9c, 0xec, 0xf2, 0x3e, 0x48, 0x50, 0xfa, 0x1a, 0xf2, 0xee, 0x44, 0x2c, 0x26, 0xf0, 0xe4, 0x81, 0x13, 0x1c, 0x36, 0x08, 0x0f, 0x08, 0x22, 0xfe, 0x28, 0x2c, 0xeb, 0xa5, 0x03, 0x4b, 0xf1, 0xb4, 0xc0, 0xc8, 0xf6, 0x05, 0xff, 0xda, 0x79, 0xca, 0xf2, 0xba, 0xaf, 0xe3, 0xd2, 0x01, 0x4f, 0x5f, 0x35, 0xfe, 0x24, 0x0f, 0xdc, 0x04, 0x0e, 0xfb, 0xd0, 0x1d, 0x19, 0xfa, 0x3b, 0x32, 0xc9, 0xbf, 0xdc, 0xd9, 0x30, 0xf0, 0xea, 0x16, 0xec, 0x2b, 0xec, 0x32, 0xe4, 0xdf, 0xef, 0xd7, 0xd7, 0x0f, 0x0c, 0x39, 0xe3, 0xe4, 0x0e, 0xf2, 0x51, 0x09, 0xc9, 0x1c, 0x19, 0xf2, 0x2a, 0xdc, 0x26, 0x1b, 0xe6, 0x20, 0xce, 0x03, 0xe6, 0xe3, 0xff, 0xf9, 0xea, 0x3b, 0x23, 0x04, 0xee, 0x39, 0x03, 0xbe, 0x20, 0x2c, 0x1e, 0xd7, 0x06, 0x32, 0xfa, 0x14, 0x1a, 0x27, 0x02, 0xc5, 0xc9, 0x0a, 0xba, 0xd4, 0xc4, 0xcb, 0xf3, 0xdf, 0xb7, 0x15, 0x23, 0xc2, 0xc8, 0xdf, 0xfd, 0xdc, 0xcb, 0xc3, 0x0a, 0x31, 0xf1, 0x3a, 0xf6, 0xe0, 0xa8, 0xd9, 0xef, 0xa9, 0xb6, 0xae, 0xb0, 0xed, 0xb8, 0xad, 0xfd, 0x39, 0xc7, 0x13, 0xea, 0xfd, 0xd9, 0xe0, 0xe9, 0xc5, 0xad, 0xfb, 0xd0, 0x65, 0xf8, 0xbc, 0xd5, 0x00, 0x21, 0x17, 0xc3, 0x3b, 0x3b, 0x0e, 0x92, 0x3a, 0x02, 0x32, 0x4a, 0x50, 0x4f, 0x3f, 0x9d, 0x9d, 0x38, 0xed, 0x0e, 0xc0, 0xe4, 0xb0, 0xe1, 0xc6, 0xd6, 0x82, 0x81, 0xb0, 0xda, 0xbb, 0x0b, 0x09, 0xe8, 0xf0, 0xf2, 0xe1, 0x0d, 0xeb, 0xe9, 0xdc, 0xa1, 0xe9, 0xd6, 0xfa, 0xfb, 0xa7, 0xfc, 0xf7, 0x2e, 0x15, 0xcb, 0x5d, 0x50, 0x2e, 0xb9, 0x25, 0xe6, 0x06, 0x54, 0x58, 0x03, 0x01, 0xce, 0xd5, 0x5d, 0x21, 0x29, 0xf4, 0xf1, 0xf1, 0x16, 0x02, 0xb7, 0xd4, 0xaf, 0xdc, 0x0b, 0xab, 0x31, 0x12, 0x11, 0x02, 0xff, 0xfb, 0xf1, 0x13, 0xf9, 0xed, 0x96, 0xe4, 0xe3, 0x07, 0x14, 0xf8, 0x1b, 0x3f, 0x5a, 0x10, 0x12, 0x49, 0x13, 0x02, 0xf0, 0x3c, 0xd5, 0x3b, 0x5b, 0x6b, 0x19, 0x0b, 0xd4, 0xca, 0x67, 0xf6, 0x20, 0xc3, 0x36, 0x6f, 0x25, 0xae, 0x0a, 0x4f, 0x35, 0xfc, 0x21, 0x9d, 0xce, 0xa0, 0xfd, 0x6a, 0xbc, 0x3c, 0xcd, 0xd9, 0xad, 0x0b, 0x9c, 0x35, 0x5b, 0xc4, 0x09, 0xa2, 0x46, 0x0c, 0x2e, 0xbb, 0x00, 0x65, 0x03, 0xb1, 0xfc, 0xa3, 0xd5, 0x5b, 0x21, 0x67, 0xa7, 0xff, 0x96, 0xd6, 0xba, 0xce, 0xaf, 0xfe, 0x67, 0x01, 0xfe, 0xf3, 0xaf, 0xa2, 0xef, 0xe1, 0xc0, 0x01, 0xc7, 0xad, 0x60, 0xa9, 0xd9, 0x2c, 0x36, 0x8e, 0x32, 0x91, 0x18, 0x20, 0x96, 0xb7, 0xef, 0x67, 0xb7, 0xf1, 0xc7, 0x17, 0x46, 0x29, 0xcd, 0x14, 0x94, 0x61, 0x56, 0x91, 0xd2, 0x14, 0xfc, 0xf8, 0xd4, 0xb2, 0xc5, 0x41, 0xfd, 0x34, 0xff, 0x2e, 0xcd, 0x9f, 0x3a, 0x8f, 0xd6, 0x70, 0xb3, 0xae, 0xe2, 0xde, 0xfe, 0x52, 0x17, 0xe4, 0x81, 0xf3, 0x9a, 0xf0, 0x99, 0x0a, 0x8c, 0x2c, 0x8f, 0x22, 0x3f, 0x00, 0xe5, 0x21, 0x3d, 0x13, 0xd7, 0xd5, 0x37, 0x0c, 0x9e, 0x82, 0x87, 0xa0, 0x4d, 0xe6, 0x85, 0xae, 0xc1, 0x31, 0x52, 0x2c, 0x2f, 0xdc, 0xd9, 0x07, 0x2f, 0x42, 0x06, 0xdb, 0xc7, 0xf1, 0xd6, 0xc9, 0xa1, 0x0d, 0xea, 0x40, 0x16, 0xf1, 0xf7, 0x28, 0x40, 0x3f, 0x59, 0xf0, 0x05, 0x2d, 0xa8, 0xd9, 0x0b, 0x1b, 0x04, 0x0c, 0x15, 0xf6, 0xd1, 0x0a, 0x0f, 0x04, 0x03, 0x1c, 0x15, 0x16, 0x11, 0xad, 0xde, 0x07, 0x36, 0x15, 0xb7, 0xe0, 0xd5, 0xf2, 0x4e, 0xfb, 0xfb, 0xdc, 0xcd, 0xee, 0xee, 0xee, 0xb3, 0x30, 0x0f, 0xe6, 0x01, 0xcb, 0xc6, 0x29, 0x61, 0xff, 0x2c, 0x0d, 0xda, 0xfb, 0xec, 0xd0, 0xda, 0xcb, 0xf2, 0x28, 0x17, 0xca, 0x05, 0x0e, 0x07, 0x1f, 0x1e, 0x00, 0x0e, 0xcd, 0x0c, 0x1c, 0x09, 0x22, 0x20, 0xdb, 0xb3, 0x1b, 0xcd, 0x9d, 0x7f, 0xc9, 0xd3, 0xf4, 0x05, 0xbf, 0x02, 0x12, 0xa1, 0x18, 0xba, 0xad, 0xd0, 0xdb, 0x34, 0xe2, 0x7a, 0x1f, 0xc3, 0xae, 0x01, 0xd6, 0x48, 0xff, 0xc5, 0xe3, 0xdf, 0xfd, 0xbf, 0xf8, 0x33, 0xbf, 0x49, 0xaf, 0xff, 0x26, 0xd6, 0xff, 0xde, 0x13, 0x18, 0x04, 0x88, 0xf2, 0xbc, 0xb0, 0xf1, 0xe1, 0x3f, 0xfa, 0x13, 0xf7, 0x15, 0xc7, 0x4d, 0x1b, 0x19, 0xe3, 0xf4, 0xc5, 0xef, 0x0e, 0x01, 0xc7, 0x0b, 0xe2, 0xbd, 0xf3, 0xd9, 0xfd, 0x28, 0x3a, 0x1c, 0xf0, 0xd0, 0xa7, 0xa6, 0xff, 0x05, 0xd5, 0x02, 0xdf, 0x87, 0xb7, 0xbc, 0x81, 0xf7, 0xf1, 0xd3, 0x27, 0xe6, 0x12, 0x0a, 0xbe, 0xf1, 0xfc, 0x4c, 0xdb, 0x21, 0xd8, 0x10, 0xe0, 0x1e, 0x38, 0xf2, 0xd2, 0xe7, 0xc7, 0xff, 0xc3, 0x18, 0xec, 0x03, 0xcb, 0xa0, 0xea, 0x1e, 0xb5, 0x24, 0x22, 0xd3, 0x2f, 0xe1, 0xff, 0xd9, 0x0d, 0xc9, 0x02, 0xe4, 0xbf, 0xf6, 0xfe, 0xe5, 0xb6, 0xe6, 0xd3, 0x09, 0xe6, 0x20, 0x03, 0x15, 0x30, 0xba, 0x17, 0x1d, 0x25, 0x03, 0x51, 0x04, 0x00, 0xfa, 0x26, 0xd6, 0x1e, 0xfb, 0x19, 0x56, 0x1a, 0xe4, 0x57, 0x2e, 0xfd, 0x16, 0x3d, 0x46, 0x10, 0x04, 0xbb, 0xff, 0x09, 0x07, 0x15, 0x0e, 0x17, 0x97, 0x27, 0x09, 0x41, 0x4a, 0xe0, 0x27, 0x22, 0xb5, 0xdd, 0xa9, 0x28, 0x5f, 0x22, 0x1b, 0x0f, 0x81, 0x1f, 0x40, 0x19, 0x47, 0x1f, 0x15, 0x30, 0xbb, 0xb8, 0x16, 0x10, 0x3a, 0x25, 0x0f, 0x3c, 0xd6, 0x4a, 0x20, 0x1a, 0x17, 0x16, 0x06, 0x1b, 0xdf, 0xd2, 0xf4, 0xfb, 0x22, 0xfc, 0x13, 0xfd, 0xf5, 0x16, 0x30, 0xf5, 0xf4, 0xd3, 0x21, 0x1c, 0x01, 0x29, 0xdc, 0xff, 0x18, 0xf8, 0xfd, 0xe5, 0xf3, 0x18, 0x40, 0x31, 0x55, 0x10, 0xed, 0x0f, 0x15, 0xfc, 0x0a, 0xe1, 0xf2, 0xee, 0xf8, 0x10, 0xd0, 0x25, 0xf2, 0x24, 0x20, 0xfc, 0x01, 0x10, 0xf4, 0xeb, 0xf7, 0xf0, 0xf9, 0x10, 0x14, 0x23, 0x1a, 0x0e, 0x06, 0x26, 0xea, 0xe7, 0x1e, 0x02, 0x39, 0x18, 0xdb, 0x05, 0xf2, 0xe0, 0xca, 0xb7, 0x0a, 0xa4, 0x2c, 0xe0, 0x01, 0x04, 0xc7, 0xfb, 0x2a, 0xf5, 0x0f, 0xdb, 0xdb, 0xc0, 0xdd, 0x02, 0x07, 0xad, 0x37, 0x0c, 0xcf, 0xcf, 0xe7, 0xe5, 0x18, 0xf0, 0xf8, 0xeb, 0x02, 0xc4, 0xc7, 0xd0, 0x14, 0xc3, 0x1d, 0x0c, 0xe4, 0xa1, 0xff, 0xcf, 0x22, 0x40, 0xf9, 0xeb, 0xd9, 0x2f, 0xf9, 0x38, 0xb0, 0x3e, 0x18, 0x2c, 0x0a, 0x2d, 0x26, 0x17, 0xc3, 0xe9, 0x0a, 0x01, 0xf5, 0x24, 0xe8, 0xed, 0xe5, 0x19, 0x2b, 0x2a, 0xfc, 0x1b, 0x09, 0x35, 0x15, 0x24, 0x0f, 0xff, 0x1a, 0xe5, 0x06, 0xf0, 0x7f, 0xd6, 0xf8, 0xd1, 0xe2, 0xdc, 0xf9, 0x18, 0x1d, 0x22, 0xf9, 0x02, 0x03, 0xf2, 0x2e, 0x37, 0xea, 0x36, 0x19, 0xfb, 0xf5, 0x46, 0x15, 0x37, 0xe6, 0xb1, 0xdc, 0x0f, 0x24, 0xfe, 0x22, 0x23, 0x21, 0x10, 0xe8, 0x0d, 0xfa, 0xf7, 0xe8, 0xeb, 0xe0, 0x02, 0xee, 0x18, 0xdb, 0xde, 0x01, 0xe2, 0x78, 0xd7, 0xf1, 0x0a, 0xfc, 0xd8, 0xf4, 0xfe, 0x0d, 0x09, 0xf2, 0x0c, 0xfb, 0x07, 0xea, 0x32, 0x05, 0x31, 0xe6, 0xe6, 0x0a, 0xec, 0x31, 0xc7, 0xed, 0xa5, 0xfc, 0xe2, 0x28, 0x05, 0xf2, 0xea, 0x19, 0xcf, 0xb9, 0xe0, 0x04, 0xfb, 0x1f, 0x07, 0xe1, 0xb3, 0xde, 0xfc, 0x0c, 0x0f, 0xf1, 0x17, 0x07, 0xeb, 0xe3, 0x06, 0xda, 0x22, 0xde, 0xe0, 0xe4, 0xcb, 0xf0, 0x1f, 0x20, 0xd8, 0xde, 0xff, 0xff, 0x22, 0xf8, 0xff, 0xff, 0x04, 0x00, 0x00, 0x00, 0x40, 0x00, 0x00, 0x00, 0x89, 0x05, 0x00, 0x00, 0x0f, 0x06, 0x00, 0x00, 0x0f, 0x03, 0x00, 0x00, 0x77, 0x07, 0x00, 0x00, 0x37, 0x09, 0x00, 0x00, 0x41, 0x03, 0x00, 0x00, 0xae, 0x07, 0x00, 0x00, 0x9b, 0x07, 0x00, 0x00, 0xcb, 0x0a, 0x00, 0x00, 0xdf, 0x07, 0x00, 0x00, 0x67, 0x07, 0x00, 0x00, 0x51, 0x01, 0x00, 0x00, 0x19, 0x00, 0x00, 0x00, 0x5b, 0x02, 0x00, 0x00, 0x6d, 0xfa, 0xff, 0xff, 0xe9, 0x06, 0x00, 0x00, 0x6e, 0xf8, 0xff, 0xff, 0x04, 0x00, 0x00, 0x00, 0x80, 0x04, 0x00, 0x00, 0x03, 0xe0, 0xd4, 0xbb, 0x34, 0x41, 0x1e, 0xd9, 0x81, 0xbb, 0x99, 0xe3, 0x15, 0x3a, 0x28, 0x2f, 0xe8, 0xef, 0xb6, 0xee, 0x0a, 0x0a, 0xd9, 0xf7, 0x1c, 0x08, 0x30, 0x3b, 0xd0, 0x31, 0xff, 0x26, 0xf3, 0xf6, 0xd4, 0xd6, 0x24, 0x34, 0x15, 0xd8, 0x09, 0xe3, 0x1e, 0x05, 0x33, 0x03, 0x2c, 0x1c, 0x08, 0x06, 0x26, 0x27, 0xd1, 0xfe, 0xe9, 0x30, 0xda, 0xbd, 0xcd, 0xbd, 0xe7, 0x00, 0x13, 0x0f, 0xb8, 0xbe, 0xab, 0xd8, 0x06, 0x0d, 0x25, 0xda, 0xee, 0xb7, 0xdd, 0x98, 0xe6, 0x45, 0x26, 0x40, 0xa0, 0x85, 0x81, 0xbc, 0xfc, 0x42, 0x3e, 0x22, 0xcc, 0xc0, 0xbe, 0x2c, 0xfc, 0xe4, 0x34, 0x2e, 0x3b, 0x2c, 0xfd, 0xd1, 0x20, 0x0c, 0x17, 0xe2, 0xef, 0xe2, 0xd0, 0x15, 0x1e, 0xd1, 0x26, 0xf1, 0x2a, 0x23, 0x0a, 0x43, 0xe6, 0xdf, 0x2f, 0x0d, 0x09, 0xd3, 0xda, 0x09, 0xeb, 0xf2, 0x3b, 0x35, 0xc0, 0xc0, 0xf1, 0xe2, 0x18, 0xff, 0x1b, 0x3b, 0xbc, 0xe7, 0xf0, 0xea, 0x37, 0x24, 0xe6, 0xe4, 0xf8, 0x9c, 0xa9, 0xdf, 0xce, 0x11, 0xd7, 0xcb, 0xb7, 0x92, 0xde, 0xd1, 0x09, 0x18, 0x1f, 0x1f, 0xe7, 0x5a, 0xf6, 0x55, 0xd3, 0x1d, 0x2e, 0xe5, 0x23, 0xc3, 0xd2, 0xe3, 0x28, 0x37, 0x01, 0x22, 0xdd, 0x00, 0x26, 0xe2, 0x2a, 0x37, 0xc3, 0x37, 0x27, 0x4b, 0x55, 0x7f, 0x0d, 0xc3, 0xcc, 0xf7, 0x16, 0xfc, 0xe1, 0xa5, 0x1f, 0x36, 0x27, 0x33, 0xe5, 0x00, 0xfa, 0x1e, 0x2a, 0x1a, 0xcc, 0xf6, 0x1e, 0xdf, 0x01, 0xf8, 0xe8, 0x2c, 0x36, 0x35, 0x06, 0x6c, 0x65, 0x4e, 0x09, 0xb5, 0xd5, 0xbe, 0x45, 0x4e, 0x50, 0x2f, 0xf9, 0xb8, 0xda, 0xc6, 0x73, 0x6c, 0x7f, 0x3f, 0x20, 0xc5, 0xda, 0x02, 0x17, 0x2a, 0x1d, 0x04, 0xeb, 0xfc, 0xeb, 0x01, 0x1a, 0x20, 0xff, 0xeb, 0xea, 0x0b, 0xf3, 0xe8, 0x3d, 0x44, 0x22, 0x27, 0xf3, 0xcc, 0x03, 0x02, 0xf1, 0x16, 0x35, 0x14, 0xf9, 0xe3, 0xcc, 0xd2, 0x19, 0x26, 0x1a, 0x0b, 0xf9, 0xfc, 0x04, 0xe3, 0x23, 0x21, 0x49, 0x23, 0x06, 0xf3, 0xf7, 0xf7, 0xfe, 0xc9, 0x8e, 0xea, 0x00, 0x58, 0x00, 0x2e, 0x8c, 0xcd, 0xaa, 0xe3, 0xf7, 0x0c, 0x0c, 0x26, 0x1f, 0x63, 0x2c, 0x66, 0xc6, 0xeb, 0x27, 0x2d, 0x2c, 0xad, 0xf0, 0xeb, 0xef, 0x1d, 0x34, 0x08, 0xd4, 0xd8, 0xc9, 0x2f, 0x0f, 0x06, 0xd8, 0xf4, 0xed, 0x42, 0x13, 0x6f, 0x2a, 0x1c, 0x28, 0x00, 0x12, 0x9f, 0xf0, 0xc4, 0xf7, 0x23, 0x08, 0xf6, 0x81, 0x91, 0xa9, 0x95, 0x1f, 0xfe, 0x3b, 0xed, 0x0b, 0xe9, 0x01, 0x29, 0x27, 0x25, 0x23, 0x12, 0x97, 0x81, 0xae, 0xc1, 0xf7, 0xfe, 0x08, 0xfc, 0x8e, 0xb7, 0xbe, 0xc9, 0xec, 0x0d, 0xff, 0x17, 0xbc, 0xc1, 0xc9, 0x01, 0x05, 0xf4, 0x10, 0x0a, 0xc7, 0xde, 0xe9, 0x0f, 0xf9, 0x11, 0xf2, 0xfb, 0xf0, 0xe9, 0xfb, 0x10, 0xf2, 0xf1, 0x15, 0x02, 0xfe, 0x11, 0xee, 0x12, 0x07, 0x1d, 0x1d, 0x0e, 0xe8, 0x11, 0xf8, 0x0f, 0x10, 0xf7, 0xf3, 0xf1, 0x1b, 0x0d, 0x1d, 0x23, 0xf6, 0x14, 0x04, 0x18, 0x1c, 0x2c, 0x2c, 0x3e, 0x0d, 0xf4, 0x0c, 0x06, 0x18, 0x9c, 0xdc, 0xcb, 0x16, 0xea, 0xe0, 0x33, 0xad, 0x81, 0x88, 0xe1, 0x09, 0xd9, 0x3d, 0x36, 0xda, 0x0a, 0x1c, 0x5c, 0xda, 0x22, 0x12, 0xe6, 0x2e, 0xfd, 0xd8, 0xc6, 0x2f, 0xef, 0xcc, 0xc5, 0xbc, 0xe8, 0xba, 0xd0, 0xed, 0xed, 0xef, 0xd6, 0xc7, 0xfb, 0xea, 0x1d, 0x2a, 0x03, 0x05, 0x2b, 0x10, 0x04, 0x02, 0xd9, 0xfe, 0x3a, 0x3a, 0xf4, 0xc4, 0xe4, 0xd4, 0xd3, 0xef, 0xe2, 0xff, 0x1a, 0xe2, 0xe9, 0xfc, 0xed, 0xd5, 0x20, 0x2e, 0x1b, 0xd8, 0xea, 0xc4, 0xd8, 0x0b, 0x01, 0xfb, 0x06, 0x8a, 0x9f, 0xbc, 0xe0, 0xe4, 0x00, 0x2c, 0x22, 0x84, 0x88, 0x81, 0xf1, 0x26, 0x31, 0x32, 0xfa, 0xf0, 0x38, 0x3d, 0xea, 0xd8, 0xfb, 0xf8, 0x09, 0xdb, 0xd4, 0xc8, 0xf7, 0x1a, 0xf3, 0x19, 0x0e, 0x9d, 0xa3, 0xb1, 0xe3, 0x16, 0x31, 0x31, 0xfa, 0xec, 0x0a, 0x12, 0xd7, 0xdd, 0x0e, 0xe9, 0x26, 0xcd, 0x93, 0xb3, 0x9d, 0x1c, 0x10, 0x03, 0x11, 0xc1, 0xcf, 0x99, 0x09, 0xf9, 0x0f, 0x1f, 0x27, 0xe0, 0x09, 0xfb, 0x04, 0xe8, 0x17, 0xfc, 0xf7, 0xd4, 0xca, 0xe7, 0xca, 0x00, 0x09, 0x0d, 0x30, 0x89, 0x87, 0x89, 0xdc, 0x17, 0x16, 0x48, 0x14, 0x25, 0x1c, 0x33, 0x07, 0xda, 0x27, 0x2f, 0xe7, 0xf5, 0x06, 0xf9, 0xee, 0xf7, 0x09, 0x0a, 0xf0, 0xba, 0xce, 0xbd, 0xf9, 0x1a, 0x34, 0x08, 0x01, 0x3f, 0x46, 0x32, 0x11, 0x26, 0xe5, 0xf7, 0x12, 0xd4, 0xe2, 0x0b, 0x04, 0x1f, 0x28, 0x10, 0xf9, 0xc2, 0x85, 0x81, 0xd4, 0xf9, 0x14, 0x3c, 0xf0, 0x4c, 0x81, 0x8c, 0x99, 0x1c, 0x37, 0x22, 0x4d, 0xa6, 0xb6, 0x9b, 0xf0, 0xce, 0xe8, 0x3b, 0x24, 0xff, 0x43, 0xd8, 0x70, 0x03, 0x04, 0xf6, 0xf5, 0x32, 0xaf, 0xfb, 0xd8, 0xf1, 0x4d, 0x19, 0x4e, 0xe1, 0x34, 0x24, 0xd1, 0x13, 0xfe, 0xff, 0xc3, 0x28, 0xda, 0x57, 0x28, 0x2a, 0x32, 0x22, 0xc7, 0xe4, 0xa3, 0xfa, 0xa8, 0xd9, 0x2c, 0x55, 0x09, 0xc5, 0xe9, 0x1a, 0x09, 0x38, 0x14, 0x42, 0xf2, 0xa6, 0x0a, 0xbd, 0x2b, 0xc6, 0x09, 0x40, 0x35, 0x10, 0xb8, 0xa8, 0xfd, 0xdf, 0x1b, 0xf6, 0xff, 0x88, 0x81, 0x98, 0xe3, 0xf4, 0xdf, 0xeb, 0x2d, 0xed, 0xd7, 0xc8, 0x1d, 0xdc, 0x27, 0xfb, 0x04, 0xda, 0xf8, 0xe7, 0xc5, 0x19, 0x08, 0xfd, 0x2d, 0xd8, 0xb8, 0x04, 0x14, 0xf8, 0x25, 0x26, 0x02, 0x0f, 0x05, 0x07, 0x16, 0x10, 0xf2, 0xe1, 0x04, 0x31, 0xbd, 0xc4, 0xf1, 0x0a, 0xea, 0x33, 0xe3, 0xd1, 0xbf, 0xd9, 0xe4, 0x23, 0xf2, 0xfe, 0xec, 0xfc, 0xcb, 0xdc, 0x0b, 0xe5, 0xe7, 0x11, 0x02, 0x0c, 0x6c, 0x44, 0x3d, 0xfd, 0xdb, 0xdb, 0x0c, 0x59, 0x45, 0x34, 0x25, 0x04, 0xef, 0xe5, 0xea, 0x7f, 0x52, 0x55, 0x4c, 0xf8, 0x06, 0x11, 0xe1, 0x13, 0x05, 0x29, 0x40, 0x1d, 0xe3, 0xfe, 0x19, 0x17, 0x0b, 0x14, 0x2d, 0xe7, 0xf1, 0xec, 0x16, 0x22, 0x35, 0x32, 0x1b, 0x13, 0xe7, 0xe9, 0x1b, 0x18, 0x34, 0x2a, 0x1c, 0xed, 0xf5, 0xd5, 0x11, 0x02, 0x2e, 0xf5, 0xf2, 0x0f, 0xf7, 0xdb, 0x01, 0x3f, 0x1a, 0x46, 0x2b, 0xe1, 0xdf, 0xf5, 0xe4, 0x48, 0x66, 0x65, 0x7f, 0xf6, 0xd5, 0xf7, 0xfe, 0x56, 0x5c, 0x51, 0x20, 0x03, 0xc2, 0xf9, 0x06, 0x37, 0x58, 0x1a, 0xee, 0xf6, 0xf5, 0x1c, 0xef, 0x06, 0x4b, 0xfd, 0x5e, 0xe4, 0xe3, 0xd1, 0x0a, 0x20, 0x1c, 0x3f, 0x1d, 0xea, 0xd8, 0xe8, 0xe7, 0x17, 0x13, 0x47, 0x37, 0x2d, 0xf8, 0x13, 0x02, 0x31, 0x45, 0x2a, 0x16, 0xf5, 0xe4, 0xef, 0xe6, 0x4a, 0x3c, 0x1b, 0x42, 0x2d, 0xc1, 0x18, 0xe1, 0x3c, 0x32, 0x08, 0x1d, 0x26, 0x00, 0x06, 0xea, 0xe2, 0x3c, 0x32, 0x29, 0x20, 0xf4, 0x3d, 0xf8, 0xd8, 0x0e, 0x15, 0xd1, 0x03, 0x30, 0x17, 0x16, 0xae, 0x9d, 0xb7, 0x9e, 0xe1, 0x03, 0x23, 0x10, 0x1b, 0x29, 0x27, 0x76, 0x28, 0x17, 0xe2, 0x34, 0xfa, 0xe1, 0xe6, 0x08, 0xf6, 0xda, 0x20, 0x18, 0xb8, 0x98, 0x81, 0xb8, 0x24, 0x05, 0xdf, 0x29, 0x51, 0x6f, 0x61, 0x6f, 0xd5, 0x02, 0xb7, 0xfc, 0xf7, 0x32, 0x1b, 0xde, 0xd4, 0x43, 0x15, 0x16, 0xed, 0xda, 0xc8, 0xb6, 0x20, 0x20, 0x10, 0x25, 0xe2, 0x19, 0xfb, 0xa6, 0xf2, 0xd4, 0x12, 0xcc, 0xf5, 0xb0, 0x01, 0xae, 0x53, 0xb4, 0xb7, 0xaa, 0x81, 0x1c, 0xad, 0x32, 0xec, 0x06, 0xae, 0x98, 0xe3, 0x0b, 0xcd, 0xe4, 0xa6, 0x19, 0x89, 0x41, 0xe7, 0xa6, 0xed, 0x4c, 0xa4, 0xec, 0x34, 0xc4, 0xc6, 0xec, 0xb7, 0xc8, 0xa6, 0x41, 0xd9, 0x11, 0xf0, 0xe4, 0xbf, 0x00, 0x20, 0xb8, 0x2b, 0x62, 0x23, 0xef, 0xf8, 0xdc, 0x1e, 0x52, 0x85, 0x40, 0xd8, 0x10, 0xe4, 0xd6, 0x26, 0x16, 0xd6, 0xa8, 0xf2, 0x81, 0xb7, 0xe5, 0x3f, 0x1b, 0xe2, 0xf5, 0xec, 0xe5, 0xb8, 0xff, 0x1f, 0xeb, 0xfc, 0x2b, 0x1b, 0x56, 0x4f, 0x27, 0xf0, 0x06, 0xe2, 0x35, 0x2d, 0xaf, 0xda, 0xa8, 0xfc, 0x17, 0x3a, 0xf5, 0x0c, 0x1b, 0x1d, 0xe7, 0xee, 0xed, 0x1d, 0x13, 0x3d, 0x18, 0x38, 0x30, 0xd3, 0xdd, 0x17, 0xf6, 0xf6, 0xc0, 0xdd, 0xaa, 0xe8, 0x1c, 0x45, 0x33, 0xf3, 0xbc, 0xd7, 0xbb, 0xe3, 0x3c, 0x38, 0x09, 0x0c, 0x29, 0xfc, 0x32, 0x36, 0xe8, 0x09, 0xca, 0xb4, 0xe3, 0xff, 0xff, 0xb8, 0xe3, 0xff, 0xff, 0x02, 0xfd, 0xff, 0xff, 0x04, 0x00, 0x00, 0x00, 0x20, 0x00, 0x00, 0x00, 0x91, 0x00, 0x00, 0x00, 0xce, 0xff, 0xff, 0xff, 0xa7, 0xff, 0xff, 0xff, 0x24, 0xfe, 0xff, 0xff, 0xb6, 0xf9, 0xff, 0xff, 0x8b, 0x02, 0x00, 0x00, 0x3b, 0x02, 0x00, 0x00, 0x4e, 0x01, 0x00, 0x00, 0x2e, 0xfd, 0xff, 0xff, 0x04, 0x00, 0x00, 0x00, 0x40, 0x02, 0x00, 0x00, 0x2e, 0xfa, 0x40, 0x0c, 0x18, 0xe4, 0x5b, 0x10, 0x31, 0x32, 0x77, 0x1c, 0x5e, 0xfa, 0x6f, 0xfc, 0x4c, 0xff, 0x2d, 0x0e, 0x50, 0xdd, 0x7f, 0xe6, 0x3b, 0x05, 0x2b, 0x21, 0x01, 0xf4, 0x5d, 0x00, 0x06, 0xea, 0x6b, 0xec, 0x18, 0xfb, 0x41, 0xf1, 0x02, 0x2a, 0x38, 0x0e, 0x40, 0xff, 0x38, 0xe9, 0x24, 0x24, 0x12, 0x05, 0x03, 0x29, 0x2b, 0x10, 0x1b, 0x18, 0x20, 0x07, 0x23, 0x07, 0x25, 0xe5, 0x06, 0xf3, 0x20, 0xe7, 0x3c, 0x14, 0x62, 0xe6, 0x07, 0xff, 0x13, 0x21, 0x1c, 0xea, 0xf9, 0xeb, 0x1a, 0x34, 0x49, 0x10, 0x1f, 0x17, 0x7f, 0x1d, 0x17, 0xfd, 0x78, 0xf2, 0x39, 0x04, 0x57, 0xf0, 0x0b, 0xf5, 0x0f, 0x26, 0xf9, 0xf8, 0xfc, 0xe9, 0x15, 0x10, 0x56, 0x14, 0x0f, 0xff, 0x56, 0xdd, 0x26, 0x09, 0x54, 0xfc, 0x25, 0xeb, 0x6a, 0xfb, 0xff, 0x0f, 0x0b, 0x17, 0x14, 0xd9, 0xed, 0xf4, 0x32, 0x1e, 0x4e, 0x13, 0x1d, 0xf0, 0x33, 0xfd, 0x2f, 0xf0, 0x4a, 0x10, 0x3d, 0x11, 0x57, 0x03, 0xf0, 0x0c, 0xed, 0x1a, 0x21, 0xee, 0x27, 0xfc, 0x34, 0xff, 0x7b, 0x0f, 0x3d, 0xec, 0x7f, 0xf6, 0x3c, 0x16, 0x63, 0x0a, 0x28, 0x0f, 0x5c, 0xe5, 0x28, 0xe3, 0xe8, 0x0d, 0x0e, 0xde, 0xf6, 0xdf, 0x38, 0x11, 0x54, 0xee, 0x44, 0xec, 0x44, 0x17, 0x1a, 0x07, 0x64, 0x08, 0x35, 0xf0, 0x3f, 0x10, 0xf2, 0xfa, 0x0e, 0x0d, 0x17, 0x03, 0x04, 0x0a, 0x07, 0x04, 0x4d, 0x07, 0x32, 0xe5, 0x51, 0xe5, 0x1d, 0x23, 0x33, 0x21, 0x3f, 0xf9, 0x58, 0xf6, 0xf7, 0xd8, 0x20, 0x01, 0x32, 0xd0, 0x13, 0xce, 0x2c, 0x55, 0x64, 0x7f, 0x4b, 0xdd, 0x53, 0xf7, 0x36, 0x2e, 0x41, 0x2f, 0x2f, 0xfa, 0x35, 0xd3, 0x0f, 0x05, 0xf5, 0x08, 0xd7, 0xdf, 0xf6, 0x13, 0x32, 0x0f, 0x1a, 0x43, 0x11, 0xd7, 0x3e, 0xf7, 0x34, 0x3e, 0x29, 0x51, 0x4e, 0xe9, 0x59, 0xec, 0x01, 0x26, 0x15, 0xf9, 0xfb, 0xdd, 0x23, 0xe6, 0x56, 0x47, 0x68, 0x5e, 0x4e, 0xf1, 0x5a, 0xec, 0x3c, 0x63, 0x5f, 0x46, 0x28, 0xdc, 0x2a, 0xf9, 0xf4, 0x5b, 0x0a, 0xba, 0x82, 0x14, 0xb7, 0xa7, 0x34, 0x0c, 0x0d, 0xb7, 0x91, 0xca, 0x50, 0x2a, 0x36, 0x3e, 0xd2, 0xa1, 0x2a, 0x9f, 0x94, 0x8f, 0xc0, 0x9e, 0x81, 0x40, 0xaf, 0x5e, 0xfc, 0x23, 0x60, 0xcb, 0x89, 0xd3, 0x1f, 0xa2, 0x0f, 0xb9, 0xfa, 0x91, 0xff, 0x26, 0x04, 0x25, 0x23, 0x3e, 0x57, 0x06, 0x94, 0x5d, 0x66, 0x04, 0x04, 0xa2, 0xc8, 0xa0, 0x45, 0x3c, 0x9c, 0x14, 0x01, 0x90, 0x1c, 0x17, 0xbd, 0xcb, 0x35, 0xcb, 0xbb, 0x60, 0xfc, 0xf1, 0xf6, 0xf4, 0x02, 0x02, 0xea, 0x00, 0xf9, 0xf9, 0x8b, 0xf3, 0xe0, 0x12, 0x81, 0x17, 0xdf, 0xfa, 0x8c, 0x17, 0xb4, 0xe4, 0x84, 0xf9, 0x16, 0x23, 0x21, 0xfe, 0x19, 0x05, 0x04, 0x18, 0x10, 0xf8, 0xa5, 0xdf, 0xeb, 0x02, 0x9b, 0x1b, 0xe7, 0x03, 0x89, 0x15, 0xfb, 0xec, 0x99, 0x0f, 0x20, 0xe7, 0xe8, 0x29, 0x1a, 0x19, 0x02, 0x13, 0xe8, 0xe6, 0xa4, 0x0e, 0xe6, 0xf6, 0x96, 0xe6, 0xf8, 0x0a, 0x87, 0xef, 0xd8, 0x0b, 0xa0, 0x1a, 0xe4, 0x13, 0x25, 0xfb, 0x0f, 0x15, 0x08, 0xf0, 0xf2, 0xf1, 0x9e, 0xec, 0xc0, 0x22, 0x94, 0x1d, 0xdd, 0xea, 0x93, 0x23, 0xcf, 0x01, 0x8e, 0x16, 0x23, 0x1c, 0xfe, 0xf0, 0xff, 0x27, 0xd8, 0xff, 0xe8, 0xfd, 0xc2, 0x11, 0xd3, 0x1a, 0xb8, 0x27, 0xe0, 0xf0, 0x81, 0xe3, 0xd6, 0x00, 0xa8, 0x03, 0x0d, 0x01, 0x07, 0xef, 0x04, 0x22, 0xdf, 0x01, 0xf1, 0xf5, 0xb9, 0x1a, 0xcc, 0xe3, 0x89, 0x0c, 0xea, 0x0e, 0x8b, 0x0e, 0xcc, 0xfc, 0x99, 0xe2, 0xe0, 0x04, 0xef, 0xe4, 0x0e, 0xfa, 0x21, 0x26, 0xf6, 0x23, 0x98, 0x23, 0xe9, 0x21, 0x81, 0xfa, 0xdb, 0xe7, 0x99, 0xe0, 0x9a, 0x2a, 0xaf, 0xd8, 0x06, 0x1a, 0x29, 0x2e, 0x0c, 0xe6, 0x07, 0x23, 0x00, 0x21, 0xaf, 0xf2, 0xc4, 0x2a, 0xaa, 0xed, 0xde, 0x22, 0xc7, 0x28, 0xd4, 0x07, 0xb1, 0x22, 0x18, 0x12, 0x0a, 0x23, 0xf8, 0x1e, 0xf4, 0x30, 0xe4, 0xf7, 0xca, 0x0a, 0x09, 0xfe, 0x9d, 0x1e, 0xc6, 0xea, 0xad, 0xd9, 0xc0, 0x15, 0xb3, 0x03, 0x34, 0xe6, 0xff, 0xff, 0x7e, 0xff, 0xff, 0xff, 0x04, 0x00, 0x00, 0x00, 0x20, 0x00, 0x00, 0x00, 0x08, 0x00, 0x00, 0x00, 0xb5, 0xff, 0xff, 0xff, 0x46, 0xff, 0xff, 0xff, 0x25, 0xff, 0xff, 0xff, 0x2a, 0x00, 0x00, 0x00, 0x08, 0x05, 0x00, 0x00, 0x5b, 0xff, 0xff, 0xff, 0x34, 0x05, 0x00, 0x00, 0xaa, 0xff, 0xff, 0xff, 0x04, 0x00, 0x00, 0x00, 0x48, 0x00, 0x00, 0x00, 0x3d, 0x66, 0x54, 0x5c, 0x7b, 0x54, 0x16, 0x79, 0x7f, 0x09, 0x60, 0xee, 0x16, 0x62, 0x42, 0x38, 0x7f, 0x48, 0x58, 0x5c, 0x5d, 0x32, 0x7f, 0x37, 0x05, 0x3f, 0x5c, 0xf4, 0x55, 0x7f, 0x27, 0x5a, 0x1d, 0xe3, 0x55, 0x37, 0x2c, 0x3b, 0x37, 0x33, 0x50, 0x7f, 0x00, 0x21, 0x4f, 0x33, 0xca, 0x81, 0x34, 0xfa, 0x81, 0x1c, 0xec, 0xe5, 0x62, 0x7f, 0x67, 0x00, 0x68, 0x5e, 0x0e, 0x73, 0x28, 0x29, 0xef, 0xd9, 0x08, 0xc0, 0xee, 0x34, 0x95, 0x81, 0x00, 0x00, 0x06, 0x00, 0x08, 0x00, 0x04, 0x00, 0x06, 0x00, 0x00, 0x00, 0x04, 0x00, 0x00, 0x00, 0x08, 0x00, 0x00, 0x00, 0xff, 0xff, 0xff, 0xff, 0x90, 0x01, 0x00, 0x00, 0xd4, 0xe6, 0xff, 0xff, 0xd8, 0xe6, 0xff, 0xff, 0x0f, 0x00, 0x00, 0x00, 0x4d, 0x4c, 0x49, 0x52, 0x20, 0x43, 0x6f, 0x6e, 0x76, 0x65, 0x72, 0x74, 0x65, 0x64, 0x2e, 0x00, 0x01, 0x00, 0x00, 0x00, 0x14, 0x00, 0x00, 0x00, 0x00, 0x00, 0x0e, 0x00, 0x18, 0x00, 0x14, 0x00, 0x10, 0x00, 0x0c, 0x00, 0x08, 0x00, 0x04, 0x00, 0x0e, 0x00, 0x00, 0x00, 0x14, 0x00, 0x00, 0x00, 0x1c, 0x00, 0x00, 0x00, 0x5c, 0x02, 0x00, 0x00, 0x60, 0x02, 0x00, 0x00, 0x64, 0x02, 0x00, 0x00, 0x04, 0x00, 0x00, 0x00, 0x6d, 0x61, 0x69, 0x6e, 0x00, 0x00, 0x00, 0x00, 0x08, 0x00, 0x00, 0x00, 0xf4, 0x01, 0x00, 0x00, 0xa0, 0x01, 0x00, 0x00, 0x4c, 0x01, 0x00, 0x00, 0xf8, 0x00, 0x00, 0x00, 0xb4, 0x00, 0x00, 0x00, 0x70, 0x00, 0x00, 0x00, 0x48, 0x00, 0x00, 0x00, 0x04, 0x00, 0x00, 0x00, 0xda, 0xfe, 0xff, 0xff, 0x14, 0x00, 0x00, 0x00, 0x00, 0x00, 0x00, 0x08, 0x10, 0x00, 0x00, 0x00, 0x14, 0x00, 0x00, 0x00, 0x03, 0x00, 0x00, 0x00, 0x68, 0xe7, 0xff, 0xff, 0x01, 0x00, 0x00, 0x00, 0x13, 0x00, 0x00, 0x00, 0x03, 0x00, 0x00, 0x00, 0x10, 0x00, 0x00, 0x00, 0x11, 0x00, 0x00, 0x00, 0x12, 0x00, 0x00, 0x00, 0x00, 0x00, 0x0a, 0x00, 0x10, 0x00, 0x0c, 0x00, 0x08, 0x00, 0x04, 0x00, 0x0a, 0x00, 0x00, 0x00, 0x0c, 0x00, 0x00, 0x00, 0x10, 0x00, 0x00, 0x00, 0x02, 0x00, 0x00, 0x00, 0x01, 0x00, 0x00, 0x00, 0x10, 0x00, 0x00, 0x00, 0x02, 0x00, 0x00, 0x00, 0x0f, 0x00, 0x00, 0x00, 0x01, 0x00, 0x00, 0x00, 0x3e, 0xff, 0xff, 0xff, 0x14, 0x00, 0x00, 0x00, 0x00, 0x00, 0x00, 0x05, 0x24, 0x00, 0x00, 0x00, 0x28, 0x00, 0x00, 0x00, 0x01, 0x00, 0x00, 0x00, 0x2e, 0xff, 0xff, 0xff, 0x02, 0x00, 0x00, 0x00, 0x02, 0x00, 0x00, 0x00, 0x02, 0x00, 0x00, 0x00, 0x02, 0x00, 0x00, 0x00, 0x00, 0x00, 0x00, 0x01, 0x01, 0x00, 0x00, 0x00, 0x0f, 0x00, 0x00, 0x00, 0x01, 0x00, 0x00, 0x00, 0x0e, 0x00, 0x00, 0x00, 0xde, 0xfe, 0xff, 0xff, 0x10, 0x00, 0x00, 0x00, 0x00, 0x00, 0x00, 0x01, 0x1c, 0x00, 0x00, 0x00, 0x20, 0x00, 0x00, 0x00, 0xd0, 0xfe, 0xff, 0xff, 0x00, 0x00, 0x00, 0x01, 0x01, 0x00, 0x00, 0x00, 0x01, 0x00, 0x00, 0x00, 0x00, 0x00, 0x00, 0x01, 0x01, 0x00, 0x00, 0x00, 0x0e, 0x00, 0x00, 0x00, 0x03, 0x00, 0x00, 0x00, 0x0b, 0x00, 0x00, 0x00, 0x0c, 0x00, 0x00, 0x00, 0x0d, 0x00, 0x00, 0x00, 0x1e, 0xff, 0xff, 0xff, 0x10, 0x00, 0x00, 0x00, 0x00, 0x00, 0x00, 0x01, 0x1c, 0x00, 0x00, 0x00, 0x20, 0x00, 0x00, 0x00, 0x10, 0xff, 0xff, 0xff, 0x00, 0x00, 0x00, 0x01, 0x01, 0x00, 0x00, 0x00, 0x01, 0x00, 0x00, 0x00, 0x00, 0x00, 0x00, 0x01, 0x01, 0x00, 0x00, 0x00, 0x0b, 0x00, 0x00, 0x00, 0x03, 0x00, 0x00, 0x00, 0x08, 0x00, 0x00, 0x00, 0x09, 0x00, 0x00, 0x00, 0x0a, 0x00, 0x00, 0x00, 0x00, 0x00, 0x0e, 0x00, 0x1a, 0x00, 0x14, 0x00, 0x10, 0x00, 0x0c, 0x00, 0x0b, 0x00, 0x04, 0x00, 0x0e, 0x00, 0x00, 0x00, 0x24, 0x00, 0x00, 0x00, 0x00, 0x00, 0x00, 0x05, 0x34, 0x00, 0x00, 0x00, 0x38, 0x00, 0x00, 0x00, 0x01, 0x00, 0x00, 0x00, 0x00, 0x00, 0x0e, 0x00, 0x18, 0x00, 0x17, 0x00, 0x10, 0x00, 0x0c, 0x00, 0x08, 0x00, 0x04, 0x00, 0x0e, 0x00, 0x00, 0x00, 0x02, 0x00, 0x00, 0x00, 0x02, 0x00, 0x00, 0x00, 0x02, 0x00, 0x00, 0x00, 0x02, 0x00, 0x00, 0x00, 0x00, 0x00, 0x00, 0x01, 0x01, 0x00, 0x00, 0x00, 0x08, 0x00, 0x00, 0x00, 0x01, 0x00, 0x00, 0x00, 0x07, 0x00, 0x00, 0x00, 0xbe, 0xff, 0xff, 0xff, 0x10, 0x00, 0x00, 0x00, 0x00, 0x00, 0x00, 0x01, 0x1c, 0x00, 0x00, 0x00, 0x20, 0x00, 0x00, 0x00, 0xb0, 0xff, 0xff, 0xff, 0x00, 0x00, 0x00, 0x01, 0x01, 0x00, 0x00, 0x00, 0x01, 0x00, 0x00, 0x00, 0x00, 0x00, 0x00, 0x01, 0x01, 0x00, 0x00, 0x00, 0x07, 0x00, 0x00, 0x00, 0x03, 0x00, 0x00, 0x00, 0x04, 0x00, 0x00, 0x00, 0x05, 0x00, 0x00, 0x00, 0x06, 0x00, 0x00, 0x00, 0x00, 0x00, 0x0e, 0x00, 0x14, 0x00, 0x00, 0x00, 0x10, 0x00, 0x0c, 0x00, 0x0b, 0x00, 0x04, 0x00, 0x0e, 0x00, 0x00, 0x00, 0x1c, 0x00, 0x00, 0x00, 0x00, 0x00, 0x00, 0x01, 0x28, 0x00, 0x00, 0x00, 0x2c, 0x00, 0x00, 0x00, 0x0c, 0x00, 0x14, 0x00, 0x13, 0x00, 0x0c, 0x00, 0x08, 0x00, 0x07, 0x00, 0x0c, 0x00, 0x00, 0x00, 0x00, 0x00, 0x00, 0x01, 0x01, 0x00, 0x00, 0x00, 0x01, 0x00, 0x00, 0x00, 0x00, 0x00, 0x00, 0x01, 0x01, 0x00, 0x00, 0x00, 0x04, 0x00, 0x00, 0x00, 0x03, 0x00, 0x00, 0x00, 0x00, 0x00, 0x00, 0x00, 0x02, 0x00, 0x00, 0x00, 0x03, 0x00, 0x00, 0x00, 0x01, 0x00, 0x00, 0x00, 0x13, 0x00, 0x00, 0x00, 0x01, 0x00, 0x00, 0x00, 0x00, 0x00, 0x00, 0x00, 0x14, 0x00, 0x00, 0x00, 0xec, 0x16, 0x00, 0x00, 0x60, 0x16, 0x00, 0x00, 0xa8, 0x14, 0x00, 0x00, 0xec, 0x13, 0x00, 0x00, 0x08, 0x12, 0x00, 0x00, 0x5c, 0x10, 0x00, 0x00, 0xa0, 0x0f, 0x00, 0x00, 0x0c, 0x0e, 0x00, 0x00, 0x50, 0x0d, 0x00, 0x00, 0x44, 0x0b, 0x00, 0x00, 0x28, 0x0a, 0x00, 0x00, 0x3c, 0x08, 0x00, 0x00, 0x30, 0x06, 0x00, 0x00, 0x14, 0x05, 0x00, 0x00, 0x80, 0x03, 0x00, 0x00, 0xbc, 0x02, 0x00, 0x00, 0x10, 0x02, 0x00, 0x00, 0xd4, 0x00, 0x00, 0x00, 0x70, 0x00, 0x00, 0x00, 0x04, 0x00, 0x00, 0x00, 0x78, 0xe9, 0xff, 0xff, 0x18, 0x00, 0x00, 0x00, 0x20, 0x00, 0x00, 0x00, 0x40, 0x00, 0x00, 0x00, 0x14, 0x00, 0x00, 0x00, 0x00, 0x00, 0x00, 0x09, 0x44, 0x00, 0x00, 0x00, 0x02, 0x00, 0x00, 0x00, 0xff, 0xff, 0xff, 0xff, 0x02, 0x00, 0x00, 0x00, 0x5c, 0xe9, 0xff, 0xff, 0x08, 0x00, 0x00, 0x00, 0x14, 0x00, 0x00, 0x00, 0x01, 0x00, 0x00, 0x00, 0xfa, 0xff, 0xff, 0xff, 0xff, 0xff, 0xff, 0xff, 0x00, 0x00, 0x00, 0x00, 0x01, 0x00, 0x00, 0x00, 0x8e, 0xe2, 0x76, 0x3d, 0x08, 0x00, 0x00, 0x00, 0x49, 0x64, 0x65, 0x6e, 0x74, 0x69, 0x74, 0x79, 0x00, 0x00, 0x00, 0x00, 0x02, 0x00, 0x00, 0x00, 0x01, 0x00, 0x00, 0x00, 0x02, 0x00, 0x00, 0x00, 0x62, 0xea, 0xff, 0xff, 0x14, 0x00, 0x00, 0x00, 0x30, 0x00, 0x00, 0x00, 0x13, 0x00, 0x00, 0x00, 0x00, 0x00, 0x00, 0x02, 0x44, 0x00, 0x00, 0x00, 0xb4, 0xe9, 0xff, 0xff, 0x08, 0x00, 0x00, 0x00, 0x10, 0x00, 0x00, 0x00, 0x01, 0x00, 0x00, 0x00, 0x00, 0x00, 0x00, 0x00, 0x00, 0x00, 0x00, 0x00, 0x01, 0x00, 0x00, 0x00, 0x04, 0x41, 0xb5, 0x38, 0x1b, 0x00, 0x00, 0x00, 0x73, 0x65, 0x71, 0x75, 0x65, 0x6e, 0x74, 0x69, 0x61, 0x6c, 0x2f, 0x71, 0x75, 0x61, 0x6e, 0x74, 0x5f, 0x64, 0x65, 0x6e, 0x73, 0x65, 0x2f, 0x35, 0x33, 0x36, 0x34, 0x00, 0x01, 0x00, 0x00, 0x00, 0x02, 0x00, 0x00, 0x00, 0xc2, 0xea, 0xff, 0xff, 0x14, 0x00, 0x00, 0x00, 0x34, 0x00, 0x00, 0x00, 0x12, 0x00, 0x00, 0x00, 0x00, 0x00, 0x00, 0x09, 0x18, 0x01, 0x00, 0x00, 0x14, 0xea, 0xff, 0xff, 0x08, 0x00, 0x00, 0x00, 0x14, 0x00, 0x00, 0x00, 0x01, 0x00, 0x00, 0x00, 0x00, 0x00, 0x00, 0x00, 0x00, 0x00, 0x00, 0x00, 0x00, 0x00, 0x00, 0x00, 0x01, 0x00, 0x00, 0x00, 0x5d, 0x9e, 0x91, 0x3b, 0xe9, 0x00, 0x00, 0x00, 0x4d, 0x61, 0x74, 0x4d, 0x75, 0x6c, 0x3b, 0x73, 0x65, 0x71, 0x75, 0x65, 0x6e, 0x74, 0x69, 0x61, 0x6c, 0x2f, 0x71, 0x75, 0x61, 0x6e, 0x74, 0x5f, 0x64, 0x65, 0x6e, 0x73, 0x65, 0x2f, 0x53, 0x74, 0x61, 0x74, 0x65, 0x66, 0x75, 0x6c, 0x50, 0x61, 0x72, 0x74, 0x69, 0x74, 0x69, 0x6f, 0x6e, 0x65, 0x64, 0x43, 0x61, 0x6c, 0x6c, 0x2f, 0x53, 0x74, 0x61, 0x74, 0x65, 0x66, 0x75, 0x6c, 0x50, 0x61, 0x72, 0x74, 0x69, 0x74, 0x69, 0x6f, 0x6e, 0x65, 0x64, 0x43, 0x61, 0x6c, 0x6c, 0x2f, 0x4d, 0x61, 0x74, 0x4d, 0x75, 0x6c, 0x3b, 0x4c, 0x61, 0x73, 0x74, 0x56, 0x61, 0x6c, 0x75, 0x65, 0x51, 0x75, 0x61, 0x6e, 0x74, 0x2f, 0x46, 0x61, 0x6b, 0x65, 0x51, 0x75, 0x61, 0x6e, 0x74, 0x57, 0x69, 0x74, 0x68, 0x4d, 0x69, 0x6e, 0x4d, 0x61, 0x78, 0x56, 0x61, 0x72, 0x73, 0x3b, 0x73, 0x65, 0x71, 0x75, 0x65, 0x6e, 0x74, 0x69, 0x61, 0x6c, 0x2f, 0x71, 0x75, 0x61, 0x6e, 0x74, 0x5f, 0x64, 0x65, 0x6e, 0x73, 0x65, 0x2f, 0x53, 0x74, 0x61, 0x74, 0x65, 0x66, 0x75, 0x6c, 0x50, 0x61, 0x72, 0x74, 0x69, 0x74, 0x69, 0x6f, 0x6e, 0x65, 0x64, 0x43, 0x61, 0x6c, 0x6c, 0x2f, 0x53, 0x74, 0x61, 0x74, 0x65, 0x66, 0x75, 0x6c, 0x50, 0x61, 0x72, 0x74, 0x69, 0x74, 0x69, 0x6f, 0x6e, 0x65, 0x64, 0x43, 0x61, 0x6c, 0x6c, 0x2f, 0x4c, 0x61, 0x73, 0x74, 0x56, 0x61, 0x6c, 0x75, 0x65, 0x51, 0x75, 0x61, 0x6e, 0x74, 0x2f, 0x46, 0x61, 0x6b, 0x65, 0x51, 0x75, 0x61, 0x6e, 0x74, 0x57, 0x69, 0x74, 0x68, 0x4d, 0x69, 0x6e, 0x4d, 0x61, 0x78, 0x56, 0x61, 0x72, 0x73, 0x00, 0x00, 0x00, 0x02, 0x00, 0x00, 0x00, 0x02, 0x00, 0x00, 0x00, 0x90, 0x01, 0x00, 0x00, 0x78, 0xeb, 0xff, 0xff, 0x18, 0x00, 0x00, 0x00, 0x20, 0x00, 0x00, 0x00, 0x40, 0x00, 0x00, 0x00, 0x11, 0x00, 0x00, 0x00, 0x00, 0x00, 0x00, 0x09, 0x84, 0x00, 0x00, 0x00, 0x02, 0x00, 0x00, 0x00, 0xff, 0xff, 0xff, 0xff, 0x90, 0x01, 0x00, 0x00, 0x5c, 0xeb, 0xff, 0xff, 0x08, 0x00, 0x00, 0x00, 0x14, 0x00, 0x00, 0x00, 0x01, 0x00, 0x00, 0x00, 0x9c, 0xff, 0xff, 0xff, 0xff, 0xff, 0xff, 0xff, 0x00, 0x00, 0x00, 0x00, 0x01, 0x00, 0x00, 0x00, 0xe4, 0x52, 0x9f, 0x3c, 0x48, 0x00, 0x00, 0x00, 0x52, 0x65, 0x73, 0x68, 0x61, 0x70, 0x65, 0x3b, 0x73, 0x65, 0x71, 0x75, 0x65, 0x6e, 0x74, 0x69, 0x61, 0x6c, 0x2f, 0x71, 0x75, 0x61, 0x6e, 0x74, 0x5f, 0x66, 0x6c, 0x61, 0x74, 0x74, 0x65, 0x6e, 0x2f, 0x50, 0x61, 0x72, 0x74, 0x69, 0x74, 0x69, 0x6f, 0x6e, 0x65, 0x64, 0x43, 0x61, 0x6c, 0x6c, 0x2f, 0x50, 0x61, 0x72, 0x74, 0x69, 0x74, 0x69, 0x6f, 0x6e, 0x65, 0x64, 0x43, 0x61, 0x6c, 0x6c, 0x2f, 0x52, 0x65, 0x73, 0x68, 0x61, 0x70, 0x65, 0x00, 0x00, 0x00, 0x00, 0x02, 0x00, 0x00, 0x00, 0x01, 0x00, 0x00, 0x00, 0x90, 0x01, 0x00, 0x00, 0x20, 0xec, 0xff, 0xff, 0x18, 0x00, 0x00, 0x00, 0x28, 0x00, 0x00, 0x00, 0x48, 0x00, 0x00, 0x00, 0x10, 0x00, 0x00, 0x00, 0x00, 0x00, 0x00, 0x09, 0x94, 0x00, 0x00, 0x00, 0x04, 0x00, 0x00, 0x00, 0xff, 0xff, 0xff, 0xff, 0x05, 0x00, 0x00, 0x00, 0x05, 0x00, 0x00, 0x00, 0x10, 0x00, 0x00, 0x00, 0x0c, 0xec, 0xff, 0xff, 0x08, 0x00, 0x00, 0x00, 0x14, 0x00, 0x00, 0x00, 0x01, 0x00, 0x00, 0x00, 0x9c, 0xff, 0xff, 0xff, 0xff, 0xff, 0xff, 0xff, 0x00, 0x00, 0x00, 0x00, 0x01, 0x00, 0x00, 0x00, 0xe4, 0x52, 0x9f, 0x3c, 0x50, 0x00, 0x00, 0x00, 0x4d, 0x61, 0x78, 0x50, 0x6f, 0x6f, 0x6c, 0x3b, 0x73, 0x65, 0x71, 0x75, 0x65, 0x6e, 0x74, 0x69, 0x61, 0x6c, 0x2f, 0x71, 0x75, 0x61, 0x6e, 0x74, 0x5f, 0x6d, 0x61, 0x78, 0x5f, 0x70, 0x6f, 0x6f, 0x6c, 0x69, 0x6e, 0x67, 0x32, 0x64, 0x5f, 0x31, 0x2f, 0x50, 0x61, 0x72, 0x74, 0x69, 0x74, 0x69, 0x6f, 0x6e, 0x65, 0x64, 0x43, 0x61, 0x6c, 0x6c, 0x2f, 0x50, 0x61, 0x72, 0x74, 0x69, 0x74, 0x69, 0x6f, 0x6e, 0x65, 0x64, 0x43, 0x61, 0x6c, 0x6c, 0x2f, 0x4d, 0x61, 0x78, 0x50, 0x6f, 0x6f, 0x6c, 0x00, 0x00, 0x00, 0x00, 0x04, 0x00, 0x00, 0x00, 0x01, 0x00, 0x00, 0x00, 0x05, 0x00, 0x00, 0x00, 0x05, 0x00, 0x00, 0x00, 0x10, 0x00, 0x00, 0x00, 0xe0, 0xec, 0xff, 0xff, 0x18, 0x00, 0x00, 0x00, 0x28, 0x00, 0x00, 0x00, 0x44, 0x00, 0x00, 0x00, 0x0f, 0x00, 0x00, 0x00, 0x00, 0x00, 0x00, 0x09, 0x64, 0x01, 0x00, 0x00, 0x04, 0x00, 0x00, 0x00, 0xff, 0xff, 0xff, 0xff, 0x0a, 0x00, 0x00, 0x00, 0x0a, 0x00, 0x00, 0x00, 0x10, 0x00, 0x00, 0x00, 0xcc, 0xec, 0xff, 0xff, 0x08, 0x00, 0x00, 0x00, 0x10, 0x00, 0x00, 0x00, 0x01, 0x00, 0x00, 0x00, 0x9c, 0xff, 0xff, 0xff, 0xff, 0xff, 0xff, 0xff, 0x01, 0x00, 0x00, 0x00, 0xe4, 0x52, 0x9f, 0x3c, 0x24, 0x01, 0x00, 0x00, 0x52, 0x65, 0x6c, 0x75, 0x3b, 0x73, 0x65, 0x71, 0x75, 0x65, 0x6e, 0x74, 0x69, 0x61, 0x6c, 0x2f, 0x71, 0x75, 0x61, 0x6e, 0x74, 0x5f, 0x63, 0x6f, 0x6e, 0x76, 0x32, 0x64, 0x5f, 0x33, 0x2f, 0x53, 0x74, 0x61, 0x74, 0x65, 0x66, 0x75, 0x6c, 0x50, 0x61, 0x72, 0x74, 0x69, 0x74, 0x69, 0x6f, 0x6e, 0x65, 0x64, 0x43, 0x61, 0x6c, 0x6c, 0x2f, 0x53, 0x74, 0x61, 0x74, 0x65, 0x66, 0x75, 0x6c, 0x50, 0x61, 0x72, 0x74, 0x69, 0x74, 0x69, 0x6f, 0x6e, 0x65, 0x64, 0x43, 0x61, 0x6c, 0x6c, 0x2f, 0x52, 0x65, 0x6c, 0x75, 0x3b, 0x42, 0x69, 0x61, 0x73, 0x41, 0x64, 0x64, 0x3b, 0x73, 0x65, 0x71, 0x75, 0x65, 0x6e, 0x74, 0x69, 0x61, 0x6c, 0x2f, 0x71, 0x75, 0x61, 0x6e, 0x74, 0x5f, 0x63, 0x6f, 0x6e, 0x76, 0x32, 0x64, 0x5f, 0x33, 0x2f, 0x53, 0x74, 0x61, 0x74, 0x65, 0x66, 0x75, 0x6c, 0x50, 0x61, 0x72, 0x74, 0x69, 0x74, 0x69, 0x6f, 0x6e, 0x65, 0x64, 0x43, 0x61, 0x6c, 0x6c, 0x2f, 0x53, 0x74, 0x61, 0x74, 0x65, 0x66, 0x75, 0x6c, 0x50, 0x61, 0x72, 0x74, 0x69, 0x74, 0x69, 0x6f, 0x6e, 0x65, 0x64, 0x43, 0x61, 0x6c, 0x6c, 0x2f, 0x42, 0x69, 0x61, 0x73, 0x41, 0x64, 0x64, 0x3b, 0x43, 0x6f, 0x6e, 0x76, 0x32, 0x44, 0x3b, 0x73, 0x65, 0x71, 0x75, 0x65, 0x6e, 0x74, 0x69, 0x61, 0x6c, 0x2f, 0x71, 0x75, 0x61, 0x6e, 0x74, 0x5f, 0x63, 0x6f, 0x6e, 0x76, 0x32, 0x64, 0x5f, 0x33, 0x2f, 0x53, 0x74, 0x61, 0x74, 0x65, 0x66, 0x75, 0x6c, 0x50, 0x61, 0x72, 0x74, 0x69, 0x74, 0x69, 0x6f, 0x6e, 0x65, 0x64, 0x43, 0x61, 0x6c, 0x6c, 0x2f, 0x53, 0x74, 0x61, 0x74, 0x65, 0x66, 0x75, 0x6c, 0x50, 0x61, 0x72, 0x74, 0x69, 0x74, 0x69, 0x6f, 0x6e, 0x65, 0x64, 0x43, 0x61, 0x6c, 0x6c, 0x2f, 0x43, 0x6f, 0x6e, 0x76, 0x32, 0x44, 0x3b, 0x73, 0x65, 0x71, 0x75, 0x65, 0x6e, 0x74, 0x69, 0x61, 0x6c, 0x2f, 0x71, 0x75, 0x61, 0x6e, 0x74, 0x5f, 0x63, 0x6f, 0x6e, 0x76, 0x32, 0x64, 0x5f, 0x33, 0x2f, 0x35, 0x33, 0x34, 0x38, 0x00, 0x00, 0x00, 0x00, 0x04, 0x00, 0x00, 0x00, 0x01, 0x00, 0x00, 0x00, 0x0a, 0x00, 0x00, 0x00, 0x0a, 0x00, 0x00, 0x00, 0x10, 0x00, 0x00, 0x00, 0xf2, 0xee, 0xff, 0xff, 0x14, 0x00, 0x00, 0x00, 0xe4, 0x00, 0x00, 0x00, 0x0e, 0x00, 0x00, 0x00, 0x00, 0x00, 0x00, 0x02, 0xfc, 0x00, 0x00, 0x00, 0x44, 0xee, 0xff, 0xff, 0x08, 0x00, 0x00, 0x00, 0x88, 0x00, 0x00, 0x00, 0x10, 0x00, 0x00, 0x00, 0x00, 0x00, 0x00, 0x00, 0x00, 0x00, 0x00, 0x00, 0x00, 0x00, 0x00, 0x00, 0x00, 0x00, 0x00, 0x00, 0x00, 0x00, 0x00, 0x00, 0x00, 0x00, 0x00, 0x00, 0x00, 0x00, 0x00, 0x00, 0x00, 0x00, 0x00, 0x00, 0x00, 0x00, 0x00, 0x00, 0x00, 0x00, 0x00, 0x00, 0x00, 0x00, 0x00, 0x00, 0x00, 0x00, 0x00, 0x00, 0x00, 0x00, 0x00, 0x00, 0x00, 0x00, 0x00, 0x00, 0x00, 0x00, 0x00, 0x00, 0x00, 0x00, 0x00, 0x00, 0x00, 0x00, 0x00, 0x00, 0x00, 0x00, 0x00, 0x00, 0x00, 0x00, 0x00, 0x00, 0x00, 0x00, 0x00, 0x00, 0x00, 0x00, 0x00, 0x00, 0x00, 0x00, 0x00, 0x00, 0x00, 0x00, 0x00, 0x00, 0x00, 0x00, 0x00, 0x00, 0x00, 0x00, 0x00, 0x00, 0x00, 0x00, 0x00, 0x00, 0x00, 0x00, 0x00, 0x00, 0x00, 0x00, 0x00, 0x00, 0x00, 0x00, 0x00, 0x00, 0x00, 0x00, 0x00, 0x00, 0x00, 0x00, 0x00, 0x00, 0x00, 0x00, 0x00, 0x00, 0x10, 0x00, 0x00, 0x00, 0x61, 0x31, 0x0e, 0x39, 0xee, 0x42, 0xaf, 0x38, 0x78, 0x60, 0xa6, 0x38, 0xcd, 0xbd, 0x9a, 0x38, 0x80, 0x6a, 0xc0, 0x38, 0xae, 0xa8, 0x2b, 0x38, 0xa1, 0x3b, 0xa5, 0x38, 0x08, 0x48, 0xa8, 0x38, 0x79, 0x18, 0xcc, 0x38, 0x16, 0x6e, 0xa1, 0x38, 0xa3, 0x2a, 0xfa, 0x38, 0xf1, 0x28, 0x27, 0x38, 0xfc, 0xa6, 0xb0, 0x38, 0x13, 0x6d, 0xb4, 0x38, 0x0f, 0xde, 0x06, 0x39, 0x91, 0x42, 0xd7, 0x38, 0x1e, 0x00, 0x00, 0x00, 0x73, 0x65, 0x71, 0x75, 0x65, 0x6e, 0x74, 0x69, 0x61, 0x6c, 0x2f, 0x71, 0x75, 0x61, 0x6e, 0x74, 0x5f, 0x63, 0x6f, 0x6e, 0x76, 0x32, 0x64, 0x5f, 0x33, 0x2f, 0x35, 0x33, 0x34, 0x38, 0x00, 0x00, 0x01, 0x00, 0x00, 0x00, 0x10, 0x00, 0x00, 0x00, 0x0a, 0xf0, 0xff, 0xff, 0x14, 0x00, 0x00, 0x00, 0xe4, 0x00, 0x00, 0x00, 0x0d, 0x00, 0x00, 0x00, 0x00, 0x00, 0x00, 0x09, 0xe0, 0x01, 0x00, 0x00, 0x5c, 0xef, 0xff, 0xff, 0x08, 0x00, 0x00, 0x00, 0x88, 0x00, 0x00, 0x00, 0x10, 0x00, 0x00, 0x00, 0x00, 0x00, 0x00, 0x00, 0x00, 0x00, 0x00, 0x00, 0x00, 0x00, 0x00, 0x00, 0x00, 0x00, 0x00, 0x00, 0x00, 0x00, 0x00, 0x00, 0x00, 0x00, 0x00, 0x00, 0x00, 0x00, 0x00, 0x00, 0x00, 0x00, 0x00, 0x00, 0x00, 0x00, 0x00, 0x00, 0x00, 0x00, 0x00, 0x00, 0x00, 0x00, 0x00, 0x00, 0x00, 0x00, 0x00, 0x00, 0x00, 0x00, 0x00, 0x00, 0x00, 0x00, 0x00, 0x00, 0x00, 0x00, 0x00, 0x00, 0x00, 0x00, 0x00, 0x00, 0x00, 0x00, 0x00, 0x00, 0x00, 0x00, 0x00, 0x00, 0x00, 0x00, 0x00, 0x00, 0x00, 0x00, 0x00, 0x00, 0x00, 0x00, 0x00, 0x00, 0x00, 0x00, 0x00, 0x00, 0x00, 0x00, 0x00, 0x00, 0x00, 0x00, 0x00, 0x00, 0x00, 0x00, 0x00, 0x00, 0x00, 0x00, 0x00, 0x00, 0x00, 0x00, 0x00, 0x00, 0x00, 0x00, 0x00, 0x00, 0x00, 0x00, 0x00, 0x00, 0x00, 0x00, 0x00, 0x00, 0x00, 0x00, 0x00, 0x00, 0x00, 0x00, 0x00, 0x00, 0x10, 0x00, 0x00, 0x00, 0x76, 0x7b, 0x8a, 0x3b, 0x18, 0xb0, 0x2a, 0x3b, 0xfd, 0x08, 0x22, 0x3b, 0x0d, 0xb4, 0x16, 0x3b, 0x10, 0x65, 0x3b, 0x3b, 0xea, 0x2d, 0xa7, 0x3a, 0xcb, 0xeb, 0x20, 0x3b, 0xd4, 0xe3, 0x23, 0x3b, 0x03, 0xc5, 0x46, 0x3b, 0xa7, 0x37, 0x1d, 0x3b, 0x66, 0xa3, 0x73, 0x3b, 0x3a, 0xcc, 0xa2, 0x3a, 0xdc, 0x0a, 0x2c, 0x3b, 0xbc, 0xb7, 0x2f, 0x3b, 0x13, 0x59, 0x83, 0x3b, 0x85, 0xa4, 0x51, 0x3b, 0x03, 0x01, 0x00, 0x00, 0x43, 0x6f, 0x6e, 0x76, 0x32, 0x44, 0x3b, 0x73, 0x65, 0x71, 0x75, 0x65, 0x6e, 0x74, 0x69, 0x61, 0x6c, 0x2f, 0x71, 0x75, 0x61, 0x6e, 0x74, 0x5f, 0x63, 0x6f, 0x6e, 0x76, 0x32, 0x64, 0x5f, 0x33, 0x2f, 0x53, 0x74, 0x61, 0x74, 0x65, 0x66, 0x75, 0x6c, 0x50, 0x61, 0x72, 0x74, 0x69, 0x74, 0x69, 0x6f, 0x6e, 0x65, 0x64, 0x43, 0x61, 0x6c, 0x6c, 0x2f, 0x53, 0x74, 0x61, 0x74, 0x65, 0x66, 0x75, 0x6c, 0x50, 0x61, 0x72, 0x74, 0x69, 0x74, 0x69, 0x6f, 0x6e, 0x65, 0x64, 0x43, 0x61, 0x6c, 0x6c, 0x2f, 0x43, 0x6f, 0x6e, 0x76, 0x32, 0x44, 0x3b, 0x4c, 0x61, 0x73, 0x74, 0x56, 0x61, 0x6c, 0x75, 0x65, 0x51, 0x75, 0x61, 0x6e, 0x74, 0x2f, 0x46, 0x61, 0x6b, 0x65, 0x51, 0x75, 0x61, 0x6e, 0x74, 0x57, 0x69, 0x74, 0x68, 0x4d, 0x69, 0x6e, 0x4d, 0x61, 0x78, 0x56, 0x61, 0x72, 0x73, 0x50, 0x65, 0x72, 0x43, 0x68, 0x61, 0x6e, 0x6e, 0x65, 0x6c, 0x3b, 0x73, 0x65, 0x71, 0x75, 0x65, 0x6e, 0x74, 0x69, 0x61, 0x6c, 0x2f, 0x71, 0x75, 0x61, 0x6e, 0x74, 0x5f, 0x63, 0x6f, 0x6e, 0x76, 0x32, 0x64, 0x5f, 0x33, 0x2f, 0x53, 0x74, 0x61, 0x74, 0x65, 0x66, 0x75, 0x6c, 0x50, 0x61, 0x72, 0x74, 0x69, 0x74, 0x69, 0x6f, 0x6e, 0x65, 0x64, 0x43, 0x61, 0x6c, 0x6c, 0x2f, 0x53, 0x74, 0x61, 0x74, 0x65, 0x66, 0x75, 0x6c, 0x50, 0x61, 0x72, 0x74, 0x69, 0x74, 0x69, 0x6f, 0x6e, 0x65, 0x64, 0x43, 0x61, 0x6c, 0x6c, 0x2f, 0x4c, 0x61, 0x73, 0x74, 0x56, 0x61, 0x6c, 0x75, 0x65, 0x51, 0x75, 0x61, 0x6e, 0x74, 0x2f, 0x46, 0x61, 0x6b, 0x65, 0x51, 0x75, 0x61, 0x6e, 0x74, 0x57, 0x69, 0x74, 0x68, 0x4d, 0x69, 0x6e, 0x4d, 0x61, 0x78, 0x56, 0x61, 0x72, 0x73, 0x50, 0x65, 0x72, 0x43, 0x68, 0x61, 0x6e, 0x6e, 0x65, 0x6c, 0x00, 0x04, 0x00, 0x00, 0x00, 0x10, 0x00, 0x00, 0x00, 0x03, 0x00, 0x00, 0x00, 0x03, 0x00, 0x00, 0x00, 0x10, 0x00, 0x00, 0x00, 0x90, 0xf1, 0xff, 0xff, 0x18, 0x00, 0x00, 0x00, 0x28, 0x00, 0x00, 0x00, 0x44, 0x00, 0x00, 0x00, 0x0c, 0x00, 0x00, 0x00, 0x00, 0x00, 0x00, 0x09, 0xbc, 0x01, 0x00, 0x00, 0x04, 0x00, 0x00, 0x00, 0xff, 0xff, 0xff, 0xff, 0x0c, 0x00, 0x00, 0x00, 0x0c, 0x00, 0x00, 0x00, 0x10, 0x00, 0x00, 0x00, 0x7c, 0xf1, 0xff, 0xff, 0x08, 0x00, 0x00, 0x00, 0x10, 0x00, 0x00, 0x00, 0x01, 0x00, 0x00, 0x00, 0x91, 0xff, 0xff, 0xff, 0xff, 0xff, 0xff, 0xff, 0x01, 0x00, 0x00, 0x00, 0x04, 0x6e, 0x03, 0x3d, 0x7c, 0x01, 0x00, 0x00, 0x52, 0x65, 0x6c, 0x75, 0x3b, 0x73, 0x65, 0x71, 0x75, 0x65, 0x6e, 0x74, 0x69, 0x61, 0x6c, 0x2f, 0x71, 0x75, 0x61, 0x6e, 0x74, 0x5f, 0x63, 0x6f, 0x6e, 0x76, 0x32, 0x64, 0x5f, 0x32, 0x2f, 0x53, 0x74, 0x61, 0x74, 0x65, 0x66, 0x75, 0x6c, 0x50, 0x61, 0x72, 0x74, 0x69, 0x74, 0x69, 0x6f, 0x6e, 0x65, 0x64, 0x43, 0x61, 0x6c, 0x6c, 0x2f, 0x53, 0x74, 0x61, 0x74, 0x65, 0x66, 0x75, 0x6c, 0x50, 0x61, 0x72, 0x74, 0x69, 0x74, 0x69, 0x6f, 0x6e, 0x65, 0x64, 0x43, 0x61, 0x6c, 0x6c, 0x2f, 0x52, 0x65, 0x6c, 0x75, 0x3b, 0x42, 0x69, 0x61, 0x73, 0x41, 0x64, 0x64, 0x3b, 0x73, 0x65, 0x71, 0x75, 0x65, 0x6e, 0x74, 0x69, 0x61, 0x6c, 0x2f, 0x71, 0x75, 0x61, 0x6e, 0x74, 0x5f, 0x63, 0x6f, 0x6e, 0x76, 0x32, 0x64, 0x5f, 0x32, 0x2f, 0x53, 0x74, 0x61, 0x74, 0x65, 0x66, 0x75, 0x6c, 0x50, 0x61, 0x72, 0x74, 0x69, 0x74, 0x69, 0x6f, 0x6e, 0x65, 0x64, 0x43, 0x61, 0x6c, 0x6c, 0x2f, 0x53, 0x74, 0x61, 0x74, 0x65, 0x66, 0x75, 0x6c, 0x50, 0x61, 0x72, 0x74, 0x69, 0x74, 0x69, 0x6f, 0x6e, 0x65, 0x64, 0x43, 0x61, 0x6c, 0x6c, 0x2f, 0x42, 0x69, 0x61, 0x73, 0x41, 0x64, 0x64, 0x3b, 0x43, 0x6f, 0x6e, 0x76, 0x32, 0x44, 0x3b, 0x73, 0x65, 0x71, 0x75, 0x65, 0x6e, 0x74, 0x69, 0x61, 0x6c, 0x2f, 0x71, 0x75, 0x61, 0x6e, 0x74, 0x5f, 0x63, 0x6f, 0x6e, 0x76, 0x32, 0x64, 0x5f, 0x33, 0x2f, 0x53, 0x74, 0x61, 0x74, 0x65, 0x66, 0x75, 0x6c, 0x50, 0x61, 0x72, 0x74, 0x69, 0x74, 0x69, 0x6f, 0x6e, 0x65, 0x64, 0x43, 0x61, 0x6c, 0x6c, 0x2f, 0x53, 0x74, 0x61, 0x74, 0x65, 0x66, 0x75, 0x6c, 0x50, 0x61, 0x72, 0x74, 0x69, 0x74, 0x69, 0x6f, 0x6e, 0x65, 0x64, 0x43, 0x61, 0x6c, 0x6c, 0x2f, 0x43, 0x6f, 0x6e, 0x76, 0x32, 0x44, 0x3b, 0x43, 0x6f, 0x6e, 0x76, 0x32, 0x44, 0x3b, 0x73, 0x65, 0x71, 0x75, 0x65, 0x6e, 0x74, 0x69, 0x61, 0x6c, 0x2f, 0x71, 0x75, 0x61, 0x6e, 0x74, 0x5f, 0x63, 0x6f, 0x6e, 0x76, 0x32, 0x64, 0x5f, 0x32, 0x2f, 0x53, 0x74, 0x61, 0x74, 0x65, 0x66, 0x75, 0x6c, 0x50, 0x61, 0x72, 0x74, 0x69, 0x74, 0x69, 0x6f, 0x6e, 0x65, 0x64, 0x43, 0x61, 0x6c, 0x6c, 0x2f, 0x53, 0x74, 0x61, 0x74, 0x65, 0x66, 0x75, 0x6c, 0x50, 0x61, 0x72, 0x74, 0x69, 0x74, 0x69, 0x6f, 0x6e, 0x65, 0x64, 0x43, 0x61, 0x6c, 0x6c, 0x2f, 0x43, 0x6f, 0x6e, 0x76, 0x32, 0x44, 0x3b, 0x73, 0x65, 0x71, 0x75, 0x65, 0x6e, 0x74, 0x69, 0x61, 0x6c, 0x2f, 0x71, 0x75, 0x61, 0x6e, 0x74, 0x5f, 0x63, 0x6f, 0x6e, 0x76, 0x32, 0x64, 0x5f, 0x32, 0x2f, 0x35, 0x33, 0x33, 0x35, 0x00, 0x00, 0x00, 0x00, 0x04, 0x00, 0x00, 0x00, 0x01, 0x00, 0x00, 0x00, 0x0c, 0x00, 0x00, 0x00, 0x0c, 0x00, 0x00, 0x00, 0x10, 0x00, 0x00, 0x00, 0xfa, 0xf3, 0xff, 0xff, 0x14, 0x00, 0x00, 0x00, 0xe4, 0x00, 0x00, 0x00, 0x0b, 0x00, 0x00, 0x00, 0x00, 0x00, 0x00, 0x02, 0xfc, 0x00, 0x00, 0x00, 0x4c, 0xf3, 0xff, 0xff, 0x08, 0x00, 0x00, 0x00, 0x88, 0x00, 0x00, 0x00, 0x10, 0x00, 0x00, 0x00, 0x00, 0x00, 0x00, 0x00, 0x00, 0x00, 0x00, 0x00, 0x00, 0x00, 0x00, 0x00, 0x00, 0x00, 0x00, 0x00, 0x00, 0x00, 0x00, 0x00, 0x00, 0x00, 0x00, 0x00, 0x00, 0x00, 0x00, 0x00, 0x00, 0x00, 0x00, 0x00, 0x00, 0x00, 0x00, 0x00, 0x00, 0x00, 0x00, 0x00, 0x00, 0x00, 0x00, 0x00, 0x00, 0x00, 0x00, 0x00, 0x00, 0x00, 0x00, 0x00, 0x00, 0x00, 0x00, 0x00, 0x00, 0x00, 0x00, 0x00, 0x00, 0x00, 0x00, 0x00, 0x00, 0x00, 0x00, 0x00, 0x00, 0x00, 0x00, 0x00, 0x00, 0x00, 0x00, 0x00, 0x00, 0x00, 0x00, 0x00, 0x00, 0x00, 0x00, 0x00, 0x00, 0x00, 0x00, 0x00, 0x00, 0x00, 0x00, 0x00, 0x00, 0x00, 0x00, 0x00, 0x00, 0x00, 0x00, 0x00, 0x00, 0x00, 0x00, 0x00, 0x00, 0x00, 0x00, 0x00, 0x00, 0x00, 0x00, 0x00, 0x00, 0x00, 0x00, 0x00, 0x00, 0x00, 0x00, 0x00, 0x00, 0x00, 0x00, 0x00, 0x00, 0x00, 0x00, 0x00, 0x10, 0x00, 0x00, 0x00, 0x7a, 0x6e, 0x31, 0x38, 0x72, 0x9a, 0x1f, 0x38, 0x0f, 0x2d, 0x19, 0x38, 0x0c, 0x7a, 0x89, 0x38, 0xa3, 0xc2, 0x1d, 0x38, 0x15, 0x14, 0xaa, 0x38, 0x41, 0x49, 0x1c, 0x38, 0x96, 0x02, 0x6e, 0x38, 0x10, 0x16, 0x54, 0x38, 0xf8, 0xbe, 0x02, 0x38, 0x02, 0x73, 0x34, 0x38, 0x78, 0x1d, 0x4d, 0x38, 0x86, 0x00, 0x42, 0x38, 0x86, 0x37, 0x30, 0x38, 0xfb, 0x38, 0xbb, 0x37, 0xf9, 0x52, 0x22, 0x38, 0x1e, 0x00, 0x00, 0x00, 0x73, 0x65, 0x71, 0x75, 0x65, 0x6e, 0x74, 0x69, 0x61, 0x6c, 0x2f, 0x71, 0x75, 0x61, 0x6e, 0x74, 0x5f, 0x63, 0x6f, 0x6e, 0x76, 0x32, 0x64, 0x5f, 0x32, 0x2f, 0x35, 0x33, 0x33, 0x35, 0x00, 0x00, 0x01, 0x00, 0x00, 0x00, 0x10, 0x00, 0x00, 0x00, 0x12, 0xf5, 0xff, 0xff, 0x14, 0x00, 0x00, 0x00, 0xe4, 0x00, 0x00, 0x00, 0x0a, 0x00, 0x00, 0x00, 0x00, 0x00, 0x00, 0x09, 0xe0, 0x01, 0x00, 0x00, 0x64, 0xf4, 0xff, 0xff, 0x08, 0x00, 0x00, 0x00, 0x88, 0x00, 0x00, 0x00, 0x10, 0x00, 0x00, 0x00, 0x00, 0x00, 0x00, 0x00, 0x00, 0x00, 0x00, 0x00, 0x00, 0x00, 0x00, 0x00, 0x00, 0x00, 0x00, 0x00, 0x00, 0x00, 0x00, 0x00, 0x00, 0x00, 0x00, 0x00, 0x00, 0x00, 0x00, 0x00, 0x00, 0x00, 0x00, 0x00, 0x00, 0x00, 0x00, 0x00, 0x00, 0x00, 0x00, 0x00, 0x00, 0x00, 0x00, 0x00, 0x00, 0x00, 0x00, 0x00, 0x00, 0x00, 0x00, 0x00, 0x00, 0x00, 0x00, 0x00, 0x00, 0x00, 0x00, 0x00, 0x00, 0x00, 0x00, 0x00, 0x00, 0x00, 0x00, 0x00, 0x00, 0x00, 0x00, 0x00, 0x00, 0x00, 0x00, 0x00, 0x00, 0x00, 0x00, 0x00, 0x00, 0x00, 0x00, 0x00, 0x00, 0x00, 0x00, 0x00, 0x00, 0x00, 0x00, 0x00, 0x00, 0x00, 0x00, 0x00, 0x00, 0x00, 0x00, 0x00, 0x00, 0x00, 0x00, 0x00, 0x00, 0x00, 0x00, 0x00, 0x00, 0x00, 0x00, 0x00, 0x00, 0x00, 0x00, 0x00, 0x00, 0x00, 0x00, 0x00, 0x00, 0x00, 0x00, 0x00, 0x00, 0x00, 0x00, 0x00, 0x10, 0x00, 0x00, 0x00, 0x60, 0x8a, 0x4e, 0x3b, 0x94, 0xc9, 0x39, 0x3b, 0x42, 0x4e, 0x32, 0x3b, 0xe5, 0x07, 0xa0, 0x3b, 0x5f, 0xa4, 0x37, 0x3b, 0x29, 0xfb, 0xc5, 0x3b, 0x13, 0xed, 0x35, 0x3b, 0x5b, 0x87, 0x8a, 0x3b, 0x6a, 0xe1, 0x76, 0x3b, 0x22, 0x32, 0x18, 0x3b, 0xa5, 0x0d, 0x52, 0x3b, 0x0b, 0xc4, 0x6e, 0x3b, 0x5d, 0xd4, 0x61, 0x3b, 0x69, 0x20, 0x4d, 0x3b, 0x17, 0xf0, 0xd9, 0x3a, 0x61, 0xf4, 0x3c, 0x3b, 0x03, 0x01, 0x00, 0x00, 0x43, 0x6f, 0x6e, 0x76, 0x32, 0x44, 0x3b, 0x73, 0x65, 0x71, 0x75, 0x65, 0x6e, 0x74, 0x69, 0x61, 0x6c, 0x2f, 0x71, 0x75, 0x61, 0x6e, 0x74, 0x5f, 0x63, 0x6f, 0x6e, 0x76, 0x32, 0x64, 0x5f, 0x32, 0x2f, 0x53, 0x74, 0x61, 0x74, 0x65, 0x66, 0x75, 0x6c, 0x50, 0x61, 0x72, 0x74, 0x69, 0x74, 0x69, 0x6f, 0x6e, 0x65, 0x64, 0x43, 0x61, 0x6c, 0x6c, 0x2f, 0x53, 0x74, 0x61, 0x74, 0x65, 0x66, 0x75, 0x6c, 0x50, 0x61, 0x72, 0x74, 0x69, 0x74, 0x69, 0x6f, 0x6e, 0x65, 0x64, 0x43, 0x61, 0x6c, 0x6c, 0x2f, 0x43, 0x6f, 0x6e, 0x76, 0x32, 0x44, 0x3b, 0x4c, 0x61, 0x73, 0x74, 0x56, 0x61, 0x6c, 0x75, 0x65, 0x51, 0x75, 0x61, 0x6e, 0x74, 0x2f, 0x46, 0x61, 0x6b, 0x65, 0x51, 0x75, 0x61, 0x6e, 0x74, 0x57, 0x69, 0x74, 0x68, 0x4d, 0x69, 0x6e, 0x4d, 0x61, 0x78, 0x56, 0x61, 0x72, 0x73, 0x50, 0x65, 0x72, 0x43, 0x68, 0x61, 0x6e, 0x6e, 0x65, 0x6c, 0x3b, 0x73, 0x65, 0x71, 0x75, 0x65, 0x6e, 0x74, 0x69, 0x61, 0x6c, 0x2f, 0x71, 0x75, 0x61, 0x6e, 0x74, 0x5f, 0x63, 0x6f, 0x6e, 0x76, 0x32, 0x64, 0x5f, 0x32, 0x2f, 0x53, 0x74, 0x61, 0x74, 0x65, 0x66, 0x75, 0x6c, 0x50, 0x61, 0x72, 0x74, 0x69, 0x74, 0x69, 0x6f, 0x6e, 0x65, 0x64, 0x43, 0x61, 0x6c, 0x6c, 0x2f, 0x53, 0x74, 0x61, 0x74, 0x65, 0x66, 0x75, 0x6c, 0x50, 0x61, 0x72, 0x74, 0x69, 0x74, 0x69, 0x6f, 0x6e, 0x65, 0x64, 0x43, 0x61, 0x6c, 0x6c, 0x2f, 0x4c, 0x61, 0x73, 0x74, 0x56, 0x61, 0x6c, 0x75, 0x65, 0x51, 0x75, 0x61, 0x6e, 0x74, 0x2f, 0x46, 0x61, 0x6b, 0x65, 0x51, 0x75, 0x61, 0x6e, 0x74, 0x57, 0x69, 0x74, 0x68, 0x4d, 0x69, 0x6e, 0x4d, 0x61, 0x78, 0x56, 0x61, 0x72, 0x73, 0x50, 0x65, 0x72, 0x43, 0x68, 0x61, 0x6e, 0x6e, 0x65, 0x6c, 0x00, 0x04, 0x00, 0x00, 0x00, 0x10, 0x00, 0x00, 0x00, 0x03, 0x00, 0x00, 0x00, 0x03, 0x00, 0x00, 0x00, 0x08, 0x00, 0x00, 0x00, 0x98, 0xf6, 0xff, 0xff, 0x18, 0x00, 0x00, 0x00, 0x28, 0x00, 0x00, 0x00, 0x44, 0x00, 0x00, 0x00, 0x09, 0x00, 0x00, 0x00, 0x00, 0x00, 0x00, 0x09, 0x8c, 0x00, 0x00, 0x00, 0x04, 0x00, 0x00, 0x00, 0xff, 0xff, 0xff, 0xff, 0x0e, 0x00, 0x00, 0x00, 0x0e, 0x00, 0x00, 0x00, 0x08, 0x00, 0x00, 0x00, 0x84, 0xf6, 0xff, 0xff, 0x08, 0x00, 0x00, 0x00, 0x10, 0x00, 0x00, 0x00, 0x01, 0x00, 0x00, 0x00, 0xa9, 0xff, 0xff, 0xff, 0xff, 0xff, 0xff, 0xff, 0x01, 0x00, 0x00, 0x00, 0xa0, 0xeb, 0x5b, 0x3c, 0x4e, 0x00, 0x00, 0x00, 0x4d, 0x61, 0x78, 0x50, 0x6f, 0x6f, 0x6c, 0x3b, 0x73, 0x65, 0x71, 0x75, 0x65, 0x6e, 0x74, 0x69, 0x61, 0x6c, 0x2f, 0x71, 0x75, 0x61, 0x6e, 0x74, 0x5f, 0x6d, 0x61, 0x78, 0x5f, 0x70, 0x6f, 0x6f, 0x6c, 0x69, 0x6e, 0x67, 0x32, 0x64, 0x2f, 0x50, 0x61, 0x72, 0x74, 0x69, 0x74, 0x69, 0x6f, 0x6e, 0x65, 0x64, 0x43, 0x61, 0x6c, 0x6c, 0x2f, 0x50, 0x61, 0x72, 0x74, 0x69, 0x74, 0x69, 0x6f, 0x6e, 0x65, 0x64, 0x43, 0x61, 0x6c, 0x6c, 0x2f, 0x4d, 0x61, 0x78, 0x50, 0x6f, 0x6f, 0x6c, 0x00, 0x00, 0x04, 0x00, 0x00, 0x00, 0x01, 0x00, 0x00, 0x00, 0x0e, 0x00, 0x00, 0x00, 0x0e, 0x00, 0x00, 0x00, 0x08, 0x00, 0x00, 0x00, 0x50, 0xf7, 0xff, 0xff, 0x18, 0x00, 0x00, 0x00, 0x28, 0x00, 0x00, 0x00, 0x44, 0x00, 0x00, 0x00, 0x08, 0x00, 0x00, 0x00, 0x00, 0x00, 0x00, 0x09, 0x64, 0x01, 0x00, 0x00, 0x04, 0x00, 0x00, 0x00, 0xff, 0xff, 0xff, 0xff, 0x1c, 0x00, 0x00, 0x00, 0x1c, 0x00, 0x00, 0x00, 0x08, 0x00, 0x00, 0x00, 0x3c, 0xf7, 0xff, 0xff, 0x08, 0x00, 0x00, 0x00, 0x10, 0x00, 0x00, 0x00, 0x01, 0x00, 0x00, 0x00, 0xa9, 0xff, 0xff, 0xff, 0xff, 0xff, 0xff, 0xff, 0x01, 0x00, 0x00, 0x00, 0xa0, 0xeb, 0x5b, 0x3c, 0x24, 0x01, 0x00, 0x00, 0x52, 0x65, 0x6c, 0x75, 0x3b, 0x73, 0x65, 0x71, 0x75, 0x65, 0x6e, 0x74, 0x69, 0x61, 0x6c, 0x2f, 0x71, 0x75, 0x61, 0x6e, 0x74, 0x5f, 0x63, 0x6f, 0x6e, 0x76, 0x32, 0x64, 0x5f, 0x31, 0x2f, 0x53, 0x74, 0x61, 0x74, 0x65, 0x66, 0x75, 0x6c, 0x50, 0x61, 0x72, 0x74, 0x69, 0x74, 0x69, 0x6f, 0x6e, 0x65, 0x64, 0x43, 0x61, 0x6c, 0x6c, 0x2f, 0x53, 0x74, 0x61, 0x74, 0x65, 0x66, 0x75, 0x6c, 0x50, 0x61, 0x72, 0x74, 0x69, 0x74, 0x69, 0x6f, 0x6e, 0x65, 0x64, 0x43, 0x61, 0x6c, 0x6c, 0x2f, 0x52, 0x65, 0x6c, 0x75, 0x3b, 0x42, 0x69, 0x61, 0x73, 0x41, 0x64, 0x64, 0x3b, 0x73, 0x65, 0x71, 0x75, 0x65, 0x6e, 0x74, 0x69, 0x61, 0x6c, 0x2f, 0x71, 0x75, 0x61, 0x6e, 0x74, 0x5f, 0x63, 0x6f, 0x6e, 0x76, 0x32, 0x64, 0x5f, 0x31, 0x2f, 0x53, 0x74, 0x61, 0x74, 0x65, 0x66, 0x75, 0x6c, 0x50, 0x61, 0x72, 0x74, 0x69, 0x74, 0x69, 0x6f, 0x6e, 0x65, 0x64, 0x43, 0x61, 0x6c, 0x6c, 0x2f, 0x53, 0x74, 0x61, 0x74, 0x65, 0x66, 0x75, 0x6c, 0x50, 0x61, 0x72, 0x74, 0x69, 0x74, 0x69, 0x6f, 0x6e, 0x65, 0x64, 0x43, 0x61, 0x6c, 0x6c, 0x2f, 0x42, 0x69, 0x61, 0x73, 0x41, 0x64, 0x64, 0x3b, 0x43, 0x6f, 0x6e, 0x76, 0x32, 0x44, 0x3b, 0x73, 0x65, 0x71, 0x75, 0x65, 0x6e, 0x74, 0x69, 0x61, 0x6c, 0x2f, 0x71, 0x75, 0x61, 0x6e, 0x74, 0x5f, 0x63, 0x6f, 0x6e, 0x76, 0x32, 0x64, 0x5f, 0x31, 0x2f, 0x53, 0x74, 0x61, 0x74, 0x65, 0x66, 0x75, 0x6c, 0x50, 0x61, 0x72, 0x74, 0x69, 0x74, 0x69, 0x6f, 0x6e, 0x65, 0x64, 0x43, 0x61, 0x6c, 0x6c, 0x2f, 0x53, 0x74, 0x61, 0x74, 0x65, 0x66, 0x75, 0x6c, 0x50, 0x61, 0x72, 0x74, 0x69, 0x74, 0x69, 0x6f, 0x6e, 0x65, 0x64, 0x43, 0x61, 0x6c, 0x6c, 0x2f, 0x43, 0x6f, 0x6e, 0x76, 0x32, 0x44, 0x3b, 0x73, 0x65, 0x71, 0x75, 0x65, 0x6e, 0x74, 0x69, 0x61, 0x6c, 0x2f, 0x71, 0x75, 0x61, 0x6e, 0x74, 0x5f, 0x63, 0x6f, 0x6e, 0x76, 0x32, 0x64, 0x5f, 0x31, 0x2f, 0x35, 0x33, 0x32, 0x30, 0x00, 0x00, 0x00, 0x00, 0x04, 0x00, 0x00, 0x00, 0x01, 0x00, 0x00, 0x00, 0x1c, 0x00, 0x00, 0x00, 0x1c, 0x00, 0x00, 0x00, 0x08, 0x00, 0x00, 0x00, 0x62, 0xf9, 0xff, 0xff, 0x14, 0x00, 0x00, 0x00, 0x84, 0x00, 0x00, 0x00, 0x07, 0x00, 0x00, 0x00, 0x00, 0x00, 0x00, 0x02, 0x9c, 0x00, 0x00, 0x00, 0xb4, 0xf8, 0xff, 0xff, 0x08, 0x00, 0x00, 0x00, 0x48, 0x00, 0x00, 0x00, 0x08, 0x00, 0x00, 0x00, 0x00, 0x00, 0x00, 0x00, 0x00, 0x00, 0x00, 0x00, 0x00, 0x00, 0x00, 0x00, 0x00, 0x00, 0x00, 0x00, 0x00, 0x00, 0x00, 0x00, 0x00, 0x00, 0x00, 0x00, 0x00, 0x00, 0x00, 0x00, 0x00, 0x00, 0x00, 0x00, 0x00, 0x00, 0x00, 0x00, 0x00, 0x00, 0x00, 0x00, 0x00, 0x00, 0x00, 0x00, 0x00, 0x00, 0x00, 0x00, 0x00, 0x00, 0x00, 0x00, 0x00, 0x00, 0x00, 0x00, 0x00, 0x00, 0x00, 0x00, 0x00, 0x00, 0x00, 0x00, 0x08, 0x00, 0x00, 0x00, 0x25, 0x8a, 0x15, 0x38, 0xcc, 0x62, 0x40, 0x38, 0x46, 0x8c, 0x45, 0x38, 0xcd, 0x0d, 0x0b, 0x38, 0x12, 0xf1, 0x46, 0x37, 0x35, 0x2b, 0x42, 0x38, 0x23, 0xe7, 0x23, 0x38, 0x41, 0x37, 0x0f, 0x38, 0x1e, 0x00, 0x00, 0x00, 0x73, 0x65, 0x71, 0x75, 0x65, 0x6e, 0x74, 0x69, 0x61, 0x6c, 0x2f, 0x71, 0x75, 0x61, 0x6e, 0x74, 0x5f, 0x63, 0x6f, 0x6e, 0x76, 0x32, 0x64, 0x5f, 0x31, 0x2f, 0x35, 0x33, 0x32, 0x30, 0x00, 0x00, 0x01, 0x00, 0x00, 0x00, 0x08, 0x00, 0x00, 0x00, 0x1a, 0xfa, 0xff, 0xff, 0x14, 0x00, 0x00, 0x00, 0x84, 0x00, 0x00, 0x00, 0x06, 0x00, 0x00, 0x00, 0x00, 0x00, 0x00, 0x09, 0x80, 0x01, 0x00, 0x00, 0x6c, 0xf9, 0xff, 0xff, 0x08, 0x00, 0x00, 0x00, 0x48, 0x00, 0x00, 0x00, 0x08, 0x00, 0x00, 0x00, 0x00, 0x00, 0x00, 0x00, 0x00, 0x00, 0x00, 0x00, 0x00, 0x00, 0x00, 0x00, 0x00, 0x00, 0x00, 0x00, 0x00, 0x00, 0x00, 0x00, 0x00, 0x00, 0x00, 0x00, 0x00, 0x00, 0x00, 0x00, 0x00, 0x00, 0x00, 0x00, 0x00, 0x00, 0x00, 0x00, 0x00, 0x00, 0x00, 0x00, 0x00, 0x00, 0x00, 0x00, 0x00, 0x00, 0x00, 0x00, 0x00, 0x00, 0x00, 0x00, 0x00, 0x00, 0x00, 0x00, 0x00, 0x00, 0x00, 0x00, 0x00, 0x00, 0x00, 0x00, 0x08, 0x00, 0x00, 0x00, 0x74, 0x5c, 0xa5, 0x3b, 0x9a, 0xbd, 0xd4, 0x3b, 0xe5, 0x72, 0xda, 0x3b, 0x19, 0xc4, 0x99, 0x3b, 0x71, 0xfd, 0xdb, 0x3a, 0x4e, 0xb6, 0xd6, 0x3b, 0x7a, 0x3e, 0xb5, 0x3b, 0x48, 0x5e, 0x9e, 0x3b, 0x03, 0x01, 0x00, 0x00, 0x43, 0x6f, 0x6e, 0x76, 0x32, 0x44, 0x3b, 0x73, 0x65, 0x71, 0x75, 0x65, 0x6e, 0x74, 0x69, 0x61, 0x6c, 0x2f, 0x71, 0x75, 0x61, 0x6e, 0x74, 0x5f, 0x63, 0x6f, 0x6e, 0x76, 0x32, 0x64, 0x5f, 0x31, 0x2f, 0x53, 0x74, 0x61, 0x74, 0x65, 0x66, 0x75, 0x6c, 0x50, 0x61, 0x72, 0x74, 0x69, 0x74, 0x69, 0x6f, 0x6e, 0x65, 0x64, 0x43, 0x61, 0x6c, 0x6c, 0x2f, 0x53, 0x74, 0x61, 0x74, 0x65, 0x66, 0x75, 0x6c, 0x50, 0x61, 0x72, 0x74, 0x69, 0x74, 0x69, 0x6f, 0x6e, 0x65, 0x64, 0x43, 0x61, 0x6c, 0x6c, 0x2f, 0x43, 0x6f, 0x6e, 0x76, 0x32, 0x44, 0x3b, 0x4c, 0x61, 0x73, 0x74, 0x56, 0x61, 0x6c, 0x75, 0x65, 0x51, 0x75, 0x61, 0x6e, 0x74, 0x2f, 0x46, 0x61, 0x6b, 0x65, 0x51, 0x75, 0x61, 0x6e, 0x74, 0x57, 0x69, 0x74, 0x68, 0x4d, 0x69, 0x6e, 0x4d, 0x61, 0x78, 0x56, 0x61, 0x72, 0x73, 0x50, 0x65, 0x72, 0x43, 0x68, 0x61, 0x6e, 0x6e, 0x65, 0x6c, 0x3b, 0x73, 0x65, 0x71, 0x75, 0x65, 0x6e, 0x74, 0x69, 0x61, 0x6c, 0x2f, 0x71, 0x75, 0x61, 0x6e, 0x74, 0x5f, 0x63, 0x6f, 0x6e, 0x76, 0x32, 0x64, 0x5f, 0x31, 0x2f, 0x53, 0x74, 0x61, 0x74, 0x65, 0x66, 0x75, 0x6c, 0x50, 0x61, 0x72, 0x74, 0x69, 0x74, 0x69, 0x6f, 0x6e, 0x65, 0x64, 0x43, 0x61, 0x6c, 0x6c, 0x2f, 0x53, 0x74, 0x61, 0x74, 0x65, 0x66, 0x75, 0x6c, 0x50, 0x61, 0x72, 0x74, 0x69, 0x74, 0x69, 0x6f, 0x6e, 0x65, 0x64, 0x43, 0x61, 0x6c, 0x6c, 0x2f, 0x4c, 0x61, 0x73, 0x74, 0x56, 0x61, 0x6c, 0x75, 0x65, 0x51, 0x75, 0x61, 0x6e, 0x74, 0x2f, 0x46, 0x61, 0x6b, 0x65, 0x51, 0x75, 0x61, 0x6e, 0x74, 0x57, 0x69, 0x74, 0x68, 0x4d, 0x69, 0x6e, 0x4d, 0x61, 0x78, 0x56, 0x61, 0x72, 0x73, 0x50, 0x65, 0x72, 0x43, 0x68, 0x61, 0x6e, 0x6e, 0x65, 0x6c, 0x00, 0x04, 0x00, 0x00, 0x00, 0x08, 0x00, 0x00, 0x00, 0x03, 0x00, 0x00, 0x00, 0x03, 0x00, 0x00, 0x00, 0x08, 0x00, 0x00, 0x00, 0x40, 0xfb, 0xff, 0xff, 0x18, 0x00, 0x00, 0x00, 0x28, 0x00, 0x00, 0x00, 0x44, 0x00, 0x00, 0x00, 0x05, 0x00, 0x00, 0x00, 0x00, 0x00, 0x00, 0x09, 0xb4, 0x01, 0x00, 0x00, 0x04, 0x00, 0x00, 0x00, 0xff, 0xff, 0xff, 0xff, 0x1e, 0x00, 0x00, 0x00, 0x1e, 0x00, 0x00, 0x00, 0x08, 0x00, 0x00, 0x00, 0x2c, 0xfb, 0xff, 0xff, 0x08, 0x00, 0x00, 0x00, 0x10, 0x00, 0x00, 0x00, 0x01, 0x00, 0x00, 0x00, 0xcd, 0xff, 0xff, 0xff, 0xff, 0xff, 0xff, 0xff, 0x01, 0x00, 0x00, 0x00, 0x9d, 0x81, 0xe7, 0x3b, 0x74, 0x01, 0x00, 0x00, 0x52, 0x65, 0x6c, 0x75, 0x3b, 0x73, 0x65, 0x71, 0x75, 0x65, 0x6e, 0x74, 0x69, 0x61, 0x6c, 0x2f, 0x71, 0x75, 0x61, 0x6e, 0x74, 0x5f, 0x63, 0x6f, 0x6e, 0x76, 0x32, 0x64, 0x2f, 0x53, 0x74, 0x61, 0x74, 0x65, 0x66, 0x75, 0x6c, 0x50, 0x61, 0x72, 0x74, 0x69, 0x74, 0x69, 0x6f, 0x6e, 0x65, 0x64, 0x43, 0x61, 0x6c, 0x6c, 0x2f, 0x53, 0x74, 0x61, 0x74, 0x65, 0x66, 0x75, 0x6c, 0x50, 0x61, 0x72, 0x74, 0x69, 0x74, 0x69, 0x6f, 0x6e, 0x65, 0x64, 0x43, 0x61, 0x6c, 0x6c, 0x2f, 0x52, 0x65, 0x6c, 0x75, 0x3b, 0x42, 0x69, 0x61, 0x73, 0x41, 0x64, 0x64, 0x3b, 0x73, 0x65, 0x71, 0x75, 0x65, 0x6e, 0x74, 0x69, 0x61, 0x6c, 0x2f, 0x71, 0x75, 0x61, 0x6e, 0x74, 0x5f, 0x63, 0x6f, 0x6e, 0x76, 0x32, 0x64, 0x2f, 0x53, 0x74, 0x61, 0x74, 0x65, 0x66, 0x75, 0x6c, 0x50, 0x61, 0x72, 0x74, 0x69, 0x74, 0x69, 0x6f, 0x6e, 0x65, 0x64, 0x43, 0x61, 0x6c, 0x6c, 0x2f, 0x53, 0x74, 0x61, 0x74, 0x65, 0x66, 0x75, 0x6c, 0x50, 0x61, 0x72, 0x74, 0x69, 0x74, 0x69, 0x6f, 0x6e, 0x65, 0x64, 0x43, 0x61, 0x6c, 0x6c, 0x2f, 0x42, 0x69, 0x61, 0x73, 0x41, 0x64, 0x64, 0x3b, 0x43, 0x6f, 0x6e, 0x76, 0x32, 0x44, 0x3b, 0x73, 0x65, 0x71, 0x75, 0x65, 0x6e, 0x74, 0x69, 0x61, 0x6c, 0x2f, 0x71, 0x75, 0x61, 0x6e, 0x74, 0x5f, 0x63, 0x6f, 0x6e, 0x76, 0x32, 0x64, 0x5f, 0x31, 0x2f, 0x53, 0x74, 0x61, 0x74, 0x65, 0x66, 0x75, 0x6c, 0x50, 0x61, 0x72, 0x74, 0x69, 0x74, 0x69, 0x6f, 0x6e, 0x65, 0x64, 0x43, 0x61, 0x6c, 0x6c, 0x2f, 0x53, 0x74, 0x61, 0x74, 0x65, 0x66, 0x75, 0x6c, 0x50, 0x61, 0x72, 0x74, 0x69, 0x74, 0x69, 0x6f, 0x6e, 0x65, 0x64, 0x43, 0x61, 0x6c, 0x6c, 0x2f, 0x43, 0x6f, 0x6e, 0x76, 0x32, 0x44, 0x3b, 0x43, 0x6f, 0x6e, 0x76, 0x32, 0x44, 0x3b, 0x73, 0x65, 0x71, 0x75, 0x65, 0x6e, 0x74, 0x69, 0x61, 0x6c, 0x2f, 0x71, 0x75, 0x61, 0x6e, 0x74, 0x5f, 0x63, 0x6f, 0x6e, 0x76, 0x32, 0x64, 0x2f, 0x53, 0x74, 0x61, 0x74, 0x65, 0x66, 0x75, 0x6c, 0x50, 0x61, 0x72, 0x74, 0x69, 0x74, 0x69, 0x6f, 0x6e, 0x65, 0x64, 0x43, 0x61, 0x6c, 0x6c, 0x2f, 0x53, 0x74, 0x61, 0x74, 0x65, 0x66, 0x75, 0x6c, 0x50, 0x61, 0x72, 0x74, 0x69, 0x74, 0x69, 0x6f, 0x6e, 0x65, 0x64, 0x43, 0x61, 0x6c, 0x6c, 0x2f, 0x43, 0x6f, 0x6e, 0x76, 0x32, 0x44, 0x3b, 0x73, 0x65, 0x71, 0x75, 0x65, 0x6e, 0x74, 0x69, 0x61, 0x6c, 0x2f, 0x71, 0x75, 0x61, 0x6e, 0x74, 0x5f, 0x63, 0x6f, 0x6e, 0x76, 0x32, 0x64, 0x2f, 0x35, 0x33, 0x30, 0x37, 0x00, 0x00, 0x00, 0x00, 0x04, 0x00, 0x00, 0x00, 0x01, 0x00, 0x00, 0x00, 0x1e, 0x00, 0x00, 0x00, 0x1e, 0x00, 0x00, 0x00, 0x08, 0x00, 0x00, 0x00, 0xa2, 0xfd, 0xff, 0xff, 0x14, 0x00, 0x00, 0x00, 0x84, 0x00, 0x00, 0x00, 0x04, 0x00, 0x00, 0x00, 0x00, 0x00, 0x00, 0x02, 0x9c, 0x00, 0x00, 0x00, 0xf4, 0xfc, 0xff, 0xff, 0x08, 0x00, 0x00, 0x00, 0x48, 0x00, 0x00, 0x00, 0x08, 0x00, 0x00, 0x00, 0x00, 0x00, 0x00, 0x00, 0x00, 0x00, 0x00, 0x00, 0x00, 0x00, 0x00, 0x00, 0x00, 0x00, 0x00, 0x00, 0x00, 0x00, 0x00, 0x00, 0x00, 0x00, 0x00, 0x00, 0x00, 0x00, 0x00, 0x00, 0x00, 0x00, 0x00, 0x00, 0x00, 0x00, 0x00, 0x00, 0x00, 0x00, 0x00, 0x00, 0x00, 0x00, 0x00, 0x00, 0x00, 0x00, 0x00, 0x00, 0x00, 0x00, 0x00, 0x00, 0x00, 0x00, 0x00, 0x00, 0x00, 0x00, 0x00, 0x00, 0x00, 0x00, 0x00, 0x00, 0x08, 0x00, 0x00, 0x00, 0x49, 0x6f, 0x6c, 0x37, 0xd0, 0x6f, 0x8d, 0x37, 0xfb, 0xeb, 0xac, 0x37, 0xb9, 0xae, 0xa4, 0x37, 0x5b, 0xa7, 0xae, 0x37, 0x37, 0x58, 0x9f, 0x37, 0xcc, 0x5b, 0xb1, 0x37, 0x06, 0xf9, 0x81, 0x37, 0x1c, 0x00, 0x00, 0x00, 0x73, 0x65, 0x71, 0x75, 0x65, 0x6e, 0x74, 0x69, 0x61, 0x6c, 0x2f, 0x71, 0x75, 0x61, 0x6e, 0x74, 0x5f, 0x63, 0x6f, 0x6e, 0x76, 0x32, 0x64, 0x2f, 0x35, 0x33, 0x30, 0x37, 0x00, 0x00, 0x00, 0x00, 0x01, 0x00, 0x00, 0x00, 0x08, 0x00, 0x00, 0x00, 0x5a, 0xfe, 0xff, 0xff, 0x14, 0x00, 0x00, 0x00, 0x84, 0x00, 0x00, 0x00, 0x03, 0x00, 0x00, 0x00, 0x00, 0x00, 0x00, 0x09, 0x7c, 0x01, 0x00, 0x00, 0xac, 0xfd, 0xff, 0xff, 0x08, 0x00, 0x00, 0x00, 0x48, 0x00, 0x00, 0x00, 0x08, 0x00, 0x00, 0x00, 0x00, 0x00, 0x00, 0x00, 0x00, 0x00, 0x00, 0x00, 0x00, 0x00, 0x00, 0x00, 0x00, 0x00, 0x00, 0x00, 0x00, 0x00, 0x00, 0x00, 0x00, 0x00, 0x00, 0x00, 0x00, 0x00, 0x00, 0x00, 0x00, 0x00, 0x00, 0x00, 0x00, 0x00, 0x00, 0x00, 0x00, 0x00, 0x00, 0x00, 0x00, 0x00, 0x00, 0x00, 0x00, 0x00, 0x00, 0x00, 0x00, 0x00, 0x00, 0x00, 0x00, 0x00, 0x00, 0x00, 0x00, 0x00, 0x00, 0x00, 0x00, 0x00, 0x00, 0x00, 0x08, 0x00, 0x00, 0x00, 0xda, 0x82, 0x6b, 0x3b, 0x60, 0xe2, 0x8c, 0x3b, 0x0f, 0x3f, 0xac, 0x3b, 0x0a, 0x0a, 0xa4, 0x3b, 0xb3, 0xf8, 0xad, 0x3b, 0xdf, 0xb8, 0x9e, 0x3b, 0x70, 0xaa, 0xb0, 0x3b, 0x0d, 0x77, 0x81, 0x3b, 0xff, 0x00, 0x00, 0x00, 0x43, 0x6f, 0x6e, 0x76, 0x32, 0x44, 0x3b, 0x73, 0x65, 0x71, 0x75, 0x65, 0x6e, 0x74, 0x69, 0x61, 0x6c, 0x2f, 0x71, 0x75, 0x61, 0x6e, 0x74, 0x5f, 0x63, 0x6f, 0x6e, 0x76, 0x32, 0x64, 0x2f, 0x53, 0x74, 0x61, 0x74, 0x65, 0x66, 0x75, 0x6c, 0x50, 0x61, 0x72, 0x74, 0x69, 0x74, 0x69, 0x6f, 0x6e, 0x65, 0x64, 0x43, 0x61, 0x6c, 0x6c, 0x2f, 0x53, 0x74, 0x61, 0x74, 0x65, 0x66, 0x75, 0x6c, 0x50, 0x61, 0x72, 0x74, 0x69, 0x74, 0x69, 0x6f, 0x6e, 0x65, 0x64, 0x43, 0x61, 0x6c, 0x6c, 0x2f, 0x43, 0x6f, 0x6e, 0x76, 0x32, 0x44, 0x3b, 0x4c, 0x61, 0x73, 0x74, 0x56, 0x61, 0x6c, 0x75, 0x65, 0x51, 0x75, 0x61, 0x6e, 0x74, 0x2f, 0x46, 0x61, 0x6b, 0x65, 0x51, 0x75, 0x61, 0x6e, 0x74, 0x57, 0x69, 0x74, 0x68, 0x4d, 0x69, 0x6e, 0x4d, 0x61, 0x78, 0x56, 0x61, 0x72, 0x73, 0x50, 0x65, 0x72, 0x43, 0x68, 0x61, 0x6e, 0x6e, 0x65, 0x6c, 0x3b, 0x73, 0x65, 0x71, 0x75, 0x65, 0x6e, 0x74, 0x69, 0x61, 0x6c, 0x2f, 0x71, 0x75, 0x61, 0x6e, 0x74, 0x5f, 0x63, 0x6f, 0x6e, 0x76, 0x32, 0x64, 0x2f, 0x53, 0x74, 0x61, 0x74, 0x65, 0x66, 0x75, 0x6c, 0x50, 0x61, 0x72, 0x74, 0x69, 0x74, 0x69, 0x6f, 0x6e, 0x65, 0x64, 0x43, 0x61, 0x6c, 0x6c, 0x2f, 0x53, 0x74, 0x61, 0x74, 0x65, 0x66, 0x75, 0x6c, 0x50, 0x61, 0x72, 0x74, 0x69, 0x74, 0x69, 0x6f, 0x6e, 0x65, 0x64, 0x43, 0x61, 0x6c, 0x6c, 0x2f, 0x4c, 0x61, 0x73, 0x74, 0x56, 0x61, 0x6c, 0x75, 0x65, 0x51, 0x75, 0x61, 0x6e, 0x74, 0x2f, 0x46, 0x61, 0x6b, 0x65, 0x51, 0x75, 0x61, 0x6e, 0x74, 0x57, 0x69, 0x74, 0x68, 0x4d, 0x69, 0x6e, 0x4d, 0x61, 0x78, 0x56, 0x61, 0x72, 0x73, 0x50, 0x65, 0x72, 0x43, 0x68, 0x61, 0x6e, 0x6e, 0x65, 0x6c, 0x00, 0x04, 0x00, 0x00, 0x00, 0x08, 0x00, 0x00, 0x00, 0x03, 0x00, 0x00, 0x00, 0x03, 0x00, 0x00, 0x00, 0x01, 0x00, 0x00, 0x00, 0x00, 0x00, 0x0e, 0x00, 0x18, 0x00, 0x14, 0x00, 0x13, 0x00, 0x0c, 0x00, 0x08, 0x00, 0x04, 0x00, 0x0e, 0x00, 0x00, 0x00, 0x18, 0x00, 0x00, 0x00, 0x18, 0x00, 0x00, 0x00, 0x02, 0x00, 0x00, 0x00, 0x00, 0x00, 0x00, 0x02, 0x58, 0x00, 0x00, 0x00, 0x04, 0x00, 0x04, 0x00, 0x04, 0x00, 0x00, 0x00, 0x44, 0x00, 0x00, 0x00, 0x43, 0x6f, 0x6e, 0x73, 0x74, 0x3b, 0x73, 0x65, 0x71, 0x75, 0x65, 0x6e, 0x74, 0x69, 0x61, 0x6c, 0x2f, 0x71, 0x75, 0x61, 0x6e, 0x74, 0x5f, 0x66, 0x6c, 0x61, 0x74, 0x74, 0x65, 0x6e, 0x2f, 0x50, 0x61, 0x72, 0x74, 0x69, 0x74, 0x69, 0x6f, 0x6e, 0x65, 0x64, 0x43, 0x61, 0x6c, 0x6c, 0x2f, 0x50, 0x61, 0x72, 0x74, 0x69, 0x74, 0x69, 0x6f, 0x6e, 0x65, 0x64, 0x43, 0x61, 0x6c, 0x6c, 0x2f, 0x43, 0x6f, 0x6e, 0x73, 0x74, 0x00, 0x00, 0x00, 0x00, 0x01, 0x00, 0x00, 0x00, 0x02, 0x00, 0x00, 0x00, 0x14, 0x00, 0x1c, 0x00, 0x18, 0x00, 0x17, 0x00, 0x10, 0x00, 0x0c, 0x00, 0x08, 0x00, 0x00, 0x00, 0x00, 0x00, 0x04, 0x00, 0x14, 0x00, 0x00, 0x00, 0x18, 0x00, 0x00, 0x00, 0x34, 0x00, 0x00, 0x00, 0x50, 0x00, 0x00, 0x00, 0x01, 0x00, 0x00, 0x00, 0x00, 0x00, 0x00, 0x09, 0x50, 0x00, 0x00, 0x00, 0x04, 0x00, 0x00, 0x00, 0xff, 0xff, 0xff, 0xff, 0x20, 0x00, 0x00, 0x00, 0x20, 0x00, 0x00, 0x00, 0x01, 0x00, 0x00, 0x00, 0x0c, 0x00, 0x0c, 0x00, 0x00, 0x00, 0x00, 0x00, 0x08, 0x00, 0x04, 0x00, 0x0c, 0x00, 0x00, 0x00, 0x08, 0x00, 0x00, 0x00, 0x10, 0x00, 0x00, 0x00, 0x01, 0x00, 0x00, 0x00, 0x80, 0xff, 0xff, 0xff, 0xff, 0xff, 0xff, 0xff, 0x01, 0x00, 0x00, 0x00, 0x81, 0x80, 0x80, 0x3b, 0x07, 0x00, 0x00, 0x00, 0x69, 0x6e, 0x70, 0x75, 0x74, 0x5f, 0x31, 0x00, 0x04, 0x00, 0x00, 0x00, 0x01, 0x00, 0x00, 0x00, 0x20, 0x00, 0x00, 0x00, 0x20, 0x00, 0x00, 0x00, 0x01, 0x00, 0x00, 0x00, 0x04, 0x00, 0x00, 0x00, 0x54, 0x00, 0x00, 0x00, 0x34, 0x00, 0x00, 0x00, 0x24, 0x00, 0x00, 0x00, 0x04, 0x00, 0x00, 0x00, 0xc8, 0xff, 0xff, 0xff, 0x09, 0x00, 0x00, 0x00, 0x04, 0x00, 0x00, 0x00, 0x00, 0x00, 0x00, 0x09, 0x0c, 0x00, 0x0c, 0x00, 0x0b, 0x00, 0x00, 0x00, 0x00, 0x00, 0x04, 0x00, 0x0c, 0x00, 0x00, 0x00, 0x16, 0x00, 0x00, 0x00, 0x00, 0x00, 0x00, 0x16, 0xf0, 0xff, 0xff, 0xff, 0x11, 0x00, 0x00, 0x00, 0x02, 0x00, 0x00, 0x00, 0x00, 0x00, 0x00, 0x11, 0x0c, 0x00, 0x10, 0x00, 0x0f, 0x00, 0x00, 0x00, 0x08, 0x00, 0x04, 0x00, 0x0c, 0x00, 0x00, 0x00, 0x03, 0x00, 0x00, 0x00, 0x03, 0x00, 0x00, 0x00, 0x00, 0x00, 0x00, 0x03};
const int model_data_len = 12304;