const unsigned char model_data[] __attribute__((aligned(8))) = {0x1c, 0x00, 0x00, 0x00, 0x54, 0x46, 0x4c, 0x33, 0x14, 0x00, 0x20, 0x00, 0x1c, 0x00, 0x18, 0x00, 0x14, 0x00, 0x10, 0x00, 0x0c, 0x00, 0x00, 0x00, 0x08, 0x00, 0x04, 0x00, 0x14, 0x00, 0x00, 0x00, 0x1c, 0x00, 0x00, 0x00, 0x1c, 0x00, 0x00, 0x00, 0x4c, 0x00, 0x00, 0x00, 0xdc, 0x0a, 0x00, 0x00, 0xec, 0x0a, 0x00, 0x00, 0xf4, 0x1a, 0x00, 0x00, 0x03, 0x00, 0x00, 0x00, 0x00, 0x00, 0x00, 0x00, 0x01, 0x00, 0x00, 0x00, 0x0c, 0x00, 0x00, 0x00, 0x08, 0x00, 0x0c, 0x00, 0x08, 0x00, 0x04, 0x00, 0x08, 0x00, 0x00, 0x00, 0x0f, 0x00, 0x00, 0x00, 0x04, 0x00, 0x00, 0x00, 0x13, 0x00, 0x00, 0x00, 0x6d, 0x69, 0x6e, 0x5f, 0x72, 0x75, 0x6e, 0x74, 0x69, 0x6d, 0x65, 0x5f, 0x76, 0x65, 0x72, 0x73, 0x69, 0x6f, 0x6e, 0x00, 0x10, 0x00, 0x00, 0x00, 0x8c, 0x0a, 0x00, 0x00, 0x84, 0x0a, 0x00, 0x00, 0x6c, 0x0a, 0x00, 0x00, 0x0c, 0x0a, 0x00, 0x00, 0xdc, 0x09, 0x00, 0x00, 0xd4, 0x09, 0x00, 0x00, 0xcc, 0x09, 0x00, 0x00, 0x3c, 0x05, 0x00, 0x00, 0xec, 0x04, 0x00, 0x00, 0xe4, 0x04, 0x00, 0x00, 0xdc, 0x04, 0x00, 0x00, 0xd4, 0x04, 0x00, 0x00, 0x44, 0x00, 0x00, 0x00, 0x2c, 0x00, 0x00, 0x00, 0x24, 0x00, 0x00, 0x00, 0x04, 0x00, 0x00, 0x00, 0xd2, 0xf5, 0xff, 0xff, 0x04, 0x00, 0x00, 0x00, 0x10, 0x00, 0x00, 0x00, 0x31, 0x2e, 0x31, 0x34, 0x2e, 0x30, 0x00, 0x00, 0x00, 0x00, 0x00, 0x00, 0x00, 0x00, 0x00, 0x00, 0x98, 0xe6, 0xff, 0xff, 0xf2, 0xf5, 0xff, 0xff, 0x04, 0x00, 0x00, 0x00, 0x08, 0x00, 0x00, 0x00, 0x0b, 0x03, 0x00, 0x00, 0xf5, 0xfc, 0xff, 0xff, 0x06, 0xf6, 0xff, 0xff, 0x04, 0x00, 0x00, 0x00, 0x80, 0x04, 0x00, 0x00, 0x03, 0x02, 0xf6, 0x0e, 0x08, 0x01, 0x01, 0xfa, 0x07, 0x0d, 0xfc, 0xee, 0x01, 0x1d, 0x13, 0xff, 0xf8, 0xfa, 0xe2, 0x13, 0xeb, 0xe2, 0x12, 0x09, 0xdf, 0x21, 0x06, 0xf7, 0xec, 0x0c, 0x09, 0xda, 0xf9, 0xdf, 0xdc, 0xf2, 0xd7, 0xba, 0xff, 0xe4, 0x15, 0x13, 0x16, 0xda, 0x1a, 0xe7, 0xdb, 0xdd, 0xe7, 0xd2, 0xd8, 0xb8, 0xe7, 0xeb, 0xf5, 0xff, 0xb7, 0xba, 0x04, 0x11, 0xe4, 0xe8, 0xfb, 0xe3, 0xe2, 0x07, 0xec, 0x0a, 0x0d, 0xf3, 0x05, 0x23, 0x03, 0xe1, 0x10, 0xe3, 0xf6, 0xd5, 0x1f, 0xde, 0xc2, 0x14, 0xef, 0xe9, 0x14, 0xe8, 0xed, 0x2b, 0xf2, 0xbc, 0x05, 0xeb, 0xb5, 0xd8, 0x04, 0xb5, 0x58, 0x35, 0x44, 0x21, 0x36, 0x30, 0x31, 0x58, 0x68, 0x44, 0x00, 0x08, 0x16, 0x0b, 0x1b, 0x19, 0x53, 0x30, 0x29, 0x2c, 0xe3, 0xef, 0x2a, 0xea, 0x45, 0x3c, 0xe1, 0x0c, 0x3b, 0xfa, 0xf3, 0xf2, 0xcc, 0xef, 0x10, 0xee, 0x00, 0x1b, 0x01, 0xf5, 0x0b, 0x05, 0x23, 0xfd, 0xcb, 0xf9, 0x31, 0x19, 0xfd, 0x03, 0x11, 0x1a, 0x12, 0xf1, 0x06, 0xc8, 0x07, 0xf8, 0x0d, 0x21, 0xfa, 0x15, 0xf4, 0x2a, 0x26, 0x01, 0xfe, 0xb5, 0x17, 0xf9, 0x17, 0x0a, 0x18, 0x25, 0xd0, 0x25, 0xe5, 0x25, 0x11, 0x1e, 0xff, 0x20, 0x27, 0xcf, 0x21, 0xf1, 0x28, 0xf6, 0x12, 0xf0, 0x10, 0xe0, 0xf6, 0x00, 0xe8, 0xfe, 0xf5, 0xfd, 0x03, 0xfd, 0x27, 0xde, 0x29, 0xfa, 0xfe, 0xdd, 0xce, 0x19, 0xde, 0xf6, 0x02, 0x12, 0x10, 0xe5, 0xf0, 0xe1, 0x10, 0xf4, 0x1f, 0xee, 0x1c, 0x06, 0x0c, 0xe6, 0xd1, 0xdb, 0xfe, 0xec, 0xd4, 0x0b, 0xe7, 0x12, 0xd4, 0x05, 0xfc, 0xe7, 0x3b, 0x0d, 0xfb, 0xfd, 0x12, 0xea, 0xed, 0x0d, 0xf6, 0xf6, 0x09, 0xcd, 0x15, 0xf4, 0xf1, 0xe8, 0x31, 0x05, 0xe4, 0xde, 0xcc, 0x13, 0x00, 0x10, 0xf4, 0xe2, 0xee, 0xeb, 0xf6, 0xf6, 0x1b, 0xf9, 0x2e, 0xee, 0xf9, 0x2b, 0xf9, 0xde, 0xd2, 0xda, 0xe8, 0x0c, 0xdb, 0xe9, 0xf4, 0x17, 0x3a, 0xf9, 0xfe, 0xdc, 0x07, 0xe3, 0xdc, 0xff, 0xf1, 0x13, 0x10, 0x0f, 0xfc, 0xe7, 0xf8, 0xf3, 0x06, 0xd7, 0x36, 0x18, 0xf0, 0xf0, 0xe7, 0x10, 0xcf, 0xee, 0x07, 0xd9, 0xd2, 0xea, 0xf6, 0x15, 0x11, 0x0d, 0xf6, 0x14, 0xdb, 0xdb, 0xd3, 0xf6, 0xe2, 0xe4, 0x11, 0xe8, 0xd4, 0xdc, 0x05, 0x0c, 0x1d, 0xf2, 0x14, 0x0d, 0x03, 0x04, 0x03, 0xfe, 0xed, 0xfb, 0x19, 0x00, 0xe6, 0xe9, 0x11, 0x10, 0x33, 0xf2, 0xfe, 0x1e, 0x0d, 0xf6, 0x0c, 0xf0, 0x01, 0xe5, 0x1d, 0x01, 0x11, 0x25, 0x19, 0x02, 0x48, 0xe6, 0x28, 0xc3, 0x08, 0xf1, 0xfa, 0xe5, 0xf6, 0x15, 0x15, 0xda, 0x17, 0xfe, 0xf7, 0xdd, 0x21, 0xec, 0x2b, 0xee, 0xf7, 0x09, 0xdc, 0xf3, 0xec, 0xfb, 0xfc, 0xe9, 0xdc, 0x01, 0x05, 0xfe, 0x16, 0xec, 0xfe, 0xf5, 0xbb, 0x00, 0xef, 0xd3, 0xfd, 0x04, 0xfd, 0xe7, 0xf7, 0xf3, 0xf0, 0xd5, 0x10, 0xda, 0x16, 0xc5, 0xeb, 0x04, 0xdc, 0xf7, 0xdd, 0xf1, 0xdb, 0x0b, 0xe1, 0xec, 0xff, 0xf5, 0xf8, 0xe5, 0x0f, 0x04, 0xac, 0x09, 0xd0, 0xb5, 0xba, 0xeb, 0xe3, 0x09, 0xd0, 0x06, 0xb6, 0xfa, 0xed, 0xe4, 0x2a, 0xe1, 0x81, 0xe1, 0xcb, 0xa6, 0x9e, 0x1b, 0xee, 0xf3, 0xcd, 0xdb, 0xbb, 0xfa, 0x2f, 0x04, 0x01, 0x16, 0xb0, 0x0f, 0xb3, 0xf8, 0xfe, 0x04, 0xeb, 0xf4, 0xe7, 0xf2, 0x2b, 0x10, 0x16, 0x0e, 0xfe, 0x16, 0xe9, 0xf3, 0x0d, 0x08, 0xfb, 0xe7, 0xe1, 0x1d, 0x06, 0x1d, 0x1b, 0x10, 0x4a, 0xe2, 0x35, 0xfa, 0xcd, 0xe9, 0x1e, 0xcf, 0xbc, 0x2c, 0xfb, 0xa2, 0xfc, 0xc6, 0xbd, 0xd0, 0x26, 0x9f, 0x17, 0xb8, 0x81, 0xe4, 0xa2, 0xb8, 0x91, 0x09, 0xd7, 0xdb, 0x2a, 0xd0, 0xf8, 0xef, 0x37, 0xc5, 0x00, 0x06, 0x03, 0xfc, 0xac, 0x0a, 0xd0, 0xf4, 0xbf, 0xc1, 0x2d, 0xd0, 0x12, 0xe4, 0x09, 0xf2, 0x0f, 0x14, 0x3a, 0xd0, 0x32, 0x34, 0xf7, 0xea, 0xfe, 0xa4, 0x18, 0xa8, 0x2a, 0x06, 0x33, 0x2f, 0x0f, 0x40, 0x38, 0x1c, 0x0f, 0x00, 0xf4, 0x0f, 0x13, 0x0e, 0xfc, 0x01, 0x0f, 0xff, 0x04, 0xe9, 0x00, 0xfe, 0xbd, 0x12, 0xee, 0xed, 0xca, 0xd3, 0x03, 0x00, 0xf5, 0x0a, 0x07, 0xfd, 0xfd, 0xf8, 0x08, 0x0e, 0xf3, 0xed, 0xff, 0x15, 0x12, 0x00, 0x19, 0x22, 0x18, 0xd9, 0xff, 0x19, 0x1f, 0x16, 0xdb, 0x0c, 0x07, 0xf4, 0xf5, 0x0e, 0x20, 0x22, 0x16, 0x15, 0x15, 0x27, 0x23, 0x26, 0x0e, 0x3e, 0x25, 0xcb, 0x04, 0x11, 0x05, 0x17, 0x09, 0x11, 0x29, 0x0f, 0x17, 0x23, 0x0e, 0xf3, 0x2c, 0xea, 0x4a, 0x0a, 0xfa, 0x11, 0x29, 0x2e, 0xfc, 0xff, 0xff, 0x04, 0xe8, 0xd8, 0xf5, 0x28, 0x0b, 0x0d, 0xf5, 0x17, 0x0b, 0x00, 0x16, 0x1c, 0xfc, 0x20, 0x09, 0x0d, 0x1a, 0x15, 0xf3, 0xfd, 0x3e, 0xdb, 0x0a, 0x3d, 0xd1, 0x15, 0x2d, 0x0a, 0xde, 0x1a, 0xb2, 0xc8, 0x9c, 0xc9, 0xae, 0xcb, 0xd2, 0xdc, 0xde, 0xae, 0xfc, 0xc0, 0xb9, 0xe1, 0xda, 0xba, 0xe7, 0xe0, 0xc8, 0x12, 0x29, 0xef, 0xe4, 0xf4, 0xee, 0xbe, 0x40, 0x2a, 0xf1, 0x1b, 0x23, 0x0f, 0x3a, 0x0e, 0x1d, 0xe2, 0xe8, 0x16, 0xd5, 0xed, 0xdb, 0x15, 0xe8, 0xcc, 0x2d, 0xf7, 0xe7, 0x19, 0xcd, 0x08, 0xf1, 0xe2, 0xb9, 0x08, 0xf6, 0x33, 0xde, 0xf2, 0x14, 0xe4, 0x0e, 0x02, 0xd2, 0xcd, 0xe0, 0x08, 0xe5, 0x56, 0xfc, 0xe9, 0xca, 0xe6, 0xda, 0xe6, 0xed, 0x06, 0x00, 0x11, 0xe3, 0xf3, 0xff, 0xfa, 0xea, 0x5a, 0xfa, 0x20, 0x06, 0xe0, 0xfc, 0x1f, 0x07, 0xf4, 0xf9, 0xec, 0x0d, 0x03, 0x20, 0x2e, 0xed, 0xf3, 0x1b, 0x05, 0xd2, 0x0f, 0x09, 0x19, 0x21, 0x02, 0xf8, 0xec, 0x06, 0xea, 0xfb, 0x11, 0x1c, 0x20, 0x13, 0x18, 0xe5, 0xf9, 0xd9, 0xfb, 0x21, 0xda, 0x28, 0x2a, 0x34, 0xf4, 0x19, 0xfc, 0x01, 0xe6, 0x04, 0x1f, 0x06, 0xf4, 0xe5, 0x2f, 0x1f, 0xf8, 0x2f, 0x08, 0x12, 0x0a, 0x07, 0x1f, 0xed, 0x01, 0x11, 0x08, 0xce, 0x0f, 0xd2, 0x28, 0x00, 0x09, 0x3c, 0x2d, 0x2d, 0xf6, 0x07, 0x17, 0x25, 0xf9, 0xff, 0x0e, 0xf9, 0x2f, 0xde, 0x40, 0x08, 0x08, 0x29, 0x11, 0x05, 0x2a, 0xe6, 0xfb, 0x2a, 0xf1, 0x29, 0x13, 0xe7, 0x28, 0xf4, 0x03, 0x12, 0x0c, 0xee, 0x2c, 0xfb, 0xf9, 0x1c, 0xf1, 0xf8, 0x25, 0x0d, 0xf3, 0xe1, 0xfb, 0xcf, 0x2b, 0xe6, 0xdf, 0x08, 0xfb, 0xf6, 0x00, 0x1a, 0xfd, 0x1d, 0x19, 0x04, 0xe4, 0xeb, 0x19, 0xdf, 0xfd, 0x09, 0x09, 0xee, 0x1e, 0x16, 0x12, 0x23, 0x1c, 0x15, 0xe3, 0x0b, 0x01, 0xde, 0x12, 0xe1, 0x1f, 0x24, 0xdd, 0xf3, 0x28, 0xf7, 0xf0, 0x0d, 0x02, 0xfa, 0xef, 0x1f, 0x0c, 0xc9, 0xf4, 0xe4, 0x11, 0xf7, 0xe9, 0xf1, 0x05, 0x09, 0x00, 0xf3, 0xf9, 0x10, 0x0a, 0x13, 0x1b, 0xf5, 0xdb, 0xb7, 0x01, 0x14, 0x1d, 0x1e, 0xf9, 0xed, 0xf7, 0x2b, 0x1b, 0x27, 0x25, 0x0e, 0xec, 0xc8, 0x12, 0xee, 0x13, 0x0f, 0xf5, 0xed, 0x21, 0x25, 0x07, 0xf1, 0xf4, 0xfd, 0xe8, 0x04, 0x14, 0x04, 0x06, 0xd0, 0x2a, 0x53, 0x07, 0x19, 0x2d, 0x43, 0xff, 0xef, 0x25, 0x18, 0x14, 0x2f, 0x1b, 0x17, 0x14, 0xf7, 0x26, 0x46, 0x03, 0x03, 0x35, 0x2c, 0xf1, 0xf2, 0x07, 0x2e, 0xf3, 0x0c, 0xfc, 0xdc, 0x17, 0xd4, 0x1c, 0x37, 0x12, 0x2a, 0x3e, 0x4b, 0x0a, 0x25, 0xeb, 0x0e, 0xf6, 0x62, 0x14, 0xdc, 0x53, 0x0e, 0x10, 0x49, 0x39, 0x2e, 0x5f, 0x4a, 0x1f, 0xfd, 0x13, 0x25, 0xfe, 0x19, 0xee, 0xdc, 0x32, 0xe6, 0x26, 0x3a, 0xe1, 0x57, 0x2f, 0x12, 0xf1, 0x1f, 0x15, 0x29, 0xfb, 0x13, 0xe7, 0xef, 0xf7, 0xcc, 0x1d, 0x14, 0xec, 0x1e, 0xfe, 0xe6, 0xf3, 0x1b, 0xf8, 0xfd, 0xf5, 0x19, 0x15, 0xba, 0x17, 0xba, 0x2a, 0x22, 0xf4, 0xe0, 0x26, 0x38, 0x19, 0x20, 0x46, 0x19, 0x25, 0x61, 0x0a, 0xfd, 0x5f, 0x13, 0x1e, 0x7c, 0x2c, 0x35, 0x43, 0x53, 0x11, 0xf3, 0x43, 0xf4, 0x39, 0xef, 0x4d, 0xf5, 0x2a, 0x08, 0xdb, 0x10, 0x22, 0x44, 0xe1, 0x22, 0x3e, 0x34, 0x4b, 0x03, 0x29, 0xb9, 0x3c, 0xdf, 0xe9, 0xdb, 0xd8, 0x0d, 0x31, 0xf9, 0xdf, 0xf3, 0x1d, 0x2a, 0x55, 0x10, 0x38, 0xaf, 0xcf, 0x00, 0x00, 0xff, 0xe7, 0xc1, 0xd9, 0xce, 0xcf, 0x04, 0xf3, 0xf4, 0x0b, 0x16, 0x22, 0x33, 0xfa, 0x01, 0x11, 0xca, 0x14, 0x4d, 0x0b, 0x09, 0xf6, 0x35, 0xe6, 0x3c, 0xeb, 0xff, 0xff, 0x40, 0xeb, 0xff, 0xff, 0x44, 0xeb, 0xff, 0xff, 0x9e, 0xfa, 0xff, 0xff, 0x04, 0x00, 0x00, 0x00, 0x40, 0x00, 0x00, 0x00, 0x9f, 0xfe, 0xff, 0xff, 0x15, 0xff, 0xff, 0xff, 0xc0, 0xfe, 0xff, 0xff, 0xde, 0xff, 0xff, 0xff, 0xfd, 0xff, 0xff, 0xff, 0xd2, 0xfe, 0xff, 0xff, 0x60, 0x02, 0x00, 0x00, 0x4a, 0xff, 0xff, 0xff, 0x39, 0x01, 0x00, 0x00, 0xa4, 0x00, 0x00, 0x00, 0xf0, 0xff, 0xff, 0xff, 0x9e, 0xff, 0xff, 0xff, 0x9d, 0xff, 0xff, 0xff, 0x6c, 0xff, 0xff, 0xff, 0xb1, 0xff, 0xff, 0xff, 0xd6, 0xfd, 0xff, 0xff, 0xea, 0xfa, 0xff, 0xff, 0x04, 0x00, 0x00, 0x00, 0x80, 0x04, 0x00, 0x00, 0x47, 0x25, 0xf8, 0x22, 0x1e, 0x41, 0x26, 0x3e, 0x60, 0xca, 0x53, 0x24, 0x62, 0x27, 0xda, 0x19, 0xb1, 0x1c, 0xaf, 0x0d, 0xbd, 0xd8, 0x0b, 0xda, 0x01, 0x99, 0xd3, 0xc6, 0x03, 0xc8, 0xe7, 0xc5, 0xc9, 0x81, 0x59, 0x0c, 0xba, 0xa1, 0xf8, 0xc1, 0xa9, 0x90, 0x12, 0x0e, 0xf4, 0xad, 0x22, 0x92, 0xfd, 0xb6, 0xcd, 0xff, 0x8b, 0xf4, 0xaf, 0xe9, 0xc1, 0xee, 0x8b, 0x08, 0xde, 0xa4, 0xb7, 0xe5, 0x23, 0xbe, 0xb7, 0xd0, 0xf4, 0xf5, 0x03, 0xff, 0x40, 0x3e, 0x60, 0xf2, 0x0a, 0xed, 0xda, 0x45, 0xf4, 0x1f, 0x23, 0x0c, 0x27, 0x4d, 0xe7, 0xe8, 0xf5, 0x25, 0xd4, 0x0b, 0x30, 0xef, 0xd9, 0x27, 0x39, 0x43, 0x63, 0xd6, 0x7f, 0x62, 0x08, 0xbd, 0x56, 0x1b, 0x5d, 0x45, 0xdb, 0x4b, 0x45, 0xfe, 0xfe, 0xfb, 0x48, 0x06, 0xec, 0x28, 0x19, 0xb0, 0xfc, 0xea, 0x62, 0x49, 0xcb, 0x16, 0xf1, 0x0a, 0xb6, 0x88, 0x52, 0xb1, 0xe6, 0xeb, 0xfd, 0xd5, 0x1d, 0x06, 0xd8, 0xbc, 0xad, 0xe5, 0x0a, 0xf7, 0xd9, 0xcc, 0x4c, 0x23, 0x4a, 0x45, 0x20, 0x3f, 0x4e, 0xfc, 0xe8, 0x17, 0x5e, 0xc1, 0xed, 0xd1, 0x4c, 0xe9, 0x4b, 0xe4, 0x07, 0xfe, 0xec, 0xc9, 0xc7, 0xd6, 0x27, 0xc3, 0xd7, 0xf5, 0x33, 0xec, 0xed, 0x91, 0x3c, 0x0d, 0xe2, 0xaf, 0xc7, 0x08, 0xab, 0xc4, 0x1b, 0xed, 0xec, 0xe9, 0xd6, 0xee, 0x0f, 0x21, 0x22, 0xc6, 0xd4, 0xbd, 0xdc, 0xfc, 0xf3, 0x29, 0xe4, 0xe1, 0x97, 0xd9, 0xe2, 0x81, 0x1d, 0x56, 0xa0, 0x48, 0x07, 0xcc, 0x3d, 0x0f, 0xf9, 0x43, 0x1d, 0x15, 0xe9, 0x01, 0x18, 0xf6, 0xfb, 0xd9, 0xed, 0xea, 0xfd, 0xe9, 0xd8, 0xf1, 0x0d, 0xd3, 0xe8, 0xf5, 0xea, 0xe3, 0x13, 0x0b, 0x3b, 0x1f, 0x2c, 0x3e, 0x56, 0x7f, 0x63, 0x2f, 0x14, 0x27, 0x03, 0xe5, 0x20, 0x0a, 0x09, 0x0b, 0x0c, 0xbe, 0xdd, 0xd6, 0xe5, 0xe0, 0x1a, 0xf5, 0x1d, 0xd9, 0xf5, 0x04, 0x0b, 0x11, 0x05, 0x1d, 0x31, 0xcf, 0x07, 0xd7, 0x20, 0xec, 0x10, 0x09, 0xd6, 0x05, 0x06, 0x0a, 0x13, 0xf3, 0xda, 0xd0, 0x00, 0x11, 0xec, 0xdb, 0x10, 0x02, 0xd9, 0x11, 0x17, 0xf9, 0x15, 0xed, 0xef, 0xcd, 0xe5, 0xf9, 0x4b, 0xd8, 0x20, 0x1b, 0x1f, 0x03, 0x04, 0x0e, 0x38, 0xe1, 0x4c, 0x0b, 0xdb, 0x2f, 0xe3, 0xf5, 0x08, 0x04, 0x2f, 0xf5, 0xfe, 0x01, 0xf7, 0xe0, 0xe9, 0xdd, 0xff, 0xea, 0xf8, 0x31, 0x1c, 0xef, 0xfc, 0x60, 0x0c, 0x1f, 0x09, 0xf4, 0x49, 0xd6, 0xfd, 0x38, 0x46, 0x67, 0x1b, 0x7f, 0x63, 0x15, 0x27, 0x1c, 0x10, 0x04, 0x15, 0x3e, 0x17, 0xd7, 0xf9, 0xbb, 0x10, 0xdb, 0x1d, 0xd1, 0x06, 0xdf, 0x05, 0xed, 0xca, 0xda, 0x2e, 0x4e, 0x23, 0x23, 0x75, 0x04, 0x19, 0x15, 0x3d, 0xac, 0x34, 0xdd, 0x14, 0x81, 0x15, 0xdb, 0x8f, 0xc8, 0xb6, 0xb2, 0xc6, 0x9f, 0xa0, 0xb0, 0xe6, 0x1b, 0x22, 0x1d, 0x23, 0x1f, 0xd3, 0x17, 0x2a, 0x66, 0x08, 0x8f, 0x0c, 0x30, 0x3d, 0xf6, 0xca, 0xc6, 0x41, 0xf5, 0x03, 0xcc, 0x9c, 0x31, 0x0f, 0x93, 0xd2, 0x18, 0xb4, 0x0f, 0x4a, 0xe1, 0x0d, 0x9d, 0x06, 0x40, 0xa6, 0x38, 0x10, 0x27, 0x1a, 0xfb, 0xcd, 0xf9, 0xee, 0xf2, 0xfe, 0xc1, 0x2f, 0xd8, 0xe6, 0x9c, 0xea, 0x20, 0xc2, 0x0f, 0xed, 0x91, 0xe4, 0xc9, 0x20, 0xde, 0xfc, 0x9d, 0xfe, 0x1c, 0xe8, 0xb9, 0x2f, 0xd1, 0xe3, 0xc1, 0x2b, 0xc6, 0xae, 0xc3, 0xc6, 0x27, 0xed, 0x9d, 0xec, 0xe3, 0x13, 0xb0, 0x66, 0xb4, 0x7f, 0x33, 0x01, 0xbc, 0xcc, 0x35, 0xe3, 0xd5, 0x30, 0x5c, 0xab, 0xc7, 0xe7, 0x18, 0xa8, 0x4c, 0xb1, 0x1a, 0xed, 0xd4, 0x85, 0xe4, 0xe0, 0xd4, 0x09, 0x1a, 0x21, 0xfb, 0x2e, 0xee, 0x11, 0x11, 0xe5, 0x25, 0x00, 0x15, 0xf3, 0xfc, 0x29, 0xfb, 0xf3, 0x0a, 0x05, 0x21, 0xf4, 0xf4, 0x1a, 0x0c, 0xdb, 0xdb, 0xd5, 0xf1, 0x1e, 0xd3, 0xb5, 0x31, 0xca, 0x3c, 0x37, 0xe7, 0xda, 0x30, 0x47, 0x63, 0x60, 0x44, 0x62, 0x7f, 0x35, 0xdf, 0xf5, 0x3f, 0xef, 0x19, 0x37, 0xfa, 0x34, 0x33, 0x35, 0x30, 0x09, 0x62, 0xf6, 0x22, 0x4d, 0x2f, 0xda, 0xdc, 0x33, 0x26, 0xe4, 0x29, 0xe9, 0x43, 0xe7, 0xf8, 0xd5, 0x2e, 0x42, 0x15, 0x00, 0x0c, 0x0a, 0x11, 0xdf, 0xfc, 0xe7, 0x1d, 0xee, 0xf8, 0xc4, 0xc1, 0xf0, 0xe7, 0x22, 0xfa, 0xe0, 0xe6, 0x6f, 0xe2, 0x7f, 0x2e, 0x3f, 0x2b, 0x3b, 0xce, 0xf8, 0x9a, 0x20, 0xba, 0x02, 0x25, 0xde, 0x1a, 0xd3, 0xcc, 0xd7, 0x9c, 0x05, 0xa4, 0xcc, 0xa0, 0x10, 0xe5, 0x2b, 0xc9, 0xf6, 0xd7, 0x21, 0xfe, 0x19, 0xc1, 0xfe, 0xaf, 0x07, 0xf9, 0x11, 0xb1, 0xee, 0x22, 0x19, 0xdc, 0xed, 0xfc, 0x1c, 0xb7, 0xf8, 0x36, 0xdb, 0xf7, 0x57, 0x06, 0x44, 0x65, 0xba, 0x87, 0x14, 0xd6, 0xf5, 0x6b, 0x05, 0xc1, 0xa3, 0xad, 0xac, 0x93, 0xb3, 0xaf, 0xa7, 0x00, 0x1b, 0xf0, 0x91, 0xc5, 0x19, 0xf3, 0xab, 0xbd, 0xb7, 0xeb, 0x2d, 0xb9, 0x2e, 0xc7, 0x43, 0xad, 0x0e, 0x9f, 0xbd, 0xf5, 0xfa, 0x91, 0x15, 0x96, 0xda, 0x77, 0x02, 0x57, 0x03, 0xff, 0xfe, 0x81, 0x3d, 0xbc, 0xa5, 0x63, 0xea, 0x52, 0x40, 0x4d, 0x09, 0x6f, 0xec, 0x74, 0xcd, 0x7d, 0x06, 0xd3, 0x1c, 0x1a, 0xf5, 0xfe, 0xe9, 0xfd, 0xe4, 0xf8, 0x04, 0x05, 0x14, 0xd7, 0xd4, 0x04, 0xdb, 0xe1, 0xfd, 0xd2, 0xd5, 0x2d, 0xee, 0xfb, 0xe4, 0x15, 0xee, 0x20, 0xf7, 0x14, 0xdb, 0xf5, 0xd3, 0xdb, 0x24, 0x3e, 0xe0, 0xff, 0xfe, 0xd6, 0x1a, 0x31, 0xf2, 0x23, 0xeb, 0x29, 0xde, 0x15, 0xdf, 0x0e, 0x29, 0x11, 0x1e, 0x29, 0xf5, 0x46, 0x2a, 0x0c, 0x78, 0x7f, 0x2e, 0x71, 0x41, 0x28, 0x23, 0x1b, 0x3a, 0x30, 0x31, 0x58, 0x20, 0x27, 0x44, 0x6d, 0xaa, 0x8d, 0x9e, 0x90, 0x13, 0x3a, 0xc5, 0x06, 0xaf, 0xab, 0xfb, 0xb7, 0x20, 0xcc, 0xc1, 0x72, 0xdd, 0xe0, 0x1d, 0x41, 0x49, 0x7f, 0xf0, 0xf9, 0x31, 0xb4, 0xd8, 0xe6, 0xe5, 0x3d, 0x13, 0xfb, 0x43, 0x60, 0xaf, 0x15, 0x59, 0x0e, 0x2e, 0x3b, 0xb2, 0xda, 0xb3, 0xae, 0xdf, 0xf1, 0xc6, 0xbd, 0xe9, 0x2f, 0xe8, 0x1e, 0x19, 0xaf, 0x01, 0x1c, 0x4f, 0xc1, 0x50, 0x73, 0x24, 0xf5, 0xe0, 0x1d, 0xf1, 0xed, 0xa7, 0x31, 0x3a, 0x0f, 0xa1, 0x15, 0x4b, 0xd9, 0x10, 0xe9, 0x0f, 0xf1, 0xe0, 0x31, 0x38, 0xac, 0xc2, 0xdb, 0xc9, 0x29, 0x2f, 0x27, 0xd2, 0xb6, 0xcd, 0xd4, 0xbc, 0x19, 0x03, 0x24, 0x3b, 0x0c, 0x4d, 0xca, 0xf8, 0x42, 0x32, 0xac, 0xec, 0xa2, 0xcb, 0x0d, 0x20, 0xc3, 0xe7, 0x22, 0xb9, 0x8f, 0x88, 0xf6, 0x0c, 0x94, 0xa5, 0xec, 0x5f, 0x7f, 0x17, 0x58, 0xda, 0x56, 0x5c, 0xff, 0xfc, 0x01, 0xb5, 0x45, 0x19, 0x2d, 0x2e, 0x02, 0xf0, 0xf4, 0xc6, 0x49, 0xcc, 0xd1, 0xfa, 0xfc, 0xed, 0xd0, 0x07, 0xf9, 0xfe, 0xf3, 0x1a, 0x16, 0x02, 0x10, 0xb8, 0xf2, 0x49, 0xd9, 0xeb, 0x35, 0x11, 0xa9, 0x00, 0x3a, 0x1e, 0x1d, 0xd2, 0x27, 0xd6, 0x1f, 0x3f, 0x10, 0xfb, 0x32, 0xdf, 0xa8, 0x1e, 0x9e, 0x1f, 0x1e, 0xcd, 0xe1, 0xed, 0xa0, 0xb2, 0x02, 0xa6, 0x0f, 0xbb, 0xc3, 0xf9, 0x81, 0x04, 0x44, 0xba, 0xc8, 0xe9, 0x4a, 0x2e, 0xac, 0x05, 0x15, 0x12, 0xfa, 0xe5, 0xc1, 0x00, 0x0f, 0xf2, 0x7f, 0x0b, 0x46, 0x34, 0x51, 0x01, 0x23, 0x11, 0xf7, 0x11, 0xdd, 0xea, 0xe2, 0x23, 0x16, 0xdf, 0x54, 0xfc, 0x40, 0x1c, 0xdd, 0x1b, 0xf1, 0x2a, 0x46, 0x50, 0x37, 0x1f, 0xe1, 0x05, 0xfc, 0xe9, 0xdb, 0x23, 0xfd, 0xda, 0x1e, 0xd1, 0x0f, 0x2a, 0x42, 0xfb, 0xfb, 0xff, 0xec, 0x0e, 0x09, 0x41, 0x17, 0x71, 0x42, 0x0f, 0x24, 0x36, 0x13, 0x06, 0xec, 0x04, 0xe3, 0x23, 0x2c, 0x11, 0xff, 0x21, 0x25, 0x30, 0x50, 0xf1, 0x4c, 0x09, 0x3e, 0x50, 0xea, 0x7f, 0x53, 0x28, 0x57, 0x68, 0x1e, 0xf8, 0xa8, 0xe9, 0x31, 0x43, 0x21, 0x14, 0xf6, 0xd3, 0xa6, 0x3d, 0xc4, 0x1b, 0x2e, 0xc7, 0x2c, 0x4a, 0xbe, 0x35, 0xd8, 0x6c, 0x1f, 0x08, 0x3b, 0xd8, 0xe1, 0x10, 0x17, 0xd4, 0xd8, 0xdb, 0x0c, 0xa8, 0x82, 0x11, 0xcd, 0x98, 0x99, 0xbf, 0x9e, 0x07, 0xf6, 0xc6, 0x8f, 0xdb, 0xc7, 0xae, 0xa7, 0x12, 0x12, 0xf4, 0xb5, 0xf4, 0x9f, 0xe9, 0xd3, 0xe4, 0x17, 0xd2, 0x81, 0xfc, 0x81, 0xe2, 0xb1, 0xa5, 0xc6, 0xa5, 0xfa, 0xba, 0xb9, 0x27, 0x03, 0x20, 0xf0, 0xff, 0xff, 0x24, 0xf0, 0xff, 0xff, 0x7e, 0xff, 0xff, 0xff, 0x04, 0x00, 0x00, 0x00, 0x20, 0x00, 0x00, 0x00, 0xff, 0xff, 0xff, 0xff, 0x00, 0x00, 0x00, 0x00, 0x03, 0x00, 0x00, 0x00, 0xff, 0xff, 0xff, 0xff, 0x0f, 0x00, 0x00, 0x00, 0xfe, 0xff, 0xff, 0xff, 0xec, 0xff, 0xff, 0xff, 0xe4, 0xff, 0xff, 0xff, 0xaa, 0xff, 0xff, 0xff, 0x04, 0x00, 0x00, 0x00, 0x48, 0x00, 0x00, 0x00, 0x2e, 0xe0, 0xf1, 0x7f, 0x3e, 0x0b, 0xe2, 0x01, 0x33, 0xf6, 0x07, 0xe1, 0x07, 0x16, 0x04, 0x53, 0x7f, 0x6c, 0x61, 0xc6, 0xb9, 0x44, 0x7f, 0xfc, 0xd7, 0xe5, 0x0b, 0xd9, 0x0d, 0x18, 0x2e, 0x36, 0xbb, 0xd1, 0x7f, 0x03, 0x2c, 0xd1, 0xd5, 0x5f, 0x1a, 0x7f, 0xcf, 0x81, 0xda, 0x48, 0xea, 0xc6, 0x7f, 0x63, 0xc6, 0x1f, 0x0f, 0x35, 0x60, 0xfb, 0xe4, 0xa1, 0x26, 0x10, 0xb1, 0x7f, 0xa4, 0x14, 0x14, 0x27, 0x1b, 0x0c, 0x7f, 0x2e, 0xac, 0xa6, 0x00, 0x00, 0x06, 0x00, 0x08, 0x00, 0x04, 0x00, 0x06, 0x00, 0x00, 0x00, 0x04, 0x00, 0x00, 0x00, 0x08, 0x00, 0x00, 0x00, 0xff, 0xff, 0xff, 0xff, 0x40, 0x02, 0x00, 0x00, 0xc4, 0xf0, 0xff, 0xff, 0xc8, 0xf0, 0xff, 0xff, 0x0f, 0x00, 0x00, 0x00, 0x4d, 0x4c, 0x49, 0x52, 0x20, 0x43, 0x6f, 0x6e, 0x76, 0x65, 0x72, 0x74, 0x65, 0x64, 0x2e, 0x00, 0x01, 0x00, 0x00, 0x00, 0x14, 0x00, 0x00, 0x00, 0x00, 0x00, 0x0e, 0x00, 0x18, 0x00, 0x14, 0x00, 0x10, 0x00, 0x0c, 0x00, 0x08, 0x00, 0x04, 0x00, 0x0e, 0x00, 0x00, 0x00, 0x14, 0x00, 0x00, 0x00, 0x1c, 0x00, 0x00, 0x00, 0xd4, 0x01, 0x00, 0x00, 0xd8, 0x01, 0x00, 0x00, 0xdc, 0x01, 0x00, 0x00, 0x04, 0x00, 0x00, 0x00, 0x6d, 0x61, 0x69, 0x6e, 0x00, 0x00, 0x00, 0x00, 0x06, 0x00, 0x00, 0x00, 0x6c, 0x01, 0x00, 0x00, 0x08, 0x01, 0x00, 0x00, 0xb4, 0x00, 0x00, 0x00, 0x70, 0x00, 0x00, 0x00, 0x48, 0x00, 0x00, 0x00, 0x04, 0x00, 0x00, 0x00, 0x1a, 0xff, 0xff, 0xff, 0x14, 0x00, 0x00, 0x00, 0x00, 0x00, 0x00, 0x08, 0x10, 0x00, 0x00, 0x00, 0x14, 0x00, 0x00, 0x00, 0x03, 0x00, 0x00, 0x00, 0x50, 0xf1, 0xff, 0xff, 0x01, 0x00, 0x00, 0x00, 0x0d, 0x00, 0x00, 0x00, 0x03, 0x00, 0x00, 0x00, 0x0a, 0x00, 0x00, 0x00, 0x0b, 0x00, 0x00, 0x00, 0x0c, 0x00, 0x00, 0x00, 0x00, 0x00, 0x0a, 0x00, 0x10, 0x00, 0x0c, 0x00, 0x08, 0x00, 0x04, 0x00, 0x0a, 0x00, 0x00, 0x00, 0x0c, 0x00, 0x00, 0x00, 0x10, 0x00, 0x00, 0x00, 0x02, 0x00, 0x00, 0x00, 0x01, 0x00, 0x00, 0x00, 0x0a, 0x00, 0x00, 0x00, 0x02, 0x00, 0x00, 0x00, 0x09, 0x00, 0x00, 0x00, 0x01, 0x00, 0x00, 0x00, 0x7e, 0xff, 0xff, 0xff, 0x14, 0x00, 0x00, 0x00, 0x00, 0x00, 0x00, 0x05, 0x24, 0x00, 0x00, 0x00, 0x28, 0x00, 0x00, 0x00, 0x01, 0x00, 0x00, 0x00, 0x6e, 0xff, 0xff, 0xff, 0x02, 0x00, 0x00, 0x00, 0x02, 0x00, 0x00, 0x00, 0x02, 0x00, 0x00, 0x00, 0x02, 0x00, 0x00, 0x00, 0x00, 0x00, 0x00, 0x01, 0x01, 0x00, 0x00, 0x00, 0x09, 0x00, 0x00, 0x00, 0x01, 0x00, 0x00, 0x00, 0x08, 0x00, 0x00, 0x00, 0x5e, 0xff, 0xff, 0xff, 0x10, 0x00, 0x00, 0x00, 0x00, 0x00, 0x00, 0x01, 0x1c, 0x00, 0x00, 0x00, 0x20, 0x00, 0x00, 0x00, 0x50, 0xff, 0xff, 0xff, 0x00, 0x00, 0x00, 0x01, 0x01, 0x00, 0x00, 0x00, 0x01, 0x00, 0x00, 0x00, 0x00, 0x00, 0x00, 0x01, 0x01, 0x00, 0x00, 0x00, 0x08, 0x00, 0x00, 0x00, 0x03, 0x00, 0x00, 0x00, 0x05, 0x00, 0x00, 0x00, 0x06, 0x00, 0x00, 0x00, 0x07, 0x00, 0x00, 0x00, 0x00, 0x00, 0x0e, 0x00, 0x1a, 0x00, 0x14, 0x00, 0x10, 0x00, 0x0c, 0x00, 0x0b, 0x00, 0x04, 0x00, 0x0e, 0x00, 0x00, 0x00, 0x24, 0x00, 0x00, 0x00, 0x00, 0x00, 0x00, 0x05, 0x34, 0x00, 0x00, 0x00, 0x38, 0x00, 0x00, 0x00, 0x01, 0x00, 0x00, 0x00, 0x00, 0x00, 0x0e, 0x00, 0x18, 0x00, 0x17, 0x00, 0x10, 0x00, 0x0c, 0x00, 0x08, 0x00, 0x04, 0x00, 0x0e, 0x00, 0x00, 0x00, 0x02, 0x00, 0x00, 0x00, 0x02, 0x00, 0x00, 0x00, 0x02, 0x00, 0x00, 0x00, 0x02, 0x00, 0x00, 0x00, 0x00, 0x00, 0x00, 0x01, 0x01, 0x00, 0x00, 0x00, 0x05, 0x00, 0x00, 0x00, 0x01, 0x00, 0x00, 0x00, 0x04, 0x00, 0x00, 0x00, 0x00, 0x00, 0x0e, 0x00, 0x14, 0x00, 0x00, 0x00, 0x10, 0x00, 0x0c, 0x00, 0x0b, 0x00, 0x04, 0x00, 0x0e, 0x00, 0x00, 0x00, 0x1c, 0x00, 0x00, 0x00, 0x00, 0x00, 0x00, 0x01, 0x28, 0x00, 0x00, 0x00, 0x2c, 0x00, 0x00, 0x00, 0x0c, 0x00, 0x14, 0x00, 0x13, 0x00, 0x0c, 0x00, 0x08, 0x00, 0x07, 0x00, 0x0c, 0x00, 0x00, 0x00, 0x00, 0x00, 0x00, 0x01, 0x01, 0x00, 0x00, 0x00, 0x01, 0x00, 0x00, 0x00, 0x00, 0x00, 0x00, 0x01, 0x01, 0x00, 0x00, 0x00, 0x04, 0x00, 0x00, 0x00, 0x03, 0x00, 0x00, 0x00, 0x00, 0x00, 0x00, 0x00, 0x02, 0x00, 0x00, 0x00, 0x03, 0x00, 0x00, 0x00, 0x01, 0x00, 0x00, 0x00, 0x0d, 0x00, 0x00, 0x00, 0x01, 0x00, 0x00, 0x00, 0x00, 0x00, 0x00, 0x00, 0x0e, 0x00, 0x00, 0x00, 0x84, 0x0d, 0x00, 0x00, 0xf8, 0x0c, 0x00, 0x00, 0x40, 0x0b, 0x00, 0x00, 0x84, 0x0a, 0x00, 0x00, 0xf8, 0x08, 0x00, 0x00, 0x3c, 0x08, 0x00, 0x00, 0x30, 0x06, 0x00, 0x00, 0x14, 0x05, 0x00, 0x00, 0x80, 0x03, 0x00, 0x00, 0xbc, 0x02, 0x00, 0x00, 0x10, 0x02, 0x00, 0x00, 0xd4, 0x00, 0x00, 0x00, 0x70, 0x00, 0x00, 0x00, 0x04, 0x00, 0x00, 0x00, 0xc8, 0xf2, 0xff, 0xff, 0x18, 0x00, 0x00, 0x00, 0x20, 0x00, 0x00, 0x00, 0x40, 0x00, 0x00, 0x00, 0x0e, 0x00, 0x00, 0x00, 0x00, 0x00, 0x00, 0x09, 0x44, 0x00, 0x00, 0x00, 0x02, 0x00, 0x00, 0x00, 0xff, 0xff, 0xff, 0xff, 0x02, 0x00, 0x00, 0x00, 0xac, 0xf2, 0xff, 0xff, 0x08, 0x00, 0x00, 0x00, 0x14, 0x00, 0x00, 0x00, 0x01, 0x00, 0x00, 0x00, 0xfb, 0xff, 0xff, 0xff, 0xff, 0xff, 0xff, 0xff, 0x00, 0x00, 0x00, 0x00, 0x01, 0x00, 0x00, 0x00, 0x28, 0xd5, 0x65, 0x3d, 0x08, 0x00, 0x00, 0x00, 0x49, 0x64, 0x65, 0x6e, 0x74, 0x69, 0x74, 0x79, 0x00, 0x00, 0x00, 0x00, 0x02, 0x00, 0x00, 0x00, 0x01, 0x00, 0x00, 0x00, 0x02, 0x00, 0x00, 0x00, 0xb2, 0xf3, 0xff, 0xff, 0x14, 0x00, 0x00, 0x00, 0x30, 0x00, 0x00, 0x00, 0x0d, 0x00, 0x00, 0x00, 0x00, 0x00, 0x00, 0x02, 0x44, 0x00, 0x00, 0x00, 0x04, 0xf3, 0xff, 0xff, 0x08, 0x00, 0x00, 0x00, 0x10, 0x00, 0x00, 0x00, 0x01, 0x00, 0x00, 0x00, 0x00, 0x00, 0x00, 0x00, 0x00, 0x00, 0x00, 0x00, 0x01, 0x00, 0x00, 0x00, 0x95, 0x7e, 0x8f, 0x39, 0x1b, 0x00, 0x00, 0x00, 0x73, 0x65, 0x71, 0x75, 0x65, 0x6e, 0x74, 0x69, 0x61, 0x6c, 0x2f, 0x71, 0x75, 0x61, 0x6e, 0x74, 0x5f, 0x64, 0x65, 0x6e, 0x73, 0x65, 0x2f, 0x33, 0x37, 0x33, 0x32, 0x00, 0x01, 0x00, 0x00, 0x00, 0x02, 0x00, 0x00, 0x00, 0x12, 0xf4, 0xff, 0xff, 0x14, 0x00, 0x00, 0x00, 0x34, 0x00, 0x00, 0x00, 0x0c, 0x00, 0x00, 0x00, 0x00, 0x00, 0x00, 0x09, 0x18, 0x01, 0x00, 0x00, 0x64, 0xf3, 0xff, 0xff, 0x08, 0x00, 0x00, 0x00, 0x14, 0x00, 0x00, 0x00, 0x01, 0x00, 0x00, 0x00, 0x00, 0x00, 0x00, 0x00, 0x00, 0x00, 0x00, 0x00, 0x00, 0x00, 0x00, 0x00, 0x01, 0x00, 0x00, 0x00, 0xdc, 0x88, 0x32, 0x3b, 0xe9, 0x00, 0x00, 0x00, 0x4d, 0x61, 0x74, 0x4d, 0x75, 0x6c, 0x3b, 0x73, 0x65, 0x71, 0x75, 0x65, 0x6e, 0x74, 0x69, 0x61, 0x6c, 0x2f, 0x71, 0x75, 0x61, 0x6e, 0x74, 0x5f, 0x64, 0x65, 0x6e, 0x73, 0x65, 0x2f, 0x53, 0x74, 0x61, 0x74, 0x65, 0x66, 0x75, 0x6c, 0x50, 0x61, 0x72, 0x74, 0x69, 0x74, 0x69, 0x6f, 0x6e, 0x65, 0x64, 0x43, 0x61, 0x6c, 0x6c, 0x2f, 0x53, 0x74, 0x61, 0x74, 0x65, 0x66, 0x75, 0x6c, 0x50, 0x61, 0x72, 0x74, 0x69, 0x74, 0x69, 0x6f, 0x6e, 0x65, 0x64, 0x43, 0x61, 0x6c, 0x6c, 0x2f, 0x4d, 0x61, 0x74, 0x4d, 0x75, 0x6c, 0x3b, 0x4c, 0x61, 0x73, 0x74, 0x56, 0x61, 0x6c, 0x75, 0x65, 0x51, 0x75, 0x61, 0x6e, 0x74, 0x2f, 0x46, 0x61, 0x6b, 0x65, 0x51, 0x75, 0x61, 0x6e, 0x74, 0x57, 0x69, 0x74, 0x68, 0x4d, 0x69, 0x6e, 0x4d, 0x61, 0x78, 0x56, 0x61, 0x72, 0x73, 0x3b, 0x73, 0x65, 0x71, 0x75, 0x65, 0x6e, 0x74, 0x69, 0x61, 0x6c, 0x2f, 0x71, 0x75, 0x61, 0x6e, 0x74, 0x5f, 0x64, 0x65, 0x6e, 0x73, 0x65, 0x2f, 0x53, 0x74, 0x61, 0x74, 0x65, 0x66, 0x75, 0x6c, 0x50, 0x61, 0x72, 0x74, 0x69, 0x74, 0x69, 0x6f, 0x6e, 0x65, 0x64, 0x43, 0x61, 0x6c, 0x6c, 0x2f, 0x53, 0x74, 0x61, 0x74, 0x65, 0x66, 0x75, 0x6c, 0x50, 0x61, 0x72, 0x74, 0x69, 0x74, 0x69, 0x6f, 0x6e, 0x65, 0x64, 0x43, 0x61, 0x6c, 0x6c, 0x2f, 0x4c, 0x61, 0x73, 0x74, 0x56, 0x61, 0x6c, 0x75, 0x65, 0x51, 0x75, 0x61, 0x6e, 0x74, 0x2f, 0x46, 0x61, 0x6b, 0x65, 0x51, 0x75, 0x61, 0x6e, 0x74, 0x57, 0x69, 0x74, 0x68, 0x4d, 0x69, 0x6e, 0x4d, 0x61, 0x78, 0x56, 0x61, 0x72, 0x73, 0x00, 0x00, 0x00, 0x02, 0x00, 0x00, 0x00, 0x02, 0x00, 0x00, 0x00, 0x40, 0x02, 0x00, 0x00, 0xc8, 0xf4, 0xff, 0xff, 0x18, 0x00, 0x00, 0x00, 0x20, 0x00, 0x00, 0x00, 0x40, 0x00, 0x00, 0x00, 0x0b, 0x00, 0x00, 0x00, 0x00, 0x00, 0x00, 0x09, 0x84, 0x00, 0x00, 0x00, 0x02, 0x00, 0x00, 0x00, 0xff, 0xff, 0xff, 0xff, 0x40, 0x02, 0x00, 0x00, 0xac, 0xf4, 0xff, 0xff, 0x08, 0x00, 0x00, 0x00, 0x14, 0x00, 0x00, 0x00, 0x01, 0x00, 0x00, 0x00, 0xa1, 0xff, 0xff, 0xff, 0xff, 0xff, 0xff, 0xff, 0x00, 0x00, 0x00, 0x00, 0x01, 0x00, 0x00, 0x00, 0x8f, 0xc1, 0xcd, 0x3d, 0x48, 0x00, 0x00, 0x00, 0x52, 0x65, 0x73, 0x68, 0x61, 0x70, 0x65, 0x3b, 0x73, 0x65, 0x71, 0x75, 0x65, 0x6e, 0x74, 0x69, 0x61, 0x6c, 0x2f, 0x71, 0x75, 0x61, 0x6e, 0x74, 0x5f, 0x66, 0x6c, 0x61, 0x74, 0x74, 0x65, 0x6e, 0x2f, 0x50, 0x61, 0x72, 0x74, 0x69, 0x74, 0x69, 0x6f, 0x6e, 0x65, 0x64, 0x43, 0x61, 0x6c, 0x6c, 0x2f, 0x50, 0x61, 0x72, 0x74, 0x69, 0x74, 0x69, 0x6f, 0x6e, 0x65, 0x64, 0x43, 0x61, 0x6c, 0x6c, 0x2f, 0x52, 0x65, 0x73, 0x68, 0x61, 0x70, 0x65, 0x00, 0x00, 0x00, 0x00, 0x02, 0x00, 0x00, 0x00, 0x01, 0x00, 0x00, 0x00, 0x40, 0x02, 0x00, 0x00, 0x70, 0xf5, 0xff, 0xff, 0x18, 0x00, 0x00, 0x00, 0x28, 0x00, 0x00, 0x00, 0x48, 0x00, 0x00, 0x00, 0x0a, 0x00, 0x00, 0x00, 0x00, 0x00, 0x00, 0x09, 0x94, 0x00, 0x00, 0x00, 0x04, 0x00, 0x00, 0x00, 0xff, 0xff, 0xff, 0xff, 0x06, 0x00, 0x00, 0x00, 0x06, 0x00, 0x00, 0x00, 0x10, 0x00, 0x00, 0x00, 0x5c, 0xf5, 0xff, 0xff, 0x08, 0x00, 0x00, 0x00, 0x14, 0x00, 0x00, 0x00, 0x01, 0x00, 0x00, 0x00, 0xa1, 0xff, 0xff, 0xff, 0xff, 0xff, 0xff, 0xff, 0x00, 0x00, 0x00, 0x00, 0x01, 0x00, 0x00, 0x00, 0x8f, 0xc1, 0xcd, 0x3d, 0x50, 0x00, 0x00, 0x00, 0x4d, 0x61, 0x78, 0x50, 0x6f, 0x6f, 0x6c, 0x3b, 0x73, 0x65, 0x71, 0x75, 0x65, 0x6e, 0x74, 0x69, 0x61, 0x6c, 0x2f, 0x71, 0x75, 0x61, 0x6e, 0x74, 0x5f, 0x6d, 0x61, 0x78, 0x5f, 0x70, 0x6f, 0x6f, 0x6c, 0x69, 0x6e, 0x67, 0x32, 0x64, 0x5f, 0x31, 0x2f, 0x50, 0x61, 0x72, 0x74, 0x69, 0x74, 0x69, 0x6f, 0x6e, 0x65, 0x64, 0x43, 0x61, 0x6c, 0x6c, 0x2f, 0x50, 0x61, 0x72, 0x74, 0x69, 0x74, 0x69, 0x6f, 0x6e, 0x65, 0x64, 0x43, 0x61, 0x6c, 0x6c, 0x2f, 0x4d, 0x61, 0x78, 0x50, 0x6f, 0x6f, 0x6c, 0x00, 0x00, 0x00, 0x00, 0x04, 0x00, 0x00, 0x00, 0x01, 0x00, 0x00, 0x00, 0x06, 0x00, 0x00, 0x00, 0x06, 0x00, 0x00, 0x00, 0x10, 0x00, 0x00, 0x00, 0x30, 0xf6, 0xff, 0xff, 0x18, 0x00, 0x00, 0x00, 0x28, 0x00, 0x00, 0x00, 0x44, 0x00, 0x00, 0x00, 0x09, 0x00, 0x00, 0x00, 0x00, 0x00, 0x00, 0x09, 0x64, 0x01, 0x00, 0x00, 0x04, 0x00, 0x00, 0x00, 0xff, 0xff, 0xff, 0xff, 0x0d, 0x00, 0x00, 0x00, 0x0d, 0x00, 0x00, 0x00, 0x10, 0x00, 0x00, 0x00, 0x1c, 0xf6, 0xff, 0xff, 0x08, 0x00, 0x00, 0x00, 0x10, 0x00, 0x00, 0x00, 0x01, 0x00, 0x00, 0x00, 0xa1, 0xff, 0xff, 0xff, 0xff, 0xff, 0xff, 0xff, 0x01, 0x00, 0x00, 0x00, 0x8f, 0xc1, 0xcd, 0x3d, 0x24, 0x01, 0x00, 0x00, 0x52, 0x65, 0x6c, 0x75, 0x3b, 0x73, 0x65, 0x71, 0x75, 0x65, 0x6e, 0x74, 0x69, 0x61, 0x6c, 0x2f, 0x71, 0x75, 0x61, 0x6e, 0x74, 0x5f, 0x63, 0x6f, 0x6e, 0x76, 0x32, 0x64, 0x5f, 0x31, 0x2f, 0x53, 0x74, 0x61, 0x74, 0x65, 0x66, 0x75, 0x6c, 0x50, 0x61, 0x72, 0x74, 0x69, 0x74, 0x69, 0x6f, 0x6e, 0x65, 0x64, 0x43, 0x61, 0x6c, 0x6c, 0x2f, 0x53, 0x74, 0x61, 0x74, 0x65, 0x66, 0x75, 0x6c, 0x50, 0x61, 0x72, 0x74, 0x69, 0x74, 0x69, 0x6f, 0x6e, 0x65, 0x64, 0x43, 0x61, 0x6c, 0x6c, 0x2f, 0x52, 0x65, 0x6c, 0x75, 0x3b, 0x42, 0x69, 0x61, 0x73, 0x41, 0x64, 0x64, 0x3b, 0x73, 0x65, 0x71, 0x75, 0x65, 0x6e, 0x74, 0x69, 0x61, 0x6c, 0x2f, 0x71, 0x75, 0x61, 0x6e, 0x74, 0x5f, 0x63, 0x6f, 0x6e, 0x76, 0x32, 0x64, 0x5f, 0x31, 0x2f, 0x53, 0x74, 0x61, 0x74, 0x65, 0x66, 0x75, 0x6c, 0x50, 0x61, 0x72, 0x74, 0x69, 0x74, 0x69, 0x6f, 0x6e, 0x65, 0x64, 0x43, 0x61, 0x6c, 0x6c, 0x2f, 0x53, 0x74, 0x61, 0x74, 0x65, 0x66, 0x75, 0x6c, 0x50, 0x61, 0x72, 0x74, 0x69, 0x74, 0x69, 0x6f, 0x6e, 0x65, 0x64, 0x43, 0x61, 0x6c, 0x6c, 0x2f, 0x42, 0x69, 0x61, 0x73, 0x41, 0x64, 0x64, 0x3b, 0x43, 0x6f, 0x6e, 0x76, 0x32, 0x44, 0x3b, 0x73, 0x65, 0x71, 0x75, 0x65, 0x6e, 0x74, 0x69, 0x61, 0x6c, 0x2f, 0x71, 0x75, 0x61, 0x6e, 0x74, 0x5f, 0x63, 0x6f, 0x6e, 0x76, 0x32, 0x64, 0x5f, 0x31, 0x2f, 0x53, 0x74, 0x61, 0x74, 0x65, 0x66, 0x75, 0x6c, 0x50, 0x61, 0x72, 0x74, 0x69, 0x74, 0x69, 0x6f, 0x6e, 0x65, 0x64, 0x43, 0x61, 0x6c, 0x6c, 0x2f, 0x53, 0x74, 0x61, 0x74, 0x65, 0x66, 0x75, 0x6c, 0x50, 0x61, 0x72, 0x74, 0x69, 0x74, 0x69, 0x6f, 0x6e, 0x65, 0x64, 0x43, 0x61, 0x6c, 0x6c, 0x2f, 0x43, 0x6f, 0x6e, 0x76, 0x32, 0x44, 0x3b, 0x73, 0x65, 0x71, 0x75, 0x65, 0x6e, 0x74, 0x69, 0x61, 0x6c, 0x2f, 0x71, 0x75, 0x61, 0x6e, 0x74, 0x5f, 0x63, 0x6f, 0x6e, 0x76, 0x32, 0x64, 0x5f, 0x31, 0x2f, 0x33, 0x37, 0x31, 0x36, 0x00, 0x00, 0x00, 0x00, 0x04, 0x00, 0x00, 0x00, 0x01, 0x00, 0x00, 0x00, 0x0d, 0x00, 0x00, 0x00, 0x0d, 0x00, 0x00, 0x00, 0x10, 0x00, 0x00, 0x00, 0x42, 0xf8, 0xff, 0xff, 0x14, 0x00, 0x00, 0x00, 0xe4, 0x00, 0x00, 0x00, 0x08, 0x00, 0x00, 0x00, 0x00, 0x00, 0x00, 0x02, 0xfc, 0x00, 0x00, 0x00, 0x94, 0xf7, 0xff, 0xff, 0x08, 0x00, 0x00, 0x00, 0x88, 0x00, 0x00, 0x00, 0x10, 0x00, 0x00, 0x00, 0x00, 0x00, 0x00, 0x00, 0x00, 0x00, 0x00, 0x00, 0x00, 0x00, 0x00, 0x00, 0x00, 0x00, 0x00, 0x00, 0x00, 0x00, 0x00, 0x00, 0x00, 0x00, 0x00, 0x00, 0x00, 0x00, 0x00, 0x00, 0x00, 0x00, 0x00, 0x00, 0x00, 0x00, 0x00, 0x00, 0x00, 0x00, 0x00, 0x00, 0x00, 0x00, 0x00, 0x00, 0x00, 0x00, 0x00, 0x00, 0x00, 0x00, 0x00, 0x00, 0x00, 0x00, 0x00, 0x00, 0x00, 0x00, 0x00, 0x00, 0x00, 0x00, 0x00, 0x00, 0x00, 0x00, 0x00, 0x00, 0x00, 0x00, 0x00, 0x00, 0x00, 0x00, 0x00, 0x00, 0x00, 0x00, 0x00, 0x00, 0x00, 0x00, 0x00, 0x00, 0x00, 0x00, 0x00, 0x00, 0x00, 0x00, 0x00, 0x00, 0x00, 0x00, 0x00, 0x00, 0x00, 0x00, 0x00, 0x00, 0x00, 0x00, 0x00, 0x00, 0x00, 0x00, 0x00, 0x00, 0x00, 0x00, 0x00, 0x00, 0x00, 0x00, 0x00, 0x00, 0x00, 0x00, 0x00, 0x00, 0x00, 0x00, 0x00, 0x00, 0x00, 0x00, 0x00, 0x00, 0x10, 0x00, 0x00, 0x00, 0x8d, 0x8f, 0x9f, 0x39, 0xe3, 0xfc, 0xa3, 0x39, 0xa6, 0x34, 0xa7, 0x39, 0xce, 0x4b, 0x06, 0x3a, 0xda, 0xa6, 0xef, 0x39, 0x8e, 0xa9, 0x8e, 0x39, 0x9d, 0x1e, 0x82, 0x39, 0xd3, 0xd6, 0xdd, 0x39, 0xf6, 0xd7, 0xba, 0x39, 0xb5, 0xa1, 0x63, 0x39, 0xfb, 0x5b, 0xf4, 0x39, 0x45, 0x3e, 0x5e, 0x39, 0x51, 0x80, 0xa9, 0x39, 0x7e, 0xb6, 0xaa, 0x39, 0x5d, 0xfe, 0xd3, 0x39, 0x81, 0x79, 0xaa, 0x39, 0x1e, 0x00, 0x00, 0x00, 0x73, 0x65, 0x71, 0x75, 0x65, 0x6e, 0x74, 0x69, 0x61, 0x6c, 0x2f, 0x71, 0x75, 0x61, 0x6e, 0x74, 0x5f, 0x63, 0x6f, 0x6e, 0x76, 0x32, 0x64, 0x5f, 0x31, 0x2f, 0x33, 0x37, 0x31, 0x36, 0x00, 0x00, 0x01, 0x00, 0x00, 0x00, 0x10, 0x00, 0x00, 0x00, 0x5a, 0xf9, 0xff, 0xff, 0x14, 0x00, 0x00, 0x00, 0xe4, 0x00, 0x00, 0x00, 0x07, 0x00, 0x00, 0x00, 0x00, 0x00, 0x00, 0x09, 0xe0, 0x01, 0x00, 0x00, 0xac, 0xf8, 0xff, 0xff, 0x08, 0x00, 0x00, 0x00, 0x88, 0x00, 0x00, 0x00, 0x10, 0x00, 0x00, 0x00, 0x00, 0x00, 0x00, 0x00, 0x00, 0x00, 0x00, 0x00, 0x00, 0x00, 0x00, 0x00, 0x00, 0x00, 0x00, 0x00, 0x00, 0x00, 0x00, 0x00, 0x00, 0x00, 0x00, 0x00, 0x00, 0x00, 0x00, 0x00, 0x00, 0x00, 0x00, 0x00, 0x00, 0x00, 0x00, 0x00, 0x00, 0x00, 0x00, 0x00, 0x00, 0x00, 0x00, 0x00, 0x00, 0x00, 0x00, 0x00, 0x00, 0x00, 0x00, 0x00, 0x00, 0x00, 0x00, 0x00, 0x00, 0x00, 0x00, 0x00, 0x00, 0x00, 0x00, 0x00, 0x00, 0x00, 0x00, 0x00, 0x00, 0x00, 0x00, 0x00, 0x00, 0x00, 0x00, 0x00, 0x00, 0x00, 0x00, 0x00, 0x00, 0x00, 0x00, 0x00, 0x00, 0x00, 0x00, 0x00, 0x00, 0x00, 0x00, 0x00, 0x00, 0x00, 0x00, 0x00, 0x00, 0x00, 0x00, 0x00, 0x00, 0x00, 0x00, 0x00, 0x00, 0x00, 0x00, 0x00, 0x00, 0x00, 0x00, 0x00, 0x00, 0x00, 0x00, 0x00, 0x00, 0x00, 0x00, 0x00, 0x00, 0x00, 0x00, 0x00, 0x00, 0x00, 0x00, 0x00, 0x10, 0x00, 0x00, 0x00, 0xad, 0x3e, 0x0e, 0x3b, 0x05, 0x31, 0x12, 0x3b, 0x63, 0x0f, 0x15, 0x3b, 0xa7, 0x71, 0x6f, 0x3b, 0xe9, 0xa4, 0x55, 0x3b, 0x4c, 0x5c, 0xfe, 0x3a, 0x56, 0xff, 0xe7, 0x3a, 0xbf, 0xc3, 0x45, 0x3b, 0x1f, 0x91, 0x26, 0x3b, 0xb4, 0xed, 0xca, 0x3a, 0x42, 0xd7, 0x59, 0x3b, 0xf8, 0x1f, 0xc6, 0x3a, 0x48, 0x1b, 0x17, 0x3b, 0xcc, 0x2f, 0x18, 0x3b, 0xd1, 0xfc, 0x3c, 0x3b, 0x6d, 0xf9, 0x17, 0x3b, 0x03, 0x01, 0x00, 0x00, 0x43, 0x6f, 0x6e, 0x76, 0x32, 0x44, 0x3b, 0x73, 0x65, 0x71, 0x75, 0x65, 0x6e, 0x74, 0x69, 0x61, 0x6c, 0x2f, 0x71, 0x75, 0x61, 0x6e, 0x74, 0x5f, 0x63, 0x6f, 0x6e, 0x76, 0x32, 0x64, 0x5f, 0x31, 0x2f, 0x53, 0x74, 0x61, 0x74, 0x65, 0x66, 0x75, 0x6c, 0x50, 0x61, 0x72, 0x74, 0x69, 0x74, 0x69, 0x6f, 0x6e, 0x65, 0x64, 0x43, 0x61, 0x6c, 0x6c, 0x2f, 0x53, 0x74, 0x61, 0x74, 0x65, 0x66, 0x75, 0x6c, 0x50, 0x61, 0x72, 0x74, 0x69, 0x74, 0x69, 0x6f, 0x6e, 0x65, 0x64, 0x43, 0x61, 0x6c, 0x6c, 0x2f, 0x43, 0x6f, 0x6e, 0x76, 0x32, 0x44, 0x3b, 0x4c, 0x61, 0x73, 0x74, 0x56, 0x61, 0x6c, 0x75, 0x65, 0x51, 0x75, 0x61, 0x6e, 0x74, 0x2f, 0x46, 0x61, 0x6b, 0x65, 0x51, 0x75, 0x61, 0x6e, 0x74, 0x57, 0x69, 0x74, 0x68, 0x4d, 0x69, 0x6e, 0x4d, 0x61, 0x78, 0x56, 0x61, 0x72, 0x73, 0x50, 0x65, 0x72, 0x43, 0x68, 0x61, 0x6e, 0x6e, 0x65, 0x6c, 0x3b, 0x73, 0x65, 0x71, 0x75, 0x65, 0x6e, 0x74, 0x69, 0x61, 0x6c, 0x2f, 0x71, 0x75, 0x61, 0x6e, 0x74, 0x5f, 0x63, 0x6f, 0x6e, 0x76, 0x32, 0x64, 0x5f, 0x31, 0x2f, 0x53, 0x74, 0x61, 0x74, 0x65, 0x66, 0x75, 0x6c, 0x50, 0x61, 0x72, 0x74, 0x69, 0x74, 0x69, 0x6f, 0x6e, 0x65, 0x64, 0x43, 0x61, 0x6c, 0x6c, 0x2f, 0x53, 0x74, 0x61, 0x74, 0x65, 0x66, 0x75, 0x6c, 0x50, 0x61, 0x72, 0x74, 0x69, 0x74, 0x69, 0x6f, 0x6e, 0x65, 0x64, 0x43, 0x61, 0x6c, 0x6c, 0x2f, 0x4c, 0x61, 0x73, 0x74, 0x56, 0x61, 0x6c, 0x75, 0x65, 0x51, 0x75, 0x61, 0x6e, 0x74, 0x2f, 0x46, 0x61, 0x6b, 0x65, 0x51, 0x75, 0x61, 0x6e, 0x74, 0x57, 0x69, 0x74, 0x68, 0x4d, 0x69, 0x6e, 0x4d, 0x61, 0x78, 0x56, 0x61, 0x72, 0x73, 0x50, 0x65, 0x72, 0x43, 0x68, 0x61, 0x6e, 0x6e, 0x65, 0x6c, 0x00, 0x04, 0x00, 0x00, 0x00, 0x10, 0x00, 0x00, 0x00, 0x03, 0x00, 0x00, 0x00, 0x03, 0x00, 0x00, 0x00, 0x08, 0x00, 0x00, 0x00, 0xe0, 0xfa, 0xff, 0xff, 0x18, 0x00, 0x00, 0x00, 0x28, 0x00, 0x00, 0x00, 0x44, 0x00, 0x00, 0x00, 0x06, 0x00, 0x00, 0x00, 0x00, 0x00, 0x00, 0x09, 0x8c, 0x00, 0x00, 0x00, 0x04, 0x00, 0x00, 0x00, 0xff, 0xff, 0xff, 0xff, 0x0f, 0x00, 0x00, 0x00, 0x0f, 0x00, 0x00, 0x00, 0x08, 0x00, 0x00, 0x00, 0xcc, 0xfa, 0xff, 0xff, 0x08, 0x00, 0x00, 0x00, 0x10, 0x00, 0x00, 0x00, 0x01, 0x00, 0x00, 0x00, 0x97, 0xff, 0xff, 0xff, 0xff, 0xff, 0xff, 0xff, 0x01, 0x00, 0x00, 0x00, 0xf4, 0x94, 0x0f, 0x3e, 0x4e, 0x00, 0x00, 0x00, 0x4d, 0x61, 0x78, 0x50, 0x6f, 0x6f, 0x6c, 0x3b, 0x73, 0x65, 0x71, 0x75, 0x65, 0x6e, 0x74, 0x69, 0x61, 0x6c, 0x2f, 0x71, 0x75, 0x61, 0x6e, 0x74, 0x5f, 0x6d, 0x61, 0x78, 0x5f, 0x70, 0x6f, 0x6f, 0x6c, 0x69, 0x6e, 0x67, 0x32, 0x64, 0x2f, 0x50, 0x61, 0x72, 0x74, 0x69, 0x74, 0x69, 0x6f, 0x6e, 0x65, 0x64, 0x43, 0x61, 0x6c, 0x6c, 0x2f, 0x50, 0x61, 0x72, 0x74, 0x69, 0x74, 0x69, 0x6f, 0x6e, 0x65, 0x64, 0x43, 0x61, 0x6c, 0x6c, 0x2f, 0x4d, 0x61, 0x78, 0x50, 0x6f, 0x6f, 0x6c, 0x00, 0x00, 0x04, 0x00, 0x00, 0x00, 0x01, 0x00, 0x00, 0x00, 0x0f, 0x00, 0x00, 0x00, 0x0f, 0x00, 0x00, 0x00, 0x08, 0x00, 0x00, 0x00, 0x98, 0xfb, 0xff, 0xff, 0x18, 0x00, 0x00, 0x00, 0x28, 0x00, 0x00, 0x00, 0x44, 0x00, 0x00, 0x00, 0x05, 0x00, 0x00, 0x00, 0x00, 0x00, 0x00, 0x09, 0x5c, 0x01, 0x00, 0x00, 0x04, 0x00, 0x00, 0x00, 0xff, 0xff, 0xff, 0xff, 0x1e, 0x00, 0x00, 0x00, 0x1e, 0x00, 0x00, 0x00, 0x08, 0x00, 0x00, 0x00, 0x84, 0xfb, 0xff, 0xff, 0x08, 0x00, 0x00, 0x00, 0x10, 0x00, 0x00, 0x00, 0x01, 0x00, 0x00, 0x00, 0x97, 0xff, 0xff, 0xff, 0xff, 0xff, 0xff, 0xff, 0x01, 0x00, 0x00, 0x00, 0xf4, 0x94, 0x0f, 0x3e, 0x1c, 0x01, 0x00, 0x00, 0x52, 0x65, 0x6c, 0x75, 0x3b, 0x73, 0x65, 0x71, 0x75, 0x65, 0x6e, 0x74, 0x69, 0x61, 0x6c, 0x2f, 0x71, 0x75, 0x61, 0x6e, 0x74, 0x5f, 0x63, 0x6f, 0x6e, 0x76, 0x32, 0x64, 0x2f, 0x53, 0x74, 0x61, 0x74, 0x65, 0x66, 0x75, 0x6c, 0x50, 0x61, 0x72, 0x74, 0x69, 0x74, 0x69, 0x6f, 0x6e, 0x65, 0x64, 0x43, 0x61, 0x6c, 0x6c, 0x2f, 0x53, 0x74, 0x61, 0x74, 0x65, 0x66, 0x75, 0x6c, 0x50, 0x61, 0x72, 0x74, 0x69, 0x74, 0x69, 0x6f, 0x6e, 0x65, 0x64, 0x43, 0x61, 0x6c, 0x6c, 0x2f, 0x52, 0x65, 0x6c, 0x75, 0x3b, 0x42, 0x69, 0x61, 0x73, 0x41, 0x64, 0x64, 0x3b, 0x73, 0x65, 0x71, 0x75, 0x65, 0x6e, 0x74, 0x69, 0x61, 0x6c, 0x2f, 0x71, 0x75, 0x61, 0x6e, 0x74, 0x5f, 0x63, 0x6f, 0x6e, 0x76, 0x32, 0x64, 0x2f, 0x53, 0x74, 0x61, 0x74, 0x65, 0x66, 0x75, 0x6c, 0x50, 0x61, 0x72, 0x74, 0x69, 0x74, 0x69, 0x6f, 0x6e, 0x65, 0x64, 0x43, 0x61, 0x6c, 0x6c, 0x2f, 0x53, 0x74, 0x61, 0x74, 0x65, 0x66, 0x75, 0x6c, 0x50, 0x61, 0x72, 0x74, 0x69, 0x74, 0x69, 0x6f, 0x6e, 0x65, 0x64, 0x43, 0x61, 0x6c, 0x6c, 0x2f, 0x42, 0x69, 0x61, 0x73, 0x41, 0x64, 0x64, 0x3b, 0x43, 0x6f, 0x6e, 0x76, 0x32, 0x44, 0x3b, 0x73, 0x65, 0x71, 0x75, 0x65, 0x6e, 0x74, 0x69, 0x61, 0x6c, 0x2f, 0x71, 0x75, 0x61, 0x6e, 0x74, 0x5f, 0x63, 0x6f, 0x6e, 0x76, 0x32, 0x64, 0x2f, 0x53, 0x74, 0x61, 0x74, 0x65, 0x66, 0x75, 0x6c, 0x50, 0x61, 0x72, 0x74, 0x69, 0x74, 0x69, 0x6f, 0x6e, 0x65, 0x64, 0x43, 0x61, 0x6c, 0x6c, 0x2f, 0x53, 0x74, 0x61, 0x74, 0x65, 0x66, 0x75, 0x6c, 0x50, 0x61, 0x72, 0x74, 0x69, 0x74, 0x69, 0x6f, 0x6e, 0x65, 0x64, 0x43, 0x61, 0x6c, 0x6c, 0x2f, 0x43, 0x6f, 0x6e, 0x76, 0x32, 0x44, 0x3b, 0x73, 0x65, 0x71, 0x75, 0x65, 0x6e, 0x74, 0x69, 0x61, 0x6c, 0x2f, 0x71, 0x75, 0x61, 0x6e, 0x74, 0x5f, 0x63, 0x6f, 0x6e, 0x76, 0x32, 0x64, 0x2f, 0x33, 0x37, 0x30, 0x31, 0x00, 0x00, 0x00, 0x00, 0x04, 0x00, 0x00, 0x00, 0x01, 0x00, 0x00, 0x00, 0x1e, 0x00, 0x00, 0x00, 0x1e, 0x00, 0x00, 0x00, 0x08, 0x00, 0x00, 0x00, 0xa2, 0xfd, 0xff, 0xff, 0x14, 0x00, 0x00, 0x00, 0x84, 0x00, 0x00, 0x00, 0x04, 0x00, 0x00, 0x00, 0x00, 0x00, 0x00, 0x02, 0x9c, 0x00, 0x00, 0x00, 0xf4, 0xfc, 0xff, 0xff, 0x08, 0x00, 0x00, 0x00, 0x48, 0x00, 0x00, 0x00, 0x08, 0x00, 0x00, 0x00, 0x00, 0x00, 0x00, 0x00, 0x00, 0x00, 0x00, 0x00, 0x00, 0x00, 0x00, 0x00, 0x00, 0x00, 0x00, 0x00, 0x00, 0x00, 0x00, 0x00, 0x00, 0x00, 0x00, 0x00, 0x00, 0x00, 0x00, 0x00, 0x00, 0x00, 0x00, 0x00, 0x00, 0x00, 0x00, 0x00, 0x00, 0x00, 0x00, 0x00, 0x00, 0x00, 0x00, 0x00, 0x00, 0x00, 0x00, 0x00, 0x00, 0x00, 0x00, 0x00, 0x00, 0x00, 0x00, 0x00, 0x00, 0x00, 0x00, 0x00, 0x00, 0x00, 0x00, 0x00, 0x08, 0x00, 0x00, 0x00, 0x39, 0x88, 0x93, 0x3b, 0x97, 0xa8, 0xb3, 0x3b, 0xb4, 0xfa, 0x5e, 0x3b, 0xdf, 0xf9, 0xa9, 0x3b, 0x46, 0xa3, 0x97, 0x3b, 0xa1, 0xb0, 0x88, 0x3b, 0x33, 0xdb, 0x58, 0x3b, 0x20, 0x0e, 0xa7, 0x3b, 0x1c, 0x00, 0x00, 0x00, 0x73, 0x65, 0x71, 0x75, 0x65, 0x6e, 0x74, 0x69, 0x61, 0x6c, 0x2f, 0x71, 0x75, 0x61, 0x6e, 0x74, 0x5f, 0x63, 0x6f, 0x6e, 0x76, 0x32, 0x64, 0x2f, 0x33, 0x37, 0x30, 0x31, 0x00, 0x00, 0x00, 0x00, 0x01, 0x00, 0x00, 0x00, 0x08, 0x00, 0x00, 0x00, 0x5a, 0xfe, 0xff, 0xff, 0x14, 0x00, 0x00, 0x00, 0x84, 0x00, 0x00, 0x00, 0x03, 0x00, 0x00, 0x00, 0x00, 0x00, 0x00, 0x09, 0x7c, 0x01, 0x00, 0x00, 0xac, 0xfd, 0xff, 0xff, 0x08, 0x00, 0x00, 0x00, 0x48, 0x00, 0x00, 0x00, 0x08, 0x00, 0x00, 0x00, 0x00, 0x00, 0x00, 0x00, 0x00, 0x00, 0x00, 0x00, 0x00, 0x00, 0x00, 0x00, 0x00, 0x00, 0x00, 0x00, 0x00, 0x00, 0x00, 0x00, 0x00, 0x00, 0x00, 0x00, 0x00, 0x00, 0x00, 0x00, 0x00, 0x00, 0x00, 0x00, 0x00, 0x00, 0x00, 0x00, 0x00, 0x00, 0x00, 0x00, 0x00, 0x00, 0x00, 0x00, 0x00, 0x00, 0x00, 0x00, 0x00, 0x00, 0x00, 0x00, 0x00, 0x00, 0x00, 0x00, 0x00, 0x00, 0x00, 0x00, 0x00, 0x00, 0x00, 0x00, 0x08, 0x00, 0x00, 0x00, 0x55, 0x74, 0x5f, 0x3b, 0x8b, 0x0e, 0x88, 0x3b, 0x2b, 0xdd, 0x28, 0x3b, 0x64, 0xb9, 0x80, 0x3b, 0x46, 0xac, 0x65, 0x3b, 0x60, 0x08, 0x4f, 0x3b, 0x16, 0x3a, 0x24, 0x3b, 0x3a, 0x06, 0x7d, 0x3b, 0xff, 0x00, 0x00, 0x00, 0x43, 0x6f, 0x6e, 0x76, 0x32, 0x44, 0x3b, 0x73, 0x65, 0x71, 0x75, 0x65, 0x6e, 0x74, 0x69, 0x61, 0x6c, 0x2f, 0x71, 0x75, 0x61, 0x6e, 0x74, 0x5f, 0x63, 0x6f, 0x6e, 0x76, 0x32, 0x64, 0x2f, 0x53, 0x74, 0x61, 0x74, 0x65, 0x66, 0x75, 0x6c, 0x50, 0x61, 0x72, 0x74, 0x69, 0x74, 0x69, 0x6f, 0x6e, 0x65, 0x64, 0x43, 0x61, 0x6c, 0x6c, 0x2f, 0x53, 0x74, 0x61, 0x74, 0x65, 0x66, 0x75, 0x6c, 0x50, 0x61, 0x72, 0x74, 0x69, 0x74, 0x69, 0x6f, 0x6e, 0x65, 0x64, 0x43, 0x61, 0x6c, 0x6c, 0x2f, 0x43, 0x6f, 0x6e, 0x76, 0x32, 0x44, 0x3b, 0x4c, 0x61, 0x73, 0x74, 0x56, 0x61, 0x6c, 0x75, 0x65, 0x51, 0x75, 0x61, 0x6e, 0x74, 0x2f, 0x46, 0x61, 0x6b, 0x65, 0x51, 0x75, 0x61, 0x6e, 0x74, 0x57, 0x69, 0x74, 0x68, 0x4d, 0x69, 0x6e, 0x4d, 0x61, 0x78, 0x56, 0x61, 0x72, 0x73, 0x50, 0x65, 0x72, 0x43, 0x68, 0x61, 0x6e, 0x6e, 0x65, 0x6c, 0x3b, 0x73, 0x65, 0x71, 0x75, 0x65, 0x6e, 0x74, 0x69, 0x61, 0x6c, 0x2f, 0x71, 0x75, 0x61, 0x6e, 0x74, 0x5f, 0x63, 0x6f, 0x6e, 0x76, 0x32, 0x64, 0x2f, 0x53, 0x74, 0x61, 0x74, 0x65, 0x66, 0x75, 0x6c, 0x50, 0x61, 0x72, 0x74, 0x69, 0x74, 0x69, 0x6f, 0x6e, 0x65, 0x64, 0x43, 0x61, 0x6c, 0x6c, 0x2f, 0x53, 0x74, 0x61, 0x74, 0x65, 0x66, 0x75, 0x6c, 0x50, 0x61, 0x72, 0x74, 0x69, 0x74, 0x69, 0x6f, 0x6e, 0x65, 0x64, 0x43, 0x61, 0x6c, 0x6c, 0x2f, 0x4c, 0x61, 0x73, 0x74, 0x56, 0x61, 0x6c, 0x75, 0x65, 0x51, 0x75, 0x61, 0x6e, 0x74, 0x2f, 0x46, 0x61, 0x6b, 0x65, 0x51, 0x75, 0x61, 0x6e, 0x74, 0x57, 0x69, 0x74, 0x68, 0x4d, 0x69, 0x6e, 0x4d, 0x61, 0x78, 0x56, 0x61, 0x72, 0x73, 0x50, 0x65, 0x72, 0x43, 0x68, 0x61, 0x6e, 0x6e, 0x65, 0x6c, 0x00, 0x04, 0x00, 0x00, 0x00, 0x08, 0x00, 0x00, 0x00, 0x03, 0x00, 0x00, 0x00, 0x03, 0x00, 0x00, 0x00, 0x01, 0x00, 0x00, 0x00, 0x00, 0x00, 0x0e, 0x00, 0x18, 0x00, 0x14, 0x00, 0x13, 0x00, 0x0c, 0x00, 0x08, 0x00, 0x04, 0x00, 0x0e, 0x00, 0x00, 0x00, 0x18, 0x00, 0x00, 0x00, 0x18, 0x00, 0x00, 0x00, 0x02, 0x00, 0x00, 0x00, 0x00, 0x00, 0x00, 0x02, 0x58, 0x00, 0x00, 0x00, 0x04, 0x00, 0x04, 0x00, 0x04, 0x00, 0x00, 0x00, 0x44, 0x00, 0x00, 0x00, 0x43, 0x6f, 0x6e, 0x73, 0x74, 0x3b, 0x73, 0x65, 0x71, 0x75, 0x65, 0x6e, 0x74, 0x69, 0x61, 0x6c, 0x2f, 0x71, 0x75, 0x61, 0x6e, 0x74, 0x5f, 0x66, 0x6c, 0x61, 0x74, 0x74, 0x65, 0x6e, 0x2f, 0x50, 0x61, 0x72, 0x74, 0x69, 0x74, 0x69, 0x6f, 0x6e, 0x65, 0x64, 0x43, 0x61, 0x6c, 0x6c, 0x2f, 0x50, 0x61, 0x72, 0x74, 0x69, 0x74, 0x69, 0x6f, 0x6e, 0x65, 0x64, 0x43, 0x61, 0x6c, 0x6c, 0x2f, 0x43, 0x6f, 0x6e, 0x73, 0x74, 0x00, 0x00, 0x00, 0x00, 0x01, 0x00, 0x00, 0x00, 0x02, 0x00, 0x00, 0x00, 0x14, 0x00, 0x1c, 0x00, 0x18, 0x00, 0x17, 0x00, 0x10, 0x00, 0x0c, 0x00, 0x08, 0x00, 0x00, 0x00, 0x00, 0x00, 0x04, 0x00, 0x14, 0x00, 0x00, 0x00, 0x18, 0x00, 0x00, 0x00, 0x34, 0x00, 0x00, 0x00, 0x50, 0x00, 0x00, 0x00, 0x01, 0x00, 0x00, 0x00, 0x00, 0x00, 0x00, 0x09, 0x50, 0x00, 0x00, 0x00, 0x04, 0x00, 0x00, 0x00, 0xff, 0xff, 0xff, 0xff, 0x20, 0x00, 0x00, 0x00, 0x20, 0x00, 0x00, 0x00, 0x01, 0x00, 0x00, 0x00, 0x0c, 0x00, 0x0c, 0x00, 0x00, 0x00, 0x00, 0x00, 0x08, 0x00, 0x04, 0x00, 0x0c, 0x00, 0x00, 0x00, 0x08, 0x00, 0x00, 0x00, 0x10, 0x00, 0x00, 0x00, 0x01, 0x00, 0x00, 0x00, 0x80, 0xff, 0xff, 0xff, 0xff, 0xff, 0xff, 0xff, 0x01, 0x00, 0x00, 0x00, 0x12, 0x05, 0xa9, 0x3f, 0x07, 0x00, 0x00, 0x00, 0x69, 0x6e, 0x70, 0x75, 0x74, 0x5f, 0x31, 0x00, 0x04, 0x00, 0x00, 0x00, 0x01, 0x00, 0x00, 0x00, 0x20, 0x00, 0x00, 0x00, 0x20, 0x00, 0x00, 0x00, 0x01, 0x00, 0x00, 0x00, 0x04, 0x00, 0x00, 0x00, 0x54, 0x00, 0x00, 0x00, 0x34, 0x00, 0x00, 0x00, 0x24, 0x00, 0x00, 0x00, 0x04, 0x00, 0x00, 0x00, 0xc8, 0xff, 0xff, 0xff, 0x09, 0x00, 0x00, 0x00, 0x04, 0x00, 0x00, 0x00, 0x00, 0x00, 0x00, 0x09, 0x0c, 0x00, 0x0c, 0x00, 0x0b, 0x00, 0x00, 0x00, 0x00, 0x00, 0x04, 0x00, 0x0c, 0x00, 0x00, 0x00, 0x16, 0x00, 0x00, 0x00, 0x00, 0x00, 0x00, 0x16, 0xf0, 0xff, 0xff, 0xff, 0x11, 0x00, 0x00, 0x00, 0x02, 0x00, 0x00, 0x00, 0x00, 0x00, 0x00, 0x11, 0x0c, 0x00, 0x10, 0x00, 0x0f, 0x00, 0x00, 0x00, 0x08, 0x00, 0x04, 0x00, 0x0c, 0x00, 0x00, 0x00, 0x03, 0x00, 0x00, 0x00, 0x03, 0x00, 0x00, 0x00, 0x00, 0x00, 0x00, 0x03};
const int model_data_len = 7056;