const unsigned char model_data[] __attribute__((aligned(8))) = {0x1c, 0x00, 0x00, 0x00, 0x54, 0x46, 0x4c, 0x33, 0x14, 0x00, 0x20, 0x00, 0x1c, 0x00, 0x18, 0x00, 0x14, 0x00, 0x10, 0x00, 0x0c, 0x00, 0x00, 0x00, 0x08, 0x00, 0x04, 0x00, 0x14, 0x00, 0x00, 0x00, 0x1c, 0x00, 0x00, 0x00, 0x1c, 0x00, 0x00, 0x00, 0x4c, 0x00, 0x00, 0x00, 0xd4, 0x1e, 0x00, 0x00, 0xe4, 0x1e, 0x00, 0x00, 0xc4, 0x29, 0x00, 0x00, 0x03, 0x00, 0x00, 0x00, 0x00, 0x00, 0x00, 0x00, 0x01, 0x00, 0x00, 0x00, 0x0c, 0x00, 0x00, 0x00, 0x08, 0x00, 0x0c, 0x00, 0x08, 0x00, 0x04, 0x00, 0x08, 0x00, 0x00, 0x00, 0x0e, 0x00, 0x00, 0x00, 0x04, 0x00, 0x00, 0x00, 0x13, 0x00, 0x00, 0x00, 0x6d, 0x69, 0x6e, 0x5f, 0x72, 0x75, 0x6e, 0x74, 0x69, 0x6d, 0x65, 0x5f, 0x76, 0x65, 0x72, 0x73, 0x69, 0x6f, 0x6e, 0x00, 0x0f, 0x00, 0x00, 0x00, 0x84, 0x1e, 0x00, 0x00, 0x7c, 0x1e, 0x00, 0x00, 0x64, 0x1e, 0x00, 0x00, 0x04, 0x1e, 0x00, 0x00, 0xd4, 0x1d, 0x00, 0x00, 0x44, 0x19, 0x00, 0x00, 0xf4, 0x18, 0x00, 0x00, 0x64, 0x00, 0x00, 0x00, 0x4c, 0x00, 0x00, 0x00, 0x44, 0x00, 0x00, 0x00, 0x3c, 0x00, 0x00, 0x00, 0x34, 0x00, 0x00, 0x00, 0x2c, 0x00, 0x00, 0x00, 0x24, 0x00, 0x00, 0x00, 0x04, 0x00, 0x00, 0x00, 0xd6, 0xe1, 0xff, 0xff, 0x04, 0x00, 0x00, 0x00, 0x10, 0x00, 0x00, 0x00, 0x31, 0x2e, 0x31, 0x34, 0x2e, 0x30, 0x00, 0x00, 0x00, 0x00, 0x00, 0x00, 0x00, 0x00, 0x00, 0x00, 0x98, 0xd7, 0xff, 0xff, 0x9c, 0xd7, 0xff, 0xff, 0xa0, 0xd7, 0xff, 0xff, 0xa4, 0xd7, 0xff, 0xff, 0xa8, 0xd7, 0xff, 0xff, 0x06, 0xe2, 0xff, 0xff, 0x04, 0x00, 0x00, 0x00, 0x08, 0x00, 0x00, 0x00, 0xd6, 0xfe, 0xff, 0xff, 0x2a, 0x01, 0x00, 0x00, 0x1a, 0xe2, 0xff, 0xff, 0x04, 0x00, 0x00, 0x00, 0x80, 0x18, 0x00, 0x00, 0xfe, 0x07, 0xfc, 0x03, 0xfe, 0x02, 0x07, 0x08, 0xfb, 0x02, 0x00, 0xf9, 0x06, 0x12, 0x02, 0x01, 0xf8, 0xec, 0xe7, 0xee, 0x00, 0xe7, 0x06, 0xf0, 0xf1, 0x0a, 0xeb, 0xff, 0xe7, 0xed, 0xf9, 0xed, 0x13, 0xf9, 0x02, 0x09, 0xfd, 0x02, 0xff, 0x09, 0x02, 0x15, 0x0c, 0xfd, 0x13, 0x07, 0xfd, 0xfe, 0x28, 0x08, 0xfe, 0x08, 0xfe, 0x08, 0x00, 0x0a, 0x02, 0x23, 0x06, 0x07, 0x0b, 0x0d, 0x05, 0x08, 0x0c, 0xf6, 0xf7, 0xf8, 0x01, 0xed, 0x07, 0xf5, 0x14, 0x0b, 0xf3, 0xfa, 0x08, 0xfb, 0xfb, 0xf8, 0x09, 0xed, 0xdf, 0xe5, 0x06, 0xe0, 0x03, 0xdd, 0x10, 0xf9, 0xcc, 0x00, 0xe6, 0xe9, 0xd9, 0xe5, 0x10, 0xdd, 0xb7, 0xd3, 0x00, 0xaf, 0x01, 0xc7, 0x10, 0x0e, 0xae, 0xf9, 0xde, 0xc2, 0xae, 0xc9, 0x05, 0xe7, 0xa9, 0xdb, 0xfd, 0xb9, 0x01, 0xba, 0x03, 0x04, 0xaf, 0x05, 0xec, 0xd9, 0xc5, 0xd5, 0x07, 0xd9, 0xa9, 0xd3, 0xfb, 0xb0, 0xff, 0xa8, 0xfe, 0x06, 0x9c, 0xfc, 0xd8, 0xc8, 0xb8, 0xdb, 0x09, 0xec, 0xef, 0xeb, 0xfb, 0xe9, 0xf9, 0xda, 0xf4, 0x0d, 0xd8, 0x04, 0x00, 0xfd, 0xe5, 0xe8, 0x12, 0xf9, 0xee, 0xfc, 0x04, 0xf1, 0xfe, 0xfd, 0xfd, 0x1b, 0xf8, 0x03, 0x04, 0x09, 0xf2, 0xf6, 0xf8, 0xff, 0xec, 0x01, 0x07, 0xe6, 0x07, 0xeb, 0xfc, 0xfb, 0xfc, 0xfc, 0x00, 0xfe, 0xf2, 0xfa, 0x00, 0x00, 0xd8, 0x02, 0x08, 0xe8, 0x01, 0xf3, 0xee, 0xfb, 0xcf, 0x02, 0xfd, 0x09, 0xee, 0x02, 0x03, 0xf7, 0xd9, 0xf9, 0x01, 0xe5, 0xff, 0xea, 0x05, 0x02, 0xd3, 0xf9, 0xfa, 0xf5, 0xeb, 0xfc, 0xff, 0x08, 0xff, 0x01, 0xfb, 0x13, 0xfc, 0x08, 0x01, 0x07, 0x06, 0xfe, 0x08, 0x21, 0xfa, 0x03, 0x14, 0x12, 0x15, 0x05, 0x09, 0x0f, 0xfa, 0x0c, 0xfe, 0x31, 0x02, 0xfa, 0x15, 0x16, 0x18, 0x0b, 0x2f, 0x19, 0x19, 0x15, 0xfc, 0x33, 0x02, 0x24, 0xf8, 0x42, 0x26, 0x08, 0x2e, 0x29, 0x26, 0x14, 0x30, 0x18, 0x10, 0x0c, 0xfe, 0x14, 0x08, 0x16, 0x01, 0x2f, 0x1b, 0xf9, 0x13, 0x1b, 0x0a, 0x11, 0x2d, 0x0e, 0xff, 0x09, 0xff, 0x03, 0xfd, 0xfc, 0x0c, 0x37, 0x01, 0xfe, 0x0a, 0x16, 0xee, 0x04, 0x2b, 0xf0, 0xd7, 0xfe, 0x00, 0xf4, 0xfc, 0xe4, 0x02, 0x2d, 0xe8, 0xfb, 0xff, 0xfb, 0xe5, 0xea, 0x29, 0xfa, 0xd4, 0xe8, 0x00, 0xde, 0x01, 0xe2, 0xf9, 0x25, 0xe2, 0x02, 0xfe, 0xfb, 0xd4, 0xf0, 0x10, 0xe3, 0xa0, 0xd8, 0x02, 0xba, 0x07, 0xc3, 0xf4, 0x1b, 0xb5, 0xfc, 0xf1, 0xd9, 0xc6, 0xce, 0x0f, 0xde, 0x95, 0xd3, 0x05, 0xaa, 0x08, 0xb0, 0x01, 0xfe, 0x93, 0xff, 0xd9, 0xc3, 0xb4, 0xd6, 0x22, 0xfc, 0xff, 0xf2, 0xfd, 0xf2, 0x03, 0xee, 0xf5, 0x1e, 0xdf, 0x06, 0xfb, 0x12, 0xf2, 0xf3, 0x20, 0x0e, 0x1b, 0x11, 0x08, 0x2e, 0x03, 0x16, 0xf2, 0x2a, 0x16, 0x01, 0x20, 0x23, 0x14, 0x0c, 0x15, 0x07, 0x21, 0x1b, 0x02, 0x11, 0x03, 0x10, 0xfa, 0x0c, 0x29, 0x03, 0x11, 0x22, 0x08, 0x0c, 0x04, 0x08, 0xfd, 0x08, 0x08, 0x0d, 0xff, 0x08, 0xf8, 0x11, 0xf9, 0x05, 0x07, 0x0b, 0xf9, 0x01, 0x00, 0x08, 0x01, 0x13, 0xfe, 0x0e, 0xfc, 0x08, 0xfd, 0x09, 0xf8, 0xfe, 0x08, 0x02, 0xf4, 0x0c, 0xfb, 0xff, 0xfd, 0xfa, 0xfa, 0x0a, 0x08, 0x15, 0xf9, 0x05, 0xfc, 0x06, 0x01, 0x18, 0x01, 0x01, 0x1b, 0x1a, 0x0e, 0x10, 0x06, 0x1d, 0xff, 0x18, 0xee, 0x23, 0x15, 0xff, 0x15, 0x13, 0x16, 0x0b, 0x28, 0x29, 0x2d, 0x11, 0x04, 0x2d, 0x08, 0x26, 0xe5, 0x29, 0x21, 0xfa, 0x1e, 0x23, 0x28, 0x16, 0x32, 0x08, 0x10, 0x11, 0xff, 0x11, 0x05, 0x08, 0x0f, 0x21, 0x08, 0x04, 0x0c, 0x12, 0x11, 0x13, 0x19, 0x0d, 0x01, 0x0c, 0x01, 0x07, 0x02, 0x03, 0x04, 0x29, 0xfe, 0x03, 0x06, 0x0e, 0xfc, 0x03, 0x21, 0xf3, 0xfe, 0x01, 0xfb, 0xf0, 0xfa, 0xf8, 0xfd, 0x2d, 0x06, 0xfb, 0x0a, 0x0f, 0xea, 0xf5, 0x19, 0xf0, 0xe4, 0xe6, 0x00, 0xde, 0x07, 0xe3, 0x0d, 0x1a, 0xdd, 0x04, 0xeb, 0xe8, 0xd7, 0xec, 0x06, 0xeb, 0xb9, 0xcb, 0x08, 0xc3, 0x01, 0xc3, 0x06, 0x0b, 0xbf, 0x02, 0xdb, 0xd8, 0xc1, 0xd0, 0xff, 0xe1, 0xaf, 0xc0, 0x08, 0xb5, 0xff, 0xbe, 0x06, 0x05, 0xa6, 0xfe, 0xd9, 0xd8, 0xbc, 0xcb, 0x16, 0xfd, 0xef, 0xe9, 0x00, 0x02, 0x08, 0xf8, 0xf7, 0x13, 0xea, 0x04, 0xfe, 0x0d, 0xe7, 0xef, 0x1f, 0x15, 0x22, 0x08, 0x02, 0x18, 0xfd, 0x19, 0xf7, 0x23, 0x12, 0x03, 0x19, 0x21, 0xfa, 0x06, 0x22, 0x1b, 0x30, 0x0e, 0x06, 0x25, 0xfc, 0x15, 0xf9, 0x25, 0x21, 0x03, 0x17, 0x1e, 0x14, 0x07, 0x09, 0x13, 0x21, 0x0e, 0x03, 0x14, 0x02, 0x06, 0x01, 0x0f, 0x1d, 0x08, 0x11, 0x1b, 0x0b, 0x0e, 0xff, 0x07, 0x0a, 0x0b, 0x02, 0x07, 0x06, 0xff, 0xfa, 0x03, 0x02, 0xff, 0x0e, 0x17, 0x08, 0xfe, 0xfd, 0xfd, 0xfc, 0xfb, 0x00, 0x0e, 0xfd, 0x0e, 0xfb, 0xfd, 0x00, 0x06, 0x01, 0x18, 0x02, 0x01, 0x0a, 0xfb, 0xfd, 0xfc, 0xfb, 0xf8, 0x00, 0x06, 0xf4, 0x05, 0x0e, 0xff, 0x01, 0xf8, 0x05, 0x09, 0x03, 0x09, 0x15, 0xfa, 0x04, 0x0b, 0x01, 0x0e, 0xff, 0x01, 0x0a, 0x00, 0x0c, 0x10, 0x00, 0x07, 0x29, 0x08, 0x15, 0x08, 0x01, 0x16, 0xfa, 0x0f, 0x11, 0x28, 0x22, 0xfc, 0x15, 0x11, 0x16, 0x09, 0x26, 0x1d, 0x14, 0x17, 0x06, 0x21, 0xfe, 0x11, 0xfe, 0x37, 0x1e, 0x08, 0x1b, 0x28, 0x19, 0x0a, 0x1c, 0x02, 0xf8, 0x07, 0x03, 0x07, 0x01, 0xf7, 0x0c, 0x26, 0xfe, 0x03, 0x0f, 0xfe, 0xf2, 0x00, 0x08, 0xe8, 0xd6, 0xda, 0xfd, 0xde, 0x06, 0xd8, 0x03, 0x05, 0xd3, 0xf9, 0xf1, 0xe9, 0xd4, 0xdf, 0xf5, 0xdf, 0xc7, 0xdd, 0x07, 0xb6, 0x01, 0xcb, 0x00, 0x0f, 0xba, 0xfd, 0xe1, 0xd7, 0xc7, 0xd9, 0xfd, 0xe1, 0xc2, 0xd1, 0x02, 0xc0, 0xfa, 0xd4, 0x02, 0xff, 0xcf, 0x02, 0xdf, 0xdd, 0xbf, 0xcf, 0x16, 0xfb, 0xfe, 0xed, 0xfe, 0x07, 0x05, 0xf9, 0x03, 0x0d, 0xf9, 0xfe, 0x04, 0xfe, 0xf5, 0xf3, 0x1a, 0x06, 0x17, 0x0a, 0x04, 0x11, 0x01, 0x0f, 0xfb, 0x15, 0x13, 0xff, 0x13, 0x23, 0x0f, 0x04, 0x15, 0x16, 0x2e, 0x0c, 0xfa, 0x2a, 0xff, 0x24, 0xfe, 0x1b, 0x2d, 0xfc, 0x13, 0x2c, 0x18, 0x13, 0x13, 0x09, 0x28, 0x0a, 0xfb, 0x14, 0x07, 0x1b, 0x00, 0x13, 0x1f, 0xff, 0x13, 0x1b, 0x08, 0x12, 0x06, 0x0a, 0x05, 0x0c, 0xf9, 0x0c, 0x02, 0x12, 0xfb, 0xff, 0x17, 0xf9, 0x0f, 0x21, 0x02, 0x14, 0xfb, 0xfe, 0x01, 0xfb, 0x02, 0x03, 0xff, 0x0f, 0x00, 0xfa, 0x00, 0x06, 0xff, 0x06, 0xf8, 0x05, 0x0a, 0xfc, 0xff, 0xf6, 0xfa, 0x04, 0xfb, 0xfc, 0xf6, 0xfd, 0x04, 0x02, 0x04, 0xfe, 0xf9, 0xfd, 0x0a, 0x0f, 0x06, 0x09, 0xfd, 0x16, 0xfd, 0x16, 0xe5, 0x0d, 0x06, 0x03, 0x04, 0x12, 0x0d, 0x04, 0x0d, 0x0d, 0x02, 0x02, 0x04, 0x05, 0xfb, 0x08, 0xe8, 0x10, 0x03, 0xfa, 0x07, 0x02, 0x02, 0x01, 0x0e, 0x05, 0x0c, 0x09, 0x03, 0x09, 0xfa, 0x0f, 0x01, 0x16, 0x13, 0xf8, 0x04, 0x0d, 0x05, 0x08, 0x08, 0x05, 0x00, 0xf3, 0xfd, 0xff, 0x01, 0x02, 0x05, 0x18, 0x08, 0x01, 0x0a, 0x05, 0xff, 0xf5, 0x0c, 0xfd, 0xe4, 0xf7, 0x02, 0xe6, 0xf9, 0xe6, 0x06, 0x00, 0xe0, 0xff, 0xee, 0xed, 0xd9, 0xe7, 0xfa, 0xd8, 0xc9, 0xdc, 0xfe, 0xcb, 0x03, 0xcc, 0xfc, 0xe8, 0xd3, 0xfc, 0xde, 0xce, 0xca, 0xd1, 0xe8, 0xec, 0xd4, 0xd0, 0x05, 0xda, 0xff, 0xdf, 0x08, 0xef, 0xdb, 0x09, 0xd9, 0xdf, 0xcb, 0xd0, 0x1f, 0x12, 0x1b, 0x05, 0xf9, 0x2d, 0xfe, 0x12, 0xec, 0x32, 0x1b, 0x09, 0x17, 0x1c, 0x10, 0x09, 0x2d, 0x29, 0x40, 0x2c, 0xfe, 0x3b, 0x06, 0x33, 0xef, 0x3b, 0x52, 0xf9, 0x36, 0x44, 0x33, 0x23, 0x26, 0x21, 0x42, 0x2f, 0xfc, 0x45, 0xfd, 0x37, 0xf9, 0x26, 0x4d, 0x09, 0x2c, 0x3d, 0x38, 0x1f, 0x07, 0x0c, 0x30, 0x0e, 0x07, 0x0f, 0x06, 0x07, 0xfd, 0x05, 0x28, 0x02, 0x0b, 0x14, 0x07, 0x18, 0xf9, 0x0d, 0x00, 0x13, 0xff, 0x0a, 0x00, 0x15, 0xf0, 0xfc, 0x09, 0xfc, 0x05, 0x0f, 0x11, 0x0b, 0x02, 0x0b, 0x00, 0xfa, 0xfa, 0x13, 0xfc, 0x15, 0xf7, 0x01, 0x06, 0x03, 0xfd, 0x0f, 0xff, 0x04, 0x03, 0x01, 0xfe, 0xfc, 0x01, 0x00, 0xf9, 0xfe, 0xff, 0xfc, 0x04, 0xfc, 0xfe, 0xf0, 0x08, 0xfe, 0x14, 0x0a, 0x13, 0x09, 0xfe, 0x17, 0x01, 0x16, 0xeb, 0x0a, 0x0c, 0xfa, 0x17, 0x15, 0x19, 0x12, 0x00, 0xf9, 0x07, 0xfc, 0xf8, 0x02, 0x03, 0x0c, 0xeb, 0x02, 0x05, 0xfd, 0xfb, 0x0b, 0xfb, 0x00, 0x04, 0x05, 0x0e, 0xfb, 0x05, 0x0d, 0x03, 0x0c, 0xf5, 0x02, 0x07, 0x06, 0x12, 0x07, 0xfc, 0xfd, 0x16, 0x12, 0x0c, 0x0b, 0x03, 0x07, 0x00, 0x19, 0x01, 0x19, 0x10, 0xfa, 0x1b, 0x1a, 0x0a, 0x07, 0x06, 0xfb, 0xee, 0x0f, 0x04, 0xea, 0x01, 0xfb, 0x0a, 0x10, 0x06, 0x05, 0xfd, 0x0a, 0xfb, 0xfe, 0xdf, 0xe1, 0xcd, 0xda, 0xfd, 0xcc, 0x04, 0xcb, 0x0e, 0xec, 0xd8, 0x06, 0xde, 0xda, 0xd5, 0xd3, 0xd6, 0xd5, 0xcc, 0xcb, 0xfd, 0xd2, 0x04, 0xdb, 0xfa, 0xdc, 0xdf, 0x00, 0xde, 0xdf, 0xcd, 0xda, 0x22, 0x25, 0x37, 0x10, 0x05, 0x42, 0x00, 0x30, 0xf9, 0x2f, 0x2c, 0x01, 0x1c, 0x3e, 0x27, 0x15, 0x51, 0x4e, 0x74, 0x57, 0xfc, 0x77, 0x02, 0x60, 0xec, 0x69, 0x71, 0x06, 0x58, 0x6f, 0x5a, 0x50, 0x3e, 0x29, 0x5c, 0x3b, 0x08, 0x5b, 0xff, 0x54, 0xed, 0x40, 0x59, 0x09, 0x3b, 0x4f, 0x59, 0x34, 0x12, 0x0b, 0x15, 0x06, 0x01, 0x1a, 0x04, 0x11, 0xfd, 0x13, 0x30, 0x05, 0x15, 0x04, 0x17, 0x13, 0x08, 0xfd, 0xe7, 0x05, 0x03, 0xf4, 0xfc, 0xf4, 0xfe, 0x0b, 0xfd, 0xfc, 0x08, 0x0f, 0xf8, 0xfd, 0xfb, 0x05, 0x04, 0x01, 0x08, 0x12, 0x04, 0x12, 0xf0, 0x07, 0xfe, 0xfc, 0x05, 0x0b, 0x09, 0x04, 0x0a, 0xf6, 0xfd, 0x03, 0xfa, 0xfb, 0x00, 0xfb, 0xf5, 0xfe, 0xf5, 0x08, 0x00, 0xf9, 0x07, 0x00, 0xf8, 0xf9, 0x05, 0x00, 0x00, 0xf7, 0x06, 0xf8, 0xe9, 0xf6, 0xfd, 0xfc, 0xf7, 0xf4, 0xfe, 0xff, 0xff, 0xf2, 0x04, 0xf5, 0xfa, 0xfd, 0xfa, 0xff, 0xed, 0x04, 0xf6, 0xfd, 0xf9, 0xf4, 0xfc, 0xf4, 0x03, 0xf0, 0x09, 0xf3, 0x08, 0xfe, 0x01, 0xff, 0xfb, 0x03, 0x02, 0xfb, 0x08, 0xfc, 0xfb, 0x01, 0x08, 0xfe, 0xf7, 0xff, 0x01, 0x06, 0x04, 0x06, 0x03, 0xf4, 0x01, 0x09, 0x05, 0x09, 0xf1, 0xf9, 0xf8, 0xf2, 0xde, 0xe8, 0xfe, 0xd4, 0xfb, 0xe2, 0x0b, 0xec, 0xe1, 0x08, 0xdc, 0xe4, 0xdd, 0xe4, 0xed, 0xdb, 0xce, 0xd3, 0x07, 0xd9, 0xff, 0xd9, 0x11, 0xf1, 0xd5, 0x07, 0xd5, 0xcd, 0xd0, 0xd9, 0xe2, 0xdb, 0xd0, 0xd8, 0x04, 0xd9, 0x07, 0xcf, 0x02, 0xd0, 0xd5, 0x09, 0xde, 0xd2, 0xd7, 0xdc, 0x2c, 0x28, 0x3d, 0x16, 0x06, 0x41, 0xfd, 0x37, 0xf0, 0x20, 0x32, 0xf9, 0x2d, 0x49, 0x3c, 0x18, 0x4e, 0x40, 0x5d, 0x45, 0x05, 0x59, 0xfd, 0x4e, 0xe7, 0x52, 0x5c, 0x04, 0x49, 0x3f, 0x53, 0x42, 0x29, 0x1e, 0x32, 0x28, 0xfc, 0x35, 0x05, 0x20, 0xfe, 0x21, 0x3d, 0x04, 0x18, 0x23, 0x22, 0x26, 0xed, 0xf6, 0xf1, 0xf3, 0x01, 0xe7, 0x02, 0xe3, 0xfa, 0xe5, 0x02, 0x00, 0xf7, 0xe9, 0xf1, 0xe4, 0xdd, 0xe5, 0xc9, 0xe2, 0x07, 0xba, 0xfe, 0xc8, 0x0b, 0xd1, 0xc6, 0x01, 0xd6, 0xc8, 0xcc, 0xdd, 0xfa, 0x03, 0x03, 0x02, 0x01, 0x14, 0x06, 0x05, 0xf7, 0xfc, 0xff, 0x03, 0x00, 0x0f, 0xf9, 0xf6, 0x03, 0xf3, 0xff, 0x04, 0x02, 0xf6, 0x05, 0xfe, 0xe0, 0xfc, 0x04, 0xff, 0xf8, 0xfd, 0xfb, 0x00, 0xee, 0xe7, 0xec, 0xef, 0x08, 0xef, 0xf8, 0xf1, 0xdb, 0xf7, 0xee, 0xfc, 0xf8, 0xf7, 0xef, 0xf7, 0x02, 0xf9, 0xff, 0xef, 0xfe, 0xfa, 0x03, 0x05, 0xe0, 0xf6, 0xf5, 0x06, 0xed, 0xfa, 0xfa, 0x03, 0x0a, 0x0a, 0x09, 0x03, 0xfc, 0x02, 0x03, 0x17, 0xe8, 0x02, 0x02, 0x05, 0x04, 0x0e, 0x0a, 0x0e, 0x07, 0xfa, 0xfd, 0x03, 0x07, 0xf5, 0x06, 0x01, 0x03, 0x03, 0x01, 0x02, 0x06, 0x09, 0xff, 0x04, 0xc7, 0xc5, 0xd3, 0xcf, 0x05, 0xd5, 0x02, 0xd4, 0x09, 0xce, 0xcd, 0x06, 0xca, 0xcd, 0xce, 0xd3, 0xe6, 0xe9, 0xcc, 0xde, 0x05, 0xd2, 0x01, 0xdf, 0xfb, 0xe0, 0xc0, 0x05, 0xe9, 0xdc, 0xd0, 0xe7, 0xff, 0xf0, 0xf6, 0xf7, 0x08, 0xf9, 0x09, 0xf0, 0xf1, 0x09, 0xf2, 0xfc, 0xee, 0xfd, 0xed, 0xf9, 0x3a, 0x3b, 0x44, 0x35, 0xff, 0x45, 0x09, 0x41, 0xe0, 0x27, 0x32, 0x08, 0x2f, 0x4b, 0x45, 0x2a, 0x30, 0x31, 0x47, 0x26, 0x07, 0x42, 0x04, 0x43, 0xee, 0x25, 0x3b, 0x03, 0x2e, 0x3b, 0x3d, 0x31, 0x03, 0xff, 0x15, 0x02, 0x06, 0x07, 0x08, 0x17, 0xf9, 0xfb, 0x1c, 0xff, 0x02, 0x02, 0x0d, 0x0f, 0xcc, 0xdf, 0xc9, 0xdc, 0xff, 0xc8, 0xff, 0xca, 0x07, 0xcd, 0xe2, 0xff, 0xd5, 0xcc, 0xda, 0xe4, 0xbd, 0xcd, 0xab, 0xc4, 0xfc, 0xb2, 0xff, 0xc2, 0xf6, 0xc3, 0xa8, 0xfb, 0xcb, 0xbd, 0xb6, 0xcd, 0x00, 0x07, 0xf8, 0x03, 0x08, 0x1c, 0xfd, 0x0a, 0xf3, 0x08, 0x00, 0x03, 0xfd, 0x15, 0x02, 0x05, 0x18, 0x02, 0x08, 0x11, 0xfa, 0x07, 0x05, 0x12, 0xae, 0x12, 0x06, 0xfb, 0x0b, 0x06, 0x01, 0x09, 0xf9, 0xef, 0xf7, 0xf9, 0xfa, 0xfa, 0xff, 0xf4, 0xc6, 0xfb, 0xf4, 0x09, 0xf6, 0xf8, 0xf7, 0xf3, 0xee, 0xf6, 0xf4, 0xfa, 0xfe, 0xf7, 0xf9, 0xfc, 0xe0, 0xf2, 0xf9, 0xfa, 0xf6, 0xfb, 0xf9, 0xef, 0x04, 0x13, 0x04, 0x1a, 0xf9, 0x15, 0x04, 0x15, 0xed, 0x10, 0x1b, 0xfb, 0x14, 0x0f, 0x1c, 0x0f, 0x10, 0x1c, 0x0d, 0x22, 0x03, 0x01, 0x08, 0x12, 0xff, 0x29, 0x1e, 0x09, 0x05, 0x08, 0x14, 0x09, 0xeb, 0xe6, 0xd1, 0xe5, 0xfc, 0xce, 0xf9, 0xdd, 0x09, 0xe9, 0xd9, 0xf9, 0xe6, 0xdb, 0xda, 0xe2, 0xdc, 0xec, 0xdc, 0xe4, 0xfd, 0xec, 0x08, 0xdb, 0xfc, 0xdf, 0xd8, 0x00, 0xf4, 0xd9, 0xd8, 0xe5, 0x1c, 0x10, 0x13, 0x10, 0x06, 0x24, 0x03, 0x18, 0xf2, 0x22, 0x18, 0x00, 0x1e, 0x1f, 0x12, 0x10, 0x3f, 0x3b, 0x45, 0x42, 0xfb, 0x3e, 0xfa, 0x43, 0xed, 0x44, 0x58, 0x04, 0x3f, 0x52, 0x49, 0x3d, 0x39, 0x31, 0x3e, 0x3a, 0x05, 0x42, 0xfc, 0x48, 0xf3, 0x2b, 0x4d, 0xfa, 0x2e, 0x34, 0x40, 0x41, 0xee, 0x13, 0x18, 0x16, 0xff, 0x0d, 0xfa, 0x0e, 0xfb, 0x03, 0x2b, 0xfe, 0x0c, 0x0c, 0x1d, 0x18, 0xc5, 0xd2, 0xd7, 0xde, 0x00, 0xcb, 0xfa, 0xc7, 0x10, 0xc3, 0xe4, 0xfc, 0xd7, 0xc1, 0xda, 0xd8, 0xbf, 0xd5, 0xb4, 0xcd, 0xfb, 0xb5, 0x04, 0xbc, 0xff, 0xbe, 0xba, 0x07, 0xc1, 0xc3, 0xbd, 0xbd, 0xf9, 0x0a, 0x03, 0xfb, 0xf9, 0x0d, 0x01, 0x13, 0xec, 0x09, 0xff, 0xff, 0x01, 0x19, 0x00, 0xfd, 0x0f, 0x14, 0x05, 0x00, 0x02, 0x0a, 0xfd, 0x0f, 0xb9, 0x05, 0x06, 0x03, 0x00, 0x10, 0x0a, 0x0a, 0x03, 0xff, 0xf5, 0xfe, 0xfb, 0xf9, 0x03, 0xff, 0xc7, 0xfd, 0x02, 0x02, 0xfa, 0xfc, 0xfd, 0xf8, 0xf9, 0xfa, 0xff, 0xef, 0xfa, 0xf9, 0xff, 0x05, 0xec, 0xf1, 0xfe, 0x04, 0x00, 0x02, 0xf0, 0xfa, 0x02, 0x00, 0x05, 0xfc, 0x01, 0xfc, 0xff, 0x0f, 0xf2, 0x0f, 0x0a, 0x05, 0x0c, 0x0c, 0x09, 0x02, 0x14, 0x08, 0x05, 0x06, 0x01, 0x00, 0x04, 0xfc, 0x12, 0x0f, 0xfe, 0xf9, 0x0d, 0x10, 0x0b, 0x13, 0x04, 0xf0, 0xf0, 0xf3, 0xff, 0xe2, 0xfd, 0xe9, 0x03, 0xf9, 0xdf, 0xfa, 0xf2, 0xea, 0xe9, 0xf6, 0xf3, 0xeb, 0xe1, 0xee, 0xfc, 0xd4, 0xfc, 0xeb, 0xfd, 0x03, 0xd7, 0xfc, 0xef, 0xeb, 0xe6, 0xf4, 0xf9, 0x04, 0xeb, 0xfb, 0x03, 0xf7, 0xff, 0xf4, 0xfc, 0xf7, 0xec, 0xfa, 0xfe, 0xee, 0xf4, 0xf2, 0x1a, 0x16, 0x1b, 0x12, 0x06, 0x13, 0xfd, 0x13, 0xe1, 0x07, 0x15, 0xf9, 0x18, 0x17, 0x1f, 0x0f, 0x30, 0x2e, 0x34, 0x27, 0x07, 0x38, 0x02, 0x37, 0xec, 0x1e, 0x2b, 0xfc, 0x1d, 0x34, 0x31, 0x30, 0x17, 0x20, 0x37, 0x26, 0x06, 0x26, 0xfe, 0x23, 0xf8, 0x22, 0x3b, 0x05, 0x15, 0x0d, 0x24, 0x1e, 0xe2, 0xe1, 0xd6, 0xe4, 0x06, 0xd8, 0x03, 0xcc, 0x0b, 0xdf, 0xf4, 0x05, 0xe7, 0xc9, 0xcf, 0xee, 0xdf, 0xda, 0xbc, 0xd0, 0xf9, 0xc0, 0xff, 0xc8, 0xfc, 0xef, 0xc4, 0x08, 0xe1, 0xd3, 0xc6, 0xd3, 0xfe, 0x01, 0xfc, 0xfe, 0xfa, 0x05, 0x03, 0x0b, 0xf5, 0xfe, 0xfe, 0xfc, 0xfd, 0x02, 0xfd, 0xfc, 0xf5, 0xf3, 0xf9, 0xf2, 0x06, 0xf4, 0xfd, 0x04, 0xf8, 0xf9, 0xf4, 0xfb, 0x05, 0xff, 0xfa, 0xfc, 0x03, 0x0b, 0x03, 0xfd, 0x05, 0x04, 0x03, 0x07, 0xd8, 0x02, 0xfe, 0xfd, 0x03, 0x05, 0xff, 0x06, 0x1b, 0x0d, 0x05, 0x0e, 0x09, 0x11, 0x02, 0x12, 0xe7, 0x22, 0x0b, 0x07, 0x0e, 0x0c, 0x1a, 0x06, 0x09, 0x05, 0xfc, 0x08, 0x03, 0x01, 0x07, 0xff, 0x0b, 0x06, 0x01, 0x01, 0x01, 0x01, 0x04, 0x03, 0x01, 0xf4, 0xe8, 0xf2, 0xfc, 0xea, 0x08, 0xee, 0x12, 0xfd, 0xe9, 0xfb, 0xf2, 0xe7, 0xe6, 0xed, 0x0c, 0xf6, 0xd6, 0xf0, 0x05, 0xc9, 0x02, 0xde, 0x08, 0x0d, 0xe1, 0x06, 0xe4, 0xed, 0xd5, 0xe7, 0xe3, 0xe1, 0xca, 0xe6, 0xfd, 0xcf, 0xff, 0xcf, 0x08, 0xf3, 0xc4, 0xfd, 0xe2, 0xe3, 0xd1, 0xe3, 0xea, 0xe5, 0xd2, 0xdf, 0xfe, 0xd3, 0x02, 0xda, 0xfd, 0xe9, 0xd0, 0x01, 0xe3, 0xde, 0xdf, 0xe7, 0x04, 0xf8, 0x00, 0xf6, 0x06, 0xf3, 0xf9, 0xee, 0xfd, 0xee, 0xe5, 0x04, 0xf5, 0x00, 0xfe, 0xf7, 0x10, 0x13, 0x1d, 0x07, 0xfe, 0x1e, 0xfb, 0x1f, 0xf1, 0xfa, 0x11, 0xff, 0x0b, 0x15, 0x1a, 0x1a, 0x2d, 0x2c, 0x51, 0x2d, 0x01, 0x4a, 0xf9, 0x46, 0xf9, 0x22, 0x50, 0xfa, 0x38, 0x36, 0x3d, 0x25, 0x06, 0x05, 0x09, 0x0d, 0x02, 0x11, 0xff, 0x09, 0xf5, 0x0f, 0x26, 0x03, 0x12, 0x15, 0x0e, 0x0f, 0x0b, 0xfa, 0xe4, 0x16, 0xfa, 0xf1, 0x06, 0xf8, 0x02, 0x03, 0xee, 0x01, 0x12, 0x08, 0xf1, 0x08, 0x03, 0xfe, 0xfa, 0x02, 0xfb, 0x11, 0x03, 0x13, 0xf8, 0xf7, 0xff, 0xfe, 0xff, 0x0a, 0xf9, 0x02, 0xff, 0xfb, 0x0a, 0x12, 0x01, 0x0a, 0x04, 0x03, 0x00, 0x05, 0x18, 0xfd, 0x0d, 0x17, 0x09, 0x00, 0x03, 0x04, 0xff, 0x04, 0xfb, 0x02, 0x05, 0xff, 0xee, 0x0a, 0x05, 0xff, 0x07, 0x07, 0xff, 0x07, 0x1b, 0x0e, 0x1a, 0x0f, 0x08, 0x03, 0xf9, 0x03, 0xdf, 0x16, 0x00, 0x05, 0x0b, 0x0d, 0x18, 0x0f, 0x12, 0x0f, 0x0b, 0x0d, 0x06, 0xfd, 0x03, 0x09, 0x09, 0x1b, 0x0e, 0x08, 0x0f, 0x17, 0x07, 0x0b, 0xf4, 0xdd, 0xd4, 0xf5, 0x07, 0xc4, 0xfe, 0xe4, 0x03, 0xf4, 0xc9, 0xff, 0xe2, 0xd7, 0xe1, 0xe5, 0x0a, 0xe0, 0xb5, 0xdf, 0x03, 0xbd, 0xfa, 0xca, 0x0f, 0x02, 0xac, 0x02, 0xe7, 0xd9, 0xbc, 0xe0, 0x03, 0xde, 0xad, 0xdb, 0xfc, 0xb6, 0xfb, 0xb0, 0xfc, 0x0a, 0x9f, 0xfd, 0xd6, 0xd3, 0xb6, 0xd7, 0xf2, 0xf6, 0xcb, 0xdd, 0x03, 0xca, 0x02, 0xd4, 0xfa, 0x0a, 0xbc, 0xfe, 0xef, 0xe1, 0xcf, 0xec, 0xec, 0xf3, 0xe9, 0x00, 0xfe, 0xfa, 0xfd, 0xe8, 0xfc, 0x09, 0xef, 0xfe, 0xf9, 0xf2, 0xf8, 0xfc, 0x05, 0x24, 0x18, 0x12, 0x07, 0x24, 0x04, 0x13, 0xf3, 0x11, 0x1a, 0xfc, 0x16, 0x24, 0x16, 0x17, 0x20, 0x2f, 0x5d, 0x3f, 0x03, 0x5c, 0xff, 0x43, 0x00, 0x1f, 0x52, 0xfd, 0x2a, 0x52, 0x3f, 0x2b, 0x0b, 0x12, 0x4a, 0x26, 0x03, 0x26, 0x02, 0x24, 0xf3, 0x0f, 0x37, 0x01, 0x1e, 0x28, 0x2b, 0x1c, 0x09, 0x13, 0x1d, 0x13, 0xf9, 0x28, 0x04, 0x16, 0xfc, 0x00, 0x1a, 0x03, 0x12, 0x17, 0x1c, 0x19, 0x05, 0x01, 0x00, 0xf9, 0xfc, 0x14, 0x05, 0x12, 0xf5, 0xf9, 0xfa, 0x02, 0xff, 0x10, 0x04, 0xfa, 0x16, 0x14, 0x0d, 0x14, 0x00, 0x16, 0xfd, 0x15, 0xe6, 0x0d, 0x18, 0x08, 0x14, 0x13, 0x10, 0x16, 0x00, 0xf7, 0xff, 0x0c, 0xfe, 0xfd, 0xf8, 0xfc, 0xf7, 0x10, 0x08, 0xfc, 0x0a, 0x02, 0xf7, 0xf6, 0xfa, 0xf7, 0xef, 0xfc, 0x01, 0xec, 0x02, 0xf3, 0xf3, 0xef, 0xee, 0xfc, 0xf7, 0xec, 0xf4, 0xf2, 0x19, 0x0b, 0x05, 0x08, 0x05, 0xfa, 0x07, 0xff, 0xf8, 0x1d, 0xf5, 0x04, 0x01, 0x13, 0xfa, 0x07, 0x0e, 0xea, 0xca, 0xf8, 0x00, 0xbc, 0x06, 0xc2, 0x16, 0x16, 0xbe, 0xfb, 0xed, 0xd2, 0xd2, 0xe3, 0xf8, 0xe9, 0xa2, 0xdc, 0x06, 0xad, 0x04, 0xc5, 0x0e, 0x07, 0xa2, 0xf9, 0xdf, 0xcd, 0xc0, 0xce, 0x03, 0xe7, 0xa0, 0xd0, 0x08, 0xb3, 0xfa, 0xcb, 0xf6, 0x08, 0xa3, 0x03, 0xe7, 0xd1, 0xbd, 0xdd, 0x24, 0xf1, 0xd7, 0xf2, 0xfc, 0xd8, 0xfe, 0xe7, 0xff, 0x1c, 0xc2, 0x06, 0x0a, 0x0b, 0xd7, 0xed, 0x22, 0x1d, 0x0d, 0x0a, 0x03, 0x10, 0xfe, 0x16, 0xf3, 0x31, 0x0b, 0x04, 0x1b, 0x12, 0x12, 0x0a, 0x33, 0x24, 0x2d, 0x2f, 0x04, 0x3d, 0xff, 0x2a, 0xf8, 0x2e, 0x27, 0x05, 0x2c, 0x32, 0x30, 0x1e, 0x25, 0x28, 0x53, 0x32, 0x00, 0x4e, 0xff, 0x40, 0xf5, 0x29, 0x53, 0x01, 0x2e, 0x49, 0x49, 0x34, 0x0c, 0x14, 0x40, 0x1b, 0x02, 0x39, 0x02, 0x23, 0x02, 0x13, 0x2f, 0xfd, 0x1c, 0x2a, 0x28, 0x18, 0x02, 0x05, 0x09, 0x0e, 0xfc, 0x07, 0xff, 0x05, 0xfb, 0xfd, 0x05, 0xfa, 0x0c, 0x05, 0x03, 0x0f, 0xfd, 0xf8, 0xfc, 0xfe, 0x07, 0xf2, 0x03, 0xfb, 0xf2, 0xff, 0x04, 0x05, 0xf8, 0x08, 0xfd, 0x01, 0xf7, 0xf2, 0xf3, 0x00, 0xfd, 0xfb, 0xfe, 0xf2, 0xfb, 0x00, 0xf8, 0x04, 0x0e, 0xf8, 0xfc, 0x07, 0x06, 0x00, 0x03, 0x02, 0xfb, 0xf7, 0x08, 0xf5, 0x02, 0x0f, 0xf7, 0xfd, 0xf5, 0x00, 0xf9, 0xf4, 0xf8, 0xf2, 0xea, 0xf1, 0x01, 0xe3, 0x02, 0xe7, 0x08, 0xf7, 0xec, 0xfd, 0xfc, 0x01, 0xdd, 0xf0, 0x09, 0xf6, 0xe7, 0xf4, 0x05, 0xe2, 0x01, 0xe4, 0x05, 0x16, 0xe5, 0xfd, 0x02, 0xf6, 0xed, 0xf4, 0xf4, 0xcb, 0xa2, 0xbf, 0x04, 0x97, 0xfc, 0xae, 0x0d, 0xff, 0x95, 0x07, 0xca, 0xb8, 0xb8, 0xd5, 0x01, 0xd9, 0x94, 0xca, 0xfd, 0xa1, 0x07, 0xb3, 0x02, 0x05, 0x90, 0xfd, 0xd8, 0xc5, 0xa4, 0xcc, 0x04, 0xcf, 0x82, 0xcb, 0xfa, 0x99, 0xff, 0xa7, 0x0a, 0xfd, 0x89, 0x05, 0xda, 0xc0, 0xb0, 0xc9, 0x15, 0xed, 0xb2, 0xd8, 0xfa, 0xc1, 0xf9, 0xc9, 0x09, 0x0c, 0x96, 0xfd, 0xe4, 0xe3, 0xcb, 0xd3, 0x12, 0x0c, 0x02, 0xfc, 0xfa, 0x05, 0x04, 0x02, 0xf5, 0x1f, 0xe7, 0xfd, 0x0e, 0x28, 0xf8, 0x0c, 0x12, 0x16, 0x2a, 0x1d, 0xfd, 0x20, 0xfc, 0x25, 0xf7, 0x1c, 0x12, 0x02, 0x10, 0x2a, 0x17, 0x10, 0x20, 0x1e, 0x3e, 0x21, 0x01, 0x42, 0x01, 0x2e, 0xf4, 0x1a, 0x1b, 0xfd, 0x27, 0x29, 0x39, 0x24, 0x0c, 0x0a, 0x13, 0x0e, 0xf9, 0xf7, 0x01, 0xf8, 0xf5, 0x02, 0xfe, 0xfe, 0x12, 0x10, 0x18, 0x18, 0xfd, 0xf6, 0xc9, 0xeb, 0xfb, 0xbe, 0xfe, 0xda, 0xfb, 0x00, 0xc0, 0xfd, 0xf4, 0xf3, 0xe0, 0x03, 0x04, 0xf9, 0xff, 0x02, 0x05, 0xfe, 0xf9, 0xf5, 0x09, 0x04, 0xfd, 0xff, 0xfa, 0xf8, 0x06, 0xfe, 0x0b, 0x1a, 0x17, 0x0e, 0xfb, 0x18, 0x04, 0x16, 0x00, 0x00, 0x18, 0xfd, 0x13, 0x19, 0x0f, 0x12, 0xf0, 0x04, 0xfb, 0xfc, 0x02, 0xf7, 0x04, 0xfe, 0x0a, 0xe4, 0xfa, 0xfe, 0xf4, 0xf9, 0xfd, 0xff, 0xdb, 0xf1, 0xff, 0xf0, 0x00, 0xf1, 0x06, 0xf2, 0xfe, 0xd0, 0xf9, 0x00, 0xf8, 0xf8, 0xf9, 0xf2, 0xee, 0x0c, 0x00, 0x02, 0x00, 0x18, 0xfd, 0x15, 0xeb, 0xf3, 0x12, 0xff, 0xfb, 0x02, 0x0a, 0x07, 0xec, 0x1a, 0x22, 0x1b, 0xfc, 0x1a, 0x06, 0x24, 0xef, 0x06, 0x2b, 0x00, 0x14, 0x11, 0x20, 0x11, 0xf2, 0x23, 0x42, 0x28, 0xfa, 0x50, 0xff, 0x44, 0xff, 0xef, 0x52, 0xfb, 0x18, 0x3a, 0x50, 0x2e, 0x08, 0x1c, 0x54, 0x32, 0x06, 0x40, 0x02, 0x3e, 0x08, 0xfa, 0x58, 0x06, 0x1d, 0x2b, 0x40, 0x2b, 0xfa, 0x26, 0x60, 0x23, 0x00, 0x5a, 0xf8, 0x52, 0xfc, 0xff, 0x67, 0xf9, 0x26, 0x35, 0x4d, 0x2f, 0xec, 0x16, 0x12, 0x15, 0xfa, 0x16, 0x06, 0x25, 0x06, 0xee, 0x2f, 0xfd, 0x01, 0x08, 0x0f, 0x16, 0xef, 0x09, 0x0c, 0x07, 0x00, 0x08, 0xfc, 0x00, 0x00, 0xe7, 0xfa, 0x06, 0xf6, 0x02, 0x0c, 0x0d, 0x07, 0x07, 0x17, 0x07, 0xfe, 0x1d, 0x03, 0x0d, 0x07, 0x08, 0x09, 0xfb, 0xfd, 0xfe, 0x0c, 0x06, 0x04, 0x09, 0x25, 0xfa, 0x06, 0x12, 0xfe, 0x0f, 0x13, 0x02, 0x2e, 0x03, 0xfb, 0xf0, 0x13, 0xfd, 0xff, 0x07, 0x29, 0x07, 0x06, 0x1e, 0x01, 0x11, 0xf9, 0xfe, 0x36, 0xf9, 0x05, 0x0c, 0x20, 0xfe, 0xfd, 0xf9, 0xfc, 0xfd, 0xfd, 0xf4, 0x05, 0xf0, 0x05, 0x05, 0x00, 0xff, 0x05, 0xdc, 0x05, 0x02, 0xeb, 0xf3, 0xe9, 0xf0, 0xff, 0xf1, 0xf8, 0xf2, 0x03, 0xd8, 0xf8, 0x01, 0xec, 0xf7, 0xf1, 0xf6, 0xd0, 0xe5, 0xeb, 0xe5, 0x02, 0xce, 0x02, 0xe5, 0x0a, 0xc8, 0xda, 0x02, 0xd9, 0xd3, 0xd1, 0xed, 0xc5, 0xea, 0xf1, 0xec, 0x08, 0xf5, 0xff, 0xf1, 0xfc, 0xcb, 0xea, 0x04, 0xe1, 0xed, 0xf2, 0xf2, 0xdc, 0xf2, 0xff, 0xf9, 0x02, 0xf8, 0xfd, 0xfb, 0xf5, 0xd8, 0xf7, 0xf8, 0xf2, 0xed, 0x06, 0xf8, 0xdc, 0x08, 0x25, 0x03, 0xff, 0x0b, 0x03, 0x23, 0xf5, 0xd6, 0x13, 0xff, 0xf4, 0x09, 0x19, 0x14, 0xe2, 0x07, 0x27, 0x0b, 0x04, 0x25, 0xfe, 0x1e, 0x05, 0xe4, 0x26, 0xf7, 0x00, 0x0d, 0x26, 0x0b, 0xf8, 0x1d, 0x59, 0x20, 0x08, 0x4c, 0xf8, 0x38, 0x06, 0xef, 0x4c, 0xfd, 0x0f, 0x25, 0x3c, 0x2c, 0xf5, 0x21, 0x72, 0x37, 0x04, 0x5c, 0x04, 0x43, 0xf8, 0xf5, 0x73, 0x04, 0x2c, 0x35, 0x46, 0x2c, 0xec, 0x02, 0x0d, 0x16, 0x04, 0x02, 0xf8, 0x12, 0x10, 0xe2, 0x22, 0xfa, 0xf9, 0xf2, 0x12, 0x0e, 0xdc, 0xeb, 0xdd, 0xea, 0xfa, 0xd6, 0x03, 0xe7, 0x03, 0xdc, 0xed, 0x01, 0xe2, 0xdd, 0xfa, 0xf4, 0xe7, 0xfc, 0xe2, 0xe7, 0x04, 0xec, 0x05, 0xec, 0x08, 0xf0, 0xe1, 0xff, 0xe8, 0xe7, 0xfa, 0xee, 0xf1, 0xfb, 0x06, 0xf1, 0xfb, 0xf0, 0xf8, 0xf7, 0x02, 0xf6, 0x01, 0x00, 0xf7, 0xf2, 0x08, 0xfd, 0x02, 0xf6, 0xf8, 0xec, 0x07, 0xf5, 0xf8, 0x03, 0x0f, 0xf3, 0xfd, 0x07, 0xf7, 0xff, 0x07, 0x00, 0x01, 0x02, 0x00, 0xfe, 0xfd, 0xf1, 0xfb, 0xf6, 0x01, 0x08, 0x00, 0xf7, 0x01, 0xf0, 0x02, 0xfd, 0xe7, 0xe8, 0xf5, 0xec, 0x07, 0xe1, 0x02, 0xe9, 0x06, 0xe7, 0xeb, 0xfb, 0xf5, 0xef, 0xe3, 0xed, 0xd7, 0xdb, 0xd3, 0xf3, 0x07, 0xdb, 0xf8, 0xd9, 0x18, 0xdf, 0xdc, 0xfe, 0xe2, 0xdb, 0xd5, 0xf9, 0xd4, 0xf3, 0xf5, 0xeb, 0x07, 0xe7, 0x02, 0xf7, 0xfa, 0xd6, 0xf7, 0x00, 0xeb, 0xed, 0xe9, 0xf2, 0xdc, 0xfa, 0x05, 0xf6, 0xfa, 0x06, 0x07, 0xf9, 0xfe, 0xd0, 0x06, 0x03, 0xf7, 0xee, 0x01, 0x07, 0xdc, 0x0f, 0x0c, 0xfe, 0xf9, 0x16, 0x01, 0x00, 0xfe, 0xcf, 0x09, 0x06, 0xff, 0xf5, 0x11, 0x0d, 0xef, 0x0e, 0x25, 0x14, 0xf8, 0x19, 0x04, 0x27, 0xf5, 0xef, 0x22, 0xfa, 0x0d, 0x0e, 0x27, 0x15, 0xfb, 0x1a, 0x4b, 0x3c, 0x06, 0x3b, 0x00, 0x3b, 0xef, 0xf8, 0x43, 0x04, 0x23, 0x21, 0x3f, 0x21, 0xfa, 0x2a, 0x58, 0x3b, 0xfa, 0x48, 0xff, 0x42, 0xfe, 0xf9, 0x4f, 0xfc, 0x27, 0x26, 0x49, 0x34, 0xe3, 0xfe, 0x0e, 0x1a, 0x01, 0x04, 0xfb, 0x07, 0xfd, 0xe4, 0x08, 0x00, 0x00, 0xf7, 0x1b, 0x0f, 0xdb, 0xed, 0xe1, 0xf3, 0x02, 0xe0, 0xfd, 0xe9, 0x0a, 0xd9, 0xec, 0xfe, 0xeb, 0xe7, 0x08, 0xfa, 0xdd, 0xeb, 0xd4, 0xed, 0xfd, 0xdf, 0x04, 0xea, 0x0c, 0xda, 0xd9, 0x06, 0xf0, 0xe4, 0xe5, 0xf6, 0xed, 0xf6, 0xe9, 0xf7, 0xfd, 0xf5, 0x01, 0xf6, 0xfc, 0xf5, 0xdc, 0xfc, 0xf1, 0xe9, 0x01, 0xf4, 0xff, 0xf8, 0xf3, 0xf3, 0xfe, 0xf8, 0xf9, 0x01, 0x0a, 0xfe, 0xfe, 0x06, 0xf3, 0xeb, 0xfe, 0xf5, 0x0a, 0xfb, 0xfb, 0x04, 0xfc, 0xed, 0xff, 0xea, 0x04, 0x01, 0x04, 0x03, 0x04, 0xf1, 0xfe, 0x01, 0xf9, 0x00, 0xf8, 0x07, 0x03, 0xfd, 0x07, 0xf8, 0x16, 0xfe, 0xf6, 0xfd, 0x00, 0x03, 0xfa, 0x00, 0xf7, 0xfc, 0xf9, 0xfd, 0xfd, 0xf5, 0xfb, 0xf2, 0x08, 0xf9, 0xfc, 0x06, 0xfd, 0xe7, 0xf7, 0xf0, 0xdf, 0xf9, 0xe9, 0xfc, 0xf9, 0xeb, 0x02, 0xee, 0xf5, 0xe7, 0xe8, 0x08, 0xe8, 0xf7, 0xee, 0xeb, 0xdd, 0xe2, 0xf5, 0xe7, 0x05, 0xe3, 0xfd, 0xe6, 0x04, 0xc7, 0xeb, 0xf9, 0xdb, 0xdd, 0xef, 0xf6, 0xe1, 0xfb, 0x0e, 0xf7, 0x08, 0xfb, 0x04, 0x02, 0xf1, 0xe5, 0xf4, 0xff, 0xf0, 0xfb, 0x07, 0x0c, 0xfc, 0x1c, 0x22, 0x1e, 0x06, 0x21, 0x01, 0x2f, 0xfe, 0xfe, 0x27, 0xfb, 0x18, 0x1b, 0x2a, 0x1e, 0x01, 0x25, 0x3f, 0x22, 0x03, 0x43, 0xfe, 0x3c, 0x02, 0xef, 0x42, 0xf8, 0x1b, 0x24, 0x31, 0x2d, 0x0b, 0x26, 0x41, 0x31, 0x05, 0x3f, 0x06, 0x34, 0xfb, 0xfe, 0x33, 0xff, 0x25, 0x2a, 0x42, 0x37, 0xf9, 0x0e, 0x08, 0x0b, 0x06, 0xf8, 0x02, 0x08, 0xfd, 0xf7, 0x0d, 0xf8, 0x09, 0xfc, 0x11, 0x10, 0xee, 0xf3, 0xec, 0xfa, 0xfe, 0xeb, 0xf9, 0xf0, 0x04, 0xeb, 0xf3, 0xff, 0xe6, 0xe8, 0xf7, 0xf6, 0xed, 0xec, 0xc8, 0xf3, 0xfe, 0xd7, 0x04, 0xdf, 0x0b, 0xe5, 0xcd, 0x04, 0xe5, 0xdc, 0xe3, 0xed, 0xf7, 0xf5, 0xe2, 0xf6, 0xf9, 0xe5, 0xff, 0xee, 0xfb, 0xf7, 0xe8, 0xf9, 0xe2, 0xed, 0xf0, 0xf2, 0xfa, 0xf7, 0xf6, 0xea, 0x00, 0xeb, 0xfa, 0xf1, 0x04, 0x01, 0xe8, 0x00, 0xef, 0xe7, 0xf9, 0xf7, 0xf6, 0x01, 0xfb, 0xfe, 0xfe, 0xf9, 0xfd, 0xfd, 0x04, 0xff, 0xfe, 0x06, 0x01, 0xf3, 0x00, 0x07, 0x00, 0x05, 0xfb, 0x07, 0x06, 0x06, 0xff, 0x08, 0x15, 0x0a, 0x05, 0xf9, 0xff, 0xfd, 0xfd, 0x05, 0xf5, 0xf6, 0xec, 0xfb, 0xfb, 0xea, 0xfd, 0xe9, 0x14, 0xf6, 0xf6, 0xfa, 0x08, 0xed, 0xee, 0xf9, 0xf0, 0xfe, 0xef, 0xf6, 0xfd, 0xf6, 0xff, 0xfc, 0x13, 0xf7, 0xf9, 0x05, 0xf6, 0xff, 0xfc, 0xfc, 0xf2, 0xf4, 0xf3, 0xf1, 0xff, 0xee, 0x05, 0xf9, 0xff, 0xea, 0xec, 0x06, 0xf5, 0x00, 0xfa, 0xf7, 0xef, 0x00, 0x0b, 0x0c, 0x01, 0xf4, 0xfd, 0xff, 0x05, 0xe7, 0xf6, 0xfb, 0xfa, 0xf8, 0x04, 0x05, 0xf8, 0x0f, 0x1e, 0x12, 0xfc, 0x1e, 0xfa, 0x16, 0xf7, 0xf9, 0x1e, 0x04, 0x0f, 0x10, 0x1a, 0x1b, 0x0c, 0x2a, 0x39, 0x24, 0x00, 0x3a, 0x02, 0x2c, 0x07, 0x19, 0x2e, 0xfa, 0x23, 0x29, 0x3b, 0x30, 0x17, 0x10, 0x23, 0x34, 0xfd, 0x27, 0xfe, 0x2b, 0x00, 0x17, 0x2c, 0x01, 0x28, 0x20, 0x36, 0x2a, 0xd8, 0xf1, 0xe3, 0xf6, 0x00, 0xd6, 0x00, 0xe5, 0x18, 0xcd, 0xd7, 0xf9, 0xe6, 0xdb, 0xf9, 0xf9, 0xd8, 0xdb, 0xbf, 0xd3, 0xf9, 0xc3, 0xf9, 0xca, 0x09, 0xcf, 0xb0, 0x03, 0xd0, 0xbe, 0xd9, 0xd0, 0xdd, 0xe9, 0xc0, 0xd5, 0xf8, 0xbf, 0x01, 0xd0, 0x0b, 0xde, 0xba, 0xfe, 0xcd, 0xc1, 0xd5, 0xeb, 0xf7, 0xe9, 0xdd, 0xf0, 0xfb, 0xf9, 0x01, 0xed, 0x01, 0xf7, 0xde, 0xfb, 0xf4, 0xf4, 0x01, 0xeb, 0xfa, 0xed, 0x01, 0xee, 0x07, 0xfb, 0xfd, 0xf1, 0x0c, 0x00, 0x00, 0xfd, 0xf4, 0xf8, 0xf5, 0xf7, 0x01, 0xf9, 0xf9, 0xfe, 0x00, 0xea, 0xfb, 0xe9, 0x0f, 0xfc, 0x01, 0xfc, 0xf8, 0xf3, 0x04, 0x00, 0x08, 0xff, 0x07, 0x01, 0xfc, 0xff, 0x07, 0x01, 0x06, 0x0a, 0xfb, 0x05, 0x03, 0x06, 0x02, 0xf9, 0xe7, 0xec, 0xfa, 0xfc, 0xfa, 0xea, 0x01, 0xea, 0x13, 0xef, 0xf0, 0xfd, 0xec, 0xe8, 0xef, 0xf1, 0xf4, 0xf8, 0x04, 0x09, 0xf8, 0x09, 0x02, 0xf0, 0x13, 0x04, 0xfa, 0x01, 0xfe, 0xf4, 0x01, 0xf5, 0xfd, 0xfe, 0xed, 0x08, 0x00, 0xf5, 0xfc, 0xf4, 0x00, 0x03, 0xef, 0x05, 0xf6, 0xf3, 0xfb, 0x01, 0xed, 0xfa, 0xeb, 0xf7, 0x02, 0xfa, 0x02, 0xe9, 0xf7, 0xe6, 0xec, 0x02, 0xef, 0xda, 0xf8, 0xf8, 0xef, 0x09, 0x0b, 0xf3, 0x06, 0x08, 0xfe, 0x05, 0xf9, 0xf5, 0x01, 0x05, 0x07, 0xfc, 0xfe, 0x01, 0x25, 0x2a, 0x2f, 0x34, 0x01, 0x36, 0x00, 0x36, 0xf4, 0x1d, 0x24, 0x03, 0x1c, 0x21, 0x2c, 0x27, 0x1f, 0x30, 0x2f, 0x35, 0x03, 0x32, 0xf8, 0x2a, 0x05, 0x2f, 0x1c, 0x06, 0x29, 0x29, 0x31, 0x23, 0xd6, 0xd2, 0xd3, 0xec, 0xfb, 0xc2, 0x05, 0xcf, 0x13, 0xce, 0xd7, 0x03, 0xf0, 0xc7, 0xd6, 0xec, 0xb2, 0xb5, 0x93, 0xa5, 0x06, 0x84, 0x04, 0x9a, 0x0b, 0x95, 0x8b, 0x04, 0xad, 0x88, 0xa4, 0xa8, 0xc1, 0xd8, 0xa2, 0xbf, 0x05, 0x9f, 0xfd, 0xaf, 0x0b, 0xbe, 0x99, 0x01, 0xba, 0xb9, 0xa3, 0xcf, 0xf1, 0xe9, 0xe8, 0xf5, 0x07, 0xe5, 0x04, 0xf5, 0x04, 0xf2, 0xd7, 0xfc, 0xf2, 0xf9, 0xea, 0xeb, 0xff, 0xf9, 0x1a, 0x07, 0x07, 0x0e, 0x03, 0x03, 0x0c, 0x01, 0x06, 0x01, 0xfb, 0xf7, 0x10, 0xfd, 0xfd, 0xfc, 0x01, 0xfc, 0x07, 0xf3, 0xfe, 0xf1, 0x08, 0x05, 0x04, 0xf9, 0xf9, 0xf9, 0x02, 0x05, 0xfc, 0x0f, 0xfc, 0x05, 0xfa, 0x06, 0xfc, 0x06, 0x09, 0xfa, 0x03, 0x06, 0x0d, 0xfe, 0xfd, 0xfa, 0x13, 0x08, 0x01, 0x08, 0x07, 0x0b, 0xf8, 0x09, 0x17, 0x0b, 0x0a, 0xff, 0x0e, 0x03, 0x01, 0x02, 0x05, 0x03, 0x07, 0x08, 0xfa, 0x0f, 0xfa, 0x0b, 0x15, 0xfe, 0x0b, 0x06, 0xff, 0x0b, 0xfb, 0x03, 0xfd, 0x06, 0xff, 0x0c, 0x01, 0x05, 0x00, 0x02, 0xff, 0x02, 0xff, 0xfe, 0x02, 0xfb, 0x01, 0x03, 0x01, 0xf8, 0x0c, 0x06, 0x00, 0xf4, 0x04, 0xfa, 0x02, 0x02, 0x01, 0x02, 0xf9, 0xf7, 0x0b, 0x04, 0x0c, 0x08, 0x14, 0x13, 0xf9, 0x20, 0x01, 0x1b, 0x02, 0x18, 0x24, 0xfa, 0x24, 0x24, 0x25, 0x21, 0x13, 0x1e, 0x33, 0x30, 0x04, 0x24, 0x00, 0x1f, 0xf1, 0x0f, 0x31, 0xff, 0x2a, 0x28, 0x32, 0x2c, 0x28, 0x22, 0x26, 0x29, 0x07, 0x28, 0xf8, 0x25, 0xfa, 0x32, 0x26, 0x02, 0x1e, 0x25, 0x2a, 0x2f, 0xd2, 0xd3, 0xc4, 0xf3, 0xf9, 0xbb, 0x03, 0xc2, 0x1e, 0xde, 0xcf, 0x00, 0xd4, 0xbd, 0xc5, 0xe3, 0xa8, 0xc4, 0xa2, 0xc3, 0x06, 0xac, 0x02, 0xb6, 0x15, 0xb1, 0xb1, 0xfc, 0xb8, 0xb7, 0xb1, 0xb2, 0xd2, 0xdd, 0xcb, 0xd4, 0x04, 0xcb, 0x04, 0xe3, 0xf8, 0xe2, 0xc7, 0x02, 0xdf, 0xe2, 0xd5, 0xd6, 0x09, 0x15, 0x1d, 0x0e, 0x04, 0x19, 0xfb, 0x22, 0xfd, 0x21, 0x02, 0xf7, 0x10, 0x17, 0x0d, 0x10, 0x23, 0x1e, 0x37, 0x29, 0xfb, 0x3c, 0x06, 0x32, 0x04, 0x2c, 0x39, 0x01, 0x29, 0x3f, 0x2f, 0x2a, 0x06, 0x02, 0x03, 0x09, 0x05, 0xf9, 0x04, 0xfc, 0x08, 0x05, 0xfc, 0xfa, 0xff, 0xf2, 0xfc, 0xfb, 0xff, 0x01, 0x08, 0xfe, 0x07, 0x11, 0x04, 0x07, 0x1d, 0xfe, 0xfd, 0xfb, 0xff, 0x03, 0x05, 0xff, 0x11, 0x0d, 0x14, 0x11, 0x02, 0x10, 0x06, 0x0e, 0x23, 0x0e, 0x15, 0xff, 0x12, 0x07, 0x12, 0x10, 0x06, 0x03, 0x0c, 0x0f, 0xfa, 0x04, 0x04, 0xff, 0x2d, 0x08, 0x05, 0x02, 0x11, 0x06, 0x02, 0xf6, 0xf5, 0xf7, 0xf3, 0xfe, 0xfa, 0xff, 0x06, 0xf4, 0x10, 0x01, 0xf7, 0xf9, 0xf6, 0xf7, 0xf7, 0xf3, 0xfd, 0x04, 0xff, 0x03, 0x04, 0x0b, 0x08, 0xfb, 0xf7, 0xfd, 0xf8, 0x05, 0x04, 0xee, 0x04, 0xfc, 0x30, 0x30, 0x34, 0x32, 0x01, 0x31, 0x02, 0x2f, 0xf8, 0x29, 0x32, 0x03, 0x3f, 0x29, 0x31, 0x34, 0x26, 0x18, 0x3b, 0x28, 0xfd, 0x32, 0x03, 0x2a, 0xfe, 0x1b, 0x3a, 0xf8, 0x16, 0x31, 0x31, 0x13, 0x04, 0x0b, 0x0d, 0x11, 0x03, 0x08, 0xff, 0x0c, 0x10, 0x01, 0x02, 0xfa, 0x13, 0x09, 0x13, 0x0d, 0xc3, 0xc8, 0xc7, 0xd6, 0x07, 0xc0, 0xf8, 0xb8, 0x15, 0xd4, 0xc9, 0xfa, 0xcd, 0xb7, 0xc2, 0xcb, 0xd6, 0xdc, 0xbc, 0xd6, 0x00, 0xbb, 0xf9, 0xbb, 0x12, 0xdc, 0xcb, 0x00, 0xd9, 0xc7, 0xc1, 0xcf, 0xfc, 0x05, 0xe4, 0xf4, 0x02, 0xfb, 0x01, 0xed, 0x0b, 0x08, 0xdf, 0x00, 0xfa, 0xfa, 0xed, 0xe5, 0x28, 0x1e, 0x30, 0x25, 0xfe, 0x3b, 0x01, 0x2c, 0xf1, 0x2f, 0x24, 0x00, 0x2d, 0x37, 0x2d, 0x23, 0x43, 0x2e, 0x4e, 0x46, 0xfb, 0x53, 0x06, 0x3f, 0x0b, 0x44, 0x59, 0xfd, 0x32, 0x48, 0x43, 0x2e, 0xfb, 0xfe, 0xfb, 0xff, 0xfc, 0xef, 0x02, 0xf4, 0x13, 0xfa, 0x00, 0xff, 0xfe, 0xf0, 0xfa, 0x04, 0xe7, 0xf7, 0xf9, 0xee, 0xf8, 0xfc, 0x01, 0xeb, 0x4f, 0xeb, 0xf4, 0xfe, 0xf8, 0x04, 0xf7, 0xf4, 0x14, 0x0a, 0x05, 0x08, 0x04, 0x0a, 0xf9, 0x09, 0x37, 0x0b, 0x05, 0x02, 0x13, 0x0e, 0x0d, 0x16, 0x06, 0x0f, 0x04, 0x0a, 0x06, 0x0b, 0xf9, 0x0a, 0x18, 0x0f, 0x0e, 0x03, 0x07, 0x07, 0x0e, 0x14, 0xf5, 0xe1, 0xf7, 0xe9, 0x04, 0xde, 0xf9, 0xea, 0x09, 0xeb, 0xec, 0x04, 0xf0, 0xed, 0xe8, 0xea, 0xe8, 0xec, 0xf1, 0xe7, 0x02, 0xf8, 0x00, 0xeb, 0xfb, 0xd2, 0xe0, 0xf8, 0x00, 0xf7, 0xe8, 0xf4, 0x1d, 0x1c, 0x30, 0x10, 0xf9, 0x34, 0x06, 0x2f, 0xf4, 0x19, 0x2d, 0x07, 0x24, 0x2d, 0x30, 0x21, 0x19, 0x15, 0x2a, 0x19, 0x00, 0x20, 0x04, 0x25, 0x06, 0x15, 0x1e, 0xf8, 0x0d, 0x1f, 0x25, 0x19, 0xe6, 0xf0, 0xed, 0xf0, 0x07, 0xd5, 0x01, 0xe8, 0x09, 0xe2, 0xf2, 0x02, 0xe8, 0xd7, 0xf3, 0xee, 0xc5, 0xbe, 0xc5, 0xc4, 0x03, 0xc2, 0x02, 0xb8, 0x14, 0xc1, 0xb2, 0x02, 0xc9, 0xb8, 0xba, 0xc6, 0xcd, 0xd3, 0xc2, 0xc9, 0x03, 0xca, 0xfb, 0xba, 0x10, 0xd0, 0xad, 0x01, 0xcf, 0xce, 0xbc, 0xc3, 0x0b, 0xee, 0xed, 0xeb, 0xfc, 0xe5, 0x07, 0xf0, 0x01, 0x01, 0xda, 0xfa, 0xf5, 0xf5, 0xef, 0xf4, 0x33, 0x32, 0x2d, 0x28, 0xf9, 0x3f, 0xfa, 0x2c, 0xf9, 0x41, 0x26, 0x02, 0x26, 0x38, 0x30, 0x28, 0x40, 0x33, 0x4a, 0x3c, 0x03, 0x41, 0x04, 0x44, 0xfb, 0x43, 0x3d, 0xff, 0x3e, 0x40, 0x3e, 0x37, 0xfc, 0xf6, 0xfb, 0xfa, 0x00, 0xe9, 0x07, 0xf1, 0x12, 0xfe, 0xfb, 0x05, 0xf9, 0xe3, 0xfd, 0xfd, 0xed, 0xec, 0xfb, 0xf9, 0xfc, 0xfc, 0xfa, 0xf7, 0x44, 0xf8, 0xf9, 0xff, 0xf8, 0xf8, 0xec, 0xf1, 0x01, 0x07, 0x02, 0x04, 0xfa, 0x06, 0xfb, 0x07, 0x32, 0x0b, 0x03, 0x05, 0x11, 0x02, 0x03, 0x05, 0x12, 0x0b, 0x0c, 0x0a, 0xf9, 0x07, 0xfb, 0x09, 0x0b, 0x0b, 0xfa, 0xfc, 0x03, 0xf9, 0x07, 0x06, 0x04, 0xfd, 0xf4, 0x01, 0xfe, 0xfc, 0xfb, 0xf7, 0x10, 0xf4, 0xf5, 0x01, 0xfe, 0xf9, 0xf8, 0xff, 0xe0, 0xf1, 0xfc, 0xf9, 0x00, 0x01, 0xfc, 0x02, 0xf2, 0xf4, 0xfd, 0x03, 0xf0, 0xe8, 0xf1, 0xef, 0xf4, 0x09, 0x16, 0x07, 0xfc, 0x1c, 0xfa, 0x21, 0xfc, 0xfe, 0x15, 0x03, 0x04, 0x09, 0x13, 0x05, 0x00, 0x17, 0x2e, 0x0f, 0x03, 0x22, 0xf7, 0x19, 0x04, 0x03, 0x28, 0x04, 0x12, 0x1f, 0x1e, 0x16, 0x04, 0x06, 0x1c, 0x09, 0xfd, 0x0e, 0x02, 0x09, 0x01, 0x07, 0x17, 0xfc, 0x06, 0x17, 0x14, 0x00, 0xde, 0xed, 0xf0, 0xf2, 0x04, 0xf3, 0x00, 0xf2, 0x1a, 0xf7, 0xe7, 0x06, 0xe8, 0xf1, 0xea, 0xed, 0xd1, 0xd9, 0xc5, 0xda, 0xfa, 0xc2, 0xf9, 0xcc, 0x16, 0xdf, 0xdf, 0xfa, 0xda, 0xd4, 0xc5, 0xd8, 0xe1, 0xe1, 0xcc, 0xdb, 0x01, 0xd5, 0x04, 0xd2, 0x0f, 0xd6, 0xce, 0x00, 0xe6, 0xe9, 0xd9, 0xdc, 0x16, 0x23, 0x2a, 0x1a, 0xfd, 0x2e, 0xf8, 0x31, 0xfa, 0x1c, 0x0f, 0x00, 0x1f, 0x38, 0x27, 0x13, 0x1d, 0x24, 0x49, 0x2a, 0xfc, 0x40, 0x01, 0x36, 0x02, 0x14, 0x34, 0xff, 0x20, 0x30, 0x2e, 0x26, 0x01, 0x00, 0xfb, 0x04, 0x01, 0xf5, 0xfd, 0xef, 0x0a, 0xfa, 0x01, 0x04, 0x00, 0x04, 0xff, 0x01, 0x0b, 0x08, 0xfd, 0x0c, 0x01, 0x0b, 0xfa, 0x03, 0x0b, 0x04, 0x02, 0xfb, 0xfe, 0xff, 0xfe, 0x06, 0xfd, 0xf6, 0xf6, 0xfe, 0xfc, 0xfe, 0x03, 0xfb, 0x2e, 0x05, 0x04, 0x00, 0xfd, 0xf9, 0xff, 0xfc, 0xe5, 0xea, 0xed, 0xf2, 0xf8, 0xfc, 0x07, 0xe9, 0x1d, 0xe7, 0xe9, 0xf9, 0xec, 0xec, 0xeb, 0x01, 0xfb, 0xfd, 0x05, 0xf6, 0x02, 0xfe, 0x05, 0x01, 0xf5, 0x05, 0xf6, 0x03, 0x05, 0xf9, 0xf3, 0xfd, 0xf9, 0x14, 0x14, 0x15, 0x05, 0x0d, 0x07, 0x11, 0xf2, 0xfc, 0x1b, 0xf9, 0x06, 0x16, 0x12, 0x16, 0xf7, 0x06, 0x29, 0x12, 0xfc, 0x39, 0x07, 0x25, 0xf7, 0xef, 0x2a, 0x02, 0x18, 0x16, 0x2c, 0x16, 0x1d, 0x25, 0x37, 0x1d, 0x02, 0x39, 0xf9, 0x25, 0xfa, 0x0f, 0x3d, 0xf8, 0x18, 0x19, 0x23, 0x25, 0x0b, 0x1b, 0x28, 0x1e, 0x02, 0x22, 0x07, 0x25, 0x00, 0x14, 0x31, 0x05, 0x23, 0x21, 0x20, 0x23, 0x00, 0x01, 0x08, 0x06, 0x02, 0x12, 0xff, 0x08, 0xf9, 0x0f, 0x13, 0xf9, 0x09, 0x0e, 0x01, 0x06, 0xef, 0xf4, 0xe8, 0xf1, 0xff, 0xee, 0x00, 0xe6, 0x0d, 0x06, 0xf2, 0xf9, 0xf2, 0xec, 0xda, 0xed, 0xd7, 0xce, 0xb1, 0xd4, 0x01, 0xb2, 0xfc, 0xad, 0x10, 0xdc, 0xb7, 0x05, 0xcc, 0xc5, 0xbb, 0xdd, 0xf6, 0xfa, 0xf7, 0xf1, 0xfc, 0xf5, 0x01, 0xfa, 0x0d, 0x00, 0xdc, 0x08, 0xe7, 0xea, 0xf2, 0xf2, 0xf9, 0x04, 0x14, 0xe9, 0xf9, 0x0b, 0xff, 0x09, 0xfd, 0xf6, 0x0c, 0x03, 0xef, 0xf3, 0x06, 0x01, 0x01, 0x0a, 0xfa, 0x03, 0x01, 0xee, 0x03, 0xe7, 0x09, 0xfc, 0xff, 0x08, 0x03, 0xef, 0x02, 0x04, 0x07, 0x01, 0xf9, 0xf7, 0xfd, 0xfe, 0xf7, 0x04, 0x0e, 0xf5, 0xef, 0xf8, 0xee, 0xe8, 0xf3, 0xf8, 0xff, 0xf7, 0x05, 0xf5, 0xfb, 0xfd, 0xfe, 0xf9, 0x14, 0xf4, 0xf5, 0x02, 0xfe, 0xf0, 0xfa, 0xf9, 0xf0, 0xea, 0xef, 0xf4, 0x04, 0xf8, 0xff, 0xfc, 0x16, 0xee, 0xfc, 0x06, 0xf9, 0xf1, 0xec, 0xfe, 0xe8, 0xf8, 0xed, 0xef, 0x05, 0xfe, 0x04, 0xfa, 0x02, 0xe0, 0xf4, 0xf9, 0xf1, 0xf5, 0x05, 0xf0, 0x05, 0x22, 0x33, 0x0c, 0x06, 0x3a, 0xfb, 0x1f, 0xf3, 0x09, 0x39, 0x06, 0x18, 0x23, 0x28, 0x11, 0xf9, 0x14, 0x56, 0x21, 0x06, 0x4d, 0xfe, 0x39, 0xf9, 0x03, 0x4e, 0xf9, 0x1e, 0x2d, 0x3f, 0x19, 0xfd, 0x2b, 0x56, 0x21, 0xfb, 0x49, 0xfa, 0x4b, 0x05, 0xf1, 0x66, 0xfa, 0x22, 0x34, 0x4a, 0x2e, 0x10, 0x0a, 0x3b, 0x1e, 0xf8, 0x2a, 0xfa, 0x28, 0x04, 0xfa, 0x3b, 0xff, 0x0b, 0x22, 0x29, 0x14, 0x15, 0x07, 0x1e, 0x0a, 0xfb, 0x13, 0xf7, 0x14, 0x0b, 0xfc, 0x14, 0x05, 0x04, 0x0f, 0x10, 0x11, 0xf6, 0xda, 0xec, 0xe9, 0xf9, 0xdd, 0x03, 0xf2, 0x0c, 0xe7, 0xe0, 0x03, 0xe1, 0xdb, 0xf6, 0xec, 0xe8, 0xda, 0xa3, 0xc6, 0x07, 0x9f, 0x04, 0xc2, 0x0c, 0xe7, 0xac, 0x04, 0xcd, 0xb2, 0xc2, 0xd2, 0xf6, 0xe0, 0xc4, 0xdb, 0x01, 0xdd, 0xfc, 0xda, 0x05, 0xf4, 0xbe, 0xff, 0xe7, 0xd7, 0xd2, 0xda, 0xfb, 0xeb, 0xd5, 0xe6, 0xfd, 0xe1, 0x04, 0xec, 0x02, 0xf9, 0xdb, 0xfb, 0xf4, 0xe6, 0xe8, 0xe9, 0x01, 0x0d, 0x01, 0xff, 0x02, 0xf3, 0x02, 0xf4, 0x0a, 0xff, 0xfe, 0x00, 0xfd, 0xe8, 0xfe, 0xfc, 0xe0, 0xf3, 0xe7, 0xe0, 0x05, 0xe5, 0xfb, 0xe2, 0x12, 0xee, 0xf4, 0xfb, 0xf0, 0xe6, 0xf3, 0xe8, 0x02, 0x0c, 0x01, 0xf7, 0x00, 0x0d, 0x01, 0x07, 0x0c, 0xfa, 0xfc, 0x06, 0xfe, 0xfc, 0x07, 0x06, 0x03, 0x12, 0x07, 0x0a, 0xfb, 0x16, 0x03, 0x11, 0x0d, 0x15, 0x13, 0xfe, 0x0c, 0x13, 0x0c, 0x12, 0xeb, 0xfc, 0xfd, 0xfb, 0xfc, 0x0a, 0xfd, 0xf6, 0x07, 0xda, 0x05, 0x01, 0xf4, 0xe7, 0xff, 0xfa, 0xeb, 0x16, 0x39, 0x07, 0x04, 0x41, 0x03, 0x37, 0xf1, 0xed, 0x42, 0xff, 0x19, 0x2c, 0x2c, 0x1b, 0x04, 0x1a, 0x5f, 0x26, 0x06, 0x52, 0xfe, 0x45, 0xf8, 0xf2, 0x5f, 0xfc, 0x20, 0x28, 0x42, 0x25, 0xfb, 0x20, 0x5c, 0x26, 0x01, 0x54, 0xf9, 0x3d, 0x04, 0xf7, 0x66, 0xfd, 0x1b, 0x2e, 0x44, 0x22, 0xdf, 0x0d, 0x31, 0x01, 0xfd, 0x1d, 0xfa, 0x1c, 0x0a, 0xe3, 0x4a, 0xff, 0x04, 0x03, 0x28, 0x19, 0xe0, 0xf0, 0xf4, 0xe8, 0x05, 0xec, 0x02, 0xf2, 0x05, 0xd0, 0xf2, 0xfe, 0xe7, 0xe6, 0xec, 0xfe, 0xd6, 0xdc, 0xce, 0xd1, 0x02, 0xc0, 0x03, 0xc7, 0x11, 0xd9, 0xd9, 0x05, 0xd9, 0xcb, 0xd7, 0xe5, 0xd5, 0xd7, 0xa5, 0xd3, 0xfb, 0xbd, 0x07, 0xbf, 0x03, 0xd5, 0xb8, 0xfa, 0xcd, 0xc0, 0xc2, 0xcd, 0xeb, 0xee, 0xbe, 0xd8, 0xfa, 0xc9, 0x00, 0xde, 0x09, 0xec, 0xcf, 0x04, 0xe8, 0xd5, 0xdf, 0xe7, 0x01, 0xfd, 0xf6, 0xf8, 0xfb, 0xfa, 0xf8, 0x08, 0x03, 0x03, 0x03, 0xfb, 0xf6, 0xfa, 0xff, 0xfb, 0xfc, 0xfe, 0x04, 0x04, 0x01, 0x05, 0x06, 0x09, 0x0a, 0x0a, 0x00, 0xfa, 0xfd, 0xfa, 0xfe, 0x04, 0x04, 0x06, 0x11, 0x09, 0x02, 0x00, 0x00, 0x0a, 0x07, 0xfe, 0x0b, 0xfd, 0xf7, 0x0a, 0x06, 0xf7, 0xed, 0x01, 0x05, 0x02, 0x06, 0x0d, 0xfa, 0x0c, 0x04, 0xf6, 0x10, 0xfa, 0x05, 0xfe, 0x0c, 0x01, 0x0d, 0x0a, 0x1c, 0x17, 0xfd, 0x21, 0x01, 0x16, 0x01, 0x04, 0x1f, 0xfd, 0x0c, 0xff, 0x23, 0x12, 0xea, 0x09, 0x11, 0x03, 0x07, 0x25, 0xfa, 0x20, 0xf2, 0xea, 0x20, 0xf8, 0x06, 0x0e, 0x09, 0x0c, 0x06, 0x36, 0x5d, 0x42, 0x01, 0x60, 0x02, 0x4a, 0xf2, 0xfb, 0x6b, 0x04, 0x2a, 0x50, 0x55, 0x2e, 0xfc, 0x26, 0x65, 0x35, 0x05, 0x5e, 0x03, 0x4a, 0xfa, 0xf9, 0x7e, 0xfc, 0x34, 0x47, 0x4f, 0x2d, 0x0a, 0x2f, 0x7f, 0x34, 0x03, 0x71, 0xf9, 0x5e, 0xf1, 0x02, 0x7b, 0x01, 0x23, 0x3f, 0x50, 0x3a, 0xf5, 0x1d, 0x46, 0x2b, 0xf9, 0x41, 0x00, 0x41, 0xf6, 0xf6, 0x63, 0x02, 0x13, 0x1e, 0x37, 0x31, 0xe9, 0xfd, 0xfe, 0xfb, 0x08, 0xfb, 0x06, 0xf5, 0x0e, 0xda, 0x26, 0xf9, 0xee, 0xe1, 0x01, 0xf0, 0xe0, 0xe4, 0xdf, 0xe7, 0xfa, 0xd5, 0xfd, 0xe3, 0x0c, 0xe5, 0xf7, 0xfb, 0xe4, 0xd1, 0xeb, 0xf3, 0xe3, 0xe3, 0xc2, 0xe3, 0x02, 0xc1, 0xfe, 0xcd, 0x13, 0xe6, 0xe6, 0xfa, 0xda, 0xcb, 0xcf, 0xe8, 0xf8, 0xf6, 0xf6, 0xe8, 0xff, 0x0e, 0xf7, 0xfe, 0x0b, 0xf9, 0x06, 0xff, 0xf9, 0xfb, 0xf7, 0xf0, 0x02, 0x0f, 0x37, 0x0c, 0x02, 0x3c, 0x01, 0x23, 0xfe, 0xfe, 0x3d, 0xf8, 0x04, 0x10, 0x24, 0x0b, 0xa6, 0xfa, 0xff, 0xff, 0x04, 0x00, 0x00, 0x00, 0x40, 0x00, 0x00, 0x00, 0x35, 0xfa, 0xff, 0xff, 0x77, 0xfc, 0xff, 0xff, 0x43, 0xfd, 0xff, 0xff, 0x20, 0x02, 0x00, 0x00, 0x73, 0xf9, 0xff, 0xff, 0xd2, 0x00, 0x00, 0x00, 0x1b, 0xfc, 0xff, 0xff, 0xb8, 0x03, 0x00, 0x00, 0x93, 0x1a, 0x00, 0x00, 0xe0, 0xf8, 0xff, 0xff, 0x36, 0x00, 0x00, 0x00, 0x49, 0xf7, 0xff, 0xff, 0xdf, 0x02, 0x00, 0x00, 0xe0, 0x00, 0x00, 0x00, 0xc3, 0xfe, 0xff, 0xff, 0x29, 0xff, 0xff, 0xff, 0xf2, 0xfa, 0xff, 0xff, 0x04, 0x00, 0x00, 0x00, 0x80, 0x04, 0x00, 0x00, 0x1e, 0x35, 0xd1, 0x2a, 0x0c, 0x33, 0x4a, 0x1f, 0x60, 0x32, 0xfe, 0x6e, 0x7f, 0x57, 0x13, 0x33, 0x0c, 0x77, 0xbd, 0x42, 0x0b, 0x45, 0x46, 0x0d, 0x1c, 0x05, 0xc0, 0x0f, 0x13, 0xf7, 0x3e, 0xff, 0x2e, 0x37, 0x0d, 0x71, 0x49, 0x28, 0x4e, 0x35, 0x19, 0x1f, 0x04, 0x6e, 0x5a, 0x26, 0x45, 0x11, 0x20, 0xee, 0xdb, 0x4b, 0xd8, 0x17, 0x1e, 0x20, 0x22, 0x3d, 0xc5, 0x5f, 0x3a, 0x18, 0x30, 0x45, 0x58, 0x26, 0xd5, 0x27, 0x36, 0x4e, 0x51, 0x3d, 0x0c, 0x2c, 0x12, 0x09, 0xf2, 0xee, 0xfa, 0x20, 0x24, 0x73, 0xe4, 0x51, 0x6a, 0x67, 0x35, 0x17, 0x28, 0x6c, 0xce, 0x44, 0x57, 0x49, 0x10, 0x44, 0x02, 0x1c, 0x02, 0x04, 0x28, 0x10, 0x28, 0xe4, 0x5e, 0x55, 0x11, 0x73, 0x3a, 0x5b, 0x7f, 0x48, 0x39, 0x56, 0x10, 0x5b, 0x44, 0x5e, 0x41, 0x17, 0xf5, 0xf7, 0x1a, 0x36, 0xdc, 0xf3, 0x13, 0x10, 0x17, 0x19, 0x08, 0x2d, 0x38, 0x22, 0x35, 0x37, 0x5e, 0x67, 0xf6, 0x2a, 0x3e, 0x44, 0x4a, 0x4d, 0xec, 0xfe, 0x02, 0x34, 0x0e, 0x1d, 0x48, 0x1d, 0x59, 0x53, 0xde, 0x49, 0x7f, 0x30, 0x3a, 0x25, 0x60, 0x55, 0x0f, 0x43, 0x3e, 0x5a, 0x49, 0x18, 0xf0, 0x17, 0xf5, 0x22, 0xf4, 0x08, 0x60, 0x09, 0x48, 0x2f, 0x09, 0x56, 0x57, 0x26, 0x3e, 0x5e, 0x29, 0x4b, 0x0a, 0x60, 0x56, 0x53, 0x51, 0x4f, 0x17, 0x18, 0x0b, 0x25, 0xfd, 0xf3, 0x43, 0x12, 0x3e, 0x48, 0xf7, 0x39, 0x27, 0x28, 0x33, 0x27, 0x4c, 0x54, 0xd4, 0x5f, 0x4d, 0x33, 0x62, 0x51, 0xf8, 0x1a, 0x13, 0x24, 0xfa, 0x09, 0x23, 0xf5, 0x38, 0x3c, 0xe9, 0x2d, 0x65, 0x38, 0xfe, 0x0e, 0x2f, 0x36, 0xeb, 0x32, 0x3b, 0x21, 0x29, 0x26, 0xf7, 0x0b, 0xd8, 0x2f, 0x1c, 0x22, 0x54, 0x17, 0x4d, 0x76, 0xec, 0x53, 0x7f, 0x55, 0x5c, 0x4d, 0x50, 0x35, 0xe9, 0x38, 0x45, 0x51, 0x53, 0x3c, 0x10, 0xf1, 0xe5, 0x1f, 0x01, 0x0e, 0x29, 0x16, 0x59, 0x30, 0xde, 0x3b, 0x6f, 0x20, 0x4e, 0x48, 0x1c, 0x55, 0x05, 0x5c, 0x66, 0x39, 0x20, 0x17, 0xfe, 0x14, 0x8a, 0xb7, 0x30, 0x05, 0x8a, 0x4c, 0x38, 0xce, 0x2b, 0x8e, 0xca, 0x87, 0xb5, 0xf7, 0x5d, 0x89, 0x1c, 0x0d, 0xf5, 0xfb, 0x0e, 0x24, 0x62, 0x9b, 0x72, 0x05, 0xc5, 0x42, 0x9a, 0xfb, 0x1f, 0xba, 0x36, 0xb2, 0x19, 0xe9, 0xc3, 0xc7, 0xdc, 0xa7, 0xcf, 0xd6, 0xe3, 0x48, 0x5b, 0xe9, 0x94, 0x73, 0xf8, 0xd5, 0x25, 0x8b, 0x6c, 0x9c, 0x81, 0xe2, 0x4e, 0x3f, 0x55, 0x61, 0x54, 0xf0, 0xed, 0xd3, 0x09, 0xe1, 0x5d, 0x01, 0xe9, 0x8d, 0xf6, 0x03, 0xed, 0x01, 0x14, 0xec, 0x16, 0xea, 0x46, 0x58, 0xcc, 0x35, 0x6f, 0x75, 0x59, 0x36, 0x6a, 0x6e, 0xe6, 0x4f, 0x61, 0x35, 0x46, 0x1d, 0x21, 0xef, 0x0a, 0x25, 0xe2, 0xfa, 0x04, 0xf1, 0x4b, 0x3f, 0xcc, 0x40, 0x53, 0x71, 0x7d, 0x61, 0x56, 0x6e, 0xda, 0x68, 0x7c, 0x7f, 0x51, 0x27, 0x12, 0x24, 0x1d, 0x1d, 0xf3, 0xea, 0x2d, 0x0c, 0x52, 0x45, 0xcc, 0x64, 0x5f, 0x1e, 0x4b, 0x64, 0x31, 0x6e, 0x19, 0x4c, 0x6b, 0x33, 0x57, 0x69, 0x8e, 0x58, 0x20, 0x51, 0x2f, 0xf7, 0xce, 0x04, 0xfa, 0xf2, 0x11, 0xbd, 0x6c, 0xd7, 0xdb, 0x84, 0x06, 0x64, 0xc9, 0x42, 0xf9, 0x83, 0xf2, 0xd1, 0x10, 0xf0, 0xf2, 0xa0, 0x04, 0x2f, 0xd2, 0xac, 0x1d, 0xc5, 0xf1, 0xc1, 0x57, 0xd4, 0xa3, 0xb5, 0xc7, 0x3b, 0x0b, 0xa0, 0x0c, 0xd9, 0x32, 0xb5, 0x52, 0x83, 0x63, 0xe7, 0xea, 0x8d, 0x86, 0x4c, 0xcf, 0xd6, 0x3f, 0x62, 0x92, 0xc1, 0xf2, 0x31, 0x9d, 0x7a, 0xb0, 0x28, 0x13, 0xe3, 0x81, 0xfa, 0xd6, 0xe8, 0xfc, 0x3f, 0x24, 0x01, 0x3c, 0xf3, 0x46, 0x57, 0xd0, 0x66, 0x44, 0x59, 0x3d, 0x2f, 0x5a, 0x37, 0xea, 0x44, 0x58, 0x6a, 0x2d, 0x2d, 0x09, 0x01, 0xdc, 0x0b, 0xef, 0xf9, 0x3a, 0xeb, 0x1b, 0x53, 0xd0, 0x56, 0x7f, 0x30, 0x39, 0x49, 0x34, 0x78, 0x17, 0x5d, 0x7d, 0x68, 0x48, 0x1c, 0xd4, 0x2a, 0xca, 0x05, 0x2d, 0xe0, 0x2e, 0x16, 0x41, 0x5e, 0xd6, 0x68, 0x31, 0x25, 0x4e, 0x62, 0x23, 0x3c, 0x1d, 0x5c, 0x41, 0x5d, 0x1b, 0x5d, 0xe9, 0xf7, 0xeb, 0x12, 0x35, 0x18, 0xfb, 0xfa, 0xce, 0xbd, 0x09, 0x84, 0x1f, 0xe2, 0x90, 0xca, 0x88, 0x92, 0x09, 0xa4, 0xdc, 0xae, 0xbe, 0x8e, 0x2b, 0xf6, 0x49, 0x10, 0x18, 0x04, 0x08, 0xd5, 0xc5, 0x8c, 0x53, 0x8d, 0x26, 0xd9, 0x8d, 0xff, 0xa7, 0xb3, 0x19, 0x98, 0xc5, 0x85, 0xc3, 0x81, 0x26, 0x09, 0x3c, 0xe4, 0x21, 0xe7, 0x2b, 0x1a, 0x09, 0xb6, 0x46, 0x9c, 0x0e, 0xcd, 0xe8, 0xaf, 0xc8, 0xf6, 0x45, 0xa1, 0xcc, 0xd8, 0xec, 0x9c, 0x05, 0x3a, 0xc7, 0x0e, 0x2d, 0xf5, 0x36, 0x27, 0x1d, 0x35, 0xd8, 0x37, 0x34, 0x75, 0x37, 0x02, 0x23, 0x49, 0xe4, 0x0a, 0x31, 0x2a, 0xe9, 0x19, 0x21, 0x2b, 0xa7, 0x2c, 0x1d, 0x02, 0x34, 0x03, 0x1d, 0x68, 0xee, 0x56, 0x7f, 0x47, 0x74, 0x2e, 0x57, 0x2f, 0xec, 0x66, 0x5b, 0x35, 0x4c, 0x1e, 0xf5, 0x11, 0xfb, 0x46, 0x04, 0xe7, 0x2d, 0xec, 0x54, 0x1f, 0xc5, 0x6b, 0x3e, 0x5d, 0x66, 0x63, 0x32, 0x50, 0xf9, 0x5e, 0x40, 0x73, 0x3a, 0x21, 0x18, 0x30, 0xe8, 0x35, 0xf2, 0x09, 0x12, 0xfd, 0x46, 0x55, 0x04, 0x2e, 0x3b, 0x4b, 0x0f, 0x0a, 0x3a, 0x2c, 0xe6, 0x64, 0x3a, 0x45, 0x23, 0x35, 0x0d, 0x2f, 0xf9, 0x59, 0x05, 0x0b, 0x32, 0xf3, 0x68, 0x78, 0xe7, 0x48, 0x76, 0x32, 0x58, 0x5c, 0x28, 0x5b, 0xe4, 0x60, 0x37, 0x4e, 0x29, 0x2d, 0x14, 0x12, 0x12, 0x40, 0x07, 0x1f, 0x4f, 0x0f, 0x59, 0x60, 0xfb, 0x61, 0x7f, 0x2a, 0x2c, 0x38, 0x40, 0x40, 0xf1, 0x57, 0x58, 0x2f, 0x4d, 0x54, 0x91, 0x98, 0xa0, 0x85, 0x37, 0x6b, 0xbf, 0x1d, 0xaf, 0xbb, 0xf0, 0x83, 0x08, 0xcc, 0xc0, 0x6f, 0x81, 0xf2, 0xb9, 0x39, 0x01, 0x50, 0xbf, 0xd3, 0x3f, 0xa6, 0xb9, 0xf5, 0xef, 0x4d, 0x1a, 0x26, 0x59, 0x3c, 0x9e, 0x0c, 0x7c, 0x16, 0x37, 0x5e, 0xa4, 0xf5, 0x98, 0xb3, 0xe8, 0xf3, 0xd0, 0xd3, 0xe4, 0x2e, 0xfc, 0xe5, 0x3d, 0x92, 0xe8, 0xfe, 0x23, 0xb4, 0x0e, 0x44, 0x38, 0xcf, 0x86, 0x0c, 0xe5, 0xaf, 0x89, 0x43, 0x54, 0x04, 0x90, 0x13, 0x2a, 0xf7, 0x03, 0x10, 0x01, 0xe8, 0x11, 0x0a, 0x59, 0x3d, 0xcf, 0x2b, 0x4c, 0x5d, 0x65, 0x41, 0x2b, 0x50, 0xda, 0x38, 0x3b, 0x5e, 0x4c, 0x50, 0x0d, 0x32, 0xf6, 0x1b, 0xe0, 0x15, 0x43, 0xde, 0x49, 0x44, 0xe2, 0x7a, 0x7f, 0x2d, 0x4e, 0x6f, 0x34, 0x2a, 0xd9, 0x7e, 0x7f, 0x25, 0x24, 0x5a, 0x29, 0x2b, 0xec, 0x5b, 0xd1, 0x20, 0x74, 0xf9, 0x23, 0x37, 0xcf, 0x61, 0x4f, 0x50, 0x53, 0x4e, 0x37, 0x27, 0xf2, 0x6a, 0x37, 0x2e, 0x29, 0x44, 0xea, 0xff, 0xe9, 0x29, 0xf4, 0xfa, 0x43, 0x15, 0x37, 0x67, 0xc8, 0x2d, 0x7f, 0x2b, 0x2e, 0x4e, 0x2e, 0x21, 0xfd, 0x5e, 0x45, 0x55, 0x0d, 0x3c, 0xdb, 0x3a, 0x0b, 0x46, 0xd9, 0x1b, 0x21, 0xd8, 0x56, 0x30, 0x0b, 0x71, 0x2a, 0x37, 0x3d, 0x18, 0x1d, 0x73, 0xc6, 0x65, 0x26, 0x3b, 0x46, 0x0b, 0x02, 0x19, 0xc6, 0x0b, 0xee, 0x1d, 0x47, 0xe4, 0x37, 0x3d, 0x14, 0x36, 0x47, 0x18, 0x37, 0x46, 0x1a, 0x4b, 0xfb, 0x59, 0x5f, 0x50, 0x1d, 0x4c, 0x16, 0x0a, 0xfd, 0x11, 0xfa, 0xf1, 0x4f, 0x23, 0x34, 0x7b, 0xe8, 0x6a, 0x7a, 0x2e, 0x62, 0x35, 0x4c, 0x6f, 0x0e, 0x7f, 0x4f, 0x34, 0x47, 0x3d, 0x05, 0xf6, 0x09, 0x32, 0x00, 0x1f, 0x18, 0x15, 0x55, 0x5b, 0xe2, 0x30, 0x67, 0x21, 0x51, 0x45, 0x39, 0x36, 0x12, 0x6f, 0x55, 0x2f, 0x54, 0x49, 0x0a, 0x02, 0xfb, 0x13, 0x21, 0x27, 0x3a, 0xf8, 0x34, 0x48, 0xd5, 0x41, 0x34, 0x46, 0x24, 0x3f, 0x58, 0x29, 0x1c, 0x67, 0x3d, 0x65, 0x70, 0x25, 0x01, 0xf0, 0xdd, 0x3b, 0x26, 0x20, 0x51, 0xff, 0x2c, 0x33, 0x10, 0x25, 0x7a, 0x64, 0x18, 0x49, 0x5c, 0x45, 0x1d, 0x3c, 0x7f, 0x68, 0x35, 0x4a, 0x0c, 0x22, 0xfc, 0x50, 0xfb, 0x08, 0x3a, 0x1f, 0x2e, 0x28, 0xff, 0x51, 0x40, 0x2a, 0x3f, 0x24, 0x54, 0x66, 0xe4, 0x2b, 0x57, 0x3a, 0x33, 0x2e, 0x27, 0x1f, 0x07, 0x13, 0x15, 0xe5, 0x2e, 0x06, 0x40, 0x59, 0xf8, 0x1d, 0x61, 0x0f, 0x45, 0x21, 0x1c, 0x3a, 0xd7, 0x53, 0x3c, 0x31, 0x5c, 0x4d, 0x7e, 0xff, 0xff, 0xff, 0x04, 0x00, 0x00, 0x00, 0x20, 0x00, 0x00, 0x00, 0xb7, 0xff, 0xff, 0xff, 0xad, 0xff, 0xff, 0xff, 0xd0, 0x07, 0x00, 0x00, 0xbc, 0xff, 0xff, 0xff, 0x3b, 0x00, 0x00, 0x00, 0xba, 0xff, 0xff, 0xff, 0xd5, 0xff, 0xff, 0xff, 0xaf, 0xff, 0xff, 0xff, 0xaa, 0xff, 0xff, 0xff, 0x04, 0x00, 0x00, 0x00, 0x48, 0x00, 0x00, 0x00, 0x34, 0x4a, 0x42, 0x56, 0x6a, 0x50, 0x1f, 0x6b, 0x7f, 0x1f, 0x4f, 0x21, 0x36, 0x67, 0x60, 0x4a, 0x79, 0x7f, 0x35, 0x9d, 0xd0, 0x0c, 0xdf, 0x81, 0xd9, 0x8b, 0xca, 0x0a, 0x64, 0x75, 0x53, 0x7f, 0x29, 0xf6, 0x6c, 0x4c, 0x46, 0x2b, 0x1d, 0x65, 0x52, 0x7f, 0x23, 0x21, 0x53, 0x41, 0x50, 0x13, 0x49, 0x7f, 0x1c, 0x2f, 0x6f, 0x6c, 0x44, 0x7c, 0x65, 0xd7, 0x6a, 0x66, 0xe5, 0x7f, 0x30, 0x44, 0x7c, 0x75, 0x2a, 0x50, 0x7f, 0x4a, 0x1f, 0x1c, 0x00, 0x00, 0x06, 0x00, 0x08, 0x00, 0x04, 0x00, 0x06, 0x00, 0x00, 0x00, 0x04, 0x00, 0x00, 0x00, 0x08, 0x00, 0x00, 0x00, 0xff, 0xff, 0xff, 0xff, 0x40, 0x0c, 0x00, 0x00, 0xc0, 0xf5, 0xff, 0xff, 0xc4, 0xf5, 0xff, 0xff, 0x0f, 0x00, 0x00, 0x00, 0x4d, 0x4c, 0x49, 0x52, 0x20, 0x43, 0x6f, 0x6e, 0x76, 0x65, 0x72, 0x74, 0x65, 0x64, 0x2e, 0x00, 0x01, 0x00, 0x00, 0x00, 0x14, 0x00, 0x00, 0x00, 0x00, 0x00, 0x0e, 0x00, 0x18, 0x00, 0x14, 0x00, 0x10, 0x00, 0x0c, 0x00, 0x08, 0x00, 0x04, 0x00, 0x0e, 0x00, 0x00, 0x00, 0x14, 0x00, 0x00, 0x00, 0x1c, 0x00, 0x00, 0x00, 0x90, 0x01, 0x00, 0x00, 0x94, 0x01, 0x00, 0x00, 0x98, 0x01, 0x00, 0x00, 0x04, 0x00, 0x00, 0x00, 0x6d, 0x61, 0x69, 0x6e, 0x00, 0x00, 0x00, 0x00, 0x05, 0x00, 0x00, 0x00, 0x28, 0x01, 0x00, 0x00, 0xd4, 0x00, 0x00, 0x00, 0x80, 0x00, 0x00, 0x00, 0x48, 0x00, 0x00, 0x00, 0x04, 0x00, 0x00, 0x00, 0x9a, 0xff, 0xff, 0xff, 0x14, 0x00, 0x00, 0x00, 0x00, 0x00, 0x00, 0x08, 0x10, 0x00, 0x00, 0x00, 0x14, 0x00, 0x00, 0x00, 0x03, 0x00, 0x00, 0x00, 0x48, 0xf6, 0xff, 0xff, 0x01, 0x00, 0x00, 0x00, 0x0c, 0x00, 0x00, 0x00, 0x03, 0x00, 0x00, 0x00, 0x0b, 0x00, 0x00, 0x00, 0x06, 0x00, 0x00, 0x00, 0x07, 0x00, 0x00, 0x00, 0x00, 0x00, 0x0a, 0x00, 0x10, 0x00, 0x0c, 0x00, 0x08, 0x00, 0x04, 0x00, 0x0a, 0x00, 0x00, 0x00, 0x0c, 0x00, 0x00, 0x00, 0x10, 0x00, 0x00, 0x00, 0x02, 0x00, 0x00, 0x00, 0x01, 0x00, 0x00, 0x00, 0x0b, 0x00, 0x00, 0x00, 0x02, 0x00, 0x00, 0x00, 0x0a, 0x00, 0x00, 0x00, 0x01, 0x00, 0x00, 0x00, 0x00, 0x00, 0x0e, 0x00, 0x1a, 0x00, 0x14, 0x00, 0x10, 0x00, 0x0c, 0x00, 0x0b, 0x00, 0x04, 0x00, 0x0e, 0x00, 0x00, 0x00, 0x24, 0x00, 0x00, 0x00, 0x00, 0x00, 0x00, 0x05, 0x34, 0x00, 0x00, 0x00, 0x38, 0x00, 0x00, 0x00, 0x01, 0x00, 0x00, 0x00, 0x00, 0x00, 0x0e, 0x00, 0x18, 0x00, 0x17, 0x00, 0x10, 0x00, 0x0c, 0x00, 0x08, 0x00, 0x04, 0x00, 0x0e, 0x00, 0x00, 0x00, 0x02, 0x00, 0x00, 0x00, 0x02, 0x00, 0x00, 0x00, 0x02, 0x00, 0x00, 0x00, 0x02, 0x00, 0x00, 0x00, 0x00, 0x00, 0x00, 0x01, 0x01, 0x00, 0x00, 0x00, 0x0a, 0x00, 0x00, 0x00, 0x01, 0x00, 0x00, 0x00, 0x09, 0x00, 0x00, 0x00, 0xbe, 0xff, 0xff, 0xff, 0x10, 0x00, 0x00, 0x00, 0x00, 0x00, 0x00, 0x01, 0x1c, 0x00, 0x00, 0x00, 0x20, 0x00, 0x00, 0x00, 0xb0, 0xff, 0xff, 0xff, 0x00, 0x00, 0x00, 0x01, 0x01, 0x00, 0x00, 0x00, 0x01, 0x00, 0x00, 0x00, 0x00, 0x00, 0x00, 0x01, 0x01, 0x00, 0x00, 0x00, 0x09, 0x00, 0x00, 0x00, 0x03, 0x00, 0x00, 0x00, 0x08, 0x00, 0x00, 0x00, 0x04, 0x00, 0x00, 0x00, 0x05, 0x00, 0x00, 0x00, 0x00, 0x00, 0x0e, 0x00, 0x14, 0x00, 0x00, 0x00, 0x10, 0x00, 0x0c, 0x00, 0x0b, 0x00, 0x04, 0x00, 0x0e, 0x00, 0x00, 0x00, 0x1c, 0x00, 0x00, 0x00, 0x00, 0x00, 0x00, 0x01, 0x28, 0x00, 0x00, 0x00, 0x2c, 0x00, 0x00, 0x00, 0x0c, 0x00, 0x14, 0x00, 0x13, 0x00, 0x0c, 0x00, 0x08, 0x00, 0x07, 0x00, 0x0c, 0x00, 0x00, 0x00, 0x00, 0x00, 0x00, 0x01, 0x01, 0x00, 0x00, 0x00, 0x01, 0x00, 0x00, 0x00, 0x00, 0x00, 0x00, 0x01, 0x01, 0x00, 0x00, 0x00, 0x08, 0x00, 0x00, 0x00, 0x03, 0x00, 0x00, 0x00, 0x00, 0x00, 0x00, 0x00, 0x02, 0x00, 0x00, 0x00, 0x03, 0x00, 0x00, 0x00, 0x01, 0x00, 0x00, 0x00, 0x0c, 0x00, 0x00, 0x00, 0x01, 0x00, 0x00, 0x00, 0x00, 0x00, 0x00, 0x00, 0x0d, 0x00, 0x00, 0x00, 0xa0, 0x08, 0x00, 0x00, 0x40, 0x08, 0x00, 0x00, 0x6c, 0x07, 0x00, 0x00, 0x98, 0x06, 0x00, 0x00, 0x74, 0x05, 0x00, 0x00, 0x40, 0x04, 0x00, 0x00, 0xdc, 0x03, 0x00, 0x00, 0x60, 0x03, 0x00, 0x00, 0x74, 0x02, 0x00, 0x00, 0x80, 0x01, 0x00, 0x00, 0xec, 0x00, 0x00, 0x00, 0x70, 0x00, 0x00, 0x00, 0x04, 0x00, 0x00, 0x00, 0xa8, 0xf7, 0xff, 0xff, 0x18, 0x00, 0x00, 0x00, 0x20, 0x00, 0x00, 0x00, 0x40, 0x00, 0x00, 0x00, 0x0d, 0x00, 0x00, 0x00, 0x00, 0x00, 0x00, 0x09, 0x44, 0x00, 0x00, 0x00, 0x02, 0x00, 0x00, 0x00, 0xff, 0xff, 0xff, 0xff, 0x02, 0x00, 0x00, 0x00, 0x8c, 0xf7, 0xff, 0xff, 0x08, 0x00, 0x00, 0x00, 0x14, 0x00, 0x00, 0x00, 0x01, 0x00, 0x00, 0x00, 0x04, 0x00, 0x00, 0x00, 0x00, 0x00, 0x00, 0x00, 0x00, 0x00, 0x00, 0x00, 0x01, 0x00, 0x00, 0x00, 0xb4, 0xc5, 0x24, 0x3e, 0x08, 0x00, 0x00, 0x00, 0x49, 0x64, 0x65, 0x6e, 0x74, 0x69, 0x74, 0x79, 0x00, 0x00, 0x00, 0x00, 0x02, 0x00, 0x00, 0x00, 0x01, 0x00, 0x00, 0x00, 0x02, 0x00, 0x00, 0x00, 0x10, 0xf8, 0xff, 0xff, 0x18, 0x00, 0x00, 0x00, 0x20, 0x00, 0x00, 0x00, 0x40, 0x00, 0x00, 0x00, 0x0c, 0x00, 0x00, 0x00, 0x00, 0x00, 0x00, 0x09, 0x54, 0x00, 0x00, 0x00, 0x02, 0x00, 0x00, 0x00, 0xff, 0xff, 0xff, 0xff, 0x40, 0x0c, 0x00, 0x00, 0xf4, 0xf7, 0xff, 0xff, 0x08, 0x00, 0x00, 0x00, 0x14, 0x00, 0x00, 0x00, 0x01, 0x00, 0x00, 0x00, 0x80, 0xff, 0xff, 0xff, 0xff, 0xff, 0xff, 0xff, 0x00, 0x00, 0x00, 0x00, 0x01, 0x00, 0x00, 0x00, 0x4b, 0x7f, 0x82, 0x3c, 0x1a, 0x00, 0x00, 0x00, 0x73, 0x65, 0x71, 0x75, 0x65, 0x6e, 0x74, 0x69, 0x61, 0x6c, 0x2f, 0x66, 0x6c, 0x61, 0x74, 0x74, 0x65, 0x6e, 0x2f, 0x52, 0x65, 0x73, 0x68, 0x61, 0x70, 0x65, 0x00, 0x00, 0x02, 0x00, 0x00, 0x00, 0x01, 0x00, 0x00, 0x00, 0x40, 0x0c, 0x00, 0x00, 0x88, 0xf8, 0xff, 0xff, 0x18, 0x00, 0x00, 0x00, 0x28, 0x00, 0x00, 0x00, 0x48, 0x00, 0x00, 0x00, 0x0b, 0x00, 0x00, 0x00, 0x00, 0x00, 0x00, 0x09, 0x64, 0x00, 0x00, 0x00, 0x04, 0x00, 0x00, 0x00, 0xff, 0xff, 0xff, 0xff, 0x0e, 0x00, 0x00, 0x00, 0x0e, 0x00, 0x00, 0x00, 0x10, 0x00, 0x00, 0x00, 0x74, 0xf8, 0xff, 0xff, 0x08, 0x00, 0x00, 0x00, 0x14, 0x00, 0x00, 0x00, 0x01, 0x00, 0x00, 0x00, 0x80, 0xff, 0xff, 0xff, 0xff, 0xff, 0xff, 0xff, 0x00, 0x00, 0x00, 0x00, 0x01, 0x00, 0x00, 0x00, 0x4b, 0x7f, 0x82, 0x3c, 0x20, 0x00, 0x00, 0x00, 0x73, 0x65, 0x71, 0x75, 0x65, 0x6e, 0x74, 0x69, 0x61, 0x6c, 0x2f, 0x6d, 0x61, 0x78, 0x5f, 0x70, 0x6f, 0x6f, 0x6c, 0x69, 0x6e, 0x67, 0x32, 0x64, 0x2f, 0x4d, 0x61, 0x78, 0x50, 0x6f, 0x6f, 0x6c, 0x00, 0x00, 0x00, 0x00, 0x04, 0x00, 0x00, 0x00, 0x01, 0x00, 0x00, 0x00, 0x0e, 0x00, 0x00, 0x00, 0x0e, 0x00, 0x00, 0x00, 0x10, 0x00, 0x00, 0x00, 0x18, 0xf9, 0xff, 0xff, 0x18, 0x00, 0x00, 0x00, 0x28, 0x00, 0x00, 0x00, 0x48, 0x00, 0x00, 0x00, 0x0a, 0x00, 0x00, 0x00, 0x00, 0x00, 0x00, 0x09, 0xc4, 0x00, 0x00, 0x00, 0x04, 0x00, 0x00, 0x00, 0xff, 0xff, 0xff, 0xff, 0x1c, 0x00, 0x00, 0x00, 0x1c, 0x00, 0x00, 0x00, 0x10, 0x00, 0x00, 0x00, 0x04, 0xf9, 0xff, 0xff, 0x08, 0x00, 0x00, 0x00, 0x14, 0x00, 0x00, 0x00, 0x01, 0x00, 0x00, 0x00, 0x80, 0xff, 0xff, 0xff, 0xff, 0xff, 0xff, 0xff, 0x00, 0x00, 0x00, 0x00, 0x01, 0x00, 0x00, 0x00, 0x4b, 0x7f, 0x82, 0x3c, 0x83, 0x00, 0x00, 0x00, 0x73, 0x65, 0x71, 0x75, 0x65, 0x6e, 0x74, 0x69, 0x61, 0x6c, 0x2f, 0x63, 0x6f, 0x6e, 0x76, 0x32, 0x64, 0x5f, 0x31, 0x2f, 0x52, 0x65, 0x6c, 0x75, 0x3b, 0x73, 0x65, 0x71, 0x75, 0x65, 0x6e, 0x74, 0x69, 0x61, 0x6c, 0x2f, 0x63, 0x6f, 0x6e, 0x76, 0x32, 0x64, 0x5f, 0x31, 0x2f, 0x42, 0x69, 0x61, 0x73, 0x41, 0x64, 0x64, 0x3b, 0x73, 0x65, 0x71, 0x75, 0x65, 0x6e, 0x74, 0x69, 0x61, 0x6c, 0x2f, 0x63, 0x6f, 0x6e, 0x76, 0x32, 0x64, 0x5f, 0x31, 0x2f, 0x43, 0x6f, 0x6e, 0x76, 0x32, 0x44, 0x3b, 0x73, 0x65, 0x71, 0x75, 0x65, 0x6e, 0x74, 0x69, 0x61, 0x6c, 0x2f, 0x63, 0x6f, 0x6e, 0x76, 0x32, 0x64, 0x5f, 0x31, 0x2f, 0x42, 0x69, 0x61, 0x73, 0x41, 0x64, 0x64, 0x2f, 0x52, 0x65, 0x61, 0x64, 0x56, 0x61, 0x72, 0x69, 0x61, 0x62, 0x6c, 0x65, 0x4f, 0x70, 0x2f, 0x72, 0x65, 0x73, 0x6f, 0x75, 0x72, 0x63, 0x65, 0x00, 0x04, 0x00, 0x00, 0x00, 0x01, 0x00, 0x00, 0x00, 0x1c, 0x00, 0x00, 0x00, 0x1c, 0x00, 0x00, 0x00, 0x10, 0x00, 0x00, 0x00, 0x08, 0xfa, 0xff, 0xff, 0x18, 0x00, 0x00, 0x00, 0x28, 0x00, 0x00, 0x00, 0x48, 0x00, 0x00, 0x00, 0x09, 0x00, 0x00, 0x00, 0x00, 0x00, 0x00, 0x09, 0xbc, 0x00, 0x00, 0x00, 0x04, 0x00, 0x00, 0x00, 0xff, 0xff, 0xff, 0xff, 0x1e, 0x00, 0x00, 0x00, 0x1e, 0x00, 0x00, 0x00, 0x08, 0x00, 0x00, 0x00, 0xf4, 0xf9, 0xff, 0xff, 0x08, 0x00, 0x00, 0x00, 0x14, 0x00, 0x00, 0x00, 0x01, 0x00, 0x00, 0x00, 0x80, 0xff, 0xff, 0xff, 0xff, 0xff, 0xff, 0xff, 0x00, 0x00, 0x00, 0x00, 0x01, 0x00, 0x00, 0x00, 0xe0, 0x00, 0x8c, 0x3b, 0x7b, 0x00, 0x00, 0x00, 0x73, 0x65, 0x71, 0x75, 0x65, 0x6e, 0x74, 0x69, 0x61, 0x6c, 0x2f, 0x63, 0x6f, 0x6e, 0x76, 0x32, 0x64, 0x2f, 0x52, 0x65, 0x6c, 0x75, 0x3b, 0x73, 0x65, 0x71, 0x75, 0x65, 0x6e, 0x74, 0x69, 0x61, 0x6c, 0x2f, 0x63, 0x6f, 0x6e, 0x76, 0x32, 0x64, 0x2f, 0x42, 0x69, 0x61, 0x73, 0x41, 0x64, 0x64, 0x3b, 0x73, 0x65, 0x71, 0x75, 0x65, 0x6e, 0x74, 0x69, 0x61, 0x6c, 0x2f, 0x63, 0x6f, 0x6e, 0x76, 0x32, 0x64, 0x2f, 0x43, 0x6f, 0x6e, 0x76, 0x32, 0x44, 0x3b, 0x73, 0x65, 0x71, 0x75, 0x65, 0x6e, 0x74, 0x69, 0x61, 0x6c, 0x2f, 0x63, 0x6f, 0x6e, 0x76, 0x32, 0x64, 0x2f, 0x42, 0x69, 0x61, 0x73, 0x41, 0x64, 0x64, 0x2f, 0x52, 0x65, 0x61, 0x64, 0x56, 0x61, 0x72, 0x69, 0x61, 0x62, 0x6c, 0x65, 0x4f, 0x70, 0x2f, 0x72, 0x65, 0x73, 0x6f, 0x75, 0x72, 0x63, 0x65, 0x00, 0x04, 0x00, 0x00, 0x00, 0x01, 0x00, 0x00, 0x00, 0x1e, 0x00, 0x00, 0x00, 0x1e, 0x00, 0x00, 0x00, 0x08, 0x00, 0x00, 0x00, 0x46, 0xfb, 0xff, 0xff, 0x14, 0x00, 0x00, 0x00, 0x30, 0x00, 0x00, 0x00, 0x08, 0x00, 0x00, 0x00, 0x00, 0x00, 0x00, 0x02, 0x5c, 0x00, 0x00, 0x00, 0xc4, 0xfa, 0xff, 0xff, 0x08, 0x00, 0x00, 0x00, 0x10, 0x00, 0x00, 0x00, 0x01, 0x00, 0x00, 0x00, 0x00, 0x00, 0x00, 0x00, 0x00, 0x00, 0x00, 0x00, 0x01, 0x00, 0x00, 0x00, 0xa7, 0xc3, 0xba, 0x38, 0x30, 0x00, 0x00, 0x00, 0x73, 0x65, 0x71, 0x75, 0x65, 0x6e, 0x74, 0x69, 0x61, 0x6c, 0x2f, 0x64, 0x65, 0x6e, 0x73, 0x65, 0x2f, 0x42, 0x69, 0x61, 0x73, 0x41, 0x64, 0x64, 0x2f, 0x52, 0x65, 0x61, 0x64, 0x56, 0x61, 0x72, 0x69, 0x61, 0x62, 0x6c, 0x65, 0x4f, 0x70, 0x2f, 0x72, 0x65, 0x73, 0x6f, 0x75, 0x72, 0x63, 0x65, 0x00, 0x00, 0x00, 0x00, 0x01, 0x00, 0x00, 0x00, 0x02, 0x00, 0x00, 0x00, 0xbe, 0xfb, 0xff, 0xff, 0x14, 0x00, 0x00, 0x00, 0x30, 0x00, 0x00, 0x00, 0x07, 0x00, 0x00, 0x00, 0x00, 0x00, 0x00, 0x09, 0x40, 0x00, 0x00, 0x00, 0x3c, 0xfb, 0xff, 0xff, 0x08, 0x00, 0x00, 0x00, 0x10, 0x00, 0x00, 0x00, 0x01, 0x00, 0x00, 0x00, 0x00, 0x00, 0x00, 0x00, 0x00, 0x00, 0x00, 0x00, 0x01, 0x00, 0x00, 0x00, 0xb6, 0x30, 0xb7, 0x3b, 0x17, 0x00, 0x00, 0x00, 0x73, 0x65, 0x71, 0x75, 0x65, 0x6e, 0x74, 0x69, 0x61, 0x6c, 0x2f, 0x64, 0x65, 0x6e, 0x73, 0x65, 0x2f, 0x4d, 0x61, 0x74, 0x4d, 0x75, 0x6c, 0x00, 0x02, 0x00, 0x00, 0x00, 0x02, 0x00, 0x00, 0x00, 0x40, 0x0c, 0x00, 0x00, 0x1e, 0xfc, 0xff, 0xff, 0x14, 0x00, 0x00, 0x00, 0xe8, 0x00, 0x00, 0x00, 0x06, 0x00, 0x00, 0x00, 0x00, 0x00, 0x00, 0x02, 0x14, 0x01, 0x00, 0x00, 0x9c, 0xfb, 0xff, 0xff, 0x08, 0x00, 0x00, 0x00, 0x8c, 0x00, 0x00, 0x00, 0x10, 0x00, 0x00, 0x00, 0x00, 0x00, 0x00, 0x00, 0x00, 0x00, 0x00, 0x00, 0x00, 0x00, 0x00, 0x00, 0x00, 0x00, 0x00, 0x00, 0x00, 0x00, 0x00, 0x00, 0x00, 0x00, 0x00, 0x00, 0x00, 0x00, 0x00, 0x00, 0x00, 0x00, 0x00, 0x00, 0x00, 0x00, 0x00, 0x00, 0x00, 0x00, 0x00, 0x00, 0x00, 0x00, 0x00, 0x00, 0x00, 0x00, 0x00, 0x00, 0x00, 0x00, 0x00, 0x00, 0x00, 0x00, 0x00, 0x00, 0x00, 0x00, 0x00, 0x00, 0x00, 0x00, 0x00, 0x00, 0x00, 0x00, 0x00, 0x00, 0x00, 0x00, 0x00, 0x00, 0x00, 0x00, 0x00, 0x00, 0x00, 0x00, 0x00, 0x00, 0x00, 0x00, 0x00, 0x00, 0x00, 0x00, 0x00, 0x00, 0x00, 0x00, 0x00, 0x00, 0x00, 0x00, 0x00, 0x00, 0x00, 0x00, 0x00, 0x00, 0x00, 0x00, 0x00, 0x00, 0x00, 0x00, 0x00, 0x00, 0x00, 0x00, 0x00, 0x00, 0x00, 0x00, 0x00, 0x00, 0x00, 0x00, 0x00, 0x00, 0x00, 0x00, 0x00, 0x00, 0x00, 0x00, 0x00, 0x00, 0x00, 0x00, 0x00, 0x00, 0x10, 0x00, 0x00, 0x00, 0x67, 0x63, 0x8d, 0x37, 0x55, 0x1d, 0x97, 0x37, 0x35, 0x0f, 0xd8, 0x37, 0xac, 0xcf, 0xb7, 0x37, 0x09, 0x05, 0xc0, 0x36, 0x70, 0x57, 0x98, 0x37, 0x0a, 0xa6, 0xbe, 0x36, 0x79, 0x9d, 0x8a, 0x37, 0x71, 0x9a, 0x59, 0x37, 0x5f, 0x2e, 0x85, 0x37, 0xa0, 0x56, 0xb3, 0x37, 0xf2, 0x49, 0xb9, 0x36, 0xcb, 0x9d, 0x88, 0x37, 0x9c, 0xd8, 0x88, 0x37, 0xd8, 0x90, 0x9b, 0x37, 0x72, 0x8e, 0xa2, 0x37, 0x33, 0x00, 0x00, 0x00, 0x73, 0x65, 0x71, 0x75, 0x65, 0x6e, 0x74, 0x69, 0x61, 0x6c, 0x2f, 0x63, 0x6f, 0x6e, 0x76, 0x32, 0x64, 0x5f, 0x31, 0x2f, 0x42, 0x69, 0x61, 0x73, 0x41, 0x64, 0x64, 0x2f, 0x52, 0x65, 0x61, 0x64, 0x56, 0x61, 0x72, 0x69, 0x61, 0x62, 0x6c, 0x65, 0x4f, 0x70, 0x2f, 0x72, 0x65, 0x73, 0x6f, 0x75, 0x72, 0x63, 0x65, 0x00, 0x01, 0x00, 0x00, 0x00, 0x10, 0x00, 0x00, 0x00, 0x4e, 0xfd, 0xff, 0xff, 0x14, 0x00, 0x00, 0x00, 0xe4, 0x00, 0x00, 0x00, 0x05, 0x00, 0x00, 0x00, 0x00, 0x00, 0x00, 0x09, 0xf8, 0x00, 0x00, 0x00, 0xcc, 0xfc, 0xff, 0xff, 0x08, 0x00, 0x00, 0x00, 0x88, 0x00, 0x00, 0x00, 0x10, 0x00, 0x00, 0x00, 0x00, 0x00, 0x00, 0x00, 0x00, 0x00, 0x00, 0x00, 0x00, 0x00, 0x00, 0x00, 0x00, 0x00, 0x00, 0x00, 0x00, 0x00, 0x00, 0x00, 0x00, 0x00, 0x00, 0x00, 0x00, 0x00, 0x00, 0x00, 0x00, 0x00, 0x00, 0x00, 0x00, 0x00, 0x00, 0x00, 0x00, 0x00, 0x00, 0x00, 0x00, 0x00, 0x00, 0x00, 0x00, 0x00, 0x00, 0x00, 0x00, 0x00, 0x00, 0x00, 0x00, 0x00, 0x00, 0x00, 0x00, 0x00, 0x00, 0x00, 0x00, 0x00, 0x00, 0x00, 0x00, 0x00, 0x00, 0x00, 0x00, 0x00, 0x00, 0x00, 0x00, 0x00, 0x00, 0x00, 0x00, 0x00, 0x00, 0x00, 0x00, 0x00, 0x00, 0x00, 0x00, 0x00, 0x00, 0x00, 0x00, 0x00, 0x00, 0x00, 0x00, 0x00, 0x00, 0x00, 0x00, 0x00, 0x00, 0x00, 0x00, 0x00, 0x00, 0x00, 0x00, 0x00, 0x00, 0x00, 0x00, 0x00, 0x00, 0x00, 0x00, 0x00, 0x00, 0x00, 0x00, 0x00, 0x00, 0x00, 0x00, 0x00, 0x00, 0x00, 0x00, 0x00, 0x00, 0x00, 0x10, 0x00, 0x00, 0x00, 0x22, 0x44, 0x81, 0x3b, 0x95, 0x28, 0x8a, 0x3b, 0x03, 0x89, 0xc5, 0x3b, 0x47, 0x0d, 0xa8, 0x3b, 0x7a, 0x8e, 0xaf, 0x3a, 0xc2, 0x47, 0x8b, 0x3b, 0x93, 0x4d, 0xae, 0x3a, 0x23, 0x76, 0x7d, 0x3b, 0x5c, 0xf2, 0x46, 0x3b, 0x78, 0x86, 0x73, 0x3b, 0x67, 0xf6, 0xa3, 0x3b, 0x1f, 0x67, 0xa9, 0x3a, 0x85, 0xce, 0x79, 0x3b, 0x10, 0x3a, 0x7a, 0x3b, 0x66, 0x3a, 0x8e, 0x3b, 0x90, 0x9e, 0x94, 0x3b, 0x1a, 0x00, 0x00, 0x00, 0x73, 0x65, 0x71, 0x75, 0x65, 0x6e, 0x74, 0x69, 0x61, 0x6c, 0x2f, 0x63, 0x6f, 0x6e, 0x76, 0x32, 0x64, 0x5f, 0x31, 0x2f, 0x43, 0x6f, 0x6e, 0x76, 0x32, 0x44, 0x00, 0x00, 0x04, 0x00, 0x00, 0x00, 0x10, 0x00, 0x00, 0x00, 0x03, 0x00, 0x00, 0x00, 0x03, 0x00, 0x00, 0x00, 0x08, 0x00, 0x00, 0x00, 0x6e, 0xfe, 0xff, 0xff, 0x14, 0x00, 0x00, 0x00, 0x88, 0x00, 0x00, 0x00, 0x04, 0x00, 0x00, 0x00, 0x00, 0x00, 0x00, 0x02, 0xb4, 0x00, 0x00, 0x00, 0xec, 0xfd, 0xff, 0xff, 0x08, 0x00, 0x00, 0x00, 0x4c, 0x00, 0x00, 0x00, 0x08, 0x00, 0x00, 0x00, 0x00, 0x00, 0x00, 0x00, 0x00, 0x00, 0x00, 0x00, 0x00, 0x00, 0x00, 0x00, 0x00, 0x00, 0x00, 0x00, 0x00, 0x00, 0x00, 0x00, 0x00, 0x00, 0x00, 0x00, 0x00, 0x00, 0x00, 0x00, 0x00, 0x00, 0x00, 0x00, 0x00, 0x00, 0x00, 0x00, 0x00, 0x00, 0x00, 0x00, 0x00, 0x00, 0x00, 0x00, 0x00, 0x00, 0x00, 0x00, 0x00, 0x00, 0x00, 0x00, 0x00, 0x00, 0x00, 0x00, 0x00, 0x00, 0x00, 0x00, 0x00, 0x00, 0x00, 0x00, 0x00, 0x00, 0x00, 0x00, 0x08, 0x00, 0x00, 0x00, 0x95, 0x00, 0x94, 0x37, 0x77, 0x33, 0x9a, 0x37, 0x91, 0x68, 0x92, 0x37, 0x80, 0xb3, 0x96, 0x37, 0x71, 0x54, 0xa9, 0x37, 0xb0, 0xfa, 0xa2, 0x37, 0xb1, 0x46, 0x8d, 0x37, 0x13, 0xcc, 0xa6, 0x37, 0x31, 0x00, 0x00, 0x00, 0x73, 0x65, 0x71, 0x75, 0x65, 0x6e, 0x74, 0x69, 0x61, 0x6c, 0x2f, 0x63, 0x6f, 0x6e, 0x76, 0x32, 0x64, 0x2f, 0x42, 0x69, 0x61, 0x73, 0x41, 0x64, 0x64, 0x2f, 0x52, 0x65, 0x61, 0x64, 0x56, 0x61, 0x72, 0x69, 0x61, 0x62, 0x6c, 0x65, 0x4f, 0x70, 0x2f, 0x72, 0x65, 0x73, 0x6f, 0x75, 0x72, 0x63, 0x65, 0x00, 0x00, 0x00, 0x01, 0x00, 0x00, 0x00, 0x08, 0x00, 0x00, 0x00, 0x3e, 0xff, 0xff, 0xff, 0x14, 0x00, 0x00, 0x00, 0x84, 0x00, 0x00, 0x00, 0x03, 0x00, 0x00, 0x00, 0x00, 0x00, 0x00, 0x09, 0x98, 0x00, 0x00, 0x00, 0xbc, 0xfe, 0xff, 0xff, 0x08, 0x00, 0x00, 0x00, 0x48, 0x00, 0x00, 0x00, 0x08, 0x00, 0x00, 0x00, 0x00, 0x00, 0x00, 0x00, 0x00, 0x00, 0x00, 0x00, 0x00, 0x00, 0x00, 0x00, 0x00, 0x00, 0x00, 0x00, 0x00, 0x00, 0x00, 0x00, 0x00, 0x00, 0x00, 0x00, 0x00, 0x00, 0x00, 0x00, 0x00, 0x00, 0x00, 0x00, 0x00, 0x00, 0x00, 0x00, 0x00, 0x00, 0x00, 0x00, 0x00, 0x00, 0x00, 0x00, 0x00, 0x00, 0x00, 0x00, 0x00, 0x00, 0x00, 0x00, 0x00, 0x00, 0x00, 0x00, 0x00, 0x00, 0x00, 0x00, 0x00, 0x00, 0x00, 0x00, 0x08, 0x00, 0x00, 0x00, 0x61, 0xe4, 0x99, 0x3b, 0x6a, 0x56, 0xa0, 0x3b, 0x21, 0x3c, 0x98, 0x3b, 0xcb, 0xb2, 0x9c, 0x3b, 0x84, 0x11, 0xb0, 0x3b, 0x11, 0x77, 0xa9, 0x3b, 0xf7, 0xe5, 0x92, 0x3b, 0x59, 0x6f, 0xad, 0x3b, 0x18, 0x00, 0x00, 0x00, 0x73, 0x65, 0x71, 0x75, 0x65, 0x6e, 0x74, 0x69, 0x61, 0x6c, 0x2f, 0x63, 0x6f, 0x6e, 0x76, 0x32, 0x64, 0x2f, 0x43, 0x6f, 0x6e, 0x76, 0x32, 0x44, 0x00, 0x00, 0x00, 0x00, 0x04, 0x00, 0x00, 0x00, 0x08, 0x00, 0x00, 0x00, 0x03, 0x00, 0x00, 0x00, 0x03, 0x00, 0x00, 0x00, 0x01, 0x00, 0x00, 0x00, 0x00, 0x00, 0x0e, 0x00, 0x18, 0x00, 0x14, 0x00, 0x13, 0x00, 0x0c, 0x00, 0x08, 0x00, 0x04, 0x00, 0x0e, 0x00, 0x00, 0x00, 0x18, 0x00, 0x00, 0x00, 0x18, 0x00, 0x00, 0x00, 0x02, 0x00, 0x00, 0x00, 0x00, 0x00, 0x00, 0x02, 0x2c, 0x00, 0x00, 0x00, 0x04, 0x00, 0x04, 0x00, 0x04, 0x00, 0x00, 0x00, 0x18, 0x00, 0x00, 0x00, 0x73, 0x65, 0x71, 0x75, 0x65, 0x6e, 0x74, 0x69, 0x61, 0x6c, 0x2f, 0x66, 0x6c, 0x61, 0x74, 0x74, 0x65, 0x6e, 0x2f, 0x43, 0x6f, 0x6e, 0x73, 0x74, 0x00, 0x00, 0x00, 0x00, 0x01, 0x00, 0x00, 0x00, 0x02, 0x00, 0x00, 0x00, 0x14, 0x00, 0x1c, 0x00, 0x18, 0x00, 0x17, 0x00, 0x10, 0x00, 0x0c, 0x00, 0x08, 0x00, 0x00, 0x00, 0x00, 0x00, 0x04, 0x00, 0x14, 0x00, 0x00, 0x00, 0x18, 0x00, 0x00, 0x00, 0x34, 0x00, 0x00, 0x00, 0x50, 0x00, 0x00, 0x00, 0x01, 0x00, 0x00, 0x00, 0x00, 0x00, 0x00, 0x09, 0x50, 0x00, 0x00, 0x00, 0x04, 0x00, 0x00, 0x00, 0xff, 0xff, 0xff, 0xff, 0x20, 0x00, 0x00, 0x00, 0x20, 0x00, 0x00, 0x00, 0x01, 0x00, 0x00, 0x00, 0x0c, 0x00, 0x0c, 0x00, 0x00, 0x00, 0x00, 0x00, 0x08, 0x00, 0x04, 0x00, 0x0c, 0x00, 0x00, 0x00, 0x08, 0x00, 0x00, 0x00, 0x10, 0x00, 0x00, 0x00, 0x01, 0x00, 0x00, 0x00, 0x80, 0xff, 0xff, 0xff, 0xff, 0xff, 0xff, 0xff, 0x01, 0x00, 0x00, 0x00, 0xc6, 0x33, 0x76, 0x3b, 0x07, 0x00, 0x00, 0x00, 0x69, 0x6e, 0x70, 0x75, 0x74, 0x5f, 0x31, 0x00, 0x04, 0x00, 0x00, 0x00, 0x01, 0x00, 0x00, 0x00, 0x20, 0x00, 0x00, 0x00, 0x20, 0x00, 0x00, 0x00, 0x01, 0x00, 0x00, 0x00, 0x04, 0x00, 0x00, 0x00, 0x54, 0x00, 0x00, 0x00, 0x34, 0x00, 0x00, 0x00, 0x24, 0x00, 0x00, 0x00, 0x04, 0x00, 0x00, 0x00, 0xc8, 0xff, 0xff, 0xff, 0x09, 0x00, 0x00, 0x00, 0x04, 0x00, 0x00, 0x00, 0x00, 0x00, 0x00, 0x09, 0x0c, 0x00, 0x0c, 0x00, 0x0b, 0x00, 0x00, 0x00, 0x00, 0x00, 0x04, 0x00, 0x0c, 0x00, 0x00, 0x00, 0x16, 0x00, 0x00, 0x00, 0x00, 0x00, 0x00, 0x16, 0xf0, 0xff, 0xff, 0xff, 0x11, 0x00, 0x00, 0x00, 0x02, 0x00, 0x00, 0x00, 0x00, 0x00, 0x00, 0x11, 0x0c, 0x00, 0x10, 0x00, 0x0f, 0x00, 0x00, 0x00, 0x08, 0x00, 0x04, 0x00, 0x0c, 0x00, 0x00, 0x00, 0x03, 0x00, 0x00, 0x00, 0x03, 0x00, 0x00, 0x00, 0x00, 0x00, 0x00, 0x03};
const int model_data_len = 10848;