const unsigned char model_data[] __attribute__((aligned(8))) = {0x1c, 0x00, 0x00, 0x00, 0x54, 0x46, 0x4c, 0x33, 0x14, 0x00, 0x20, 0x00, 0x1c, 0x00, 0x18, 0x00, 0x14, 0x00, 0x10, 0x00, 0x0c, 0x00, 0x00, 0x00, 0x08, 0x00, 0x04, 0x00, 0x14, 0x00, 0x00, 0x00, 0x1c, 0x00, 0x00, 0x00, 0x1c, 0x00, 0x00, 0x00, 0x4c, 0x00, 0x00, 0x00, 0xdc, 0x0a, 0x00, 0x00, 0xec, 0x0a, 0x00, 0x00, 0xf4, 0x1a, 0x00, 0x00, 0x03, 0x00, 0x00, 0x00, 0x00, 0x00, 0x00, 0x00, 0x01, 0x00, 0x00, 0x00, 0x0c, 0x00, 0x00, 0x00, 0x08, 0x00, 0x0c, 0x00, 0x08, 0x00, 0x04, 0x00, 0x08, 0x00, 0x00, 0x00, 0x0f, 0x00, 0x00, 0x00, 0x04, 0x00, 0x00, 0x00, 0x13, 0x00, 0x00, 0x00, 0x6d, 0x69, 0x6e, 0x5f, 0x72, 0x75, 0x6e, 0x74, 0x69, 0x6d, 0x65, 0x5f, 0x76, 0x65, 0x72, 0x73, 0x69, 0x6f, 0x6e, 0x00, 0x10, 0x00, 0x00, 0x00, 0x8c, 0x0a, 0x00, 0x00, 0x84, 0x0a, 0x00, 0x00, 0x6c, 0x0a, 0x00, 0x00, 0x0c, 0x0a, 0x00, 0x00, 0xdc, 0x09, 0x00, 0x00, 0xd4, 0x09, 0x00, 0x00, 0xcc, 0x09, 0x00, 0x00, 0x3c, 0x05, 0x00, 0x00, 0xec, 0x04, 0x00, 0x00, 0xe4, 0x04, 0x00, 0x00, 0xdc, 0x04, 0x00, 0x00, 0xd4, 0x04, 0x00, 0x00, 0x44, 0x00, 0x00, 0x00, 0x2c, 0x00, 0x00, 0x00, 0x24, 0x00, 0x00, 0x00, 0x04, 0x00, 0x00, 0x00, 0xd2, 0xf5, 0xff, 0xff, 0x04, 0x00, 0x00, 0x00, 0x10, 0x00, 0x00, 0x00, 0x31, 0x2e, 0x31, 0x34, 0x2e, 0x30, 0x00, 0x00, 0x00, 0x00, 0x00, 0x00, 0x00, 0x00, 0x00, 0x00, 0x98, 0xe6, 0xff, 0xff, 0xf2, 0xf5, 0xff, 0xff, 0x04, 0x00, 0x00, 0x00, 0x08, 0x00, 0x00, 0x00, 0xe4, 0xfd, 0xff, 0xff, 0xbe, 0x02, 0x00, 0x00, 0x06, 0xf6, 0xff, 0xff, 0x04, 0x00, 0x00, 0x00, 0x80, 0x04, 0x00, 0x00, 0x09, 0xe5, 0xed, 0x0e, 0x09, 0x10, 0x10, 0x32, 0xf7, 0x04, 0x0f, 0x03, 0x07, 0x10, 0x03, 0x08, 0x1e, 0xfe, 0xfd, 0x27, 0x09, 0x24, 0x52, 0x20, 0x0c, 0xfb, 0x31, 0x1f, 0x11, 0x20, 0x12, 0x3a, 0xfc, 0x1a, 0x1b, 0xfe, 0xf0, 0xf4, 0xf9, 0xff, 0x38, 0xf7, 0x01, 0xec, 0xfa, 0xf6, 0xf1, 0x0a, 0xf0, 0xf3, 0xd7, 0xeb, 0xf7, 0xee, 0xfa, 0xfc, 0x01, 0xed, 0xfa, 0x02, 0xfa, 0xfd, 0x02, 0x08, 0xf6, 0xea, 0xef, 0xf8, 0xf8, 0xff, 0x0e, 0x04, 0x10, 0xf6, 0x03, 0xf4, 0xfc, 0xf9, 0x0b, 0x07, 0xf8, 0xac, 0x99, 0x08, 0x0a, 0x04, 0x0c, 0x05, 0xc9, 0x08, 0x03, 0x08, 0x03, 0x0a, 0x06, 0xfa, 0x04, 0xfd, 0xfa, 0x00, 0xfc, 0x09, 0x0a, 0x35, 0x0d, 0xfb, 0x08, 0xf8, 0xfc, 0xfe, 0xf4, 0xf3, 0x21, 0x18, 0x11, 0x26, 0xf7, 0x14, 0x42, 0xfe, 0x15, 0xec, 0x2e, 0x26, 0x15, 0x22, 0x04, 0x18, 0xf1, 0x37, 0x32, 0xe1, 0xe5, 0xfc, 0xe9, 0xe7, 0x27, 0x0c, 0xf9, 0xe1, 0xe6, 0xe8, 0xf5, 0xf8, 0xe5, 0x24, 0x28, 0xf9, 0xf2, 0xf4, 0xe6, 0xfc, 0x28, 0xfc, 0xf2, 0xee, 0xfc, 0xf6, 0xf4, 0xed, 0xee, 0x21, 0x17, 0xe8, 0xea, 0xde, 0xdf, 0xf7, 0x20, 0xf2, 0xe2, 0xe9, 0xde, 0xfb, 0xf1, 0xee, 0x0a, 0xea, 0xc0, 0x0f, 0x1c, 0x0c, 0x0a, 0xf7, 0xad, 0x0d, 0x09, 0xf6, 0x07, 0x07, 0x01, 0xfa, 0xfd, 0x0b, 0xfc, 0xfb, 0x0b, 0xf4, 0xfd, 0x06, 0x01, 0xfb, 0xf8, 0xff, 0xf3, 0xf8, 0xfd, 0xfc, 0x09, 0x04, 0x0e, 0xee, 0xe0, 0x0c, 0x44, 0xed, 0x08, 0xeb, 0x17, 0xfc, 0xe6, 0xf5, 0xe9, 0x2c, 0x00, 0x19, 0x06, 0xfc, 0xff, 0x06, 0x12, 0xf4, 0x14, 0x0d, 0x14, 0x01, 0x0c, 0x00, 0xf4, 0x15, 0xfa, 0x1b, 0x0f, 0xec, 0x04, 0xff, 0xf7, 0xf7, 0x0c, 0x0b, 0xfa, 0xf4, 0xf6, 0x05, 0x08, 0x11, 0xe3, 0x2e, 0x2e, 0xe4, 0xd6, 0xd9, 0xde, 0xf8, 0x31, 0xf1, 0xdd, 0xe5, 0xe5, 0xda, 0xe9, 0xe3, 0xfc, 0xdd, 0xbb, 0x0c, 0x16, 0x16, 0x08, 0x05, 0xc7, 0x0b, 0x12, 0x00, 0x00, 0x0b, 0xef, 0x0e, 0xf0, 0x00, 0xfd, 0xe2, 0xe0, 0xc1, 0xc4, 0x81, 0xff, 0x0d, 0xd7, 0xe1, 0xe1, 0xeb, 0xe5, 0xf1, 0xde, 0xfe, 0x07, 0xc2, 0xbd, 0xde, 0xcf, 0xc5, 0x01, 0xe4, 0xd5, 0xc8, 0xc3, 0xde, 0xd3, 0x14, 0x17, 0x0b, 0xf2, 0xff, 0x1b, 0x14, 0x0b, 0xfb, 0x07, 0x19, 0x14, 0x09, 0x05, 0x11, 0xfe, 0x2f, 0x07, 0xfd, 0x0b, 0xfa, 0x0a, 0x09, 0x06, 0x06, 0x0d, 0x13, 0x06, 0xf7, 0x0b, 0xfb, 0x14, 0x0c, 0xe8, 0x37, 0x47, 0xee, 0xed, 0xed, 0xe9, 0xe9, 0x32, 0xd9, 0xe0, 0xe1, 0xe2, 0xdd, 0xf2, 0xfc, 0x0d, 0xf1, 0xec, 0x00, 0x14, 0xf9, 0xee, 0xf6, 0xdc, 0x13, 0x04, 0x11, 0x07, 0x10, 0xfd, 0x03, 0xea, 0xf9, 0xf9, 0xe0, 0xec, 0xde, 0xe1, 0xce, 0xf7, 0x08, 0xdf, 0xea, 0xf0, 0xe2, 0xfc, 0xed, 0x03, 0x05, 0x0d, 0x06, 0xf6, 0xfd, 0x32, 0xef, 0x0c, 0xd8, 0x1c, 0x0a, 0xf3, 0x09, 0xdc, 0x04, 0xff, 0x0f, 0xee, 0xf9, 0x0b, 0x0d, 0x0d, 0xf4, 0xf1, 0x29, 0x02, 0x04, 0x05, 0xf7, 0xf2, 0xf7, 0xfb, 0x0b, 0x18, 0x06, 0xfd, 0xfe, 0xf7, 0x14, 0x1b, 0xff, 0xf5, 0x04, 0xf7, 0xf1, 0x05, 0x09, 0xe8, 0x37, 0x2b, 0xd9, 0xd9, 0xe0, 0xe4, 0x03, 0x2b, 0xf9, 0xe0, 0xeb, 0xeb, 0xec, 0xfc, 0xd9, 0xfc, 0x0a, 0xd6, 0xf6, 0x15, 0x04, 0xf3, 0xfa, 0xc2, 0x1c, 0x02, 0xfc, 0x11, 0x01, 0xfb, 0xeb, 0xfd, 0xff, 0xfc, 0x00, 0x0e, 0x0e, 0x0d, 0x21, 0xf2, 0x0b, 0xfb, 0xfc, 0x00, 0xfc, 0xf6, 0x08, 0x1a, 0x05, 0x15, 0x12, 0xed, 0x14, 0x4c, 0x0f, 0x0c, 0xf5, 0x21, 0x18, 0x05, 0x03, 0xef, 0x26, 0x0a, 0xdc, 0xbd, 0x14, 0x10, 0x1a, 0x28, 0x0b, 0xb2, 0x07, 0x18, 0x17, 0x0e, 0x18, 0x0c, 0x1c, 0xff, 0xc1, 0xed, 0x11, 0xfe, 0x06, 0x0c, 0x01, 0xdf, 0xee, 0x18, 0x02, 0x0c, 0x08, 0xf8, 0x0a, 0x04, 0x0e, 0x14, 0xf7, 0xf1, 0xf4, 0x0e, 0x08, 0x0e, 0xfc, 0xf6, 0xf7, 0xf4, 0xf3, 0xfc, 0x0d, 0x09, 0xe2, 0xad, 0x0d, 0x19, 0x00, 0x0e, 0x04, 0x8d, 0x12, 0x0b, 0x15, 0x07, 0x0b, 0x05, 0xf4, 0xf9, 0x23, 0x12, 0xfb, 0xfd, 0xef, 0xf0, 0xc9, 0x13, 0x09, 0xeb, 0xf0, 0xf8, 0x02, 0x0a, 0xf8, 0xe8, 0x1d, 0x0a, 0xd2, 0xef, 0xda, 0xc0, 0xea, 0xe2, 0x17, 0xd4, 0xda, 0xe4, 0xe9, 0xfd, 0xc5, 0x0b, 0xeb, 0xe8, 0x0c, 0x11, 0x02, 0x0c, 0x0d, 0xe1, 0x05, 0x09, 0x0d, 0x13, 0x0a, 0x07, 0xf0, 0x19, 0x05, 0x25, 0x0c, 0x09, 0x09, 0x16, 0x01, 0x00, 0x03, 0x08, 0x0e, 0x0e, 0x0d, 0xfe, 0xf2, 0x02, 0x1e, 0x06, 0x01, 0x0c, 0x0e, 0xfc, 0x10, 0xef, 0x0b, 0x09, 0x05, 0x0c, 0x05, 0x03, 0xfc, 0xf9, 0x62, 0x6b, 0xfb, 0xfc, 0xf5, 0x06, 0x00, 0x36, 0xfa, 0xf1, 0xfc, 0xf6, 0xef, 0xf3, 0xf8, 0xff, 0x09, 0x00, 0xf8, 0xfa, 0xf5, 0xf7, 0xde, 0x11, 0x03, 0xf7, 0xf4, 0xf3, 0xfb, 0x08, 0xfe, 0xf4, 0xf0, 0xed, 0xf0, 0x0e, 0xe0, 0xc3, 0xf6, 0x00, 0x19, 0xde, 0xed, 0xfb, 0xe6, 0x05, 0xe8, 0x14, 0xc9, 0xdf, 0x12, 0x17, 0x1a, 0x0c, 0x11, 0xd0, 0x01, 0x0e, 0x10, 0x1b, 0x15, 0x18, 0x1c, 0x0c, 0xe0, 0xd9, 0x0c, 0x00, 0x0e, 0x20, 0x08, 0xcf, 0x01, 0x1f, 0x19, 0x0b, 0x16, 0xfc, 0x15, 0x19, 0xe3, 0xdf, 0x22, 0x21, 0x1b, 0x1c, 0x08, 0xdb, 0x16, 0x0a, 0x2c, 0x1e, 0x1d, 0x0f, 0x1e, 0xfa, 0x20, 0x47, 0x04, 0xf3, 0x00, 0x0c, 0xff, 0x58, 0xfe, 0x04, 0xfe, 0xf7, 0xf6, 0x00, 0x0a, 0x0c, 0x08, 0x01, 0x00, 0x10, 0x04, 0x06, 0xfe, 0x03, 0x06, 0x05, 0x0c, 0x01, 0xff, 0x08, 0x05, 0xfd, 0xfa, 0xf7, 0x15, 0x30, 0xfc, 0xc0, 0x0c, 0xf5, 0x1c, 0xfc, 0xf0, 0x1a, 0x10, 0x2e, 0xca, 0xff, 0xeb, 0xf1, 0x05, 0xfa, 0x0c, 0xf5, 0x01, 0xf7, 0x0d, 0xf9, 0x01, 0x0f, 0xfd, 0x11, 0xf9, 0x09, 0xec, 0xee, 0x08, 0x0e, 0x05, 0xf7, 0x0a, 0xf5, 0x0a, 0x02, 0x0a, 0x11, 0x18, 0x0c, 0xf5, 0x20, 0xd0, 0xd9, 0x17, 0x2c, 0x2e, 0x2d, 0x1a, 0xd3, 0x23, 0x27, 0x33, 0x2c, 0x24, 0x0d, 0x24, 0xf6, 0x26, 0x47, 0xec, 0xfb, 0xff, 0x09, 0x0c, 0x35, 0xee, 0xfc, 0x00, 0xf0, 0x08, 0x0e, 0xfc, 0x24, 0x01, 0xff, 0x27, 0x27, 0x3d, 0x42, 0x75, 0x04, 0x12, 0x1e, 0x11, 0x1d, 0x1c, 0x08, 0x0c, 0x34, 0xf4, 0xf3, 0x4a, 0x4b, 0x27, 0x40, 0x50, 0xf0, 0x27, 0x2c, 0x31, 0x2f, 0x2e, 0x2f, 0xf3, 0x01, 0xf7, 0x06, 0xef, 0xf1, 0xf5, 0xf7, 0x0c, 0xf5, 0xfb, 0x00, 0xf0, 0xfd, 0x01, 0xff, 0xd1, 0x0a, 0x04, 0xe9, 0xfe, 0x0b, 0x05, 0xfe, 0xf6, 0xe9, 0x03, 0x01, 0x02, 0xfa, 0x06, 0xf5, 0xf3, 0x22, 0xc7, 0xc4, 0x28, 0x29, 0x25, 0x32, 0x05, 0xc3, 0x18, 0x2f, 0x29, 0x2b, 0x1c, 0x0b, 0x0f, 0x0e, 0x0b, 0x2a, 0x12, 0xf4, 0xf9, 0x12, 0x0e, 0x2d, 0xf2, 0x03, 0xf4, 0xe9, 0xfd, 0x0f, 0x03, 0x12, 0xfb, 0xf9, 0x1b, 0x1f, 0x32, 0x35, 0x37, 0xf8, 0x09, 0x2c, 0x1c, 0x17, 0x22, 0x1d, 0x19, 0xf9, 0x00, 0xf8, 0x04, 0x1e, 0x04, 0xe7, 0x11, 0xf8, 0x26, 0xff, 0xff, 0x0a, 0x0b, 0x2e, 0xfa, 0xf4, 0xf7, 0x17, 0x01, 0xfe, 0xf3, 0xec, 0x10, 0x05, 0xe7, 0xf9, 0x0a, 0xfe, 0x08, 0x15, 0x0d, 0x0b, 0xf0, 0xdc, 0xfd, 0x11, 0x0c, 0xfb, 0x04, 0xf9, 0x00, 0xfd, 0x0c, 0x0c, 0x15, 0xf8, 0x14, 0x14, 0xcb, 0xcf, 0x1e, 0x1d, 0x1c, 0x26, 0x15, 0xcd, 0x21, 0x1d, 0x16, 0x1e, 0x27, 0x0f, 0x29, 0x0c, 0xf9, 0x30, 0x08, 0x06, 0xfd, 0x15, 0x0b, 0x2b, 0xfc, 0x01, 0xfd, 0x04, 0x07, 0xff, 0x0c, 0x06, 0x08, 0x06, 0x0b, 0x0a, 0x06, 0xfb, 0xe2, 0x09, 0x09, 0x03, 0xfc, 0x02, 0x05, 0x09, 0x14, 0xf4, 0xf3, 0xf3, 0xec, 0x23, 0xe5, 0xc8, 0xf6, 0x04, 0x00, 0xe3, 0xf3, 0xf1, 0xfe, 0x0c, 0xeb, 0xe7, 0x2f, 0x4e, 0xf4, 0xec, 0x01, 0xef, 0xf3, 0x51, 0xf2, 0xf2, 0xf9, 0xf1, 0xe5, 0xf3, 0xfa, 0x00, 0x43, 0x24, 0xf2, 0xf5, 0x09, 0xf0, 0xf6, 0x19, 0x0f, 0x06, 0x02, 0x07, 0x02, 0x06, 0xfe, 0x0e, 0xf0, 0xfb, 0x02, 0x08, 0x01, 0x08, 0x0d, 0xf6, 0x15, 0x0c, 0x0a, 0x05, 0x01, 0x07, 0xf8, 0xfe, 0x27, 0x59, 0x03, 0x04, 0x02, 0xfa, 0xff, 0x60, 0xfa, 0xfd, 0xf9, 0xfa, 0xef, 0x00, 0xf8, 0x3c, 0xeb, 0xff, 0xff, 0x40, 0xeb, 0xff, 0xff, 0x44, 0xeb, 0xff, 0xff, 0x9e, 0xfa, 0xff, 0xff, 0x04, 0x00, 0x00, 0x00, 0x40, 0x00, 0x00, 0x00, 0x55, 0x06, 0x00, 0x00, 0x54, 0xfd, 0xff, 0xff, 0xcc, 0xfd, 0xff, 0xff, 0x5d, 0x0b, 0x00, 0x00, 0x16, 0x13, 0x00, 0x00, 0x39, 0x09, 0x00, 0x00, 0xa5, 0x06, 0x00, 0x00, 0x3e, 0x0e, 0x00, 0x00, 0x3b, 0xfd, 0xff, 0xff, 0x41, 0x11, 0x00, 0x00, 0x39, 0x07, 0x00, 0x00, 0x7e, 0x09, 0x00, 0x00, 0x88, 0x08, 0x00, 0x00, 0x81, 0x09, 0x00, 0x00, 0x67, 0x11, 0x00, 0x00, 0xf4, 0x04, 0x00, 0x00, 0xea, 0xfa, 0xff, 0xff, 0x04, 0x00, 0x00, 0x00, 0x80, 0x04, 0x00, 0x00, 0x0a, 0x09, 0x1c, 0x14, 0xfe, 0x16, 0xd8, 0x14, 0xb6, 0x81, 0x0a, 0x1d, 0x9d, 0x0b, 0xc1, 0x05, 0xc4, 0xd4, 0xfb, 0x00, 0xb1, 0x01, 0xfc, 0xf5, 0x05, 0xf5, 0x13, 0xe7, 0x0d, 0xf5, 0xdf, 0xfe, 0xc1, 0x9d, 0x0d, 0x0b, 0x95, 0xf5, 0xec, 0xfa, 0xe5, 0xd1, 0x11, 0x19, 0xe5, 0xf7, 0x0b, 0xf0, 0x0b, 0x04, 0x1c, 0x1b, 0xf1, 0x11, 0xc1, 0x19, 0xb2, 0x92, 0xed, 0x09, 0x89, 0xfa, 0xd7, 0x05, 0xec, 0xa1, 0xf5, 0xe4, 0xb6, 0x0b, 0xfe, 0x09, 0x00, 0x08, 0x0f, 0xfa, 0xfa, 0xf4, 0x0d, 0x14, 0x33, 0x55, 0xff, 0xfa, 0x68, 0xfc, 0x38, 0xf9, 0x59, 0x71, 0xee, 0xf7, 0x7f, 0xef, 0x38, 0x10, 0xf8, 0xfa, 0xff, 0x00, 0x04, 0x04, 0xff, 0xf8, 0x3e, 0x26, 0x0d, 0x02, 0x06, 0xfb, 0x25, 0x03, 0x36, 0x20, 0x0f, 0x0d, 0x15, 0x02, 0x30, 0xec, 0xfa, 0xfe, 0x18, 0x03, 0xfc, 0xfe, 0xe4, 0x07, 0xf9, 0xed, 0x11, 0x05, 0x1b, 0xf8, 0x02, 0x03, 0x41, 0x3b, 0x06, 0xfb, 0xf9, 0x00, 0x26, 0x0d, 0xda, 0xed, 0x10, 0x05, 0x05, 0x15, 0xe0, 0x18, 0x27, 0x25, 0xee, 0x01, 0x2d, 0xf3, 0x0d, 0xee, 0x7f, 0x64, 0x15, 0xfd, 0x6a, 0xef, 0x63, 0xec, 0xdf, 0x01, 0x0e, 0x09, 0xf9, 0x05, 0xd9, 0x0b, 0x0f, 0x06, 0x13, 0x00, 0x14, 0xfc, 0xf2, 0x09, 0x31, 0x43, 0x0f, 0x02, 0x5b, 0xf5, 0x52, 0x06, 0x01, 0xfe, 0x16, 0x04, 0x00, 0x09, 0xcc, 0x0e, 0x0f, 0x14, 0xfc, 0x04, 0xf9, 0xf2, 0x01, 0xea, 0x58, 0x56, 0xf0, 0xfe, 0x58, 0xee, 0x4f, 0x0d, 0x00, 0xff, 0x34, 0x1a, 0xec, 0xf8, 0xbb, 0x02, 0x95, 0x81, 0xfb, 0xf0, 0x89, 0xf8, 0x9c, 0xf7, 0xd5, 0xb7, 0xff, 0x02, 0xc7, 0xed, 0xf3, 0x07, 0x01, 0x06, 0x13, 0x12, 0x13, 0x14, 0xe7, 0x1c, 0xb6, 0xad, 0xf7, 0xf6, 0xbc, 0x05, 0xce, 0x04, 0x04, 0xd2, 0xfb, 0xdf, 0xe7, 0x08, 0x1f, 0x06, 0x0c, 0xfb, 0x22, 0x06, 0x07, 0x06, 0xcc, 0x1a, 0xc1, 0x8b, 0xf9, 0xe6, 0xad, 0xf0, 0xc1, 0x05, 0xb9, 0xb2, 0x09, 0x1f, 0xc1, 0xfb, 0xdc, 0xf0, 0xfc, 0x01, 0xfb, 0xff, 0x07, 0xf8, 0xce, 0x20, 0xac, 0xa9, 0x06, 0x04, 0x95, 0xef, 0xaa, 0x01, 0xcb, 0xa8, 0x06, 0x11, 0xb1, 0x04, 0xc7, 0x06, 0x1e, 0xfd, 0x2e, 0x00, 0xfa, 0x08, 0xfc, 0x02, 0xcf, 0xb6, 0x0a, 0xe5, 0xbe, 0x16, 0xc5, 0xf4, 0xcd, 0xbf, 0xfb, 0xf0, 0xbe, 0x1f, 0x00, 0xfa, 0x0e, 0x0e, 0x32, 0xf6, 0x01, 0xda, 0x7c, 0x02, 0x94, 0xa5, 0x15, 0x24, 0xa9, 0x30, 0xce, 0xfc, 0x97, 0x81, 0x09, 0x03, 0xa5, 0x0a, 0xb8, 0xe8, 0xff, 0xf9, 0x1a, 0xfc, 0x07, 0x03, 0xc8, 0x04, 0xaf, 0x9f, 0xf0, 0xf5, 0x9c, 0x1a, 0xd3, 0x05, 0xe3, 0xc8, 0x02, 0x01, 0xb7, 0xee, 0xed, 0xf3, 0x0a, 0xfa, 0x1e, 0x13, 0xf8, 0x01, 0xd4, 0xfd, 0xc2, 0xa3, 0xef, 0xeb, 0xa9, 0x15, 0xf5, 0x09, 0xf7, 0xe1, 0xf3, 0x09, 0xe4, 0x18, 0x08, 0xe9, 0x08, 0x07, 0x39, 0x03, 0x05, 0xfd, 0xd7, 0x20, 0xb1, 0x81, 0xee, 0x11, 0x99, 0xe9, 0xb5, 0x0d, 0xc9, 0xa9, 0x12, 0xf8, 0xb8, 0xf0, 0xf3, 0x0b, 0xf4, 0x0c, 0x16, 0x35, 0x05, 0xfc, 0xa1, 0x0e, 0x99, 0x9e, 0xff, 0xff, 0xa6, 0x04, 0x8d, 0xec, 0xc1, 0xcf, 0xf8, 0x18, 0xc2, 0xeb, 0xba, 0xf9, 0x05, 0xfe, 0x0b, 0xe7, 0x06, 0x0b, 0xa1, 0xf5, 0xbc, 0xa3, 0xfe, 0xfe, 0xaf, 0x03, 0xa8, 0xf5, 0xda, 0xf6, 0x04, 0xe7, 0xe4, 0x00, 0xec, 0xf5, 0x02, 0xf7, 0x2b, 0x03, 0x02, 0xfa, 0x86, 0x1a, 0x8c, 0x81, 0x09, 0x1e, 0x81, 0x01, 0x8c, 0x07, 0xbd, 0xc2, 0xf6, 0x05, 0xcb, 0x01, 0xc6, 0x00, 0x96, 0x81, 0x08, 0x3b, 0xaa, 0x07, 0xc7, 0xf9, 0xd0, 0xa8, 0xee, 0x27, 0xa9, 0x0c, 0xe2, 0x01, 0x29, 0x00, 0xf9, 0x09, 0x0c, 0x16, 0x22, 0xfa, 0xd4, 0xb1, 0xf9, 0xeb, 0xaf, 0x08, 0xf1, 0xf4, 0xee, 0xda, 0xf5, 0xef, 0xe7, 0xfa, 0x04, 0x04, 0x30, 0x23, 0x0f, 0xfd, 0x37, 0x12, 0x37, 0xed, 0x99, 0xab, 0xe3, 0x07, 0xb5, 0xf3, 0xde, 0x0c, 0xd6, 0xa1, 0xee, 0x23, 0xb4, 0xfc, 0xf2, 0x12, 0xd0, 0xa4, 0x11, 0x16, 0xaa, 0x16, 0xe8, 0x0e, 0xf0, 0xfe, 0xf7, 0x09, 0x04, 0x05, 0xca, 0x03, 0x04, 0x0b, 0xe6, 0xff, 0xf6, 0xfb, 0xeb, 0xfe, 0x23, 0x37, 0xff, 0x00, 0x52, 0xf0, 0x28, 0xf0, 0x05, 0xf6, 0x16, 0x09, 0x07, 0xfc, 0xec, 0xf8, 0x04, 0x02, 0x07, 0xfc, 0x1b, 0xff, 0xfa, 0x0d, 0x5e, 0x64, 0x02, 0xfb, 0x7f, 0xeb, 0x47, 0xed, 0x01, 0xfe, 0x25, 0x02, 0x07, 0xf7, 0xe9, 0x11, 0x19, 0x10, 0x0c, 0xfb, 0x26, 0xed, 0x16, 0xf5, 0x62, 0x7e, 0x10, 0xfa, 0x6c, 0xf3, 0x52, 0xf1, 0x21, 0x29, 0x19, 0xea, 0x27, 0xec, 0x5c, 0x3c, 0xe0, 0xcf, 0xf2, 0xfe, 0xf2, 0x40, 0xeb, 0xed, 0xd9, 0xcd, 0x07, 0xeb, 0xc3, 0x03, 0xc9, 0xf7, 0x20, 0x0d, 0x0b, 0x0f, 0x12, 0x04, 0x06, 0x0f, 0xb7, 0xd2, 0x08, 0x02, 0xd6, 0x10, 0x1a, 0xee, 0xf2, 0xbd, 0x03, 0x18, 0xd3, 0x06, 0xff, 0xf1, 0xf1, 0x07, 0x5a, 0x0f, 0x07, 0xee, 0xd3, 0xfa, 0xde, 0x82, 0xf9, 0x1d, 0x81, 0x2c, 0xf2, 0x18, 0xbe, 0xac, 0x10, 0x2a, 0x93, 0x2d, 0xda, 0xef, 0x07, 0x0c, 0x0c, 0x12, 0x05, 0x04, 0xb5, 0x05, 0xaf, 0x9d, 0x05, 0xf0, 0x81, 0x00, 0xb6, 0xed, 0xcf, 0xa5, 0xf9, 0x29, 0xb3, 0x03, 0xd6, 0x0a, 0xfd, 0xff, 0x14, 0x11, 0xff, 0xf7, 0xc9, 0xf9, 0xd8, 0xbd, 0xf9, 0xfe, 0xb2, 0xef, 0xee, 0x0c, 0xdd, 0xd7, 0x02, 0x02, 0xca, 0x00, 0xe9, 0xfc, 0x07, 0xfd, 0x23, 0x04, 0x05, 0x13, 0xdc, 0x09, 0xbb, 0xa3, 0x01, 0x15, 0xa5, 0xf3, 0xc5, 0xf8, 0xc6, 0xae, 0xfc, 0x04, 0xc1, 0xef, 0xe9, 0x0f, 0xf9, 0xf0, 0x12, 0xea, 0x03, 0x19, 0xc7, 0x0e, 0x94, 0x84, 0xfc, 0xe6, 0x88, 0xfc, 0xca, 0x14, 0xba, 0xb1, 0xfd, 0x16, 0xa8, 0x16, 0xd6, 0xf8, 0x11, 0x0c, 0x11, 0x0a, 0xff, 0x10, 0xed, 0x11, 0xd4, 0xa6, 0xed, 0x03, 0xac, 0x09, 0xf1, 0x12, 0xd9, 0xc4, 0xfd, 0xe1, 0xbf, 0x04, 0xf1, 0xfb, 0xfc, 0x08, 0x1f, 0x00, 0x02, 0xeb, 0xe2, 0x0f, 0xb4, 0x81, 0xff, 0x14, 0xa3, 0xfc, 0xc4, 0x02, 0xbf, 0x94, 0xed, 0x20, 0xbf, 0x07, 0xd6, 0x02, 0x0f, 0xf9, 0x27, 0xfb, 0xfc, 0xec, 0xce, 0x0f, 0xbd, 0x8a, 0xed, 0xe4, 0x81, 0x13, 0xe8, 0x09, 0xcc, 0xa8, 0xee, 0xea, 0xa7, 0x0d, 0xf3, 0x0a, 0x0a, 0xfe, 0x27, 0xf1, 0xfd, 0x0c, 0xf8, 0xf2, 0xd9, 0x96, 0xf2, 0x1f, 0xb3, 0xf6, 0xe6, 0x14, 0xed, 0xbb, 0xf3, 0x14, 0xe3, 0xef, 0xef, 0x0b, 0x24, 0x0c, 0x21, 0x13, 0x05, 0x19, 0x1e, 0x0c, 0xb1, 0x89, 0xe5, 0x09, 0x9a, 0x11, 0xe5, 0x04, 0xcf, 0x8f, 0xf4, 0x15, 0xa7, 0xf9, 0xe1, 0x04, 0xf8, 0xf7, 0x1f, 0x00, 0xff, 0x01, 0xd5, 0x1d, 0xb2, 0x91, 0xe5, 0xf3, 0x89, 0xf8, 0xd6, 0x0e, 0xd1, 0xa8, 0x0a, 0x18, 0xad, 0x15, 0xd8, 0x07, 0xef, 0x16, 0x3c, 0x1e, 0xfa, 0x0f, 0xd4, 0xf6, 0xd8, 0x81, 0x0b, 0x29, 0x88, 0xfa, 0xeb, 0xeb, 0xdd, 0xd3, 0xfb, 0x1b, 0xbc, 0xfe, 0x05, 0xe4, 0x10, 0x02, 0x0f, 0xe3, 0x0d, 0x1d, 0xe9, 0x00, 0xc9, 0x8b, 0x0d, 0xe8, 0x93, 0xf0, 0xde, 0x07, 0xc6, 0xa7, 0x09, 0x0f, 0xae, 0x0f, 0xe0, 0x0f, 0x0c, 0xfa, 0x3c, 0x00, 0xfa, 0xef, 0xd0, 0x2f, 0x9d, 0x97, 0x03, 0x41, 0x95, 0xe7, 0xda, 0xf7, 0x41, 0x18, 0x43, 0x2f, 0xf7, 0xe3, 0x29, 0xfa, 0x04, 0xf8, 0x50, 0x16, 0xf2, 0x2c, 0x9a, 0x1b, 0xce, 0x8f, 0xf2, 0xe9, 0x81, 0xea, 0xe0, 0xf5, 0x29, 0xfa, 0x2e, 0x1b, 0x03, 0xdd, 0x36, 0xfe, 0x13, 0xfb, 0x2e, 0xf5, 0x1b, 0x33, 0xdc, 0x06, 0xb3, 0x97, 0xe3, 0xf6, 0x8e, 0x23, 0xc2, 0xfe, 0x10, 0xc9, 0x2f, 0x20, 0xdd, 0x2f, 0x22, 0xde, 0xff, 0xff, 0x03, 0x1f, 0x0c, 0x10, 0x9d, 0x02, 0x89, 0x81, 0x18, 0x03, 0xa0, 0x13, 0x95, 0x0b, 0xd7, 0xbb, 0x14, 0x01, 0xd7, 0x20, 0xc1, 0x0e, 0x03, 0x0b, 0x21, 0x24, 0xf4, 0x01, 0x9c, 0x15, 0xa9, 0xa4, 0x10, 0x07, 0x9c, 0xfd, 0xae, 0xed, 0xf8, 0x00, 0xf8, 0xf0, 0xdd, 0xfa, 0xd6, 0xf6, 0x15, 0x07, 0x1d, 0x09, 0x0c, 0xfd, 0xd4, 0x01, 0xfc, 0x1b, 0x00, 0xf1, 0xfd, 0xda, 0xfb, 0xf2, 0x21, 0x35, 0xec, 0x06, 0x26, 0x05, 0x33, 0x0c, 0x20, 0xf0, 0xff, 0xff, 0x24, 0xf0, 0xff, 0xff, 0x7e, 0xff, 0xff, 0xff, 0x04, 0x00, 0x00, 0x00, 0x20, 0x00, 0x00, 0x00, 0x88, 0xff, 0xff, 0xff, 0x2c, 0xff, 0xff, 0xff, 0x1b, 0xfa, 0xff, 0xff, 0x0d, 0x0b, 0x00, 0x00, 0x4b, 0xff, 0xff, 0xff, 0x11, 0x01, 0x00, 0x00, 0x76, 0xff, 0xff, 0xff, 0x68, 0xf7, 0xff, 0xff, 0xaa, 0xff, 0xff, 0xff, 0x04, 0x00, 0x00, 0x00, 0x48, 0x00, 0x00, 0x00, 0x0d, 0x74, 0x3e, 0x19, 0x7f, 0x43, 0xfd, 0x7e, 0x44, 0x0e, 0x67, 0x41, 0x26, 0x59, 0x66, 0x38, 0x5f, 0x7f, 0x14, 0xfc, 0x86, 0x07, 0x35, 0x81, 0xf5, 0xf6, 0x83, 0x8f, 0x85, 0xc9, 0xce, 0x93, 0x93, 0x8c, 0x81, 0xa3, 0x21, 0x55, 0x49, 0x3e, 0x4b, 0x7f, 0x12, 0x36, 0x4b, 0x1c, 0xe0, 0x8b, 0x1c, 0xf6, 0x81, 0x0d, 0xe4, 0xb0, 0x21, 0x7f, 0x6e, 0xe9, 0x7e, 0x62, 0xea, 0x7e, 0x34, 0x0c, 0x1a, 0xbd, 0x01, 0x09, 0xb6, 0x0f, 0xff, 0x81, 0x00, 0x00, 0x06, 0x00, 0x08, 0x00, 0x04, 0x00, 0x06, 0x00, 0x00, 0x00, 0x04, 0x00, 0x00, 0x00, 0x08, 0x00, 0x00, 0x00, 0xff, 0xff, 0xff, 0xff, 0x40, 0x02, 0x00, 0x00, 0xc4, 0xf0, 0xff, 0xff, 0xc8, 0xf0, 0xff, 0xff, 0x0f, 0x00, 0x00, 0x00, 0x4d, 0x4c, 0x49, 0x52, 0x20, 0x43, 0x6f, 0x6e, 0x76, 0x65, 0x72, 0x74, 0x65, 0x64, 0x2e, 0x00, 0x01, 0x00, 0x00, 0x00, 0x14, 0x00, 0x00, 0x00, 0x00, 0x00, 0x0e, 0x00, 0x18, 0x00, 0x14, 0x00, 0x10, 0x00, 0x0c, 0x00, 0x08, 0x00, 0x04, 0x00, 0x0e, 0x00, 0x00, 0x00, 0x14, 0x00, 0x00, 0x00, 0x1c, 0x00, 0x00, 0x00, 0xd4, 0x01, 0x00, 0x00, 0xd8, 0x01, 0x00, 0x00, 0xdc, 0x01, 0x00, 0x00, 0x04, 0x00, 0x00, 0x00, 0x6d, 0x61, 0x69, 0x6e, 0x00, 0x00, 0x00, 0x00, 0x06, 0x00, 0x00, 0x00, 0x6c, 0x01, 0x00, 0x00, 0x08, 0x01, 0x00, 0x00, 0xb4, 0x00, 0x00, 0x00, 0x70, 0x00, 0x00, 0x00, 0x48, 0x00, 0x00, 0x00, 0x04, 0x00, 0x00, 0x00, 0x1a, 0xff, 0xff, 0xff, 0x14, 0x00, 0x00, 0x00, 0x00, 0x00, 0x00, 0x08, 0x10, 0x00, 0x00, 0x00, 0x14, 0x00, 0x00, 0x00, 0x03, 0x00, 0x00, 0x00, 0x50, 0xf1, 0xff, 0xff, 0x01, 0x00, 0x00, 0x00, 0x0d, 0x00, 0x00, 0x00, 0x03, 0x00, 0x00, 0x00, 0x0a, 0x00, 0x00, 0x00, 0x0b, 0x00, 0x00, 0x00, 0x0c, 0x00, 0x00, 0x00, 0x00, 0x00, 0x0a, 0x00, 0x10, 0x00, 0x0c, 0x00, 0x08, 0x00, 0x04, 0x00, 0x0a, 0x00, 0x00, 0x00, 0x0c, 0x00, 0x00, 0x00, 0x10, 0x00, 0x00, 0x00, 0x02, 0x00, 0x00, 0x00, 0x01, 0x00, 0x00, 0x00, 0x0a, 0x00, 0x00, 0x00, 0x02, 0x00, 0x00, 0x00, 0x09, 0x00, 0x00, 0x00, 0x01, 0x00, 0x00, 0x00, 0x7e, 0xff, 0xff, 0xff, 0x14, 0x00, 0x00, 0x00, 0x00, 0x00, 0x00, 0x05, 0x24, 0x00, 0x00, 0x00, 0x28, 0x00, 0x00, 0x00, 0x01, 0x00, 0x00, 0x00, 0x6e, 0xff, 0xff, 0xff, 0x02, 0x00, 0x00, 0x00, 0x02, 0x00, 0x00, 0x00, 0x02, 0x00, 0x00, 0x00, 0x02, 0x00, 0x00, 0x00, 0x00, 0x00, 0x00, 0x01, 0x01, 0x00, 0x00, 0x00, 0x09, 0x00, 0x00, 0x00, 0x01, 0x00, 0x00, 0x00, 0x08, 0x00, 0x00, 0x00, 0x5e, 0xff, 0xff, 0xff, 0x10, 0x00, 0x00, 0x00, 0x00, 0x00, 0x00, 0x01, 0x1c, 0x00, 0x00, 0x00, 0x20, 0x00, 0x00, 0x00, 0x50, 0xff, 0xff, 0xff, 0x00, 0x00, 0x00, 0x01, 0x01, 0x00, 0x00, 0x00, 0x01, 0x00, 0x00, 0x00, 0x00, 0x00, 0x00, 0x01, 0x01, 0x00, 0x00, 0x00, 0x08, 0x00, 0x00, 0x00, 0x03, 0x00, 0x00, 0x00, 0x05, 0x00, 0x00, 0x00, 0x06, 0x00, 0x00, 0x00, 0x07, 0x00, 0x00, 0x00, 0x00, 0x00, 0x0e, 0x00, 0x1a, 0x00, 0x14, 0x00, 0x10, 0x00, 0x0c, 0x00, 0x0b, 0x00, 0x04, 0x00, 0x0e, 0x00, 0x00, 0x00, 0x24, 0x00, 0x00, 0x00, 0x00, 0x00, 0x00, 0x05, 0x34, 0x00, 0x00, 0x00, 0x38, 0x00, 0x00, 0x00, 0x01, 0x00, 0x00, 0x00, 0x00, 0x00, 0x0e, 0x00, 0x18, 0x00, 0x17, 0x00, 0x10, 0x00, 0x0c, 0x00, 0x08, 0x00, 0x04, 0x00, 0x0e, 0x00, 0x00, 0x00, 0x02, 0x00, 0x00, 0x00, 0x02, 0x00, 0x00, 0x00, 0x02, 0x00, 0x00, 0x00, 0x02, 0x00, 0x00, 0x00, 0x00, 0x00, 0x00, 0x01, 0x01, 0x00, 0x00, 0x00, 0x05, 0x00, 0x00, 0x00, 0x01, 0x00, 0x00, 0x00, 0x04, 0x00, 0x00, 0x00, 0x00, 0x00, 0x0e, 0x00, 0x14, 0x00, 0x00, 0x00, 0x10, 0x00, 0x0c, 0x00, 0x0b, 0x00, 0x04, 0x00, 0x0e, 0x00, 0x00, 0x00, 0x1c, 0x00, 0x00, 0x00, 0x00, 0x00, 0x00, 0x01, 0x28, 0x00, 0x00, 0x00, 0x2c, 0x00, 0x00, 0x00, 0x0c, 0x00, 0x14, 0x00, 0x13, 0x00, 0x0c, 0x00, 0x08, 0x00, 0x07, 0x00, 0x0c, 0x00, 0x00, 0x00, 0x00, 0x00, 0x00, 0x01, 0x01, 0x00, 0x00, 0x00, 0x01, 0x00, 0x00, 0x00, 0x00, 0x00, 0x00, 0x01, 0x01, 0x00, 0x00, 0x00, 0x04, 0x00, 0x00, 0x00, 0x03, 0x00, 0x00, 0x00, 0x00, 0x00, 0x00, 0x00, 0x02, 0x00, 0x00, 0x00, 0x03, 0x00, 0x00, 0x00, 0x01, 0x00, 0x00, 0x00, 0x0d, 0x00, 0x00, 0x00, 0x01, 0x00, 0x00, 0x00, 0x00, 0x00, 0x00, 0x00, 0x0e, 0x00, 0x00, 0x00, 0x84, 0x0d, 0x00, 0x00, 0xf8, 0x0c, 0x00, 0x00, 0x40, 0x0b, 0x00, 0x00, 0x84, 0x0a, 0x00, 0x00, 0xf8, 0x08, 0x00, 0x00, 0x3c, 0x08, 0x00, 0x00, 0x30, 0x06, 0x00, 0x00, 0x14, 0x05, 0x00, 0x00, 0x80, 0x03, 0x00, 0x00, 0xbc, 0x02, 0x00, 0x00, 0x10, 0x02, 0x00, 0x00, 0xd4, 0x00, 0x00, 0x00, 0x70, 0x00, 0x00, 0x00, 0x04, 0x00, 0x00, 0x00, 0xc8, 0xf2, 0xff, 0xff, 0x18, 0x00, 0x00, 0x00, 0x20, 0x00, 0x00, 0x00, 0x40, 0x00, 0x00, 0x00, 0x0e, 0x00, 0x00, 0x00, 0x00, 0x00, 0x00, 0x09, 0x44, 0x00, 0x00, 0x00, 0x02, 0x00, 0x00, 0x00, 0xff, 0xff, 0xff, 0xff, 0x02, 0x00, 0x00, 0x00, 0xac, 0xf2, 0xff, 0xff, 0x08, 0x00, 0x00, 0x00, 0x14, 0x00, 0x00, 0x00, 0x01, 0x00, 0x00, 0x00, 0xeb, 0xff, 0xff, 0xff, 0xff, 0xff, 0xff, 0xff, 0x00, 0x00, 0x00, 0x00, 0x01, 0x00, 0x00, 0x00, 0xfe, 0x1a, 0x3c, 0x3d, 0x08, 0x00, 0x00, 0x00, 0x49, 0x64, 0x65, 0x6e, 0x74, 0x69, 0x74, 0x79, 0x00, 0x00, 0x00, 0x00, 0x02, 0x00, 0x00, 0x00, 0x01, 0x00, 0x00, 0x00, 0x02, 0x00, 0x00, 0x00, 0xb2, 0xf3, 0xff, 0xff, 0x14, 0x00, 0x00, 0x00, 0x30, 0x00, 0x00, 0x00, 0x0d, 0x00, 0x00, 0x00, 0x00, 0x00, 0x00, 0x02, 0x44, 0x00, 0x00, 0x00, 0x04, 0xf3, 0xff, 0xff, 0x08, 0x00, 0x00, 0x00, 0x10, 0x00, 0x00, 0x00, 0x01, 0x00, 0x00, 0x00, 0x00, 0x00, 0x00, 0x00, 0x00, 0x00, 0x00, 0x00, 0x01, 0x00, 0x00, 0x00, 0xb8, 0xe0, 0x8c, 0x38, 0x1b, 0x00, 0x00, 0x00, 0x73, 0x65, 0x71, 0x75, 0x65, 0x6e, 0x74, 0x69, 0x61, 0x6c, 0x2f, 0x71, 0x75, 0x61, 0x6e, 0x74, 0x5f, 0x64, 0x65, 0x6e, 0x73, 0x65, 0x2f, 0x33, 0x38, 0x32, 0x32, 0x00, 0x01, 0x00, 0x00, 0x00, 0x02, 0x00, 0x00, 0x00, 0x12, 0xf4, 0xff, 0xff, 0x14, 0x00, 0x00, 0x00, 0x34, 0x00, 0x00, 0x00, 0x0c, 0x00, 0x00, 0x00, 0x00, 0x00, 0x00, 0x09, 0x18, 0x01, 0x00, 0x00, 0x64, 0xf3, 0xff, 0xff, 0x08, 0x00, 0x00, 0x00, 0x14, 0x00, 0x00, 0x00, 0x01, 0x00, 0x00, 0x00, 0x00, 0x00, 0x00, 0x00, 0x00, 0x00, 0x00, 0x00, 0x00, 0x00, 0x00, 0x00, 0x01, 0x00, 0x00, 0x00, 0x53, 0x96, 0xfc, 0x3b, 0xe9, 0x00, 0x00, 0x00, 0x4d, 0x61, 0x74, 0x4d, 0x75, 0x6c, 0x3b, 0x73, 0x65, 0x71, 0x75, 0x65, 0x6e, 0x74, 0x69, 0x61, 0x6c, 0x2f, 0x71, 0x75, 0x61, 0x6e, 0x74, 0x5f, 0x64, 0x65, 0x6e, 0x73, 0x65, 0x2f, 0x53, 0x74, 0x61, 0x74, 0x65, 0x66, 0x75, 0x6c, 0x50, 0x61, 0x72, 0x74, 0x69, 0x74, 0x69, 0x6f, 0x6e, 0x65, 0x64, 0x43, 0x61, 0x6c, 0x6c, 0x2f, 0x53, 0x74, 0x61, 0x74, 0x65, 0x66, 0x75, 0x6c, 0x50, 0x61, 0x72, 0x74, 0x69, 0x74, 0x69, 0x6f, 0x6e, 0x65, 0x64, 0x43, 0x61, 0x6c, 0x6c, 0x2f, 0x4d, 0x61, 0x74, 0x4d, 0x75, 0x6c, 0x3b, 0x4c, 0x61, 0x73, 0x74, 0x56, 0x61, 0x6c, 0x75, 0x65, 0x51, 0x75, 0x61, 0x6e, 0x74, 0x2f, 0x46, 0x61, 0x6b, 0x65, 0x51, 0x75, 0x61, 0x6e, 0x74, 0x57, 0x69, 0x74, 0x68, 0x4d, 0x69, 0x6e, 0x4d, 0x61, 0x78, 0x56, 0x61, 0x72, 0x73, 0x3b, 0x73, 0x65, 0x71, 0x75, 0x65, 0x6e, 0x74, 0x69, 0x61, 0x6c, 0x2f, 0x71, 0x75, 0x61, 0x6e, 0x74, 0x5f, 0x64, 0x65, 0x6e, 0x73, 0x65, 0x2f, 0x53, 0x74, 0x61, 0x74, 0x65, 0x66, 0x75, 0x6c, 0x50, 0x61, 0x72, 0x74, 0x69, 0x74, 0x69, 0x6f, 0x6e, 0x65, 0x64, 0x43, 0x61, 0x6c, 0x6c, 0x2f, 0x53, 0x74, 0x61, 0x74, 0x65, 0x66, 0x75, 0x6c, 0x50, 0x61, 0x72, 0x74, 0x69, 0x74, 0x69, 0x6f, 0x6e, 0x65, 0x64, 0x43, 0x61, 0x6c, 0x6c, 0x2f, 0x4c, 0x61, 0x73, 0x74, 0x56, 0x61, 0x6c, 0x75, 0x65, 0x51, 0x75, 0x61, 0x6e, 0x74, 0x2f, 0x46, 0x61, 0x6b, 0x65, 0x51, 0x75, 0x61, 0x6e, 0x74, 0x57, 0x69, 0x74, 0x68, 0x4d, 0x69, 0x6e, 0x4d, 0x61, 0x78, 0x56, 0x61, 0x72, 0x73, 0x00, 0x00, 0x00, 0x02, 0x00, 0x00, 0x00, 0x02, 0x00, 0x00, 0x00, 0x40, 0x02, 0x00, 0x00, 0xc8, 0xf4, 0xff, 0xff, 0x18, 0x00, 0x00, 0x00, 0x20, 0x00, 0x00, 0x00, 0x40, 0x00, 0x00, 0x00, 0x0b, 0x00, 0x00, 0x00, 0x00, 0x00, 0x00, 0x09, 0x84, 0x00, 0x00, 0x00, 0x02, 0x00, 0x00, 0x00, 0xff, 0xff, 0xff, 0xff, 0x40, 0x02, 0x00, 0x00, 0xac, 0xf4, 0xff, 0xff, 0x08, 0x00, 0x00, 0x00, 0x14, 0x00, 0x00, 0x00, 0x01, 0x00, 0x00, 0x00, 0x86, 0xff, 0xff, 0xff, 0xff, 0xff, 0xff, 0xff, 0x00, 0x00, 0x00, 0x00, 0x01, 0x00, 0x00, 0x00, 0x00, 0xc8, 0x0e, 0x3c, 0x48, 0x00, 0x00, 0x00, 0x52, 0x65, 0x73, 0x68, 0x61, 0x70, 0x65, 0x3b, 0x73, 0x65, 0x71, 0x75, 0x65, 0x6e, 0x74, 0x69, 0x61, 0x6c, 0x2f, 0x71, 0x75, 0x61, 0x6e, 0x74, 0x5f, 0x66, 0x6c, 0x61, 0x74, 0x74, 0x65, 0x6e, 0x2f, 0x50, 0x61, 0x72, 0x74, 0x69, 0x74, 0x69, 0x6f, 0x6e, 0x65, 0x64, 0x43, 0x61, 0x6c, 0x6c, 0x2f, 0x50, 0x61, 0x72, 0x74, 0x69, 0x74, 0x69, 0x6f, 0x6e, 0x65, 0x64, 0x43, 0x61, 0x6c, 0x6c, 0x2f, 0x52, 0x65, 0x73, 0x68, 0x61, 0x70, 0x65, 0x00, 0x00, 0x00, 0x00, 0x02, 0x00, 0x00, 0x00, 0x01, 0x00, 0x00, 0x00, 0x40, 0x02, 0x00, 0x00, 0x70, 0xf5, 0xff, 0xff, 0x18, 0x00, 0x00, 0x00, 0x28, 0x00, 0x00, 0x00, 0x48, 0x00, 0x00, 0x00, 0x0a, 0x00, 0x00, 0x00, 0x00, 0x00, 0x00, 0x09, 0x94, 0x00, 0x00, 0x00, 0x04, 0x00, 0x00, 0x00, 0xff, 0xff, 0xff, 0xff, 0x06, 0x00, 0x00, 0x00, 0x06, 0x00, 0x00, 0x00, 0x10, 0x00, 0x00, 0x00, 0x5c, 0xf5, 0xff, 0xff, 0x08, 0x00, 0x00, 0x00, 0x14, 0x00, 0x00, 0x00, 0x01, 0x00, 0x00, 0x00, 0x86, 0xff, 0xff, 0xff, 0xff, 0xff, 0xff, 0xff, 0x00, 0x00, 0x00, 0x00, 0x01, 0x00, 0x00, 0x00, 0x00, 0xc8, 0x0e, 0x3c, 0x50, 0x00, 0x00, 0x00, 0x4d, 0x61, 0x78, 0x50, 0x6f, 0x6f, 0x6c, 0x3b, 0x73, 0x65, 0x71, 0x75, 0x65, 0x6e, 0x74, 0x69, 0x61, 0x6c, 0x2f, 0x71, 0x75, 0x61, 0x6e, 0x74, 0x5f, 0x6d, 0x61, 0x78, 0x5f, 0x70, 0x6f, 0x6f, 0x6c, 0x69, 0x6e, 0x67, 0x32, 0x64, 0x5f, 0x31, 0x2f, 0x50, 0x61, 0x72, 0x74, 0x69, 0x74, 0x69, 0x6f, 0x6e, 0x65, 0x64, 0x43, 0x61, 0x6c, 0x6c, 0x2f, 0x50, 0x61, 0x72, 0x74, 0x69, 0x74, 0x69, 0x6f, 0x6e, 0x65, 0x64, 0x43, 0x61, 0x6c, 0x6c, 0x2f, 0x4d, 0x61, 0x78, 0x50, 0x6f, 0x6f, 0x6c, 0x00, 0x00, 0x00, 0x00, 0x04, 0x00, 0x00, 0x00, 0x01, 0x00, 0x00, 0x00, 0x06, 0x00, 0x00, 0x00, 0x06, 0x00, 0x00, 0x00, 0x10, 0x00, 0x00, 0x00, 0x30, 0xf6, 0xff, 0xff, 0x18, 0x00, 0x00, 0x00, 0x28, 0x00, 0x00, 0x00, 0x44, 0x00, 0x00, 0x00, 0x09, 0x00, 0x00, 0x00, 0x00, 0x00, 0x00, 0x09, 0x64, 0x01, 0x00, 0x00, 0x04, 0x00, 0x00, 0x00, 0xff, 0xff, 0xff, 0xff, 0x0d, 0x00, 0x00, 0x00, 0x0d, 0x00, 0x00, 0x00, 0x10, 0x00, 0x00, 0x00, 0x1c, 0xf6, 0xff, 0xff, 0x08, 0x00, 0x00, 0x00, 0x10, 0x00, 0x00, 0x00, 0x01, 0x00, 0x00, 0x00, 0x86, 0xff, 0xff, 0xff, 0xff, 0xff, 0xff, 0xff, 0x01, 0x00, 0x00, 0x00, 0x00, 0xc8, 0x0e, 0x3c, 0x24, 0x01, 0x00, 0x00, 0x52, 0x65, 0x6c, 0x75, 0x3b, 0x73, 0x65, 0x71, 0x75, 0x65, 0x6e, 0x74, 0x69, 0x61, 0x6c, 0x2f, 0x71, 0x75, 0x61, 0x6e, 0x74, 0x5f, 0x63, 0x6f, 0x6e, 0x76, 0x32, 0x64, 0x5f, 0x31, 0x2f, 0x53, 0x74, 0x61, 0x74, 0x65, 0x66, 0x75, 0x6c, 0x50, 0x61, 0x72, 0x74, 0x69, 0x74, 0x69, 0x6f, 0x6e, 0x65, 0x64, 0x43, 0x61, 0x6c, 0x6c, 0x2f, 0x53, 0x74, 0x61, 0x74, 0x65, 0x66, 0x75, 0x6c, 0x50, 0x61, 0x72, 0x74, 0x69, 0x74, 0x69, 0x6f, 0x6e, 0x65, 0x64, 0x43, 0x61, 0x6c, 0x6c, 0x2f, 0x52, 0x65, 0x6c, 0x75, 0x3b, 0x42, 0x69, 0x61, 0x73, 0x41, 0x64, 0x64, 0x3b, 0x73, 0x65, 0x71, 0x75, 0x65, 0x6e, 0x74, 0x69, 0x61, 0x6c, 0x2f, 0x71, 0x75, 0x61, 0x6e, 0x74, 0x5f, 0x63, 0x6f, 0x6e, 0x76, 0x32, 0x64, 0x5f, 0x31, 0x2f, 0x53, 0x74, 0x61, 0x74, 0x65, 0x66, 0x75, 0x6c, 0x50, 0x61, 0x72, 0x74, 0x69, 0x74, 0x69, 0x6f, 0x6e, 0x65, 0x64, 0x43, 0x61, 0x6c, 0x6c, 0x2f, 0x53, 0x74, 0x61, 0x74, 0x65, 0x66, 0x75, 0x6c, 0x50, 0x61, 0x72, 0x74, 0x69, 0x74, 0x69, 0x6f, 0x6e, 0x65, 0x64, 0x43, 0x61, 0x6c, 0x6c, 0x2f, 0x42, 0x69, 0x61, 0x73, 0x41, 0x64, 0x64, 0x3b, 0x43, 0x6f, 0x6e, 0x76, 0x32, 0x44, 0x3b, 0x73, 0x65, 0x71, 0x75, 0x65, 0x6e, 0x74, 0x69, 0x61, 0x6c, 0x2f, 0x71, 0x75, 0x61, 0x6e, 0x74, 0x5f, 0x63, 0x6f, 0x6e, 0x76, 0x32, 0x64, 0x5f, 0x31, 0x2f, 0x53, 0x74, 0x61, 0x74, 0x65, 0x66, 0x75, 0x6c, 0x50, 0x61, 0x72, 0x74, 0x69, 0x74, 0x69, 0x6f, 0x6e, 0x65, 0x64, 0x43, 0x61, 0x6c, 0x6c, 0x2f, 0x53, 0x74, 0x61, 0x74, 0x65, 0x66, 0x75, 0x6c, 0x50, 0x61, 0x72, 0x74, 0x69, 0x74, 0x69, 0x6f, 0x6e, 0x65, 0x64, 0x43, 0x61, 0x6c, 0x6c, 0x2f, 0x43, 0x6f, 0x6e, 0x76, 0x32, 0x44, 0x3b, 0x73, 0x65, 0x71, 0x75, 0x65, 0x6e, 0x74, 0x69, 0x61, 0x6c, 0x2f, 0x71, 0x75, 0x61, 0x6e, 0x74, 0x5f, 0x63, 0x6f, 0x6e, 0x76, 0x32, 0x64, 0x5f, 0x31, 0x2f, 0x33, 0x38, 0x30, 0x36, 0x00, 0x00, 0x00, 0x00, 0x04, 0x00, 0x00, 0x00, 0x01, 0x00, 0x00, 0x00, 0x0d, 0x00, 0x00, 0x00, 0x0d, 0x00, 0x00, 0x00, 0x10, 0x00, 0x00, 0x00, 0x42, 0xf8, 0xff, 0xff, 0x14, 0x00, 0x00, 0x00, 0xe4, 0x00, 0x00, 0x00, 0x08, 0x00, 0x00, 0x00, 0x00, 0x00, 0x00, 0x02, 0xfc, 0x00, 0x00, 0x00, 0x94, 0xf7, 0xff, 0xff, 0x08, 0x00, 0x00, 0x00, 0x88, 0x00, 0x00, 0x00, 0x10, 0x00, 0x00, 0x00, 0x00, 0x00, 0x00, 0x00, 0x00, 0x00, 0x00, 0x00, 0x00, 0x00, 0x00, 0x00, 0x00, 0x00, 0x00, 0x00, 0x00, 0x00, 0x00, 0x00, 0x00, 0x00, 0x00, 0x00, 0x00, 0x00, 0x00, 0x00, 0x00, 0x00, 0x00, 0x00, 0x00, 0x00, 0x00, 0x00, 0x00, 0x00, 0x00, 0x00, 0x00, 0x00, 0x00, 0x00, 0x00, 0x00, 0x00, 0x00, 0x00, 0x00, 0x00, 0x00, 0x00, 0x00, 0x00, 0x00, 0x00, 0x00, 0x00, 0x00, 0x00, 0x00, 0x00, 0x00, 0x00, 0x00, 0x00, 0x00, 0x00, 0x00, 0x00, 0x00, 0x00, 0x00, 0x00, 0x00, 0x00, 0x00, 0x00, 0x00, 0x00, 0x00, 0x00, 0x00, 0x00, 0x00, 0x00, 0x00, 0x00, 0x00, 0x00, 0x00, 0x00, 0x00, 0x00, 0x00, 0x00, 0x00, 0x00, 0x00, 0x00, 0x00, 0x00, 0x00, 0x00, 0x00, 0x00, 0x00, 0x00, 0x00, 0x00, 0x00, 0x00, 0x00, 0x00, 0x00, 0x00, 0x00, 0x00, 0x00, 0x00, 0x00, 0x00, 0x00, 0x00, 0x00, 0x00, 0x00, 0x10, 0x00, 0x00, 0x00, 0xe1, 0x15, 0x15, 0x38, 0x8e, 0xea, 0x08, 0x38, 0xd6, 0x55, 0x13, 0x38, 0xd2, 0x0f, 0x13, 0x38, 0x87, 0x91, 0xe4, 0x37, 0x7c, 0x73, 0x19, 0x38, 0x58, 0xc3, 0x28, 0x38, 0xa6, 0xa2, 0x08, 0x38, 0xac, 0x8c, 0x0e, 0x38, 0xf3, 0xd7, 0x9b, 0x37, 0x69, 0x77, 0x25, 0x38, 0xb5, 0x7e, 0x07, 0x38, 0x34, 0x84, 0x01, 0x38, 0x42, 0xd8, 0xe9, 0x37, 0x99, 0x93, 0x97, 0x37, 0x6a, 0x1a, 0x17, 0x38, 0x1e, 0x00, 0x00, 0x00, 0x73, 0x65, 0x71, 0x75, 0x65, 0x6e, 0x74, 0x69, 0x61, 0x6c, 0x2f, 0x71, 0x75, 0x61, 0x6e, 0x74, 0x5f, 0x63, 0x6f, 0x6e, 0x76, 0x32, 0x64, 0x5f, 0x31, 0x2f, 0x33, 0x38, 0x30, 0x36, 0x00, 0x00, 0x01, 0x00, 0x00, 0x00, 0x10, 0x00, 0x00, 0x00, 0x5a, 0xf9, 0xff, 0xff, 0x14, 0x00, 0x00, 0x00, 0xe4, 0x00, 0x00, 0x00, 0x07, 0x00, 0x00, 0x00, 0x00, 0x00, 0x00, 0x09, 0xe0, 0x01, 0x00, 0x00, 0xac, 0xf8, 0xff, 0xff, 0x08, 0x00, 0x00, 0x00, 0x88, 0x00, 0x00, 0x00, 0x10, 0x00, 0x00, 0x00, 0x00, 0x00, 0x00, 0x00, 0x00, 0x00, 0x00, 0x00, 0x00, 0x00, 0x00, 0x00, 0x00, 0x00, 0x00, 0x00, 0x00, 0x00, 0x00, 0x00, 0x00, 0x00, 0x00, 0x00, 0x00, 0x00, 0x00, 0x00, 0x00, 0x00, 0x00, 0x00, 0x00, 0x00, 0x00, 0x00, 0x00, 0x00, 0x00, 0x00, 0x00, 0x00, 0x00, 0x00, 0x00, 0x00, 0x00, 0x00, 0x00, 0x00, 0x00, 0x00, 0x00, 0x00, 0x00, 0x00, 0x00, 0x00, 0x00, 0x00, 0x00, 0x00, 0x00, 0x00, 0x00, 0x00, 0x00, 0x00, 0x00, 0x00, 0x00, 0x00, 0x00, 0x00, 0x00, 0x00, 0x00, 0x00, 0x00, 0x00, 0x00, 0x00, 0x00, 0x00, 0x00, 0x00, 0x00, 0x00, 0x00, 0x00, 0x00, 0x00, 0x00, 0x00, 0x00, 0x00, 0x00, 0x00, 0x00, 0x00, 0x00, 0x00, 0x00, 0x00, 0x00, 0x00, 0x00, 0x00, 0x00, 0x00, 0x00, 0x00, 0x00, 0x00, 0x00, 0x00, 0x00, 0x00, 0x00, 0x00, 0x00, 0x00, 0x00, 0x00, 0x00, 0x00, 0x00, 0x00, 0x10, 0x00, 0x00, 0x00, 0x51, 0x03, 0x01, 0x3c, 0xdd, 0xf6, 0xec, 0x3b, 0x31, 0xff, 0xfe, 0x3b, 0x03, 0x86, 0xfe, 0x3b, 0x68, 0xcb, 0xc5, 0x3b, 0x73, 0xca, 0x04, 0x3c, 0x8c, 0x0a, 0x12, 0x3c, 0x69, 0x7a, 0xec, 0x3b, 0xc5, 0xb6, 0xf6, 0x3b, 0x74, 0xdc, 0x86, 0x3b, 0x3d, 0x30, 0x0f, 0x3c, 0x24, 0x81, 0xea, 0x3b, 0x44, 0x28, 0xe0, 0x3b, 0x47, 0x5c, 0xca, 0x3b, 0x2c, 0x2b, 0x83, 0x3b, 0x4f, 0xc2, 0x02, 0x3c, 0x03, 0x01, 0x00, 0x00, 0x43, 0x6f, 0x6e, 0x76, 0x32, 0x44, 0x3b, 0x73, 0x65, 0x71, 0x75, 0x65, 0x6e, 0x74, 0x69, 0x61, 0x6c, 0x2f, 0x71, 0x75, 0x61, 0x6e, 0x74, 0x5f, 0x63, 0x6f, 0x6e, 0x76, 0x32, 0x64, 0x5f, 0x31, 0x2f, 0x53, 0x74, 0x61, 0x74, 0x65, 0x66, 0x75, 0x6c, 0x50, 0x61, 0x72, 0x74, 0x69, 0x74, 0x69, 0x6f, 0x6e, 0x65, 0x64, 0x43, 0x61, 0x6c, 0x6c, 0x2f, 0x53, 0x74, 0x61, 0x74, 0x65, 0x66, 0x75, 0x6c, 0x50, 0x61, 0x72, 0x74, 0x69, 0x74, 0x69, 0x6f, 0x6e, 0x65, 0x64, 0x43, 0x61, 0x6c, 0x6c, 0x2f, 0x43, 0x6f, 0x6e, 0x76, 0x32, 0x44, 0x3b, 0x4c, 0x61, 0x73, 0x74, 0x56, 0x61, 0x6c, 0x75, 0x65, 0x51, 0x75, 0x61, 0x6e, 0x74, 0x2f, 0x46, 0x61, 0x6b, 0x65, 0x51, 0x75, 0x61, 0x6e, 0x74, 0x57, 0x69, 0x74, 0x68, 0x4d, 0x69, 0x6e, 0x4d, 0x61, 0x78, 0x56, 0x61, 0x72, 0x73, 0x50, 0x65, 0x72, 0x43, 0x68, 0x61, 0x6e, 0x6e, 0x65, 0x6c, 0x3b, 0x73, 0x65, 0x71, 0x75, 0x65, 0x6e, 0x74, 0x69, 0x61, 0x6c, 0x2f, 0x71, 0x75, 0x61, 0x6e, 0x74, 0x5f, 0x63, 0x6f, 0x6e, 0x76, 0x32, 0x64, 0x5f, 0x31, 0x2f, 0x53, 0x74, 0x61, 0x74, 0x65, 0x66, 0x75, 0x6c, 0x50, 0x61, 0x72, 0x74, 0x69, 0x74, 0x69, 0x6f, 0x6e, 0x65, 0x64, 0x43, 0x61, 0x6c, 0x6c, 0x2f, 0x53, 0x74, 0x61, 0x74, 0x65, 0x66, 0x75, 0x6c, 0x50, 0x61, 0x72, 0x74, 0x69, 0x74, 0x69, 0x6f, 0x6e, 0x65, 0x64, 0x43, 0x61, 0x6c, 0x6c, 0x2f, 0x4c, 0x61, 0x73, 0x74, 0x56, 0x61, 0x6c, 0x75, 0x65, 0x51, 0x75, 0x61, 0x6e, 0x74, 0x2f, 0x46, 0x61, 0x6b, 0x65, 0x51, 0x75, 0x61, 0x6e, 0x74, 0x57, 0x69, 0x74, 0x68, 0x4d, 0x69, 0x6e, 0x4d, 0x61, 0x78, 0x56, 0x61, 0x72, 0x73, 0x50, 0x65, 0x72, 0x43, 0x68, 0x61, 0x6e, 0x6e, 0x65, 0x6c, 0x00, 0x04, 0x00, 0x00, 0x00, 0x10, 0x00, 0x00, 0x00, 0x03, 0x00, 0x00, 0x00, 0x03, 0x00, 0x00, 0x00, 0x08, 0x00, 0x00, 0x00, 0xe0, 0xfa, 0xff, 0xff, 0x18, 0x00, 0x00, 0x00, 0x28, 0x00, 0x00, 0x00, 0x44, 0x00, 0x00, 0x00, 0x06, 0x00, 0x00, 0x00, 0x00, 0x00, 0x00, 0x09, 0x8c, 0x00, 0x00, 0x00, 0x04, 0x00, 0x00, 0x00, 0xff, 0xff, 0xff, 0xff, 0x0f, 0x00, 0x00, 0x00, 0x0f, 0x00, 0x00, 0x00, 0x08, 0x00, 0x00, 0x00, 0xcc, 0xfa, 0xff, 0xff, 0x08, 0x00, 0x00, 0x00, 0x10, 0x00, 0x00, 0x00, 0x01, 0x00, 0x00, 0x00, 0x8b, 0xff, 0xff, 0xff, 0xff, 0xff, 0xff, 0xff, 0x01, 0x00, 0x00, 0x00, 0x38, 0xea, 0x93, 0x3b, 0x4e, 0x00, 0x00, 0x00, 0x4d, 0x61, 0x78, 0x50, 0x6f, 0x6f, 0x6c, 0x3b, 0x73, 0x65, 0x71, 0x75, 0x65, 0x6e, 0x74, 0x69, 0x61, 0x6c, 0x2f, 0x71, 0x75, 0x61, 0x6e, 0x74, 0x5f, 0x6d, 0x61, 0x78, 0x5f, 0x70, 0x6f, 0x6f, 0x6c, 0x69, 0x6e, 0x67, 0x32, 0x64, 0x2f, 0x50, 0x61, 0x72, 0x74, 0x69, 0x74, 0x69, 0x6f, 0x6e, 0x65, 0x64, 0x43, 0x61, 0x6c, 0x6c, 0x2f, 0x50, 0x61, 0x72, 0x74, 0x69, 0x74, 0x69, 0x6f, 0x6e, 0x65, 0x64, 0x43, 0x61, 0x6c, 0x6c, 0x2f, 0x4d, 0x61, 0x78, 0x50, 0x6f, 0x6f, 0x6c, 0x00, 0x00, 0x04, 0x00, 0x00, 0x00, 0x01, 0x00, 0x00, 0x00, 0x0f, 0x00, 0x00, 0x00, 0x0f, 0x00, 0x00, 0x00, 0x08, 0x00, 0x00, 0x00, 0x98, 0xfb, 0xff, 0xff, 0x18, 0x00, 0x00, 0x00, 0x28, 0x00, 0x00, 0x00, 0x44, 0x00, 0x00, 0x00, 0x05, 0x00, 0x00, 0x00, 0x00, 0x00, 0x00, 0x09, 0x5c, 0x01, 0x00, 0x00, 0x04, 0x00, 0x00, 0x00, 0xff, 0xff, 0xff, 0xff, 0x1e, 0x00, 0x00, 0x00, 0x1e, 0x00, 0x00, 0x00, 0x08, 0x00, 0x00, 0x00, 0x84, 0xfb, 0xff, 0xff, 0x08, 0x00, 0x00, 0x00, 0x10, 0x00, 0x00, 0x00, 0x01, 0x00, 0x00, 0x00, 0x8b, 0xff, 0xff, 0xff, 0xff, 0xff, 0xff, 0xff, 0x01, 0x00, 0x00, 0x00, 0x38, 0xea, 0x93, 0x3b, 0x1c, 0x01, 0x00, 0x00, 0x52, 0x65, 0x6c, 0x75, 0x3b, 0x73, 0x65, 0x71, 0x75, 0x65, 0x6e, 0x74, 0x69, 0x61, 0x6c, 0x2f, 0x71, 0x75, 0x61, 0x6e, 0x74, 0x5f, 0x63, 0x6f, 0x6e, 0x76, 0x32, 0x64, 0x2f, 0x53, 0x74, 0x61, 0x74, 0x65, 0x66, 0x75, 0x6c, 0x50, 0x61, 0x72, 0x74, 0x69, 0x74, 0x69, 0x6f, 0x6e, 0x65, 0x64, 0x43, 0x61, 0x6c, 0x6c, 0x2f, 0x53, 0x74, 0x61, 0x74, 0x65, 0x66, 0x75, 0x6c, 0x50, 0x61, 0x72, 0x74, 0x69, 0x74, 0x69, 0x6f, 0x6e, 0x65, 0x64, 0x43, 0x61, 0x6c, 0x6c, 0x2f, 0x52, 0x65, 0x6c, 0x75, 0x3b, 0x42, 0x69, 0x61, 0x73, 0x41, 0x64, 0x64, 0x3b, 0x73, 0x65, 0x71, 0x75, 0x65, 0x6e, 0x74, 0x69, 0x61, 0x6c, 0x2f, 0x71, 0x75, 0x61, 0x6e, 0x74, 0x5f, 0x63, 0x6f, 0x6e, 0x76, 0x32, 0x64, 0x2f, 0x53, 0x74, 0x61, 0x74, 0x65, 0x66, 0x75, 0x6c, 0x50, 0x61, 0x72, 0x74, 0x69, 0x74, 0x69, 0x6f, 0x6e, 0x65, 0x64, 0x43, 0x61, 0x6c, 0x6c, 0x2f, 0x53, 0x74, 0x61, 0x74, 0x65, 0x66, 0x75, 0x6c, 0x50, 0x61, 0x72, 0x74, 0x69, 0x74, 0x69, 0x6f, 0x6e, 0x65, 0x64, 0x43, 0x61, 0x6c, 0x6c, 0x2f, 0x42, 0x69, 0x61, 0x73, 0x41, 0x64, 0x64, 0x3b, 0x43, 0x6f, 0x6e, 0x76, 0x32, 0x44, 0x3b, 0x73, 0x65, 0x71, 0x75, 0x65, 0x6e, 0x74, 0x69, 0x61, 0x6c, 0x2f, 0x71, 0x75, 0x61, 0x6e, 0x74, 0x5f, 0x63, 0x6f, 0x6e, 0x76, 0x32, 0x64, 0x2f, 0x53, 0x74, 0x61, 0x74, 0x65, 0x66, 0x75, 0x6c, 0x50, 0x61, 0x72, 0x74, 0x69, 0x74, 0x69, 0x6f, 0x6e, 0x65, 0x64, 0x43, 0x61, 0x6c, 0x6c, 0x2f, 0x53, 0x74, 0x61, 0x74, 0x65, 0x66, 0x75, 0x6c, 0x50, 0x61, 0x72, 0x74, 0x69, 0x74, 0x69, 0x6f, 0x6e, 0x65, 0x64, 0x43, 0x61, 0x6c, 0x6c, 0x2f, 0x43, 0x6f, 0x6e, 0x76, 0x32, 0x44, 0x3b, 0x73, 0x65, 0x71, 0x75, 0x65, 0x6e, 0x74, 0x69, 0x61, 0x6c, 0x2f, 0x71, 0x75, 0x61, 0x6e, 0x74, 0x5f, 0x63, 0x6f, 0x6e, 0x76, 0x32, 0x64, 0x2f, 0x33, 0x37, 0x39, 0x31, 0x00, 0x00, 0x00, 0x00, 0x04, 0x00, 0x00, 0x00, 0x01, 0x00, 0x00, 0x00, 0x1e, 0x00, 0x00, 0x00, 0x1e, 0x00, 0x00, 0x00, 0x08, 0x00, 0x00, 0x00, 0xa2, 0xfd, 0xff, 0xff, 0x14, 0x00, 0x00, 0x00, 0x84, 0x00, 0x00, 0x00, 0x04, 0x00, 0x00, 0x00, 0x00, 0x00, 0x00, 0x02, 0x9c, 0x00, 0x00, 0x00, 0xf4, 0xfc, 0xff, 0xff, 0x08, 0x00, 0x00, 0x00, 0x48, 0x00, 0x00, 0x00, 0x08, 0x00, 0x00, 0x00, 0x00, 0x00, 0x00, 0x00, 0x00, 0x00, 0x00, 0x00, 0x00, 0x00, 0x00, 0x00, 0x00, 0x00, 0x00, 0x00, 0x00, 0x00, 0x00, 0x00, 0x00, 0x00, 0x00, 0x00, 0x00, 0x00, 0x00, 0x00, 0x00, 0x00, 0x00, 0x00, 0x00, 0x00, 0x00, 0x00, 0x00, 0x00, 0x00, 0x00, 0x00, 0x00, 0x00, 0x00, 0x00, 0x00, 0x00, 0x00, 0x00, 0x00, 0x00, 0x00, 0x00, 0x00, 0x00, 0x00, 0x00, 0x00, 0x00, 0x00, 0x00, 0x00, 0x00, 0x00, 0x08, 0x00, 0x00, 0x00, 0x73, 0x96, 0x20, 0x38, 0x40, 0x27, 0x1a, 0x38, 0x61, 0x8d, 0x4d, 0x38, 0x9e, 0x6e, 0xc9, 0x37, 0xcd, 0x2f, 0x19, 0x38, 0x15, 0x1d, 0xfc, 0x37, 0x3a, 0x42, 0x22, 0x38, 0x21, 0x0f, 0x46, 0x38, 0x1c, 0x00, 0x00, 0x00, 0x73, 0x65, 0x71, 0x75, 0x65, 0x6e, 0x74, 0x69, 0x61, 0x6c, 0x2f, 0x71, 0x75, 0x61, 0x6e, 0x74, 0x5f, 0x63, 0x6f, 0x6e, 0x76, 0x32, 0x64, 0x2f, 0x33, 0x37, 0x39, 0x31, 0x00, 0x00, 0x00, 0x00, 0x01, 0x00, 0x00, 0x00, 0x08, 0x00, 0x00, 0x00, 0x5a, 0xfe, 0xff, 0xff, 0x14, 0x00, 0x00, 0x00, 0x84, 0x00, 0x00, 0x00, 0x03, 0x00, 0x00, 0x00, 0x00, 0x00, 0x00, 0x09, 0x7c, 0x01, 0x00, 0x00, 0xac, 0xfd, 0xff, 0xff, 0x08, 0x00, 0x00, 0x00, 0x48, 0x00, 0x00, 0x00, 0x08, 0x00, 0x00, 0x00, 0x00, 0x00, 0x00, 0x00, 0x00, 0x00, 0x00, 0x00, 0x00, 0x00, 0x00, 0x00, 0x00, 0x00, 0x00, 0x00, 0x00, 0x00, 0x00, 0x00, 0x00, 0x00, 0x00, 0x00, 0x00, 0x00, 0x00, 0x00, 0x00, 0x00, 0x00, 0x00, 0x00, 0x00, 0x00, 0x00, 0x00, 0x00, 0x00, 0x00, 0x00, 0x00, 0x00, 0x00, 0x00, 0x00, 0x00, 0x00, 0x00, 0x00, 0x00, 0x00, 0x00, 0x00, 0x00, 0x00, 0x00, 0x00, 0x00, 0x00, 0x00, 0x00, 0x00, 0x00, 0x08, 0x00, 0x00, 0x00, 0xdd, 0xf5, 0x1f, 0x3c, 0x19, 0x8d, 0x19, 0x3c, 0xd4, 0xbf, 0x4c, 0x3c, 0x2f, 0xa5, 0xc8, 0x3b, 0x9d, 0x96, 0x18, 0x3c, 0xf8, 0x20, 0xfb, 0x3b, 0xf8, 0x9f, 0x21, 0x3c, 0x12, 0x49, 0x45, 0x3c, 0xff, 0x00, 0x00, 0x00, 0x43, 0x6f, 0x6e, 0x76, 0x32, 0x44, 0x3b, 0x73, 0x65, 0x71, 0x75, 0x65, 0x6e, 0x74, 0x69, 0x61, 0x6c, 0x2f, 0x71, 0x75, 0x61, 0x6e, 0x74, 0x5f, 0x63, 0x6f, 0x6e, 0x76, 0x32, 0x64, 0x2f, 0x53, 0x74, 0x61, 0x74, 0x65, 0x66, 0x75, 0x6c, 0x50, 0x61, 0x72, 0x74, 0x69, 0x74, 0x69, 0x6f, 0x6e, 0x65, 0x64, 0x43, 0x61, 0x6c, 0x6c, 0x2f, 0x53, 0x74, 0x61, 0x74, 0x65, 0x66, 0x75, 0x6c, 0x50, 0x61, 0x72, 0x74, 0x69, 0x74, 0x69, 0x6f, 0x6e, 0x65, 0x64, 0x43, 0x61, 0x6c, 0x6c, 0x2f, 0x43, 0x6f, 0x6e, 0x76, 0x32, 0x44, 0x3b, 0x4c, 0x61, 0x73, 0x74, 0x56, 0x61, 0x6c, 0x75, 0x65, 0x51, 0x75, 0x61, 0x6e, 0x74, 0x2f, 0x46, 0x61, 0x6b, 0x65, 0x51, 0x75, 0x61, 0x6e, 0x74, 0x57, 0x69, 0x74, 0x68, 0x4d, 0x69, 0x6e, 0x4d, 0x61, 0x78, 0x56, 0x61, 0x72, 0x73, 0x50, 0x65, 0x72, 0x43, 0x68, 0x61, 0x6e, 0x6e, 0x65, 0x6c, 0x3b, 0x73, 0x65, 0x71, 0x75, 0x65, 0x6e, 0x74, 0x69, 0x61, 0x6c, 0x2f, 0x71, 0x75, 0x61, 0x6e, 0x74, 0x5f, 0x63, 0x6f, 0x6e, 0x76, 0x32, 0x64, 0x2f, 0x53, 0x74, 0x61, 0x74, 0x65, 0x66, 0x75, 0x6c, 0x50, 0x61, 0x72, 0x74, 0x69, 0x74, 0x69, 0x6f, 0x6e, 0x65, 0x64, 0x43, 0x61, 0x6c, 0x6c, 0x2f, 0x53, 0x74, 0x61, 0x74, 0x65, 0x66, 0x75, 0x6c, 0x50, 0x61, 0x72, 0x74, 0x69, 0x74, 0x69, 0x6f, 0x6e, 0x65, 0x64, 0x43, 0x61, 0x6c, 0x6c, 0x2f, 0x4c, 0x61, 0x73, 0x74, 0x56, 0x61, 0x6c, 0x75, 0x65, 0x51, 0x75, 0x61, 0x6e, 0x74, 0x2f, 0x46, 0x61, 0x6b, 0x65, 0x51, 0x75, 0x61, 0x6e, 0x74, 0x57, 0x69, 0x74, 0x68, 0x4d, 0x69, 0x6e, 0x4d, 0x61, 0x78, 0x56, 0x61, 0x72, 0x73, 0x50, 0x65, 0x72, 0x43, 0x68, 0x61, 0x6e, 0x6e, 0x65, 0x6c, 0x00, 0x04, 0x00, 0x00, 0x00, 0x08, 0x00, 0x00, 0x00, 0x03, 0x00, 0x00, 0x00, 0x03, 0x00, 0x00, 0x00, 0x01, 0x00, 0x00, 0x00, 0x00, 0x00, 0x0e, 0x00, 0x18, 0x00, 0x14, 0x00, 0x13, 0x00, 0x0c, 0x00, 0x08, 0x00, 0x04, 0x00, 0x0e, 0x00, 0x00, 0x00, 0x18, 0x00, 0x00, 0x00, 0x18, 0x00, 0x00, 0x00, 0x02, 0x00, 0x00, 0x00, 0x00, 0x00, 0x00, 0x02, 0x58, 0x00, 0x00, 0x00, 0x04, 0x00, 0x04, 0x00, 0x04, 0x00, 0x00, 0x00, 0x44, 0x00, 0x00, 0x00, 0x43, 0x6f, 0x6e, 0x73, 0x74, 0x3b, 0x73, 0x65, 0x71, 0x75, 0x65, 0x6e, 0x74, 0x69, 0x61, 0x6c, 0x2f, 0x71, 0x75, 0x61, 0x6e, 0x74, 0x5f, 0x66, 0x6c, 0x61, 0x74, 0x74, 0x65, 0x6e, 0x2f, 0x50, 0x61, 0x72, 0x74, 0x69, 0x74, 0x69, 0x6f, 0x6e, 0x65, 0x64, 0x43, 0x61, 0x6c, 0x6c, 0x2f, 0x50, 0x61, 0x72, 0x74, 0x69, 0x74, 0x69, 0x6f, 0x6e, 0x65, 0x64, 0x43, 0x61, 0x6c, 0x6c, 0x2f, 0x43, 0x6f, 0x6e, 0x73, 0x74, 0x00, 0x00, 0x00, 0x00, 0x01, 0x00, 0x00, 0x00, 0x02, 0x00, 0x00, 0x00, 0x14, 0x00, 0x1c, 0x00, 0x18, 0x00, 0x17, 0x00, 0x10, 0x00, 0x0c, 0x00, 0x08, 0x00, 0x00, 0x00, 0x00, 0x00, 0x04, 0x00, 0x14, 0x00, 0x00, 0x00, 0x18, 0x00, 0x00, 0x00, 0x34, 0x00, 0x00, 0x00, 0x50, 0x00, 0x00, 0x00, 0x01, 0x00, 0x00, 0x00, 0x00, 0x00, 0x00, 0x09, 0x50, 0x00, 0x00, 0x00, 0x04, 0x00, 0x00, 0x00, 0xff, 0xff, 0xff, 0xff, 0x20, 0x00, 0x00, 0x00, 0x20, 0x00, 0x00, 0x00, 0x01, 0x00, 0x00, 0x00, 0x0c, 0x00, 0x0c, 0x00, 0x00, 0x00, 0x00, 0x00, 0x08, 0x00, 0x04, 0x00, 0x0c, 0x00, 0x00, 0x00, 0x08, 0x00, 0x00, 0x00, 0x10, 0x00, 0x00, 0x00, 0x01, 0x00, 0x00, 0x00, 0x80, 0xff, 0xff, 0xff, 0xff, 0xff, 0xff, 0xff, 0x01, 0x00, 0x00, 0x00, 0x81, 0x80, 0x80, 0x3b, 0x07, 0x00, 0x00, 0x00, 0x69, 0x6e, 0x70, 0x75, 0x74, 0x5f, 0x31, 0x00, 0x04, 0x00, 0x00, 0x00, 0x01, 0x00, 0x00, 0x00, 0x20, 0x00, 0x00, 0x00, 0x20, 0x00, 0x00, 0x00, 0x01, 0x00, 0x00, 0x00, 0x04, 0x00, 0x00, 0x00, 0x54, 0x00, 0x00, 0x00, 0x34, 0x00, 0x00, 0x00, 0x24, 0x00, 0x00, 0x00, 0x04, 0x00, 0x00, 0x00, 0xc8, 0xff, 0xff, 0xff, 0x09, 0x00, 0x00, 0x00, 0x04, 0x00, 0x00, 0x00, 0x00, 0x00, 0x00, 0x09, 0x0c, 0x00, 0x0c, 0x00, 0x0b, 0x00, 0x00, 0x00, 0x00, 0x00, 0x04, 0x00, 0x0c, 0x00, 0x00, 0x00, 0x16, 0x00, 0x00, 0x00, 0x00, 0x00, 0x00, 0x16, 0xf0, 0xff, 0xff, 0xff, 0x11, 0x00, 0x00, 0x00, 0x02, 0x00, 0x00, 0x00, 0x00, 0x00, 0x00, 0x11, 0x0c, 0x00, 0x10, 0x00, 0x0f, 0x00, 0x00, 0x00, 0x08, 0x00, 0x04, 0x00, 0x0c, 0x00, 0x00, 0x00, 0x03, 0x00, 0x00, 0x00, 0x03, 0x00, 0x00, 0x00, 0x00, 0x00, 0x00, 0x03};
const int model_data_len = 7056;