const unsigned char model_data[] __attribute__((aligned(8))) = {0x20, 0x00, 0x00, 0x00, 0x54, 0x46, 0x4c, 0x33, 0x00, 0x00, 0x00, 0x00, 0x14, 0x00, 0x20, 0x00, 0x1c, 0x00, 0x18, 0x00, 0x14, 0x00, 0x10, 0x00, 0x0c, 0x00, 0x00, 0x00, 0x08, 0x00, 0x04, 0x00, 0x14, 0x00, 0x00, 0x00, 0x1c, 0x00, 0x00, 0x00, 0x1c, 0x00, 0x00, 0x00, 0x4c, 0x00, 0x00, 0x00, 0x98, 0x08, 0x00, 0x00, 0xa8, 0x08, 0x00, 0x00, 0x60, 0x14, 0x00, 0x00, 0x03, 0x00, 0x00, 0x00, 0x00, 0x00, 0x00, 0x00, 0x01, 0x00, 0x00, 0x00, 0x0c, 0x00, 0x00, 0x00, 0x08, 0x00, 0x0c, 0x00, 0x08, 0x00, 0x04, 0x00, 0x08, 0x00, 0x00, 0x00, 0x0f, 0x00, 0x00, 0x00, 0x04, 0x00, 0x00, 0x00, 0x13, 0x00, 0x00, 0x00, 0x6d, 0x69, 0x6e, 0x5f, 0x72, 0x75, 0x6e, 0x74, 0x69, 0x6d, 0x65, 0x5f, 0x76, 0x65, 0x72, 0x73, 0x69, 0x6f, 0x6e, 0x00, 0x10, 0x00, 0x00, 0x00, 0x48, 0x08, 0x00, 0x00, 0x40, 0x08, 0x00, 0x00, 0x28, 0x08, 0x00, 0x00, 0xc8, 0x07, 0x00, 0x00, 0x98, 0x07, 0x00, 0x00, 0x08, 0x03, 0x00, 0x00, 0xb8, 0x02, 0x00, 0x00, 0x68, 0x00, 0x00, 0x00, 0x54, 0x00, 0x00, 0x00, 0x4c, 0x00, 0x00, 0x00, 0x44, 0x00, 0x00, 0x00, 0x3c, 0x00, 0x00, 0x00, 0x34, 0x00, 0x00, 0x00, 0x2c, 0x00, 0x00, 0x00, 0x24, 0x00, 0x00, 0x00, 0x04, 0x00, 0x00, 0x00, 0x16, 0xf8, 0xff, 0xff, 0x04, 0x00, 0x00, 0x00, 0x10, 0x00, 0x00, 0x00, 0x31, 0x2e, 0x31, 0x34, 0x2e, 0x30, 0x00, 0x00, 0x00, 0x00, 0x00, 0x00, 0x00, 0x00, 0x00, 0x00, 0x00, 0xed, 0xff, 0xff, 0x04, 0xed, 0xff, 0xff, 0x08, 0xed, 0xff, 0xff, 0x0c, 0xed, 0xff, 0xff, 0x10, 0xed, 0xff, 0xff, 0x14, 0xed, 0xff, 0xff, 0x4a, 0xf8, 0xff, 0xff, 0x04, 0x00, 0x00, 0x00, 0x04, 0x00, 0x00, 0x00, 0xc2, 0x05, 0x00, 0x00, 0x5a, 0xf8, 0xff, 0xff, 0x04, 0x00, 0x00, 0x00, 0x40, 0x02, 0x00, 0x00, 0x07, 0xff, 0x04, 0x08, 0xf6, 0xee, 0xfd, 0xf6, 0x03, 0x0a, 0x00, 0x04, 0x03, 0xeb, 0x01, 0x01, 0xde, 0xe8, 0xdf, 0x18, 0xe0, 0xd4, 0xd1, 0xde, 0xe2, 0xd8, 0xe2, 0x19, 0xdc, 0xe7, 0xed, 0xcd, 0xeb, 0x04, 0xf4, 0x16, 0xdc, 0xf7, 0x02, 0xe7, 0xf4, 0xd7, 0xf0, 0x0c, 0xef, 0xeb, 0x01, 0xea, 0x0a, 0x10, 0x15, 0x0f, 0x1d, 0x09, 0x0f, 0x09, 0x05, 0x09, 0x17, 0x11, 0x13, 0x1a, 0x04, 0x0c, 0xe5, 0xeb, 0xdd, 0x18, 0xd0, 0xe0, 0xe5, 0xf2, 0xec, 0xc8, 0xe6, 0x0f, 0xda, 0xce, 0xe8, 0xe0, 0xea, 0xf5, 0xed, 0x05, 0xe3, 0xe5, 0xeb, 0xf3, 0xf4, 0xbd, 0xf3, 0x03, 0xdd, 0xcc, 0xee, 0xe4, 0x04, 0x07, 0x04, 0x07, 0x00, 0xf9, 0x00, 0xf7, 0x04, 0x03, 0xfc, 0x07, 0x03, 0x05, 0x07, 0xfe, 0xe0, 0x0a, 0xe6, 0x1d, 0xec, 0xe6, 0xf8, 0xed, 0xe4, 0xe0, 0xec, 0x1c, 0xea, 0xdb, 0xe9, 0xe1, 0xd4, 0xf6, 0xed, 0x0f, 0xe0, 0xdd, 0xf2, 0xe5, 0xea, 0xdc, 0xea, 0x0e, 0xe6, 0xd8, 0xf5, 0xec, 0x11, 0x0a, 0x08, 0x1d, 0x14, 0x0d, 0x04, 0x0b, 0x08, 0xff, 0x05, 0x0b, 0x0f, 0x03, 0x07, 0x0b, 0xc7, 0xd7, 0xde, 0x28, 0xb4, 0xde, 0xcd, 0xe6, 0xed, 0xa2, 0xe0, 0x0a, 0xd7, 0xb5, 0xe4, 0xc1, 0xc0, 0xd8, 0xcd, 0x16, 0xbc, 0xc1, 0xdd, 0xe0, 0xd6, 0x9b, 0xdf, 0x04, 0xc0, 0xa5, 0xd2, 0xc7, 0x02, 0x01, 0x04, 0x0a, 0x09, 0xfe, 0x10, 0xf7, 0x03, 0xfb, 0x04, 0x03, 0x09, 0x06, 0x08, 0x09, 0xfd, 0x11, 0x00, 0x43, 0xf4, 0xff, 0xec, 0xf0, 0xf8, 0xf0, 0xfa, 0x2b, 0xf5, 0xf5, 0xf3, 0xf0, 0xee, 0x02, 0xf9, 0x08, 0xee, 0xef, 0xfd, 0xf6, 0xf2, 0xee, 0xe8, 0x04, 0xe9, 0xe7, 0xe8, 0xe8, 0x18, 0x1b, 0x15, 0xfc, 0x19, 0x23, 0x1a, 0x1b, 0x1e, 0x15, 0x25, 0x08, 0x13, 0x0b, 0x07, 0x16, 0xb0, 0xc3, 0xaf, 0x33, 0x9d, 0xbd, 0xa6, 0xb8, 0xc9, 0x96, 0xcb, 0x1e, 0xa0, 0x81, 0xa7, 0x9e, 0x9d, 0xb7, 0xbc, 0x14, 0xb4, 0xa5, 0xaf, 0xb4, 0xba, 0x90, 0xb2, 0x07, 0xa7, 0xa0, 0xc5, 0xa9, 0xfc, 0xfe, 0xfb, 0x1c, 0x0a, 0x02, 0x11, 0xfa, 0xfc, 0xfc, 0xfe, 0x0e, 0xfe, 0x0e, 0xfe, 0x08, 0xfc, 0x0a, 0x02, 0x4a, 0x07, 0x09, 0x0b, 0x05, 0xff, 0x0d, 0x05, 0x33, 0xf7, 0xfc, 0x07, 0xf9, 0xf9, 0xf9, 0xf9, 0x00, 0xfb, 0x07, 0xfd, 0x0c, 0xff, 0xf0, 0xf3, 0x05, 0xef, 0xf4, 0x05, 0x00, 0x26, 0x31, 0x26, 0x12, 0x1d, 0x1b, 0x24, 0x26, 0x1e, 0x2c, 0x2a, 0x1c, 0x1f, 0x19, 0x21, 0x13, 0xa0, 0xd0, 0xbc, 0x39, 0xa5, 0xb4, 0xb6, 0xcb, 0xd3, 0x9f, 0xbc, 0x21, 0xb8, 0xa2, 0xaf, 0xa3, 0xd2, 0xf8, 0xe3, 0x0d, 0xfd, 0xde, 0xf2, 0xe3, 0xe9, 0xca, 0xe1, 0x05, 0xe0, 0xdf, 0xe6, 0xf3, 0xff, 0xff, 0xfe, 0x1e, 0x00, 0xf1, 0xfd, 0xef, 0xff, 0xfb, 0xf2, 0x11, 0xf8, 0xfd, 0x00, 0xfd, 0xfd, 0x04, 0xf8, 0x37, 0xf3, 0x03, 0x00, 0x02, 0xfa, 0xf8, 0x01, 0x07, 0xff, 0x02, 0x04, 0xef, 0xfb, 0xeb, 0xf0, 0x0a, 0xf2, 0xf4, 0xf5, 0x08, 0xf6, 0xff, 0xf6, 0x06, 0xf4, 0xfc, 0xfe, 0xf6, 0x34, 0x1e, 0x29, 0x0b, 0x22, 0x28, 0x18, 0x12, 0x16, 0x3f, 0x13, 0x1b, 0x35, 0x29, 0x1b, 0x0b, 0xce, 0xea, 0xe0, 0x25, 0xd7, 0xde, 0xe6, 0xd9, 0xe7, 0xdb, 0xe7, 0x1d, 0xcb, 0xd1, 0xd1, 0xcc, 0xff, 0xea, 0xfe, 0x14, 0x07, 0xff, 0x00, 0x01, 0x04, 0xeb, 0xf7, 0x09, 0xf6, 0xff, 0x05, 0x02, 0x01, 0x04, 0xfc, 0x12, 0x08, 0xfa, 0xfd, 0xf6, 0x02, 0xfe, 0xfc, 0x0d, 0xfa, 0xfd, 0xfd, 0x02, 0xff, 0xf4, 0x01, 0x37, 0xfa, 0xfa, 0xf2, 0x00, 0xf1, 0x04, 0x08, 0x28, 0xfe, 0x01, 0x00, 0xef, 0xf5, 0xfe, 0xff, 0x0c, 0x13, 0x07, 0x01, 0xfc, 0xfa, 0x0c, 0x07, 0x0f, 0x03, 0x13, 0xff, 0x11, 0x36, 0x27, 0x2a, 0x1c, 0x2b, 0x34, 0x35, 0x25, 0x25, 0x55, 0x1b, 0x14, 0x2d, 0x2b, 0x1a, 0x33, 0xfe, 0x07, 0x0a, 0x0f, 0x00, 0x0f, 0x00, 0xfc, 0x04, 0x0e, 0x0f, 0x14, 0x13, 0x06, 0x01, 0x09, 0xc6, 0xea, 0xcf, 0x1a, 0xcc, 0xd8, 0xc7, 0xea, 0xe6, 0xb6, 0xeb, 0x19, 0xcc, 0xb8, 0xe6, 0xcb, 0xa6, 0xfa, 0xff, 0xff, 0x04, 0x00, 0x00, 0x00, 0x40, 0x00, 0x00, 0x00, 0x67, 0xff, 0xff, 0xff, 0xed, 0xff, 0xff, 0xff, 0xef, 0xff, 0xff, 0xff, 0x49, 0x2a, 0x00, 0x00, 0xe6, 0xff, 0xff, 0xff, 0x3a, 0xff, 0xff, 0xff, 0x12, 0xff, 0xff, 0xff, 0x1e, 0xfe, 0xff, 0xff, 0x97, 0xff, 0xff, 0xff, 0x76, 0xff, 0xff, 0xff, 0xa0, 0xff, 0xff, 0xff, 0xde, 0x2c, 0x00, 0x00, 0xb6, 0xff, 0xff, 0xff, 0xe8, 0xff, 0xff, 0xff, 0x4b, 0x00, 0x00, 0x00, 0x44, 0xff, 0xff, 0xff, 0xf2, 0xfa, 0xff, 0xff, 0x04, 0x00, 0x00, 0x00, 0x80, 0x04, 0x00, 0x00, 0x09, 0x15, 0xf3, 0x0b, 0xf0, 0x25, 0x3c, 0x26, 0x5f, 0x22, 0x58, 0x6c, 0x5c, 0x5f, 0x39, 0x4a, 0x10, 0x6b, 0xf6, 0x2d, 0xff, 0x5f, 0x72, 0x2a, 0x27, 0x0b, 0xf5, 0x07, 0x19, 0x05, 0x27, 0xfb, 0x50, 0x61, 0x73, 0x7f, 0x42, 0x58, 0x62, 0x5a, 0x4a, 0x58, 0x65, 0x7e, 0x70, 0x70, 0x79, 0x52, 0x1f, 0xf9, 0x07, 0x3e, 0xf3, 0x17, 0x1c, 0x19, 0x1e, 0x23, 0x2e, 0x4d, 0x28, 0x1d, 0x3d, 0x4e, 0x46, 0x09, 0x27, 0x2a, 0x28, 0x4b, 0x67, 0x54, 0x11, 0x22, 0x15, 0xda, 0xe8, 0xf4, 0xe5, 0x15, 0x0b, 0x4e, 0x21, 0x2c, 0x33, 0x3c, 0x1e, 0xff, 0xf8, 0x23, 0xda, 0x06, 0xf8, 0x0d, 0xf5, 0x1e, 0x0d, 0x24, 0x2a, 0xf8, 0x2b, 0x12, 0x21, 0xdf, 0x70, 0x67, 0x73, 0x7f, 0x2e, 0x7f, 0x7e, 0x5e, 0x15, 0x28, 0x14, 0x16, 0xfc, 0x3b, 0x21, 0x0e, 0x03, 0x02, 0x2a, 0x2a, 0xe4, 0xf4, 0x15, 0x11, 0x2f, 0x2a, 0x6a, 0x37, 0x3b, 0x5d, 0x54, 0x5e, 0x40, 0x39, 0x1c, 0x0f, 0x0c, 0x30, 0x4f, 0x44, 0xe2, 0xe4, 0x16, 0x22, 0x02, 0x1b, 0x28, 0x1c, 0x4a, 0x44, 0x1d, 0x37, 0x56, 0x2e, 0x54, 0x1e, 0x49, 0x33, 0x2f, 0x08, 0x13, 0x5a, 0x33, 0x07, 0xe5, 0x1e, 0x0f, 0x11, 0xf4, 0x03, 0x5f, 0xfc, 0x68, 0x47, 0x71, 0x74, 0x59, 0x5b, 0x4f, 0x7b, 0x34, 0x64, 0x6b, 0x57, 0x6c, 0x7f, 0x60, 0x72, 0x11, 0x10, 0x26, 0x15, 0xfc, 0xf1, 0x3a, 0x15, 0x2f, 0x32, 0x41, 0x33, 0x08, 0x34, 0x51, 0x30, 0x39, 0x3c, 0x12, 0x50, 0x2c, 0x2b, 0x65, 0x57, 0xfa, 0x0b, 0x15, 0xbd, 0xf0, 0xfc, 0xa9, 0xf6, 0xa0, 0x8a, 0x93, 0x81, 0xa7, 0x8a, 0x89, 0x96, 0xee, 0xca, 0xd3, 0xdf, 0xf2, 0xaa, 0xee, 0xe0, 0xfb, 0x09, 0xed, 0xd7, 0x19, 0x1f, 0xdd, 0x14, 0xb9, 0xcd, 0x98, 0xa6, 0xbe, 0xaa, 0xad, 0xa9, 0x09, 0xc8, 0xde, 0xd7, 0xed, 0xce, 0xfb, 0xe9, 0x1b, 0xfe, 0xec, 0xfc, 0x06, 0x0e, 0xda, 0x16, 0xcf, 0x9f, 0x99, 0x9c, 0xb0, 0x98, 0xb0, 0xb8, 0xa3, 0xbe, 0xd1, 0xde, 0xda, 0x95, 0xb1, 0xb1, 0xf9, 0xf6, 0xd2, 0xf0, 0xf6, 0xee, 0xec, 0x03, 0x32, 0x27, 0x30, 0x15, 0x25, 0x13, 0x34, 0x16, 0x42, 0x1f, 0x2c, 0x28, 0x33, 0x47, 0x39, 0x41, 0x0c, 0xea, 0x13, 0x0b, 0xef, 0xff, 0x0c, 0xf8, 0x46, 0x3b, 0x58, 0x44, 0x4d, 0x4e, 0x50, 0x49, 0x4c, 0x50, 0x49, 0x49, 0x59, 0x7a, 0x7f, 0x60, 0xe3, 0x0d, 0xf1, 0x00, 0xf1, 0xe1, 0x29, 0xe2, 0xfe, 0x07, 0x42, 0x33, 0x24, 0x3a, 0x47, 0x2a, 0x20, 0x15, 0x3a, 0x37, 0x3a, 0x33, 0x49, 0x23, 0xfd, 0xf8, 0x01, 0x1f, 0x0d, 0xf8, 0x44, 0xfa, 0x3e, 0x41, 0x25, 0x1d, 0x45, 0x76, 0x68, 0x4c, 0x39, 0x34, 0x0f, 0x1c, 0x16, 0x1f, 0x3f, 0x14, 0x12, 0xf1, 0x18, 0x42, 0xe9, 0xfb, 0x41, 0xff, 0x47, 0x3e, 0x32, 0x35, 0x3d, 0x7f, 0x79, 0x71, 0x47, 0x54, 0x21, 0x46, 0x4e, 0x72, 0x4e, 0x29, 0x02, 0x13, 0x25, 0x2c, 0xfc, 0xfb, 0x44, 0x06, 0x2e, 0x10, 0x1e, 0x3b, 0x36, 0x18, 0x40, 0x5d, 0x07, 0x25, 0x41, 0x1c, 0x1c, 0x0c, 0x46, 0x47, 0xdd, 0x0b, 0xf9, 0x18, 0xfa, 0xee, 0xf9, 0xed, 0x2d, 0x3f, 0x35, 0x2a, 0x46, 0x3e, 0x49, 0x23, 0x31, 0x54, 0x1e, 0x42, 0x3a, 0x3f, 0x4b, 0x3e, 0xf8, 0xfa, 0xfe, 0x01, 0xfb, 0xfe, 0x15, 0xe6, 0x48, 0x49, 0x3d, 0x3c, 0x58, 0x4f, 0x4d, 0x5b, 0x3a, 0x72, 0x4a, 0x3f, 0x43, 0x6e, 0x7f, 0x64, 0x06, 0xe1, 0x0d, 0xfa, 0xf6, 0xd9, 0x08, 0xff, 0x0a, 0x0c, 0x42, 0x38, 0x0a, 0x0f, 0x3b, 0x48, 0x06, 0x33, 0x20, 0x40, 0x1d, 0x3a, 0x27, 0x36, 0xe7, 0xe1, 0x14, 0x62, 0x1d, 0x01, 0x7f, 0x07, 0x36, 0x38, 0x10, 0x41, 0x25, 0x6c, 0x40, 0x4c, 0x49, 0x06, 0x15, 0x24, 0x19, 0x69, 0x3e, 0x35, 0x0f, 0x01, 0xfe, 0x3d, 0x02, 0xfd, 0x7d, 0x00, 0x13, 0x4b, 0x16, 0x3d, 0x5f, 0x46, 0x3c, 0x53, 0x31, 0x71, 0x4a, 0x4a, 0x5a, 0x75, 0x65, 0x2c, 0xde, 0x23, 0xef, 0x2a, 0x22, 0xf5, 0x5d, 0x0f, 0x25, 0x2e, 0x05, 0x41, 0x11, 0x20, 0x44, 0x5f, 0xfb, 0x04, 0x42, 0x3c, 0x00, 0x3d, 0x18, 0x49, 0xf4, 0x00, 0xf0, 0x17, 0x27, 0x08, 0x1b, 0xf3, 0x25, 0x22, 0x01, 0xf9, 0x08, 0x61, 0x30, 0x21, 0xfd, 0x14, 0x08, 0x14, 0x3c, 0x4e, 0x42, 0x0a, 0x2b, 0x10, 0x45, 0x31, 0x14, 0x02, 0x4b, 0xdf, 0x3f, 0x34, 0x5c, 0x27, 0x65, 0x7e, 0x52, 0x7f, 0x47, 0x63, 0x48, 0x36, 0x73, 0x5c, 0x79, 0x32, 0x2c, 0x14, 0x3c, 0x09, 0x15, 0xeb, 0x5d, 0x17, 0x32, 0xfe, 0x3b, 0x00, 0x40, 0x26, 0x61, 0x29, 0x0f, 0x22, 0x4b, 0x1a, 0x1c, 0x41, 0x62, 0x1b, 0x01, 0x1e, 0xf8, 0x11, 0x1a, 0xf8, 0x49, 0x12, 0x2d, 0x31, 0x43, 0x2e, 0x3b, 0x6e, 0x4c, 0x2d, 0x39, 0x38, 0x23, 0x0e, 0x2c, 0x3c, 0x31, 0x3b, 0x1c, 0x25, 0xf0, 0x34, 0x1b, 0x0b, 0x3b, 0x09, 0x48, 0x78, 0x68, 0x59, 0x66, 0x6c, 0x7e, 0x58, 0x68, 0x53, 0x59, 0x67, 0x65, 0x57, 0x7f, 0x61, 0xfc, 0x0a, 0x1e, 0x33, 0x09, 0xfa, 0x27, 0xf0, 0x4e, 0x10, 0x4c, 0x53, 0x39, 0x5b, 0x66, 0x66, 0x28, 0x35, 0x4c, 0x5a, 0x1f, 0x59, 0x50, 0x39, 0x0d, 0x1b, 0xf6, 0x26, 0xeb, 0x04, 0x23, 0xff, 0x3d, 0x4e, 0x4d, 0x15, 0x1c, 0x5f, 0x2c, 0x27, 0x20, 0x00, 0xf5, 0x3d, 0x1e, 0x42, 0x25, 0x39, 0x03, 0x15, 0x16, 0x54, 0x06, 0x01, 0x34, 0xed, 0x75, 0x7c, 0x42, 0x43, 0x58, 0x49, 0x78, 0x7f, 0x20, 0x44, 0x1f, 0x49, 0x29, 0x58, 0x33, 0x47, 0x03, 0xf2, 0x2a, 0x30, 0x09, 0x0c, 0x48, 0x05, 0x3a, 0x36, 0x36, 0x34, 0x46, 0x1d, 0x1f, 0x32, 0x12, 0xf1, 0x1c, 0x2c, 0x17, 0x05, 0x48, 0x4d, 0xe7, 0xe3, 0xd4, 0x81, 0x0a, 0x1e, 0x96, 0x0a, 0x8f, 0x8a, 0x8f, 0x83, 0x98, 0x87, 0x93, 0xb4, 0xc3, 0xd3, 0xcd, 0xe7, 0xe8, 0xc2, 0xc1, 0xc3, 0x1f, 0xfa, 0x03, 0xf5, 0x03, 0x25, 0xf5, 0x20, 0xec, 0xee, 0x8c, 0xcc, 0xe7, 0xbf, 0xc8, 0xda, 0xcd, 0xdd, 0xc7, 0xd7, 0xeb, 0xd0, 0xbe, 0xc8, 0x0f, 0x1b, 0x0c, 0x11, 0x1f, 0xe5, 0x1c, 0x05, 0xcf, 0xb8, 0xd1, 0xef, 0xbe, 0xc0, 0x99, 0xd9, 0xc6, 0x9d, 0xb8, 0xd9, 0xe0, 0xa8, 0xa5, 0xc6, 0x14, 0xe1, 0x0d, 0x01, 0xf9, 0xed, 0x26, 0x07, 0x46, 0x22, 0x19, 0x23, 0x1b, 0x59, 0x6c, 0x4a, 0x1b, 0x30, 0x06, 0x17, 0xfb, 0x4b, 0x53, 0x45, 0x13, 0x21, 0x0c, 0x11, 0xed, 0x14, 0x38, 0xe3, 0x49, 0x43, 0x3f, 0x68, 0x62, 0x3e, 0x57, 0x77, 0x48, 0x44, 0x33, 0x7f, 0x74, 0x4c, 0x52, 0x74, 0x15, 0x0b, 0xf5, 0x2c, 0xde, 0x01, 0x44, 0xf5, 0x0e, 0xfe, 0x0e, 0x32, 0x1a, 0x2b, 0x40, 0x46, 0x20, 0xf9, 0x2a, 0x4f, 0x0b, 0x22, 0x3a, 0x4a, 0xe7, 0xe6, 0xf2, 0x03, 0xeb, 0xeb, 0x20, 0xfb, 0x29, 0x48, 0x14, 0x24, 0x47, 0x2b, 0x3b, 0x44, 0x29, 0x1d, 0x2a, 0x3d, 0x31, 0x4b, 0x25, 0x3b, 0xe9, 0x16, 0x0b, 0x24, 0xe7, 0x05, 0x15, 0xdb, 0x51, 0x36, 0x48, 0x57, 0x36, 0x3c, 0x45, 0x35, 0x40, 0x7f, 0x32, 0x5f, 0x4c, 0x61, 0x66, 0x38, 0xf3, 0xfe, 0xe9, 0xfb, 0xf4, 0x02, 0x23, 0xe6, 0x1c, 0x14, 0x42, 0x27, 0x1a, 0x08, 0x33, 0x42, 0x17, 0x23, 0x3d, 0x40, 0x28, 0x3a, 0x35, 0x50, 0x09, 0xef, 0x06, 0xf6, 0xe7, 0xf5, 0x3e, 0x0e, 0x1b, 0x51, 0x3a, 0x54, 0x3f, 0x30, 0x7f, 0x3f, 0x31, 0x45, 0x3f, 0x5e, 0x21, 0x39, 0x5a, 0x4d, 0xf7, 0xe5, 0x1c, 0x0d, 0xf8, 0x11, 0x06, 0x01, 0x47, 0x57, 0x2f, 0x2c, 0x42, 0x3b, 0x4a, 0x48, 0x2f, 0x3e, 0x58, 0x62, 0x3f, 0x4b, 0x65, 0x57, 0x00, 0xf2, 0x01, 0xf7, 0x0c, 0x0e, 0x1c, 0xf9, 0x09, 0x17, 0x0f, 0x15, 0x01, 0x2c, 0x1f, 0x38, 0x28, 0xea, 0x42, 0x3b, 0x04, 0x44, 0x52, 0x11, 0xf9, 0xdb, 0xd3, 0x06, 0x03, 0x04, 0x0c, 0xe2, 0x14, 0x1a, 0x51, 0x04, 0x38, 0x56, 0x1a, 0x3b, 0x5c, 0x39, 0x4f, 0x21, 0x5b, 0x7d, 0x51, 0x70, 0xfe, 0x0d, 0x07, 0x2b, 0xeb, 0x00, 0x16, 0x0c, 0x22, 0x0f, 0x52, 0x4b, 0x25, 0x26, 0x38, 0x2e, 0x7f, 0x7f, 0x5a, 0x3a, 0x63, 0x6a, 0x59, 0x5a, 0x1a, 0x03, 0xfc, 0x04, 0x01, 0xe0, 0x1e, 0xea, 0x13, 0x25, 0x23, 0xef, 0x1d, 0xf6, 0x37, 0x0c, 0x00, 0x03, 0x1d, 0x2c, 0x00, 0x19, 0x58, 0x60, 0x7e, 0xff, 0xff, 0xff, 0x04, 0x00, 0x00, 0x00, 0x20, 0x00, 0x00, 0x00, 0x77, 0xfe, 0xff, 0xff, 0x5a, 0xfe, 0xff, 0xff, 0xc1, 0xfe, 0xff, 0xff, 0x6c, 0xfe, 0xff, 0xff, 0xfc, 0xfe, 0xff, 0xff, 0x38, 0xfe, 0xff, 0xff, 0xad, 0xfe, 0xff, 0xff, 0xa2, 0xfe, 0xff, 0xff, 0xaa, 0xff, 0xff, 0xff, 0x04, 0x00, 0x00, 0x00, 0x48, 0x00, 0x00, 0x00, 0x16, 0x2b, 0x3d, 0x3d, 0x5c, 0x48, 0x0a, 0x56, 0x7f, 0xef, 0x3f, 0x19, 0x1f, 0x61, 0x67, 0x35, 0x6b, 0x7f, 0x3f, 0x28, 0x71, 0x0d, 0x7f, 0x37, 0xe6, 0x02, 0x59, 0xef, 0x65, 0x7f, 0x3b, 0x7e, 0x37, 0xca, 0x6e, 0x4b, 0x1b, 0x20, 0x3f, 0x31, 0x33, 0x7f, 0xf1, 0x21, 0x4a, 0x3d, 0x39, 0x34, 0x39, 0x7f, 0x30, 0x27, 0x64, 0x7e, 0x56, 0x7f, 0x6b, 0xca, 0x68, 0x6e, 0xd8, 0x71, 0x3c, 0x48, 0x60, 0x7c, 0x1a, 0x41, 0x7f, 0x27, 0x20, 0x1a, 0x00, 0x00, 0x06, 0x00, 0x08, 0x00, 0x04, 0x00, 0x06, 0x00, 0x00, 0x00, 0x04, 0x00, 0x00, 0x00, 0x08, 0x00, 0x00, 0x00, 0xff, 0xff, 0xff, 0xff, 0x40, 0x02, 0x00, 0x00, 0xe8, 0xf4, 0xff, 0xff, 0xec, 0xf4, 0xff, 0xff, 0x0f, 0x00, 0x00, 0x00, 0x4d, 0x4c, 0x49, 0x52, 0x20, 0x43, 0x6f, 0x6e, 0x76, 0x65, 0x72, 0x74, 0x65, 0x64, 0x2e, 0x00, 0x01, 0x00, 0x00, 0x00, 0x14, 0x00, 0x00, 0x00, 0x00, 0x00, 0x0e, 0x00, 0x18, 0x00, 0x14, 0x00, 0x10, 0x00, 0x0c, 0x00, 0x08, 0x00, 0x04, 0x00, 0x0e, 0x00, 0x00, 0x00, 0x14, 0x00, 0x00, 0x00, 0x1c, 0x00, 0x00, 0x00, 0xd4, 0x01, 0x00, 0x00, 0xd8, 0x01, 0x00, 0x00, 0xdc, 0x01, 0x00, 0x00, 0x04, 0x00, 0x00, 0x00, 0x6d, 0x61, 0x69, 0x6e, 0x00, 0x00, 0x00, 0x00, 0x06, 0x00, 0x00, 0x00, 0x6c, 0x01, 0x00, 0x00, 0x08, 0x01, 0x00, 0x00, 0xb4, 0x00, 0x00, 0x00, 0x70, 0x00, 0x00, 0x00, 0x48, 0x00, 0x00, 0x00, 0x04, 0x00, 0x00, 0x00, 0x1a, 0xff, 0xff, 0xff, 0x14, 0x00, 0x00, 0x00, 0x00, 0x00, 0x00, 0x08, 0x10, 0x00, 0x00, 0x00, 0x14, 0x00, 0x00, 0x00, 0x03, 0x00, 0x00, 0x00, 0x74, 0xf5, 0xff, 0xff, 0x01, 0x00, 0x00, 0x00, 0x0d, 0x00, 0x00, 0x00, 0x03, 0x00, 0x00, 0x00, 0x0c, 0x00, 0x00, 0x00, 0x06, 0x00, 0x00, 0x00, 0x07, 0x00, 0x00, 0x00, 0x00, 0x00, 0x0a, 0x00, 0x10, 0x00, 0x0c, 0x00, 0x08, 0x00, 0x04, 0x00, 0x0a, 0x00, 0x00, 0x00, 0x0c, 0x00, 0x00, 0x00, 0x10, 0x00, 0x00, 0x00, 0x02, 0x00, 0x00, 0x00, 0x01, 0x00, 0x00, 0x00, 0x0c, 0x00, 0x00, 0x00, 0x02, 0x00, 0x00, 0x00, 0x0b, 0x00, 0x00, 0x00, 0x01, 0x00, 0x00, 0x00, 0x7e, 0xff, 0xff, 0xff, 0x14, 0x00, 0x00, 0x00, 0x00, 0x00, 0x00, 0x05, 0x24, 0x00, 0x00, 0x00, 0x28, 0x00, 0x00, 0x00, 0x01, 0x00, 0x00, 0x00, 0x6e, 0xff, 0xff, 0xff, 0x02, 0x00, 0x00, 0x00, 0x02, 0x00, 0x00, 0x00, 0x02, 0x00, 0x00, 0x00, 0x02, 0x00, 0x00, 0x00, 0x00, 0x00, 0x00, 0x01, 0x01, 0x00, 0x00, 0x00, 0x0b, 0x00, 0x00, 0x00, 0x01, 0x00, 0x00, 0x00, 0x0a, 0x00, 0x00, 0x00, 0x5e, 0xff, 0xff, 0xff, 0x10, 0x00, 0x00, 0x00, 0x00, 0x00, 0x00, 0x01, 0x1c, 0x00, 0x00, 0x00, 0x20, 0x00, 0x00, 0x00, 0x50, 0xff, 0xff, 0xff, 0x00, 0x00, 0x00, 0x01, 0x01, 0x00, 0x00, 0x00, 0x01, 0x00, 0x00, 0x00, 0x00, 0x00, 0x00, 0x01, 0x01, 0x00, 0x00, 0x00, 0x0a, 0x00, 0x00, 0x00, 0x03, 0x00, 0x00, 0x00, 0x09, 0x00, 0x00, 0x00, 0x04, 0x00, 0x00, 0x00, 0x05, 0x00, 0x00, 0x00, 0x00, 0x00, 0x0e, 0x00, 0x1a, 0x00, 0x14, 0x00, 0x10, 0x00, 0x0c, 0x00, 0x0b, 0x00, 0x04, 0x00, 0x0e, 0x00, 0x00, 0x00, 0x24, 0x00, 0x00, 0x00, 0x00, 0x00, 0x00, 0x05, 0x34, 0x00, 0x00, 0x00, 0x38, 0x00, 0x00, 0x00, 0x01, 0x00, 0x00, 0x00, 0x00, 0x00, 0x0e, 0x00, 0x18, 0x00, 0x17, 0x00, 0x10, 0x00, 0x0c, 0x00, 0x08, 0x00, 0x04, 0x00, 0x0e, 0x00, 0x00, 0x00, 0x02, 0x00, 0x00, 0x00, 0x02, 0x00, 0x00, 0x00, 0x02, 0x00, 0x00, 0x00, 0x02, 0x00, 0x00, 0x00, 0x00, 0x00, 0x00, 0x01, 0x01, 0x00, 0x00, 0x00, 0x09, 0x00, 0x00, 0x00, 0x01, 0x00, 0x00, 0x00, 0x08, 0x00, 0x00, 0x00, 0x00, 0x00, 0x0e, 0x00, 0x14, 0x00, 0x00, 0x00, 0x10, 0x00, 0x0c, 0x00, 0x0b, 0x00, 0x04, 0x00, 0x0e, 0x00, 0x00, 0x00, 0x1c, 0x00, 0x00, 0x00, 0x00, 0x00, 0x00, 0x01, 0x28, 0x00, 0x00, 0x00, 0x2c, 0x00, 0x00, 0x00, 0x0c, 0x00, 0x14, 0x00, 0x13, 0x00, 0x0c, 0x00, 0x08, 0x00, 0x07, 0x00, 0x0c, 0x00, 0x00, 0x00, 0x00, 0x00, 0x00, 0x01, 0x01, 0x00, 0x00, 0x00, 0x01, 0x00, 0x00, 0x00, 0x00, 0x00, 0x00, 0x01, 0x01, 0x00, 0x00, 0x00, 0x08, 0x00, 0x00, 0x00, 0x03, 0x00, 0x00, 0x00, 0x00, 0x00, 0x00, 0x00, 0x02, 0x00, 0x00, 0x00, 0x03, 0x00, 0x00, 0x00, 0x01, 0x00, 0x00, 0x00, 0x0d, 0x00, 0x00, 0x00, 0x01, 0x00, 0x00, 0x00, 0x00, 0x00, 0x00, 0x00, 0x0e, 0x00, 0x00, 0x00, 0x34, 0x09, 0x00, 0x00, 0xd4, 0x08, 0x00, 0x00, 0x00, 0x08, 0x00, 0x00, 0x2c, 0x07, 0x00, 0x00, 0x08, 0x06, 0x00, 0x00, 0xd4, 0x04, 0x00, 0x00, 0x70, 0x04, 0x00, 0x00, 0xf4, 0x03, 0x00, 0x00, 0x08, 0x03, 0x00, 0x00, 0x74, 0x02, 0x00, 0x00, 0x80, 0x01, 0x00, 0x00, 0xec, 0x00, 0x00, 0x00, 0x70, 0x00, 0x00, 0x00, 0x04, 0x00, 0x00, 0x00, 0x18, 0xf7, 0xff, 0xff, 0x18, 0x00, 0x00, 0x00, 0x20, 0x00, 0x00, 0x00, 0x40, 0x00, 0x00, 0x00, 0x0e, 0x00, 0x00, 0x00, 0x00, 0x00, 0x00, 0x09, 0x44, 0x00, 0x00, 0x00, 0x02, 0x00, 0x00, 0x00, 0xff, 0xff, 0xff, 0xff, 0x01, 0x00, 0x00, 0x00, 0xfc, 0xf6, 0xff, 0xff, 0x08, 0x00, 0x00, 0x00, 0x14, 0x00, 0x00, 0x00, 0x01, 0x00, 0x00, 0x00, 0x5a, 0x00, 0x00, 0x00, 0x00, 0x00, 0x00, 0x00, 0x00, 0x00, 0x00, 0x00, 0x01, 0x00, 0x00, 0x00, 0x28, 0xec, 0x9d, 0x3d, 0x08, 0x00, 0x00, 0x00, 0x49, 0x64, 0x65, 0x6e, 0x74, 0x69, 0x74, 0x79, 0x00, 0x00, 0x00, 0x00, 0x02, 0x00, 0x00, 0x00, 0x01, 0x00, 0x00, 0x00, 0x01, 0x00, 0x00, 0x00, 0x80, 0xf7, 0xff, 0xff, 0x18, 0x00, 0x00, 0x00, 0x20, 0x00, 0x00, 0x00, 0x40, 0x00, 0x00, 0x00, 0x0d, 0x00, 0x00, 0x00, 0x00, 0x00, 0x00, 0x09, 0x54, 0x00, 0x00, 0x00, 0x02, 0x00, 0x00, 0x00, 0xff, 0xff, 0xff, 0xff, 0x40, 0x02, 0x00, 0x00, 0x64, 0xf7, 0xff, 0xff, 0x08, 0x00, 0x00, 0x00, 0x14, 0x00, 0x00, 0x00, 0x01, 0x00, 0x00, 0x00, 0x80, 0xff, 0xff, 0xff, 0xff, 0xff, 0xff, 0xff, 0x00, 0x00, 0x00, 0x00, 0x01, 0x00, 0x00, 0x00, 0x0f, 0x43, 0x1a, 0x3c, 0x1a, 0x00, 0x00, 0x00, 0x73, 0x65, 0x71, 0x75, 0x65, 0x6e, 0x74, 0x69, 0x61, 0x6c, 0x2f, 0x66, 0x6c, 0x61, 0x74, 0x74, 0x65, 0x6e, 0x2f, 0x52, 0x65, 0x73, 0x68, 0x61, 0x70, 0x65, 0x00, 0x00, 0x02, 0x00, 0x00, 0x00, 0x01, 0x00, 0x00, 0x00, 0x40, 0x02, 0x00, 0x00, 0xf8, 0xf7, 0xff, 0xff, 0x18, 0x00, 0x00, 0x00, 0x28, 0x00, 0x00, 0x00, 0x48, 0x00, 0x00, 0x00, 0x0c, 0x00, 0x00, 0x00, 0x00, 0x00, 0x00, 0x09, 0x64, 0x00, 0x00, 0x00, 0x04, 0x00, 0x00, 0x00, 0xff, 0xff, 0xff, 0xff, 0x06, 0x00, 0x00, 0x00, 0x06, 0x00, 0x00, 0x00, 0x10, 0x00, 0x00, 0x00, 0xe4, 0xf7, 0xff, 0xff, 0x08, 0x00, 0x00, 0x00, 0x14, 0x00, 0x00, 0x00, 0x01, 0x00, 0x00, 0x00, 0x80, 0xff, 0xff, 0xff, 0xff, 0xff, 0xff, 0xff, 0x00, 0x00, 0x00, 0x00, 0x01, 0x00, 0x00, 0x00, 0x0f, 0x43, 0x1a, 0x3c, 0x22, 0x00, 0x00, 0x00, 0x73, 0x65, 0x71, 0x75, 0x65, 0x6e, 0x74, 0x69, 0x61, 0x6c, 0x2f, 0x6d, 0x61, 0x78, 0x5f, 0x70, 0x6f, 0x6f, 0x6c, 0x69, 0x6e, 0x67, 0x32, 0x64, 0x5f, 0x31, 0x2f, 0x4d, 0x61, 0x78, 0x50, 0x6f, 0x6f, 0x6c, 0x00, 0x00, 0x04, 0x00, 0x00, 0x00, 0x01, 0x00, 0x00, 0x00, 0x06, 0x00, 0x00, 0x00, 0x06, 0x00, 0x00, 0x00, 0x10, 0x00, 0x00, 0x00, 0x88, 0xf8, 0xff, 0xff, 0x18, 0x00, 0x00, 0x00, 0x28, 0x00, 0x00, 0x00, 0x48, 0x00, 0x00, 0x00, 0x0b, 0x00, 0x00, 0x00, 0x00, 0x00, 0x00, 0x09, 0xc4, 0x00, 0x00, 0x00, 0x04, 0x00, 0x00, 0x00, 0xff, 0xff, 0xff, 0xff, 0x0d, 0x00, 0x00, 0x00, 0x0d, 0x00, 0x00, 0x00, 0x10, 0x00, 0x00, 0x00, 0x74, 0xf8, 0xff, 0xff, 0x08, 0x00, 0x00, 0x00, 0x14, 0x00, 0x00, 0x00, 0x01, 0x00, 0x00, 0x00, 0x80, 0xff, 0xff, 0xff, 0xff, 0xff, 0xff, 0xff, 0x00, 0x00, 0x00, 0x00, 0x01, 0x00, 0x00, 0x00, 0x0f, 0x43, 0x1a, 0x3c, 0x83, 0x00, 0x00, 0x00, 0x73, 0x65, 0x71, 0x75, 0x65, 0x6e, 0x74, 0x69, 0x61, 0x6c, 0x2f, 0x63, 0x6f, 0x6e, 0x76, 0x32, 0x64, 0x5f, 0x31, 0x2f, 0x52, 0x65, 0x6c, 0x75, 0x3b, 0x73, 0x65, 0x71, 0x75, 0x65, 0x6e, 0x74, 0x69, 0x61, 0x6c, 0x2f, 0x63, 0x6f, 0x6e, 0x76, 0x32, 0x64, 0x5f, 0x31, 0x2f, 0x42, 0x69, 0x61, 0x73, 0x41, 0x64, 0x64, 0x3b, 0x73, 0x65, 0x71, 0x75, 0x65, 0x6e, 0x74, 0x69, 0x61, 0x6c, 0x2f, 0x63, 0x6f, 0x6e, 0x76, 0x32, 0x64, 0x5f, 0x31, 0x2f, 0x43, 0x6f, 0x6e, 0x76, 0x32, 0x44, 0x3b, 0x73, 0x65, 0x71, 0x75, 0x65, 0x6e, 0x74, 0x69, 0x61, 0x6c, 0x2f, 0x63, 0x6f, 0x6e, 0x76, 0x32, 0x64, 0x5f, 0x31, 0x2f, 0x42, 0x69, 0x61, 0x73, 0x41, 0x64, 0x64, 0x2f, 0x52, 0x65, 0x61, 0x64, 0x56, 0x61, 0x72, 0x69, 0x61, 0x62, 0x6c, 0x65, 0x4f, 0x70, 0x2f, 0x72, 0x65, 0x73, 0x6f, 0x75, 0x72, 0x63, 0x65, 0x00, 0x04, 0x00, 0x00, 0x00, 0x01, 0x00, 0x00, 0x00, 0x0d, 0x00, 0x00, 0x00, 0x0d, 0x00, 0x00, 0x00, 0x10, 0x00, 0x00, 0x00, 0x78, 0xf9, 0xff, 0xff, 0x18, 0x00, 0x00, 0x00, 0x28, 0x00, 0x00, 0x00, 0x48, 0x00, 0x00, 0x00, 0x0a, 0x00, 0x00, 0x00, 0x00, 0x00, 0x00, 0x09, 0x64, 0x00, 0x00, 0x00, 0x04, 0x00, 0x00, 0x00, 0xff, 0xff, 0xff, 0xff, 0x0f, 0x00, 0x00, 0x00, 0x0f, 0x00, 0x00, 0x00, 0x08, 0x00, 0x00, 0x00, 0x64, 0xf9, 0xff, 0xff, 0x08, 0x00, 0x00, 0x00, 0x14, 0x00, 0x00, 0x00, 0x01, 0x00, 0x00, 0x00, 0x80, 0xff, 0xff, 0xff, 0xff, 0xff, 0xff, 0xff, 0x00, 0x00, 0x00, 0x00, 0x01, 0x00, 0x00, 0x00, 0x1a, 0x35, 0x6e, 0x3b, 0x20, 0x00, 0x00, 0x00, 0x73, 0x65, 0x71, 0x75, 0x65, 0x6e, 0x74, 0x69, 0x61, 0x6c, 0x2f, 0x6d, 0x61, 0x78, 0x5f, 0x70, 0x6f, 0x6f, 0x6c, 0x69, 0x6e, 0x67, 0x32, 0x64, 0x2f, 0x4d, 0x61, 0x78, 0x50, 0x6f, 0x6f, 0x6c, 0x00, 0x00, 0x00, 0x00, 0x04, 0x00, 0x00, 0x00, 0x01, 0x00, 0x00, 0x00, 0x0f, 0x00, 0x00, 0x00, 0x0f, 0x00, 0x00, 0x00, 0x08, 0x00, 0x00, 0x00, 0x08, 0xfa, 0xff, 0xff, 0x18, 0x00, 0x00, 0x00, 0x28, 0x00, 0x00, 0x00, 0x48, 0x00, 0x00, 0x00, 0x09, 0x00, 0x00, 0x00, 0x00, 0x00, 0x00, 0x09, 0xbc, 0x00, 0x00, 0x00, 0x04, 0x00, 0x00, 0x00, 0xff, 0xff, 0xff, 0xff, 0x1e, 0x00, 0x00, 0x00, 0x1e, 0x00, 0x00, 0x00, 0x08, 0x00, 0x00, 0x00, 0xf4, 0xf9, 0xff, 0xff, 0x08, 0x00, 0x00, 0x00, 0x14, 0x00, 0x00, 0x00, 0x01, 0x00, 0x00, 0x00, 0x80, 0xff, 0xff, 0xff, 0xff, 0xff, 0xff, 0xff, 0x00, 0x00, 0x00, 0x00, 0x01, 0x00, 0x00, 0x00, 0x1a, 0x35, 0x6e, 0x3b, 0x7b, 0x00, 0x00, 0x00, 0x73, 0x65, 0x71, 0x75, 0x65, 0x6e, 0x74, 0x69, 0x61, 0x6c, 0x2f, 0x63, 0x6f, 0x6e, 0x76, 0x32, 0x64, 0x2f, 0x52, 0x65, 0x6c, 0x75, 0x3b, 0x73, 0x65, 0x71, 0x75, 0x65, 0x6e, 0x74, 0x69, 0x61, 0x6c, 0x2f, 0x63, 0x6f, 0x6e, 0x76, 0x32, 0x64, 0x2f, 0x42, 0x69, 0x61, 0x73, 0x41, 0x64, 0x64, 0x3b, 0x73, 0x65, 0x71, 0x75, 0x65, 0x6e, 0x74, 0x69, 0x61, 0x6c, 0x2f, 0x63, 0x6f, 0x6e, 0x76, 0x32, 0x64, 0x2f, 0x43, 0x6f, 0x6e, 0x76, 0x32, 0x44, 0x3b, 0x73, 0x65, 0x71, 0x75, 0x65, 0x6e, 0x74, 0x69, 0x61, 0x6c, 0x2f, 0x63, 0x6f, 0x6e, 0x76, 0x32, 0x64, 0x2f, 0x42, 0x69, 0x61, 0x73, 0x41, 0x64, 0x64, 0x2f, 0x52, 0x65, 0x61, 0x64, 0x56, 0x61, 0x72, 0x69, 0x61, 0x62, 0x6c, 0x65, 0x4f, 0x70, 0x2f, 0x72, 0x65, 0x73, 0x6f, 0x75, 0x72, 0x63, 0x65, 0x00, 0x04, 0x00, 0x00, 0x00, 0x01, 0x00, 0x00, 0x00, 0x1e, 0x00, 0x00, 0x00, 0x1e, 0x00, 0x00, 0x00, 0x08, 0x00, 0x00, 0x00, 0x46, 0xfb, 0xff, 0xff, 0x14, 0x00, 0x00, 0x00, 0x30, 0x00, 0x00, 0x00, 0x08, 0x00, 0x00, 0x00, 0x00, 0x00, 0x00, 0x02, 0x5c, 0x00, 0x00, 0x00, 0xc4, 0xfa, 0xff, 0xff, 0x08, 0x00, 0x00, 0x00, 0x10, 0x00, 0x00, 0x00, 0x01, 0x00, 0x00, 0x00, 0x00, 0x00, 0x00, 0x00, 0x00, 0x00, 0x00, 0x00, 0x01, 0x00, 0x00, 0x00, 0xea, 0x34, 0xa1, 0x38, 0x30, 0x00, 0x00, 0x00, 0x73, 0x65, 0x71, 0x75, 0x65, 0x6e, 0x74, 0x69, 0x61, 0x6c, 0x2f, 0x64, 0x65, 0x6e, 0x73, 0x65, 0x2f, 0x42, 0x69, 0x61, 0x73, 0x41, 0x64, 0x64, 0x2f, 0x52, 0x65, 0x61, 0x64, 0x56, 0x61, 0x72, 0x69, 0x61, 0x62, 0x6c, 0x65, 0x4f, 0x70, 0x2f, 0x72, 0x65, 0x73, 0x6f, 0x75, 0x72, 0x63, 0x65, 0x00, 0x00, 0x00, 0x00, 0x01, 0x00, 0x00, 0x00, 0x01, 0x00, 0x00, 0x00, 0xbe, 0xfb, 0xff, 0xff, 0x14, 0x00, 0x00, 0x00, 0x30, 0x00, 0x00, 0x00, 0x07, 0x00, 0x00, 0x00, 0x00, 0x00, 0x00, 0x09, 0x40, 0x00, 0x00, 0x00, 0x3c, 0xfb, 0xff, 0xff, 0x08, 0x00, 0x00, 0x00, 0x10, 0x00, 0x00, 0x00, 0x01, 0x00, 0x00, 0x00, 0x00, 0x00, 0x00, 0x00, 0x00, 0x00, 0x00, 0x00, 0x01, 0x00, 0x00, 0x00, 0x30, 0xc3, 0x05, 0x3c, 0x17, 0x00, 0x00, 0x00, 0x73, 0x65, 0x71, 0x75, 0x65, 0x6e, 0x74, 0x69, 0x61, 0x6c, 0x2f, 0x64, 0x65, 0x6e, 0x73, 0x65, 0x2f, 0x4d, 0x61, 0x74, 0x4d, 0x75, 0x6c, 0x00, 0x02, 0x00, 0x00, 0x00, 0x01, 0x00, 0x00, 0x00, 0x40, 0x02, 0x00, 0x00, 0x1e, 0xfc, 0xff, 0xff, 0x14, 0x00, 0x00, 0x00, 0xe8, 0x00, 0x00, 0x00, 0x06, 0x00, 0x00, 0x00, 0x00, 0x00, 0x00, 0x02, 0x14, 0x01, 0x00, 0x00, 0x9c, 0xfb, 0xff, 0xff, 0x08, 0x00, 0x00, 0x00, 0x8c, 0x00, 0x00, 0x00, 0x10, 0x00, 0x00, 0x00, 0x00, 0x00, 0x00, 0x00, 0x00, 0x00, 0x00, 0x00, 0x00, 0x00, 0x00, 0x00, 0x00, 0x00, 0x00, 0x00, 0x00, 0x00, 0x00, 0x00, 0x00, 0x00, 0x00, 0x00, 0x00, 0x00, 0x00, 0x00, 0x00, 0x00, 0x00, 0x00, 0x00, 0x00, 0x00, 0x00, 0x00, 0x00, 0x00, 0x00, 0x00, 0x00, 0x00, 0x00, 0x00, 0x00, 0x00, 0x00, 0x00, 0x00, 0x00, 0x00, 0x00, 0x00, 0x00, 0x00, 0x00, 0x00, 0x00, 0x00, 0x00, 0x00, 0x00, 0x00, 0x00, 0x00, 0x00, 0x00, 0x00, 0x00, 0x00, 0x00, 0x00, 0x00, 0x00, 0x00, 0x00, 0x00, 0x00, 0x00, 0x00, 0x00, 0x00, 0x00, 0x00, 0x00, 0x00, 0x00, 0x00, 0x00, 0x00, 0x00, 0x00, 0x00, 0x00, 0x00, 0x00, 0x00, 0x00, 0x00, 0x00, 0x00, 0x00, 0x00, 0x00, 0x00, 0x00, 0x00, 0x00, 0x00, 0x00, 0x00, 0x00, 0x00, 0x00, 0x00, 0x00, 0x00, 0x00, 0x00, 0x00, 0x00, 0x00, 0x00, 0x00, 0x00, 0x00, 0x00, 0x00, 0x00, 0x00, 0x00, 0x10, 0x00, 0x00, 0x00, 0x56, 0xe0, 0x86, 0x37, 0x9b, 0x67, 0x8a, 0x37, 0x06, 0x91, 0x86, 0x37, 0x01, 0x89, 0x94, 0x37, 0x24, 0x00, 0xbd, 0x37, 0x37, 0x74, 0x9e, 0x37, 0x5f, 0xdd, 0x9c, 0x37, 0x40, 0xc3, 0x6e, 0x37, 0x16, 0x44, 0x4f, 0x37, 0xa1, 0xf9, 0x9c, 0x37, 0x86, 0xaf, 0x82, 0x37, 0xc1, 0xb6, 0x7c, 0x37, 0xf4, 0x44, 0x8f, 0x37, 0xab, 0xbc, 0xb8, 0x37, 0xc4, 0xa5, 0x93, 0x37, 0x53, 0xe2, 0x95, 0x37, 0x33, 0x00, 0x00, 0x00, 0x73, 0x65, 0x71, 0x75, 0x65, 0x6e, 0x74, 0x69, 0x61, 0x6c, 0x2f, 0x63, 0x6f, 0x6e, 0x76, 0x32, 0x64, 0x5f, 0x31, 0x2f, 0x42, 0x69, 0x61, 0x73, 0x41, 0x64, 0x64, 0x2f, 0x52, 0x65, 0x61, 0x64, 0x56, 0x61, 0x72, 0x69, 0x61, 0x62, 0x6c, 0x65, 0x4f, 0x70, 0x2f, 0x72, 0x65, 0x73, 0x6f, 0x75, 0x72, 0x63, 0x65, 0x00, 0x01, 0x00, 0x00, 0x00, 0x10, 0x00, 0x00, 0x00, 0x4e, 0xfd, 0xff, 0xff, 0x14, 0x00, 0x00, 0x00, 0xe4, 0x00, 0x00, 0x00, 0x05, 0x00, 0x00, 0x00, 0x00, 0x00, 0x00, 0x09, 0xf8, 0x00, 0x00, 0x00, 0xcc, 0xfc, 0xff, 0xff, 0x08, 0x00, 0x00, 0x00, 0x88, 0x00, 0x00, 0x00, 0x10, 0x00, 0x00, 0x00, 0x00, 0x00, 0x00, 0x00, 0x00, 0x00, 0x00, 0x00, 0x00, 0x00, 0x00, 0x00, 0x00, 0x00, 0x00, 0x00, 0x00, 0x00, 0x00, 0x00, 0x00, 0x00, 0x00, 0x00, 0x00, 0x00, 0x00, 0x00, 0x00, 0x00, 0x00, 0x00, 0x00, 0x00, 0x00, 0x00, 0x00, 0x00, 0x00, 0x00, 0x00, 0x00, 0x00, 0x00, 0x00, 0x00, 0x00, 0x00, 0x00, 0x00, 0x00, 0x00, 0x00, 0x00, 0x00, 0x00, 0x00, 0x00, 0x00, 0x00, 0x00, 0x00, 0x00, 0x00, 0x00, 0x00, 0x00, 0x00, 0x00, 0x00, 0x00, 0x00, 0x00, 0x00, 0x00, 0x00, 0x00, 0x00, 0x00, 0x00, 0x00, 0x00, 0x00, 0x00, 0x00, 0x00, 0x00, 0x00, 0x00, 0x00, 0x00, 0x00, 0x00, 0x00, 0x00, 0x00, 0x00, 0x00, 0x00, 0x00, 0x00, 0x00, 0x00, 0x00, 0x00, 0x00, 0x00, 0x00, 0x00, 0x00, 0x00, 0x00, 0x00, 0x00, 0x00, 0x00, 0x00, 0x00, 0x00, 0x00, 0x00, 0x00, 0x00, 0x00, 0x00, 0x00, 0x00, 0x00, 0x10, 0x00, 0x00, 0x00, 0x62, 0xf3, 0x90, 0x3b, 0x1f, 0xbe, 0x94, 0x3b, 0x25, 0x9e, 0x90, 0x3b, 0x3b, 0xa1, 0x9f, 0x3b, 0x20, 0x1e, 0xcb, 0x3b, 0x1a, 0x4a, 0xaa, 0x3b, 0xdf, 0x94, 0xa8, 0x3b, 0x62, 0x4c, 0x80, 0x3b, 0x56, 0xbf, 0x5e, 0x3b, 0x3d, 0xb3, 0xa8, 0x3b, 0x70, 0x72, 0x8c, 0x3b, 0x85, 0xcb, 0x87, 0x3b, 0x7d, 0xf8, 0x99, 0x3b, 0x21, 0x89, 0xc6, 0x3b, 0x04, 0xad, 0x9e, 0x3b, 0x58, 0x14, 0xa1, 0x3b, 0x1a, 0x00, 0x00, 0x00, 0x73, 0x65, 0x71, 0x75, 0x65, 0x6e, 0x74, 0x69, 0x61, 0x6c, 0x2f, 0x63, 0x6f, 0x6e, 0x76, 0x32, 0x64, 0x5f, 0x31, 0x2f, 0x43, 0x6f, 0x6e, 0x76, 0x32, 0x44, 0x00, 0x00, 0x04, 0x00, 0x00, 0x00, 0x10, 0x00, 0x00, 0x00, 0x03, 0x00, 0x00, 0x00, 0x03, 0x00, 0x00, 0x00, 0x08, 0x00, 0x00, 0x00, 0x6e, 0xfe, 0xff, 0xff, 0x14, 0x00, 0x00, 0x00, 0x88, 0x00, 0x00, 0x00, 0x04, 0x00, 0x00, 0x00, 0x00, 0x00, 0x00, 0x02, 0xb4, 0x00, 0x00, 0x00, 0xec, 0xfd, 0xff, 0xff, 0x08, 0x00, 0x00, 0x00, 0x4c, 0x00, 0x00, 0x00, 0x08, 0x00, 0x00, 0x00, 0x00, 0x00, 0x00, 0x00, 0x00, 0x00, 0x00, 0x00, 0x00, 0x00, 0x00, 0x00, 0x00, 0x00, 0x00, 0x00, 0x00, 0x00, 0x00, 0x00, 0x00, 0x00, 0x00, 0x00, 0x00, 0x00, 0x00, 0x00, 0x00, 0x00, 0x00, 0x00, 0x00, 0x00, 0x00, 0x00, 0x00, 0x00, 0x00, 0x00, 0x00, 0x00, 0x00, 0x00, 0x00, 0x00, 0x00, 0x00, 0x00, 0x00, 0x00, 0x00, 0x00, 0x00, 0x00, 0x00, 0x00, 0x00, 0x00, 0x00, 0x00, 0x00, 0x00, 0x00, 0x00, 0x00, 0x00, 0x00, 0x08, 0x00, 0x00, 0x00, 0x9c, 0xbd, 0xb6, 0x37, 0x33, 0x2f, 0xbd, 0x37, 0xa4, 0xaa, 0xa9, 0x37, 0xae, 0xe4, 0xa6, 0x37, 0x13, 0x3e, 0xc8, 0x37, 0x64, 0x21, 0xaf, 0x37, 0x99, 0xe2, 0x93, 0x37, 0x75, 0x10, 0xc2, 0x37, 0x31, 0x00, 0x00, 0x00, 0x73, 0x65, 0x71, 0x75, 0x65, 0x6e, 0x74, 0x69, 0x61, 0x6c, 0x2f, 0x63, 0x6f, 0x6e, 0x76, 0x32, 0x64, 0x2f, 0x42, 0x69, 0x61, 0x73, 0x41, 0x64, 0x64, 0x2f, 0x52, 0x65, 0x61, 0x64, 0x56, 0x61, 0x72, 0x69, 0x61, 0x62, 0x6c, 0x65, 0x4f, 0x70, 0x2f, 0x72, 0x65, 0x73, 0x6f, 0x75, 0x72, 0x63, 0x65, 0x00, 0x00, 0x00, 0x01, 0x00, 0x00, 0x00, 0x08, 0x00, 0x00, 0x00, 0x3e, 0xff, 0xff, 0xff, 0x14, 0x00, 0x00, 0x00, 0x84, 0x00, 0x00, 0x00, 0x03, 0x00, 0x00, 0x00, 0x00, 0x00, 0x00, 0x09, 0x98, 0x00, 0x00, 0x00, 0xbc, 0xfe, 0xff, 0xff, 0x08, 0x00, 0x00, 0x00, 0x48, 0x00, 0x00, 0x00, 0x08, 0x00, 0x00, 0x00, 0x00, 0x00, 0x00, 0x00, 0x00, 0x00, 0x00, 0x00, 0x00, 0x00, 0x00, 0x00, 0x00, 0x00, 0x00, 0x00, 0x00, 0x00, 0x00, 0x00, 0x00, 0x00, 0x00, 0x00, 0x00, 0x00, 0x00, 0x00, 0x00, 0x00, 0x00, 0x00, 0x00, 0x00, 0x00, 0x00, 0x00, 0x00, 0x00, 0x00, 0x00, 0x00, 0x00, 0x00, 0x00, 0x00, 0x00, 0x00, 0x00, 0x00, 0x00, 0x00, 0x00, 0x00, 0x00, 0x00, 0x00, 0x00, 0x00, 0x00, 0x00, 0x00, 0x00, 0x00, 0x08, 0x00, 0x00, 0x00, 0xde, 0x06, 0xb6, 0x3b, 0x03, 0x72, 0xbc, 0x3b, 0xf9, 0x00, 0xa9, 0x3b, 0xc9, 0x3d, 0xa6, 0x3b, 0xd4, 0x75, 0xc7, 0x3b, 0x42, 0x72, 0xae, 0x3b, 0xb6, 0x4e, 0x93, 0x3b, 0x64, 0x4e, 0xc1, 0x3b, 0x18, 0x00, 0x00, 0x00, 0x73, 0x65, 0x71, 0x75, 0x65, 0x6e, 0x74, 0x69, 0x61, 0x6c, 0x2f, 0x63, 0x6f, 0x6e, 0x76, 0x32, 0x64, 0x2f, 0x43, 0x6f, 0x6e, 0x76, 0x32, 0x44, 0x00, 0x00, 0x00, 0x00, 0x04, 0x00, 0x00, 0x00, 0x08, 0x00, 0x00, 0x00, 0x03, 0x00, 0x00, 0x00, 0x03, 0x00, 0x00, 0x00, 0x01, 0x00, 0x00, 0x00, 0x00, 0x00, 0x0e, 0x00, 0x18, 0x00, 0x14, 0x00, 0x13, 0x00, 0x0c, 0x00, 0x08, 0x00, 0x04, 0x00, 0x0e, 0x00, 0x00, 0x00, 0x18, 0x00, 0x00, 0x00, 0x18, 0x00, 0x00, 0x00, 0x02, 0x00, 0x00, 0x00, 0x00, 0x00, 0x00, 0x02, 0x2c, 0x00, 0x00, 0x00, 0x04, 0x00, 0x04, 0x00, 0x04, 0x00, 0x00, 0x00, 0x18, 0x00, 0x00, 0x00, 0x73, 0x65, 0x71, 0x75, 0x65, 0x6e, 0x74, 0x69, 0x61, 0x6c, 0x2f, 0x66, 0x6c, 0x61, 0x74, 0x74, 0x65, 0x6e, 0x2f, 0x43, 0x6f, 0x6e, 0x73, 0x74, 0x00, 0x00, 0x00, 0x00, 0x01, 0x00, 0x00, 0x00, 0x02, 0x00, 0x00, 0x00, 0x14, 0x00, 0x1c, 0x00, 0x18, 0x00, 0x17, 0x00, 0x10, 0x00, 0x0c, 0x00, 0x08, 0x00, 0x00, 0x00, 0x00, 0x00, 0x04, 0x00, 0x14, 0x00, 0x00, 0x00, 0x18, 0x00, 0x00, 0x00, 0x34, 0x00, 0x00, 0x00, 0x50, 0x00, 0x00, 0x00, 0x01, 0x00, 0x00, 0x00, 0x00, 0x00, 0x00, 0x09, 0x50, 0x00, 0x00, 0x00, 0x04, 0x00, 0x00, 0x00, 0xff, 0xff, 0xff, 0xff, 0x20, 0x00, 0x00, 0x00, 0x20, 0x00, 0x00, 0x00, 0x01, 0x00, 0x00, 0x00, 0x0c, 0x00, 0x0c, 0x00, 0x00, 0x00, 0x00, 0x00, 0x08, 0x00, 0x04, 0x00, 0x0c, 0x00, 0x00, 0x00, 0x08, 0x00, 0x00, 0x00, 0x10, 0x00, 0x00, 0x00, 0x01, 0x00, 0x00, 0x00, 0x80, 0xff, 0xff, 0xff, 0xff, 0xff, 0xff, 0xff, 0x01, 0x00, 0x00, 0x00, 0x81, 0x80, 0x80, 0x3b, 0x07, 0x00, 0x00, 0x00, 0x69, 0x6e, 0x70, 0x75, 0x74, 0x5f, 0x31, 0x00, 0x04, 0x00, 0x00, 0x00, 0x01, 0x00, 0x00, 0x00, 0x20, 0x00, 0x00, 0x00, 0x20, 0x00, 0x00, 0x00, 0x01, 0x00, 0x00, 0x00, 0x04, 0x00, 0x00, 0x00, 0x54, 0x00, 0x00, 0x00, 0x34, 0x00, 0x00, 0x00, 0x24, 0x00, 0x00, 0x00, 0x04, 0x00, 0x00, 0x00, 0xc8, 0xff, 0xff, 0xff, 0x09, 0x00, 0x00, 0x00, 0x04, 0x00, 0x00, 0x00, 0x00, 0x00, 0x00, 0x09, 0x0c, 0x00, 0x0c, 0x00, 0x0b, 0x00, 0x00, 0x00, 0x00, 0x00, 0x04, 0x00, 0x0c, 0x00, 0x00, 0x00, 0x16, 0x00, 0x00, 0x00, 0x00, 0x00, 0x00, 0x16, 0xf0, 0xff, 0xff, 0xff, 0x11, 0x00, 0x00, 0x00, 0x02, 0x00, 0x00, 0x00, 0x00, 0x00, 0x00, 0x11, 0x0c, 0x00, 0x10, 0x00, 0x0f, 0x00, 0x00, 0x00, 0x08, 0x00, 0x04, 0x00, 0x0c, 0x00, 0x00, 0x00, 0x03, 0x00, 0x00, 0x00, 0x03, 0x00, 0x00, 0x00, 0x00, 0x00, 0x00, 0x03};
const int model_data_len = 5376;