const unsigned char model_data[] __attribute__((aligned(8))) = {0x1c, 0x00, 0x00, 0x00, 0x54, 0x46, 0x4c, 0x33, 0x14, 0x00, 0x20, 0x00, 0x1c, 0x00, 0x18, 0x00, 0x14, 0x00, 0x10, 0x00, 0x0c, 0x00, 0x00, 0x00, 0x08, 0x00, 0x04, 0x00, 0x14, 0x00, 0x00, 0x00, 0x1c, 0x00, 0x00, 0x00, 0x1c, 0x00, 0x00, 0x00, 0x4c, 0x00, 0x00, 0x00, 0xdc, 0x0a, 0x00, 0x00, 0xec, 0x0a, 0x00, 0x00, 0xf4, 0x1a, 0x00, 0x00, 0x03, 0x00, 0x00, 0x00, 0x00, 0x00, 0x00, 0x00, 0x01, 0x00, 0x00, 0x00, 0x0c, 0x00, 0x00, 0x00, 0x08, 0x00, 0x0c, 0x00, 0x08, 0x00, 0x04, 0x00, 0x08, 0x00, 0x00, 0x00, 0x0f, 0x00, 0x00, 0x00, 0x04, 0x00, 0x00, 0x00, 0x13, 0x00, 0x00, 0x00, 0x6d, 0x69, 0x6e, 0x5f, 0x72, 0x75, 0x6e, 0x74, 0x69, 0x6d, 0x65, 0x5f, 0x76, 0x65, 0x72, 0x73, 0x69, 0x6f, 0x6e, 0x00, 0x10, 0x00, 0x00, 0x00, 0x8c, 0x0a, 0x00, 0x00, 0x84, 0x0a, 0x00, 0x00, 0x6c, 0x0a, 0x00, 0x00, 0x0c, 0x0a, 0x00, 0x00, 0xdc, 0x09, 0x00, 0x00, 0xd4, 0x09, 0x00, 0x00, 0xcc, 0x09, 0x00, 0x00, 0x3c, 0x05, 0x00, 0x00, 0xec, 0x04, 0x00, 0x00, 0xe4, 0x04, 0x00, 0x00, 0xdc, 0x04, 0x00, 0x00, 0xd4, 0x04, 0x00, 0x00, 0x44, 0x00, 0x00, 0x00, 0x2c, 0x00, 0x00, 0x00, 0x24, 0x00, 0x00, 0x00, 0x04, 0x00, 0x00, 0x00, 0xd2, 0xf5, 0xff, 0xff, 0x04, 0x00, 0x00, 0x00, 0x10, 0x00, 0x00, 0x00, 0x31, 0x2e, 0x31, 0x34, 0x2e, 0x30, 0x00, 0x00, 0x00, 0x00, 0x00, 0x00, 0x00, 0x00, 0x00, 0x00, 0x98, 0xe6, 0xff, 0xff, 0xf2, 0xf5, 0xff, 0xff, 0x04, 0x00, 0x00, 0x00, 0x08, 0x00, 0x00, 0x00, 0x17, 0x00, 0x00, 0x00, 0xe8, 0xff, 0xff, 0xff, 0x06, 0xf6, 0xff, 0xff, 0x04, 0x00, 0x00, 0x00, 0x80, 0x04, 0x00, 0x00, 0x2c, 0x06, 0xe6, 0x68, 0x05, 0x04, 0x3f, 0xfa, 0x27, 0x06, 0x1e, 0x0a, 0x0a, 0x12, 0x22, 0x2d, 0x0c, 0xf2, 0xdb, 0x5c, 0xee, 0xee, 0x44, 0x13, 0xf7, 0x14, 0x0e, 0x28, 0xe4, 0x0c, 0x12, 0xdb, 0x2c, 0xe4, 0xe9, 0x42, 0xd2, 0xf1, 0x0a, 0x0f, 0x41, 0xf6, 0x0b, 0x1d, 0xf2, 0x00, 0xe6, 0xfc, 0x31, 0xe6, 0xf8, 0x24, 0x0e, 0x0d, 0x11, 0x12, 0xf4, 0xe7, 0x03, 0x5b, 0xf4, 0xff, 0x00, 0x06, 0xd2, 0x23, 0xe2, 0x4e, 0x36, 0x1f, 0x3e, 0x1b, 0x3a, 0xfe, 0x18, 0x00, 0x02, 0xd6, 0x19, 0xdc, 0xde, 0x24, 0x09, 0x20, 0x3e, 0x0c, 0x3b, 0x0f, 0x2e, 0x1b, 0x18, 0x30, 0xdd, 0xe4, 0xe9, 0xc2, 0x19, 0x16, 0x12, 0x25, 0x36, 0x33, 0x2d, 0x4e, 0x5e, 0x61, 0x13, 0xee, 0xf1, 0xe7, 0xeb, 0xcf, 0x0e, 0xfd, 0xd9, 0x5e, 0xd9, 0xce, 0x24, 0xcf, 0x4b, 0x23, 0x14, 0x3b, 0x1b, 0xf6, 0xf3, 0xd0, 0xe8, 0xe2, 0x0f, 0x15, 0xcf, 0x11, 0x0e, 0xa6, 0x28, 0x21, 0xe9, 0xed, 0xc9, 0xc7, 0x02, 0x09, 0xc6, 0xe4, 0xfc, 0x63, 0xe9, 0xe1, 0x0d, 0xd8, 0x0a, 0x14, 0x09, 0x36, 0xe9, 0xe1, 0xbe, 0x10, 0x0e, 0xf1, 0xe6, 0x08, 0x12, 0xfb, 0x26, 0xf3, 0x3f, 0x2a, 0xcc, 0x4c, 0xd8, 0x1c, 0xfb, 0x13, 0x00, 0x45, 0x32, 0x38, 0x3f, 0x55, 0x5a, 0x01, 0x29, 0x27, 0x36, 0x02, 0x08, 0x05, 0x01, 0xec, 0x33, 0x49, 0x27, 0x37, 0x63, 0xfa, 0x36, 0x26, 0x0d, 0x21, 0x0a, 0x3d, 0x0e, 0x0e, 0x52, 0x59, 0x12, 0xec, 0xf0, 0xff, 0x18, 0xf9, 0x2e, 0xd6, 0x31, 0x15, 0x2a, 0xe9, 0xe1, 0xe7, 0x28, 0x06, 0xd2, 0x09, 0xcf, 0x49, 0xbc, 0x1a, 0x0e, 0xc6, 0x46, 0x1d, 0xe8, 0xf2, 0x12, 0xea, 0xe1, 0x0f, 0xfb, 0x18, 0x02, 0xea, 0x14, 0x05, 0xfb, 0xdb, 0x3d, 0x20, 0xee, 0xd4, 0xe0, 0x2b, 0x0f, 0x24, 0xf1, 0x05, 0xfc, 0xf6, 0xf4, 0x1c, 0x2c, 0x0b, 0x32, 0x15, 0xf5, 0x39, 0x01, 0xea, 0xe8, 0xfe, 0x12, 0x4a, 0x10, 0xfd, 0x1a, 0x65, 0x47, 0x2a, 0xef, 0xe2, 0x25, 0xf3, 0xe0, 0x35, 0x1f, 0x52, 0x3d, 0x40, 0x30, 0x1e, 0x2c, 0x1e, 0x08, 0xf8, 0x48, 0x73, 0x0e, 0x06, 0x09, 0x2e, 0xfa, 0x12, 0x0e, 0xee, 0xea, 0x31, 0x3b, 0x03, 0x0f, 0x0d, 0x08, 0x7f, 0xec, 0xeb, 0xde, 0xf5, 0xfb, 0xf5, 0x08, 0xda, 0xc5, 0x0e, 0x05, 0xfb, 0x3d, 0xde, 0x04, 0x50, 0x09, 0x1d, 0xe8, 0xfb, 0xd1, 0xf2, 0x16, 0xfb, 0xcb, 0x2f, 0x41, 0x0f, 0x59, 0xe2, 0x12, 0x59, 0x00, 0x0d, 0xf9, 0xd2, 0x0d, 0xdd, 0x23, 0x16, 0x2c, 0x6a, 0x41, 0x36, 0x77, 0xd0, 0x27, 0x03, 0x02, 0x10, 0xfe, 0xdb, 0xf1, 0x19, 0x41, 0x12, 0x45, 0x40, 0x2c, 0x03, 0x2f, 0x0f, 0x40, 0x4f, 0x2b, 0x55, 0xf2, 0x10, 0x21, 0x17, 0x1d, 0xeb, 0xe3, 0x30, 0x40, 0xfd, 0x2b, 0x07, 0x04, 0xf8, 0xca, 0x1e, 0x17, 0xe1, 0x36, 0x23, 0x19, 0xeb, 0x0f, 0x2b, 0x1a, 0xe3, 0x42, 0xe2, 0x3c, 0xec, 0x24, 0x31, 0xde, 0x06, 0xf7, 0x08, 0xc8, 0xea, 0xca, 0x24, 0x18, 0xde, 0x28, 0xe0, 0x39, 0xfe, 0xc5, 0x30, 0xc2, 0xc3, 0xc5, 0xd7, 0xe7, 0xf0, 0xcd, 0x53, 0xe5, 0x0e, 0x15, 0x01, 0x71, 0x0b, 0xaf, 0x0b, 0xe8, 0xbc, 0xc3, 0x19, 0xfb, 0xef, 0xca, 0x11, 0xbf, 0x10, 0x64, 0x1b, 0x3e, 0x1e, 0xbf, 0x34, 0xda, 0xf7, 0xff, 0x09, 0x03, 0x00, 0xf8, 0x24, 0x13, 0x1e, 0x35, 0x0b, 0x00, 0x07, 0xd4, 0x0f, 0xf9, 0xf9, 0xfe, 0xf7, 0xc4, 0x03, 0xf1, 0x02, 0xe7, 0x29, 0x43, 0xe3, 0xfb, 0xf0, 0x9b, 0xed, 0xd5, 0xcc, 0xc1, 0x0e, 0xf4, 0xc4, 0xf0, 0x0e, 0x05, 0xd4, 0x33, 0xad, 0x18, 0xdb, 0xca, 0x15, 0xbc, 0xc9, 0xb0, 0x08, 0x9b, 0x0c, 0x07, 0x11, 0x09, 0x10, 0x22, 0xc0, 0x02, 0xd8, 0xe1, 0x18, 0xbd, 0xd8, 0xbd, 0xf3, 0xb1, 0xe2, 0xfb, 0x2a, 0xef, 0xd4, 0xeb, 0xb1, 0x0e, 0xcb, 0x18, 0xdf, 0xee, 0xdf, 0xb7, 0xc0, 0xe1, 0xca, 0xf4, 0xd9, 0xd9, 0xd4, 0x52, 0xef, 0x14, 0x24, 0xe7, 0x16, 0xb6, 0xb8, 0xca, 0xea, 0xec, 0x0d, 0xe9, 0x2a, 0x23, 0xee, 0x29, 0xd9, 0xf1, 0x26, 0xc4, 0x10, 0xb7, 0xd6, 0xca, 0xc2, 0xdd, 0xfc, 0xfc, 0xbb, 0x11, 0xf9, 0xbe, 0xf2, 0xef, 0x21, 0xc9, 0xc0, 0xf5, 0x37, 0x14, 0xd2, 0x0d, 0x37, 0x1b, 0x87, 0xf1, 0x0a, 0x03, 0x1a, 0xa4, 0x2e, 0x06, 0xb9, 0xef, 0x1b, 0x2a, 0x20, 0xea, 0x0a, 0x02, 0xe2, 0x26, 0xe0, 0x08, 0x24, 0x13, 0xd8, 0x1c, 0xc4, 0x3b, 0xfe, 0xf1, 0xea, 0xe5, 0xec, 0xef, 0xa7, 0xe1, 0xc2, 0x20, 0xcd, 0x0d, 0xc0, 0xfb, 0xd7, 0x1e, 0x20, 0xf3, 0xce, 0x01, 0xec, 0xdd, 0x86, 0xcd, 0x08, 0xdb, 0x2c, 0xbb, 0xf7, 0x0f, 0xd4, 0x10, 0x15, 0x0f, 0x21, 0xd5, 0x0c, 0x04, 0xdc, 0xcc, 0xcd, 0x04, 0xfa, 0xcc, 0xda, 0xab, 0xcf, 0xf8, 0xf0, 0xeb, 0xf7, 0xf5, 0xe5, 0xbe, 0xbb, 0xa0, 0xc5, 0xd7, 0xfe, 0x09, 0x8b, 0xe8, 0xc0, 0xc7, 0xfc, 0x03, 0xef, 0x47, 0x1a, 0x12, 0xfc, 0x38, 0xff, 0xf0, 0xff, 0xff, 0xd3, 0x1c, 0x13, 0x26, 0x28, 0x2d, 0x32, 0x21, 0x19, 0x33, 0xa5, 0x0d, 0x35, 0xb5, 0x2f, 0xb2, 0x04, 0x27, 0xc1, 0x2c, 0x22, 0x21, 0x40, 0xeb, 0x2c, 0x06, 0x98, 0xca, 0x15, 0xed, 0x21, 0xce, 0xcb, 0x26, 0xd2, 0x23, 0x40, 0xed, 0xe3, 0xfb, 0x1c, 0xef, 0x09, 0x09, 0xd8, 0xac, 0xf6, 0xac, 0xe6, 0xd3, 0xf3, 0x02, 0x32, 0xf4, 0x05, 0xfd, 0xe0, 0xe7, 0x03, 0xe8, 0xc3, 0xea, 0xc0, 0xec, 0xee, 0xeb, 0xbe, 0xdf, 0xde, 0xee, 0x15, 0xea, 0xf5, 0xc1, 0xb1, 0xfc, 0xdc, 0xc3, 0xe6, 0xfd, 0xcf, 0xde, 0xea, 0xb5, 0xc6, 0xba, 0xa2, 0xff, 0x05, 0x22, 0x02, 0x1a, 0x16, 0xd8, 0x05, 0xbf, 0xed, 0x16, 0xbb, 0x14, 0x20, 0x20, 0xca, 0x12, 0x01, 0x0e, 0xaa, 0x09, 0x18, 0xf6, 0x02, 0xe9, 0x3c, 0x3e, 0xfe, 0x4c, 0x00, 0x1d, 0x13, 0xff, 0x05, 0xf0, 0xcc, 0x23, 0xf5, 0xa7, 0x17, 0xc8, 0x20, 0xe8, 0x08, 0x2b, 0x33, 0x31, 0xe4, 0x08, 0xf0, 0x1f, 0xe2, 0xfc, 0xe9, 0xf1, 0x30, 0xdf, 0x2e, 0x0c, 0x11, 0x30, 0xfc, 0xdc, 0x08, 0xa4, 0xc0, 0xf6, 0xcc, 0x10, 0xd8, 0xe8, 0x05, 0xfd, 0xed, 0x00, 0xf5, 0xd2, 0x09, 0xc4, 0xc1, 0x02, 0xc0, 0xbe, 0xf3, 0xda, 0xbd, 0xd3, 0xc4, 0xc0, 0xf0, 0xb6, 0xb3, 0xdd, 0xe2, 0xaf, 0xd3, 0x21, 0xd4, 0xfd, 0xd4, 0xbc, 0xf2, 0xeb, 0x28, 0xb9, 0x99, 0xeb, 0xeb, 0xc6, 0x29, 0xf7, 0xfb, 0x44, 0x2c, 0x19, 0x94, 0x13, 0x15, 0xbc, 0x26, 0xeb, 0xef, 0x2f, 0xb6, 0x09, 0x3c, 0x05, 0xf0, 0x22, 0x08, 0x05, 0x96, 0x04, 0x17, 0xa2, 0xf7, 0xc3, 0xeb, 0x05, 0xc4, 0x02, 0x1e, 0x01, 0xfb, 0xf3, 0xe1, 0x04, 0xdb, 0xfe, 0xf3, 0xe2, 0xd5, 0xa9, 0xa5, 0x26, 0x04, 0x25, 0xf3, 0xe4, 0xf7, 0x1b, 0xdd, 0x15, 0xf3, 0xdc, 0xab, 0xb0, 0xee, 0xe4, 0xb4, 0xdd, 0xa8, 0xbe, 0x0d, 0xf8, 0xeb, 0xc8, 0xe3, 0xe5, 0xae, 0xcd, 0x1d, 0xfb, 0xe6, 0xb3, 0x35, 0x4a, 0xed, 0xf4, 0x1e, 0x28, 0xe2, 0xcb, 0x26, 0x07, 0xdf, 0x13, 0x05, 0xf7, 0x04, 0xd6, 0xf5, 0x23, 0xd9, 0xf2, 0x3b, 0x16, 0xcd, 0xec, 0x30, 0x4c, 0xac, 0xf8, 0x0c, 0x97, 0x1a, 0x9c, 0x31, 0x11, 0xf7, 0x35, 0x29, 0x42, 0x19, 0x25, 0xff, 0x02, 0xa6, 0x3f, 0x07, 0x9b, 0x4f, 0xe0, 0xde, 0x01, 0x19, 0x0e, 0x4b, 0x1a, 0x3a, 0xe5, 0x1a, 0x21, 0xb6, 0x01, 0xcc, 0xac, 0x33, 0x9e, 0x39, 0x21, 0xb4, 0x34, 0x42, 0x1a, 0xe7, 0x0c, 0x0e, 0x1f, 0xbf, 0x47, 0xd5, 0xd1, 0xfb, 0xb1, 0x44, 0x27, 0xc1, 0x46, 0x11, 0xd5, 0xd1, 0x36, 0x1b, 0x14, 0x19, 0x66, 0x0d, 0xc2, 0x11, 0xec, 0x45, 0x4b, 0xe0, 0x29, 0x24, 0x2f, 0x58, 0x33, 0x1a, 0x2f, 0xd4, 0x26, 0xf5, 0x00, 0x4f, 0x26, 0xe8, 0x32, 0x03, 0x08, 0x30, 0x28, 0x1f, 0x17, 0x20, 0x26, 0xfe, 0xd3, 0x48, 0x1e, 0x27, 0x0a, 0xfb, 0x3b, 0x13, 0x2b, 0x0b, 0x2f, 0x56, 0x3c, 0x2e, 0x4a, 0xcd, 0xc3, 0x5b, 0xf2, 0x1a, 0xd2, 0x18, 0x50, 0x22, 0x51, 0x3d, 0x28, 0x4a, 0x58, 0x2b, 0x46, 0xf8, 0xef, 0xee, 0xf9, 0x55, 0x00, 0x15, 0x0f, 0xda, 0x17, 0x01, 0x2a, 0x18, 0x1e, 0x16, 0x31, 0x09, 0x3d, 0x09, 0xdf, 0x1e, 0xc1, 0xf4, 0x4c, 0x1a, 0x3c, 0xff, 0x35, 0xd6, 0x3c, 0xeb, 0xff, 0xff, 0x40, 0xeb, 0xff, 0xff, 0x44, 0xeb, 0xff, 0xff, 0x9e, 0xfa, 0xff, 0xff, 0x04, 0x00, 0x00, 0x00, 0x40, 0x00, 0x00, 0x00, 0xa6, 0xfc, 0xff, 0xff, 0xd8, 0xfd, 0xff, 0xff, 0x75, 0xfe, 0xff, 0xff, 0x20, 0x03, 0x00, 0x00, 0x88, 0xfc, 0xff, 0xff, 0x47, 0xfa, 0xff, 0xff, 0xab, 0x06, 0x00, 0x00, 0xd3, 0xfe, 0xff, 0xff, 0x79, 0x06, 0x00, 0x00, 0x72, 0x00, 0x00, 0x00, 0x9d, 0xfe, 0xff, 0xff, 0xb2, 0x00, 0x00, 0x00, 0x7a, 0x01, 0x00, 0x00, 0xbf, 0x00, 0x00, 0x00, 0x21, 0xff, 0xff, 0xff, 0x88, 0xfd, 0xff, 0xff, 0xea, 0xfa, 0xff, 0xff, 0x04, 0x00, 0x00, 0x00, 0x80, 0x04, 0x00, 0x00, 0x62, 0x68, 0x0f, 0x09, 0x0e, 0x78, 0x48, 0x4c, 0x65, 0xbe, 0x60, 0x7f, 0x61, 0x44, 0xbb, 0x3d, 0xb8, 0x55, 0xe3, 0x1c, 0xb3, 0x1b, 0x51, 0xf5, 0xfd, 0xcb, 0xe7, 0xbf, 0xea, 0xbc, 0x0f, 0xf6, 0xc7, 0xb3, 0x5f, 0x46, 0x91, 0xce, 0x34, 0x0a, 0xab, 0x8d, 0x31, 0x30, 0xf4, 0xac, 0x4c, 0xc7, 0x52, 0xd3, 0xe8, 0x33, 0xc4, 0x39, 0xbb, 0x28, 0xfe, 0x32, 0xc6, 0x2c, 0x04, 0xf0, 0xeb, 0x06, 0x63, 0xc3, 0x87, 0xcd, 0xe7, 0x23, 0x1a, 0xef, 0x18, 0x40, 0x53, 0xdb, 0xdb, 0xbf, 0xe2, 0x6d, 0xb0, 0x2a, 0x05, 0xeb, 0x0b, 0x34, 0x1c, 0xf5, 0xd5, 0x29, 0x9f, 0x05, 0xf7, 0xf5, 0xfb, 0x4d, 0x11, 0x43, 0x24, 0xaa, 0x7b, 0x34, 0xcd, 0xaf, 0x79, 0x41, 0x67, 0x61, 0xe0, 0x53, 0x55, 0x07, 0x06, 0x2e, 0x5e, 0x3b, 0xc7, 0x37, 0x1b, 0xc6, 0xe8, 0xe7, 0x6f, 0x31, 0xc1, 0xea, 0xe1, 0x3c, 0xdd, 0xaa, 0x7f, 0xd9, 0x14, 0x05, 0x14, 0x1f, 0x69, 0x37, 0x25, 0xd6, 0xcd, 0x14, 0x51, 0x4e, 0xa9, 0xe5, 0x41, 0x29, 0x26, 0x4a, 0x3b, 0x59, 0x34, 0x00, 0xc8, 0x08, 0x6f, 0xa9, 0x23, 0xa9, 0x49, 0x04, 0x41, 0xba, 0xef, 0x06, 0x01, 0xb3, 0xc0, 0x4a, 0x10, 0xd9, 0xf9, 0x28, 0x33, 0xf0, 0x41, 0xd7, 0x63, 0x4f, 0x03, 0xee, 0xbe, 0x28, 0xa6, 0x24, 0x52, 0x37, 0x2f, 0x2c, 0xc9, 0x19, 0x70, 0x42, 0x7f, 0x06, 0x04, 0xcf, 0x1b, 0x50, 0x39, 0x50, 0x35, 0x16, 0xbb, 0xfe, 0x14, 0xb2, 0x69, 0x60, 0xc7, 0x78, 0x2a, 0xe2, 0x6d, 0x5b, 0xe2, 0x0e, 0x7f, 0x28, 0xe1, 0x0b, 0x54, 0x22, 0xdc, 0x9d, 0x0a, 0xd5, 0x02, 0xd1, 0xe2, 0x01, 0xe4, 0xb1, 0x08, 0xee, 0xf8, 0xc0, 0x52, 0x52, 0xcc, 0xd8, 0xd6, 0xfc, 0x49, 0x18, 0x59, 0x30, 0xe1, 0xf8, 0xe1, 0xb9, 0x38, 0xde, 0x05, 0x17, 0xeb, 0xa3, 0xdc, 0xb3, 0x02, 0xca, 0x36, 0x19, 0x03, 0xc4, 0xc2, 0xe9, 0x1a, 0x03, 0xde, 0x00, 0x21, 0xaa, 0xb1, 0xb0, 0x51, 0xb7, 0xd7, 0xed, 0xb6, 0x02, 0xdc, 0x03, 0x43, 0xc0, 0xaf, 0xb1, 0x06, 0xfa, 0xb9, 0xbd, 0x0d, 0x13, 0xaf, 0x4c, 0x20, 0xd8, 0x45, 0xa9, 0xaf, 0xac, 0xd4, 0xe7, 0x37, 0x90, 0x0a, 0xf7, 0xea, 0xd2, 0xef, 0x2a, 0x6b, 0xd7, 0x7b, 0xfc, 0xe9, 0x40, 0xbc, 0x00, 0x1e, 0xd3, 0x25, 0xcb, 0x21, 0xf5, 0xd9, 0xe2, 0xe1, 0xbf, 0xe7, 0xdb, 0xf2, 0x3a, 0x48, 0xf4, 0xd8, 0x7e, 0x3c, 0xfc, 0x21, 0xc3, 0x6d, 0xd4, 0xcd, 0x18, 0x7f, 0x61, 0x42, 0x73, 0x62, 0x2c, 0x28, 0x13, 0x3e, 0xf7, 0x38, 0x3d, 0xe3, 0xcf, 0xed, 0xd6, 0xfc, 0xd2, 0xf9, 0xe7, 0x06, 0xcc, 0xff, 0xfd, 0xb9, 0xc9, 0xf9, 0x44, 0x3d, 0x19, 0x40, 0x23, 0xec, 0xee, 0xe6, 0xc8, 0x31, 0xd8, 0x3d, 0xcf, 0x32, 0x0f, 0xba, 0xf5, 0xcd, 0xfe, 0x20, 0xf3, 0xf6, 0xf5, 0xef, 0x5e, 0x5a, 0x4e, 0x26, 0x44, 0xea, 0x4a, 0x35, 0x5e, 0x2f, 0xdc, 0x04, 0x16, 0x2f, 0xeb, 0xd3, 0xb2, 0x02, 0x1d, 0x1a, 0xdf, 0xe9, 0x2c, 0x17, 0xc5, 0x1d, 0x4a, 0xd0, 0x22, 0x7f, 0xf6, 0xfd, 0xd1, 0x45, 0x4e, 0x85, 0x0c, 0xcd, 0xf2, 0x50, 0xd1, 0xaf, 0xdd, 0xda, 0xbb, 0xce, 0xa0, 0x74, 0xb6, 0xc3, 0x85, 0xd7, 0x14, 0xac, 0x00, 0x28, 0x81, 0xe0, 0xb5, 0x04, 0xe2, 0xd4, 0xa9, 0x38, 0x0b, 0xc5, 0x9f, 0x08, 0xc0, 0xaf, 0xc2, 0x6a, 0xcd, 0x89, 0xad, 0xce, 0x06, 0xca, 0x99, 0x39, 0xc8, 0xf0, 0xb1, 0x54, 0xb9, 0x53, 0xf8, 0x11, 0xbb, 0x9a, 0x32, 0x0a, 0xf5, 0x3f, 0x55, 0xc5, 0x02, 0xe8, 0x2b, 0xd3, 0x70, 0xe3, 0x35, 0x28, 0x03, 0xb0, 0xf3, 0xc7, 0xcb, 0x17, 0x78, 0x4b, 0x36, 0x60, 0xee, 0x19, 0x24, 0xba, 0x3a, 0x02, 0x45, 0x0a, 0x16, 0x5e, 0xd3, 0xc5, 0xf6, 0x1b, 0x55, 0x00, 0x03, 0x33, 0xfc, 0xdc, 0x02, 0xdd, 0x0e, 0x7f, 0xeb, 0xc9, 0x0e, 0xd7, 0x13, 0x63, 0xe0, 0xd9, 0x25, 0xe3, 0x5d, 0x25, 0x27, 0x3d, 0x23, 0x4b, 0xe4, 0xcd, 0x6c, 0xae, 0xee, 0x60, 0xec, 0x31, 0x37, 0x4c, 0x66, 0xdc, 0x61, 0x07, 0xfa, 0x12, 0x54, 0xee, 0x05, 0x45, 0x4c, 0xe2, 0x4b, 0xb4, 0x36, 0xbc, 0xd0, 0x9a, 0xeb, 0x7f, 0xfb, 0xe5, 0xd8, 0xbd, 0xce, 0x90, 0x9a, 0x1b, 0x01, 0xd4, 0xd8, 0x91, 0x9e, 0xb8, 0xad, 0x78, 0xca, 0xf2, 0x9f, 0x33, 0xe6, 0x30, 0x00, 0x55, 0xe5, 0xe8, 0xa5, 0xd9, 0xa7, 0xeb, 0xa5, 0x4c, 0x08, 0xa4, 0xfd, 0xce, 0xd7, 0xa5, 0x95, 0x62, 0x91, 0xd0, 0x8a, 0x40, 0x06, 0x4a, 0xde, 0x49, 0xdd, 0x23, 0x10, 0x3f, 0xc2, 0x18, 0xd8, 0x45, 0xed, 0x0e, 0xd0, 0x05, 0x32, 0x3c, 0xef, 0x39, 0x1b, 0x09, 0xb8, 0xc8, 0xfe, 0xea, 0xc2, 0x31, 0xc1, 0x67, 0x75, 0x94, 0x81, 0x09, 0xb8, 0xe8, 0x0c, 0x2a, 0xe7, 0xb7, 0xb5, 0xfe, 0xa6, 0xe2, 0xae, 0xd9, 0xf5, 0x3d, 0x49, 0x93, 0xe9, 0x35, 0x12, 0xb6, 0xd7, 0xbe, 0x2b, 0xf7, 0xe6, 0x4b, 0xf3, 0x00, 0xb5, 0x1f, 0xd1, 0xc3, 0x06, 0x26, 0xc8, 0xf1, 0xbd, 0x0f, 0x36, 0x64, 0x57, 0x06, 0xfe, 0x08, 0xef, 0x4b, 0xd0, 0x19, 0x41, 0xef, 0x48, 0x38, 0x60, 0xeb, 0x06, 0x21, 0x2c, 0xcc, 0x43, 0xee, 0xd9, 0x42, 0x3f, 0x0d, 0x3d, 0xd1, 0x20, 0xdd, 0x07, 0x1f, 0x0f, 0x63, 0xb4, 0xa8, 0x25, 0xc8, 0xc4, 0xf7, 0xaf, 0xd2, 0x3e, 0xe1, 0xef, 0xc4, 0x36, 0x0a, 0x2e, 0x33, 0x63, 0x05, 0x02, 0xe0, 0xe8, 0x6e, 0x77, 0x04, 0xf0, 0x42, 0xcb, 0x78, 0x67, 0xd7, 0x2d, 0x84, 0x0b, 0xca, 0xfa, 0xa9, 0xfa, 0x4a, 0xf3, 0x7f, 0x0f, 0x00, 0x67, 0x33, 0x0e, 0x6f, 0x60, 0x31, 0x52, 0x6a, 0xda, 0xd3, 0xef, 0x22, 0xd7, 0xf5, 0x32, 0x2c, 0xc4, 0x1b, 0x6f, 0xba, 0xb7, 0x17, 0xda, 0x09, 0x44, 0xfb, 0x37, 0xc7, 0xde, 0x27, 0xdd, 0xef, 0xe9, 0xf8, 0x7f, 0xbf, 0xf8, 0x04, 0x39, 0xfb, 0x42, 0xfd, 0x05, 0x0a, 0xb9, 0xf7, 0xf1, 0x06, 0x0b, 0x3e, 0x24, 0x12, 0x04, 0xcc, 0xff, 0x54, 0xf1, 0x42, 0x46, 0xab, 0xe4, 0xdf, 0xc6, 0xf9, 0xe1, 0x08, 0x09, 0xde, 0xff, 0xd9, 0xdf, 0x2c, 0xae, 0xdf, 0xf0, 0xf5, 0xbf, 0xe6, 0x0f, 0x32, 0xcf, 0xaf, 0xf4, 0xd3, 0xc6, 0xa4, 0xfa, 0x38, 0xe2, 0xb8, 0xf3, 0x77, 0xe9, 0x28, 0xdc, 0x21, 0xe0, 0xee, 0x2a, 0x47, 0xd3, 0xa4, 0xbf, 0xdf, 0x42, 0x62, 0x3b, 0xeb, 0xe3, 0xb6, 0xd6, 0xcc, 0x2a, 0x25, 0x32, 0x2c, 0x5d, 0x08, 0xd7, 0xeb, 0x30, 0x2b, 0xc2, 0x1a, 0xf3, 0xe0, 0x59, 0x4b, 0xd8, 0x09, 0x73, 0xf8, 0xaa, 0xa4, 0x5b, 0x60, 0xb3, 0xab, 0x40, 0x76, 0x63, 0x0b, 0x6c, 0xd9, 0x6a, 0x7f, 0xec, 0xf1, 0xe1, 0xc7, 0x45, 0x42, 0x48, 0x2c, 0x24, 0x1c, 0xd6, 0xcf, 0x67, 0xe7, 0xe7, 0xef, 0x16, 0xf7, 0xe9, 0xfb, 0xff, 0x36, 0x0d, 0x42, 0x43, 0x25, 0x64, 0xb7, 0x01, 0x7f, 0xfb, 0x1e, 0x40, 0x0e, 0xd6, 0xfb, 0x4e, 0x4c, 0x36, 0xe0, 0x36, 0xc1, 0x5c, 0x48, 0x49, 0xe7, 0x3f, 0xc4, 0xa5, 0x3e, 0xda, 0x2c, 0x63, 0xd0, 0xf7, 0xf8, 0xbc, 0xe0, 0x67, 0xa7, 0x51, 0xd5, 0xf8, 0xf8, 0xb8, 0x1b, 0x17, 0xc8, 0xb6, 0x0f, 0x55, 0x25, 0xc9, 0x19, 0x11, 0x26, 0x18, 0x06, 0xd4, 0xfe, 0x2d, 0xf8, 0x1c, 0x09, 0x4c, 0x3a, 0x39, 0xf0, 0x46, 0x3a, 0x0d, 0x2f, 0xed, 0x17, 0xee, 0x5b, 0x5b, 0xe7, 0x5a, 0x1b, 0x59, 0x48, 0xec, 0x7f, 0x10, 0x25, 0x29, 0x52, 0x68, 0x08, 0xb8, 0x1c, 0x25, 0x08, 0xe1, 0x3e, 0x06, 0xf9, 0x46, 0xad, 0x2c, 0x34, 0x34, 0xfd, 0xc5, 0x0b, 0xce, 0xf4, 0xf9, 0xec, 0xd7, 0x2a, 0x4b, 0xda, 0xb6, 0x03, 0x09, 0x1a, 0x02, 0x30, 0xdd, 0x45, 0x68, 0x16, 0xea, 0x0b, 0x14, 0xfb, 0xfe, 0xd4, 0x2c, 0xc7, 0x0d, 0x51, 0xbb, 0x5c, 0x49, 0xf1, 0x4d, 0x53, 0xcc, 0x11, 0xdf, 0x0d, 0x55, 0x59, 0x3c, 0x6c, 0x15, 0xcf, 0xde, 0x7f, 0xd2, 0x2c, 0x53, 0xdc, 0x5f, 0x46, 0xe6, 0x6b, 0xef, 0x39, 0x4a, 0x34, 0x65, 0x0a, 0x31, 0x4c, 0x45, 0xdb, 0x14, 0xee, 0x3c, 0xd0, 0xb0, 0x38, 0xf0, 0xb5, 0xcf, 0xee, 0xbf, 0x20, 0x1e, 0xef, 0xa0, 0xe9, 0xd4, 0xbb, 0xce, 0x34, 0x0d, 0x41, 0xd6, 0x29, 0xc1, 0x05, 0x09, 0x0d, 0x28, 0x1d, 0xa5, 0x25, 0xaf, 0xf8, 0xc4, 0xb8, 0xd2, 0xa6, 0x13, 0xde, 0xcf, 0x39, 0x13, 0x20, 0xf0, 0xff, 0xff, 0x24, 0xf0, 0xff, 0xff, 0x7e, 0xff, 0xff, 0xff, 0x04, 0x00, 0x00, 0x00, 0x20, 0x00, 0x00, 0x00, 0x44, 0xfd, 0xff, 0xff, 0x33, 0xfb, 0xff, 0xff, 0x87, 0xfc, 0xff, 0xff, 0x39, 0xfc, 0xff, 0xff, 0x2c, 0x05, 0x00, 0x00, 0x2b, 0xfb, 0xff, 0xff, 0x96, 0xfd, 0xff, 0xff, 0x2b, 0xfb, 0xff, 0xff, 0xaa, 0xff, 0xff, 0xff, 0x04, 0x00, 0x00, 0x00, 0x48, 0x00, 0x00, 0x00, 0x14, 0xca, 0xce, 0x7f, 0x27, 0x08, 0x0c, 0x3f, 0x63, 0xe5, 0xf6, 0xa3, 0x37, 0x5c, 0x49, 0x5f, 0x68, 0x7f, 0x7f, 0xee, 0x0c, 0x3a, 0x6b, 0xe5, 0xf0, 0xdf, 0x33, 0xab, 0x2c, 0x50, 0x6e, 0x7f, 0xce, 0xb6, 0x72, 0x2f, 0x26, 0x82, 0x82, 0x4c, 0xcc, 0x6b, 0xc6, 0x81, 0x0e, 0x4c, 0xf4, 0x8e, 0x78, 0x7f, 0xaf, 0x3f, 0x51, 0x79, 0x7f, 0x58, 0x23, 0xc3, 0x26, 0x18, 0xca, 0x43, 0xbd, 0x5c, 0x74, 0x7f, 0x13, 0xfa, 0x76, 0x38, 0xb0, 0xb4, 0x00, 0x00, 0x06, 0x00, 0x08, 0x00, 0x04, 0x00, 0x06, 0x00, 0x00, 0x00, 0x04, 0x00, 0x00, 0x00, 0x08, 0x00, 0x00, 0x00, 0xff, 0xff, 0xff, 0xff, 0x40, 0x02, 0x00, 0x00, 0xc4, 0xf0, 0xff, 0xff, 0xc8, 0xf0, 0xff, 0xff, 0x0f, 0x00, 0x00, 0x00, 0x4d, 0x4c, 0x49, 0x52, 0x20, 0x43, 0x6f, 0x6e, 0x76, 0x65, 0x72, 0x74, 0x65, 0x64, 0x2e, 0x00, 0x01, 0x00, 0x00, 0x00, 0x14, 0x00, 0x00, 0x00, 0x00, 0x00, 0x0e, 0x00, 0x18, 0x00, 0x14, 0x00, 0x10, 0x00, 0x0c, 0x00, 0x08, 0x00, 0x04, 0x00, 0x0e, 0x00, 0x00, 0x00, 0x14, 0x00, 0x00, 0x00, 0x1c, 0x00, 0x00, 0x00, 0xd4, 0x01, 0x00, 0x00, 0xd8, 0x01, 0x00, 0x00, 0xdc, 0x01, 0x00, 0x00, 0x04, 0x00, 0x00, 0x00, 0x6d, 0x61, 0x69, 0x6e, 0x00, 0x00, 0x00, 0x00, 0x06, 0x00, 0x00, 0x00, 0x6c, 0x01, 0x00, 0x00, 0x08, 0x01, 0x00, 0x00, 0xb4, 0x00, 0x00, 0x00, 0x70, 0x00, 0x00, 0x00, 0x48, 0x00, 0x00, 0x00, 0x04, 0x00, 0x00, 0x00, 0x1a, 0xff, 0xff, 0xff, 0x14, 0x00, 0x00, 0x00, 0x00, 0x00, 0x00, 0x08, 0x10, 0x00, 0x00, 0x00, 0x14, 0x00, 0x00, 0x00, 0x03, 0x00, 0x00, 0x00, 0x50, 0xf1, 0xff, 0xff, 0x01, 0x00, 0x00, 0x00, 0x0d, 0x00, 0x00, 0x00, 0x03, 0x00, 0x00, 0x00, 0x0a, 0x00, 0x00, 0x00, 0x0b, 0x00, 0x00, 0x00, 0x0c, 0x00, 0x00, 0x00, 0x00, 0x00, 0x0a, 0x00, 0x10, 0x00, 0x0c, 0x00, 0x08, 0x00, 0x04, 0x00, 0x0a, 0x00, 0x00, 0x00, 0x0c, 0x00, 0x00, 0x00, 0x10, 0x00, 0x00, 0x00, 0x02, 0x00, 0x00, 0x00, 0x01, 0x00, 0x00, 0x00, 0x0a, 0x00, 0x00, 0x00, 0x02, 0x00, 0x00, 0x00, 0x09, 0x00, 0x00, 0x00, 0x01, 0x00, 0x00, 0x00, 0x7e, 0xff, 0xff, 0xff, 0x14, 0x00, 0x00, 0x00, 0x00, 0x00, 0x00, 0x05, 0x24, 0x00, 0x00, 0x00, 0x28, 0x00, 0x00, 0x00, 0x01, 0x00, 0x00, 0x00, 0x6e, 0xff, 0xff, 0xff, 0x02, 0x00, 0x00, 0x00, 0x02, 0x00, 0x00, 0x00, 0x02, 0x00, 0x00, 0x00, 0x02, 0x00, 0x00, 0x00, 0x00, 0x00, 0x00, 0x01, 0x01, 0x00, 0x00, 0x00, 0x09, 0x00, 0x00, 0x00, 0x01, 0x00, 0x00, 0x00, 0x08, 0x00, 0x00, 0x00, 0x5e, 0xff, 0xff, 0xff, 0x10, 0x00, 0x00, 0x00, 0x00, 0x00, 0x00, 0x01, 0x1c, 0x00, 0x00, 0x00, 0x20, 0x00, 0x00, 0x00, 0x50, 0xff, 0xff, 0xff, 0x00, 0x00, 0x00, 0x01, 0x01, 0x00, 0x00, 0x00, 0x01, 0x00, 0x00, 0x00, 0x00, 0x00, 0x00, 0x01, 0x01, 0x00, 0x00, 0x00, 0x08, 0x00, 0x00, 0x00, 0x03, 0x00, 0x00, 0x00, 0x05, 0x00, 0x00, 0x00, 0x06, 0x00, 0x00, 0x00, 0x07, 0x00, 0x00, 0x00, 0x00, 0x00, 0x0e, 0x00, 0x1a, 0x00, 0x14, 0x00, 0x10, 0x00, 0x0c, 0x00, 0x0b, 0x00, 0x04, 0x00, 0x0e, 0x00, 0x00, 0x00, 0x24, 0x00, 0x00, 0x00, 0x00, 0x00, 0x00, 0x05, 0x34, 0x00, 0x00, 0x00, 0x38, 0x00, 0x00, 0x00, 0x01, 0x00, 0x00, 0x00, 0x00, 0x00, 0x0e, 0x00, 0x18, 0x00, 0x17, 0x00, 0x10, 0x00, 0x0c, 0x00, 0x08, 0x00, 0x04, 0x00, 0x0e, 0x00, 0x00, 0x00, 0x02, 0x00, 0x00, 0x00, 0x02, 0x00, 0x00, 0x00, 0x02, 0x00, 0x00, 0x00, 0x02, 0x00, 0x00, 0x00, 0x00, 0x00, 0x00, 0x01, 0x01, 0x00, 0x00, 0x00, 0x05, 0x00, 0x00, 0x00, 0x01, 0x00, 0x00, 0x00, 0x04, 0x00, 0x00, 0x00, 0x00, 0x00, 0x0e, 0x00, 0x14, 0x00, 0x00, 0x00, 0x10, 0x00, 0x0c, 0x00, 0x0b, 0x00, 0x04, 0x00, 0x0e, 0x00, 0x00, 0x00, 0x1c, 0x00, 0x00, 0x00, 0x00, 0x00, 0x00, 0x01, 0x28, 0x00, 0x00, 0x00, 0x2c, 0x00, 0x00, 0x00, 0x0c, 0x00, 0x14, 0x00, 0x13, 0x00, 0x0c, 0x00, 0x08, 0x00, 0x07, 0x00, 0x0c, 0x00, 0x00, 0x00, 0x00, 0x00, 0x00, 0x01, 0x01, 0x00, 0x00, 0x00, 0x01, 0x00, 0x00, 0x00, 0x00, 0x00, 0x00, 0x01, 0x01, 0x00, 0x00, 0x00, 0x04, 0x00, 0x00, 0x00, 0x03, 0x00, 0x00, 0x00, 0x00, 0x00, 0x00, 0x00, 0x02, 0x00, 0x00, 0x00, 0x03, 0x00, 0x00, 0x00, 0x01, 0x00, 0x00, 0x00, 0x0d, 0x00, 0x00, 0x00, 0x01, 0x00, 0x00, 0x00, 0x00, 0x00, 0x00, 0x00, 0x0e, 0x00, 0x00, 0x00, 0x84, 0x0d, 0x00, 0x00, 0xf8, 0x0c, 0x00, 0x00, 0x40, 0x0b, 0x00, 0x00, 0x84, 0x0a, 0x00, 0x00, 0xf8, 0x08, 0x00, 0x00, 0x3c, 0x08, 0x00, 0x00, 0x30, 0x06, 0x00, 0x00, 0x14, 0x05, 0x00, 0x00, 0x80, 0x03, 0x00, 0x00, 0xbc, 0x02, 0x00, 0x00, 0x10, 0x02, 0x00, 0x00, 0xd4, 0x00, 0x00, 0x00, 0x70, 0x00, 0x00, 0x00, 0x04, 0x00, 0x00, 0x00, 0xc8, 0xf2, 0xff, 0xff, 0x18, 0x00, 0x00, 0x00, 0x20, 0x00, 0x00, 0x00, 0x40, 0x00, 0x00, 0x00, 0x0e, 0x00, 0x00, 0x00, 0x00, 0x00, 0x00, 0x09, 0x44, 0x00, 0x00, 0x00, 0x02, 0x00, 0x00, 0x00, 0xff, 0xff, 0xff, 0xff, 0x02, 0x00, 0x00, 0x00, 0xac, 0xf2, 0xff, 0xff, 0x08, 0x00, 0x00, 0x00, 0x14, 0x00, 0x00, 0x00, 0x01, 0x00, 0x00, 0x00, 0xfa, 0xff, 0xff, 0xff, 0xff, 0xff, 0xff, 0xff, 0x00, 0x00, 0x00, 0x00, 0x01, 0x00, 0x00, 0x00, 0xbd, 0x8d, 0x24, 0x3d, 0x08, 0x00, 0x00, 0x00, 0x49, 0x64, 0x65, 0x6e, 0x74, 0x69, 0x74, 0x79, 0x00, 0x00, 0x00, 0x00, 0x02, 0x00, 0x00, 0x00, 0x01, 0x00, 0x00, 0x00, 0x02, 0x00, 0x00, 0x00, 0xb2, 0xf3, 0xff, 0xff, 0x14, 0x00, 0x00, 0x00, 0x30, 0x00, 0x00, 0x00, 0x0d, 0x00, 0x00, 0x00, 0x00, 0x00, 0x00, 0x02, 0x44, 0x00, 0x00, 0x00, 0x04, 0xf3, 0xff, 0xff, 0x08, 0x00, 0x00, 0x00, 0x10, 0x00, 0x00, 0x00, 0x01, 0x00, 0x00, 0x00, 0x00, 0x00, 0x00, 0x00, 0x00, 0x00, 0x00, 0x00, 0x01, 0x00, 0x00, 0x00, 0xd1, 0x2e, 0x8a, 0x38, 0x1b, 0x00, 0x00, 0x00, 0x73, 0x65, 0x71, 0x75, 0x65, 0x6e, 0x74, 0x69, 0x61, 0x6c, 0x2f, 0x71, 0x75, 0x61, 0x6e, 0x74, 0x5f, 0x64, 0x65, 0x6e, 0x73, 0x65, 0x2f, 0x33, 0x37, 0x33, 0x32, 0x00, 0x01, 0x00, 0x00, 0x00, 0x02, 0x00, 0x00, 0x00, 0x12, 0xf4, 0xff, 0xff, 0x14, 0x00, 0x00, 0x00, 0x34, 0x00, 0x00, 0x00, 0x0c, 0x00, 0x00, 0x00, 0x00, 0x00, 0x00, 0x09, 0x18, 0x01, 0x00, 0x00, 0x64, 0xf3, 0xff, 0xff, 0x08, 0x00, 0x00, 0x00, 0x14, 0x00, 0x00, 0x00, 0x01, 0x00, 0x00, 0x00, 0x00, 0x00, 0x00, 0x00, 0x00, 0x00, 0x00, 0x00, 0x00, 0x00, 0x00, 0x00, 0x01, 0x00, 0x00, 0x00, 0x82, 0x6a, 0xf4, 0x3a, 0xe9, 0x00, 0x00, 0x00, 0x4d, 0x61, 0x74, 0x4d, 0x75, 0x6c, 0x3b, 0x73, 0x65, 0x71, 0x75, 0x65, 0x6e, 0x74, 0x69, 0x61, 0x6c, 0x2f, 0x71, 0x75, 0x61, 0x6e, 0x74, 0x5f, 0x64, 0x65, 0x6e, 0x73, 0x65, 0x2f, 0x53, 0x74, 0x61, 0x74, 0x65, 0x66, 0x75, 0x6c, 0x50, 0x61, 0x72, 0x74, 0x69, 0x74, 0x69, 0x6f, 0x6e, 0x65, 0x64, 0x43, 0x61, 0x6c, 0x6c, 0x2f, 0x53, 0x74, 0x61, 0x74, 0x65, 0x66, 0x75, 0x6c, 0x50, 0x61, 0x72, 0x74, 0x69, 0x74, 0x69, 0x6f, 0x6e, 0x65, 0x64, 0x43, 0x61, 0x6c, 0x6c, 0x2f, 0x4d, 0x61, 0x74, 0x4d, 0x75, 0x6c, 0x3b, 0x4c, 0x61, 0x73, 0x74, 0x56, 0x61, 0x6c, 0x75, 0x65, 0x51, 0x75, 0x61, 0x6e, 0x74, 0x2f, 0x46, 0x61, 0x6b, 0x65, 0x51, 0x75, 0x61, 0x6e, 0x74, 0x57, 0x69, 0x74, 0x68, 0x4d, 0x69, 0x6e, 0x4d, 0x61, 0x78, 0x56, 0x61, 0x72, 0x73, 0x3b, 0x73, 0x65, 0x71, 0x75, 0x65, 0x6e, 0x74, 0x69, 0x61, 0x6c, 0x2f, 0x71, 0x75, 0x61, 0x6e, 0x74, 0x5f, 0x64, 0x65, 0x6e, 0x73, 0x65, 0x2f, 0x53, 0x74, 0x61, 0x74, 0x65, 0x66, 0x75, 0x6c, 0x50, 0x61, 0x72, 0x74, 0x69, 0x74, 0x69, 0x6f, 0x6e, 0x65, 0x64, 0x43, 0x61, 0x6c, 0x6c, 0x2f, 0x53, 0x74, 0x61, 0x74, 0x65, 0x66, 0x75, 0x6c, 0x50, 0x61, 0x72, 0x74, 0x69, 0x74, 0x69, 0x6f, 0x6e, 0x65, 0x64, 0x43, 0x61, 0x6c, 0x6c, 0x2f, 0x4c, 0x61, 0x73, 0x74, 0x56, 0x61, 0x6c, 0x75, 0x65, 0x51, 0x75, 0x61, 0x6e, 0x74, 0x2f, 0x46, 0x61, 0x6b, 0x65, 0x51, 0x75, 0x61, 0x6e, 0x74, 0x57, 0x69, 0x74, 0x68, 0x4d, 0x69, 0x6e, 0x4d, 0x61, 0x78, 0x56, 0x61, 0x72, 0x73, 0x00, 0x00, 0x00, 0x02, 0x00, 0x00, 0x00, 0x02, 0x00, 0x00, 0x00, 0x40, 0x02, 0x00, 0x00, 0xc8, 0xf4, 0xff, 0xff, 0x18, 0x00, 0x00, 0x00, 0x20, 0x00, 0x00, 0x00, 0x40, 0x00, 0x00, 0x00, 0x0b, 0x00, 0x00, 0x00, 0x00, 0x00, 0x00, 0x09, 0x84, 0x00, 0x00, 0x00, 0x02, 0x00, 0x00, 0x00, 0xff, 0xff, 0xff, 0xff, 0x40, 0x02, 0x00, 0x00, 0xac, 0xf4, 0xff, 0xff, 0x08, 0x00, 0x00, 0x00, 0x14, 0x00, 0x00, 0x00, 0x01, 0x00, 0x00, 0x00, 0xdd, 0xff, 0xff, 0xff, 0xff, 0xff, 0xff, 0xff, 0x00, 0x00, 0x00, 0x00, 0x01, 0x00, 0x00, 0x00, 0x62, 0xbb, 0x10, 0x3d, 0x48, 0x00, 0x00, 0x00, 0x52, 0x65, 0x73, 0x68, 0x61, 0x70, 0x65, 0x3b, 0x73, 0x65, 0x71, 0x75, 0x65, 0x6e, 0x74, 0x69, 0x61, 0x6c, 0x2f, 0x71, 0x75, 0x61, 0x6e, 0x74, 0x5f, 0x66, 0x6c, 0x61, 0x74, 0x74, 0x65, 0x6e, 0x2f, 0x50, 0x61, 0x72, 0x74, 0x69, 0x74, 0x69, 0x6f, 0x6e, 0x65, 0x64, 0x43, 0x61, 0x6c, 0x6c, 0x2f, 0x50, 0x61, 0x72, 0x74, 0x69, 0x74, 0x69, 0x6f, 0x6e, 0x65, 0x64, 0x43, 0x61, 0x6c, 0x6c, 0x2f, 0x52, 0x65, 0x73, 0x68, 0x61, 0x70, 0x65, 0x00, 0x00, 0x00, 0x00, 0x02, 0x00, 0x00, 0x00, 0x01, 0x00, 0x00, 0x00, 0x40, 0x02, 0x00, 0x00, 0x70, 0xf5, 0xff, 0xff, 0x18, 0x00, 0x00, 0x00, 0x28, 0x00, 0x00, 0x00, 0x48, 0x00, 0x00, 0x00, 0x0a, 0x00, 0x00, 0x00, 0x00, 0x00, 0x00, 0x09, 0x94, 0x00, 0x00, 0x00, 0x04, 0x00, 0x00, 0x00, 0xff, 0xff, 0xff, 0xff, 0x06, 0x00, 0x00, 0x00, 0x06, 0x00, 0x00, 0x00, 0x10, 0x00, 0x00, 0x00, 0x5c, 0xf5, 0xff, 0xff, 0x08, 0x00, 0x00, 0x00, 0x14, 0x00, 0x00, 0x00, 0x01, 0x00, 0x00, 0x00, 0xdd, 0xff, 0xff, 0xff, 0xff, 0xff, 0xff, 0xff, 0x00, 0x00, 0x00, 0x00, 0x01, 0x00, 0x00, 0x00, 0x62, 0xbb, 0x10, 0x3d, 0x50, 0x00, 0x00, 0x00, 0x4d, 0x61, 0x78, 0x50, 0x6f, 0x6f, 0x6c, 0x3b, 0x73, 0x65, 0x71, 0x75, 0x65, 0x6e, 0x74, 0x69, 0x61, 0x6c, 0x2f, 0x71, 0x75, 0x61, 0x6e, 0x74, 0x5f, 0x6d, 0x61, 0x78, 0x5f, 0x70, 0x6f, 0x6f, 0x6c, 0x69, 0x6e, 0x67, 0x32, 0x64, 0x5f, 0x31, 0x2f, 0x50, 0x61, 0x72, 0x74, 0x69, 0x74, 0x69, 0x6f, 0x6e, 0x65, 0x64, 0x43, 0x61, 0x6c, 0x6c, 0x2f, 0x50, 0x61, 0x72, 0x74, 0x69, 0x74, 0x69, 0x6f, 0x6e, 0x65, 0x64, 0x43, 0x61, 0x6c, 0x6c, 0x2f, 0x4d, 0x61, 0x78, 0x50, 0x6f, 0x6f, 0x6c, 0x00, 0x00, 0x00, 0x00, 0x04, 0x00, 0x00, 0x00, 0x01, 0x00, 0x00, 0x00, 0x06, 0x00, 0x00, 0x00, 0x06, 0x00, 0x00, 0x00, 0x10, 0x00, 0x00, 0x00, 0x30, 0xf6, 0xff, 0xff, 0x18, 0x00, 0x00, 0x00, 0x28, 0x00, 0x00, 0x00, 0x44, 0x00, 0x00, 0x00, 0x09, 0x00, 0x00, 0x00, 0x00, 0x00, 0x00, 0x09, 0x64, 0x01, 0x00, 0x00, 0x04, 0x00, 0x00, 0x00, 0xff, 0xff, 0xff, 0xff, 0x0d, 0x00, 0x00, 0x00, 0x0d, 0x00, 0x00, 0x00, 0x10, 0x00, 0x00, 0x00, 0x1c, 0xf6, 0xff, 0xff, 0x08, 0x00, 0x00, 0x00, 0x10, 0x00, 0x00, 0x00, 0x01, 0x00, 0x00, 0x00, 0xdd, 0xff, 0xff, 0xff, 0xff, 0xff, 0xff, 0xff, 0x01, 0x00, 0x00, 0x00, 0x62, 0xbb, 0x10, 0x3d, 0x24, 0x01, 0x00, 0x00, 0x52, 0x65, 0x6c, 0x75, 0x3b, 0x73, 0x65, 0x71, 0x75, 0x65, 0x6e, 0x74, 0x69, 0x61, 0x6c, 0x2f, 0x71, 0x75, 0x61, 0x6e, 0x74, 0x5f, 0x63, 0x6f, 0x6e, 0x76, 0x32, 0x64, 0x5f, 0x31, 0x2f, 0x53, 0x74, 0x61, 0x74, 0x65, 0x66, 0x75, 0x6c, 0x50, 0x61, 0x72, 0x74, 0x69, 0x74, 0x69, 0x6f, 0x6e, 0x65, 0x64, 0x43, 0x61, 0x6c, 0x6c, 0x2f, 0x53, 0x74, 0x61, 0x74, 0x65, 0x66, 0x75, 0x6c, 0x50, 0x61, 0x72, 0x74, 0x69, 0x74, 0x69, 0x6f, 0x6e, 0x65, 0x64, 0x43, 0x61, 0x6c, 0x6c, 0x2f, 0x52, 0x65, 0x6c, 0x75, 0x3b, 0x42, 0x69, 0x61, 0x73, 0x41, 0x64, 0x64, 0x3b, 0x73, 0x65, 0x71, 0x75, 0x65, 0x6e, 0x74, 0x69, 0x61, 0x6c, 0x2f, 0x71, 0x75, 0x61, 0x6e, 0x74, 0x5f, 0x63, 0x6f, 0x6e, 0x76, 0x32, 0x64, 0x5f, 0x31, 0x2f, 0x53, 0x74, 0x61, 0x74, 0x65, 0x66, 0x75, 0x6c, 0x50, 0x61, 0x72, 0x74, 0x69, 0x74, 0x69, 0x6f, 0x6e, 0x65, 0x64, 0x43, 0x61, 0x6c, 0x6c, 0x2f, 0x53, 0x74, 0x61, 0x74, 0x65, 0x66, 0x75, 0x6c, 0x50, 0x61, 0x72, 0x74, 0x69, 0x74, 0x69, 0x6f, 0x6e, 0x65, 0x64, 0x43, 0x61, 0x6c, 0x6c, 0x2f, 0x42, 0x69, 0x61, 0x73, 0x41, 0x64, 0x64, 0x3b, 0x43, 0x6f, 0x6e, 0x76, 0x32, 0x44, 0x3b, 0x73, 0x65, 0x71, 0x75, 0x65, 0x6e, 0x74, 0x69, 0x61, 0x6c, 0x2f, 0x71, 0x75, 0x61, 0x6e, 0x74, 0x5f, 0x63, 0x6f, 0x6e, 0x76, 0x32, 0x64, 0x5f, 0x31, 0x2f, 0x53, 0x74, 0x61, 0x74, 0x65, 0x66, 0x75, 0x6c, 0x50, 0x61, 0x72, 0x74, 0x69, 0x74, 0x69, 0x6f, 0x6e, 0x65, 0x64, 0x43, 0x61, 0x6c, 0x6c, 0x2f, 0x53, 0x74, 0x61, 0x74, 0x65, 0x66, 0x75, 0x6c, 0x50, 0x61, 0x72, 0x74, 0x69, 0x74, 0x69, 0x6f, 0x6e, 0x65, 0x64, 0x43, 0x61, 0x6c, 0x6c, 0x2f, 0x43, 0x6f, 0x6e, 0x76, 0x32, 0x44, 0x3b, 0x73, 0x65, 0x71, 0x75, 0x65, 0x6e, 0x74, 0x69, 0x61, 0x6c, 0x2f, 0x71, 0x75, 0x61, 0x6e, 0x74, 0x5f, 0x63, 0x6f, 0x6e, 0x76, 0x32, 0x64, 0x5f, 0x31, 0x2f, 0x33, 0x37, 0x31, 0x36, 0x00, 0x00, 0x00, 0x00, 0x04, 0x00, 0x00, 0x00, 0x01, 0x00, 0x00, 0x00, 0x0d, 0x00, 0x00, 0x00, 0x0d, 0x00, 0x00, 0x00, 0x10, 0x00, 0x00, 0x00, 0x42, 0xf8, 0xff, 0xff, 0x14, 0x00, 0x00, 0x00, 0xe4, 0x00, 0x00, 0x00, 0x08, 0x00, 0x00, 0x00, 0x00, 0x00, 0x00, 0x02, 0xfc, 0x00, 0x00, 0x00, 0x94, 0xf7, 0xff, 0xff, 0x08, 0x00, 0x00, 0x00, 0x88, 0x00, 0x00, 0x00, 0x10, 0x00, 0x00, 0x00, 0x00, 0x00, 0x00, 0x00, 0x00, 0x00, 0x00, 0x00, 0x00, 0x00, 0x00, 0x00, 0x00, 0x00, 0x00, 0x00, 0x00, 0x00, 0x00, 0x00, 0x00, 0x00, 0x00, 0x00, 0x00, 0x00, 0x00, 0x00, 0x00, 0x00, 0x00, 0x00, 0x00, 0x00, 0x00, 0x00, 0x00, 0x00, 0x00, 0x00, 0x00, 0x00, 0x00, 0x00, 0x00, 0x00, 0x00, 0x00, 0x00, 0x00, 0x00, 0x00, 0x00, 0x00, 0x00, 0x00, 0x00, 0x00, 0x00, 0x00, 0x00, 0x00, 0x00, 0x00, 0x00, 0x00, 0x00, 0x00, 0x00, 0x00, 0x00, 0x00, 0x00, 0x00, 0x00, 0x00, 0x00, 0x00, 0x00, 0x00, 0x00, 0x00, 0x00, 0x00, 0x00, 0x00, 0x00, 0x00, 0x00, 0x00, 0x00, 0x00, 0x00, 0x00, 0x00, 0x00, 0x00, 0x00, 0x00, 0x00, 0x00, 0x00, 0x00, 0x00, 0x00, 0x00, 0x00, 0x00, 0x00, 0x00, 0x00, 0x00, 0x00, 0x00, 0x00, 0x00, 0x00, 0x00, 0x00, 0x00, 0x00, 0x00, 0x00, 0x00, 0x00, 0x00, 0x00, 0x00, 0x10, 0x00, 0x00, 0x00, 0x3d, 0x74, 0x6c, 0x38, 0xdd, 0x08, 0x6b, 0x38, 0x06, 0x8c, 0x5a, 0x38, 0xe1, 0x91, 0xa8, 0x38, 0x6e, 0x67, 0x6e, 0x38, 0x53, 0x4c, 0x97, 0x38, 0xee, 0x5b, 0x6a, 0x38, 0x54, 0x2b, 0x71, 0x38, 0xdb, 0x23, 0x7e, 0x38, 0xec, 0x3b, 0x8a, 0x38, 0xd6, 0x08, 0x66, 0x38, 0xa5, 0x36, 0x97, 0x38, 0x39, 0x28, 0x63, 0x38, 0xb0, 0xb8, 0x73, 0x38, 0x70, 0x70, 0x88, 0x38, 0x9b, 0x43, 0x92, 0x38, 0x1e, 0x00, 0x00, 0x00, 0x73, 0x65, 0x71, 0x75, 0x65, 0x6e, 0x74, 0x69, 0x61, 0x6c, 0x2f, 0x71, 0x75, 0x61, 0x6e, 0x74, 0x5f, 0x63, 0x6f, 0x6e, 0x76, 0x32, 0x64, 0x5f, 0x31, 0x2f, 0x33, 0x37, 0x31, 0x36, 0x00, 0x00, 0x01, 0x00, 0x00, 0x00, 0x10, 0x00, 0x00, 0x00, 0x5a, 0xf9, 0xff, 0xff, 0x14, 0x00, 0x00, 0x00, 0xe4, 0x00, 0x00, 0x00, 0x07, 0x00, 0x00, 0x00, 0x00, 0x00, 0x00, 0x09, 0xe0, 0x01, 0x00, 0x00, 0xac, 0xf8, 0xff, 0xff, 0x08, 0x00, 0x00, 0x00, 0x88, 0x00, 0x00, 0x00, 0x10, 0x00, 0x00, 0x00, 0x00, 0x00, 0x00, 0x00, 0x00, 0x00, 0x00, 0x00, 0x00, 0x00, 0x00, 0x00, 0x00, 0x00, 0x00, 0x00, 0x00, 0x00, 0x00, 0x00, 0x00, 0x00, 0x00, 0x00, 0x00, 0x00, 0x00, 0x00, 0x00, 0x00, 0x00, 0x00, 0x00, 0x00, 0x00, 0x00, 0x00, 0x00, 0x00, 0x00, 0x00, 0x00, 0x00, 0x00, 0x00, 0x00, 0x00, 0x00, 0x00, 0x00, 0x00, 0x00, 0x00, 0x00, 0x00, 0x00, 0x00, 0x00, 0x00, 0x00, 0x00, 0x00, 0x00, 0x00, 0x00, 0x00, 0x00, 0x00, 0x00, 0x00, 0x00, 0x00, 0x00, 0x00, 0x00, 0x00, 0x00, 0x00, 0x00, 0x00, 0x00, 0x00, 0x00, 0x00, 0x00, 0x00, 0x00, 0x00, 0x00, 0x00, 0x00, 0x00, 0x00, 0x00, 0x00, 0x00, 0x00, 0x00, 0x00, 0x00, 0x00, 0x00, 0x00, 0x00, 0x00, 0x00, 0x00, 0x00, 0x00, 0x00, 0x00, 0x00, 0x00, 0x00, 0x00, 0x00, 0x00, 0x00, 0x00, 0x00, 0x00, 0x00, 0x00, 0x00, 0x00, 0x00, 0x00, 0x00, 0x10, 0x00, 0x00, 0x00, 0xc2, 0x1b, 0xe6, 0x3a, 0x22, 0xba, 0xe4, 0x3a, 0x91, 0xae, 0xd4, 0x3a, 0xc7, 0x0b, 0x24, 0x3b, 0x8d, 0x01, 0xe8, 0x3a, 0xe1, 0x3c, 0x13, 0x3b, 0xd8, 0x11, 0xe4, 0x3a, 0x74, 0xb2, 0xea, 0x3a, 0xde, 0x51, 0xf7, 0x3a, 0x3a, 0x86, 0x06, 0x3b, 0x75, 0xdc, 0xdf, 0x3a, 0xc8, 0x27, 0x13, 0x3b, 0x9d, 0x0f, 0xdd, 0x3a, 0x48, 0x2e, 0xed, 0x3a, 0x13, 0xc7, 0x04, 0x3b, 0xbe, 0x56, 0x0e, 0x3b, 0x03, 0x01, 0x00, 0x00, 0x43, 0x6f, 0x6e, 0x76, 0x32, 0x44, 0x3b, 0x73, 0x65, 0x71, 0x75, 0x65, 0x6e, 0x74, 0x69, 0x61, 0x6c, 0x2f, 0x71, 0x75, 0x61, 0x6e, 0x74, 0x5f, 0x63, 0x6f, 0x6e, 0x76, 0x32, 0x64, 0x5f, 0x31, 0x2f, 0x53, 0x74, 0x61, 0x74, 0x65, 0x66, 0x75, 0x6c, 0x50, 0x61, 0x72, 0x74, 0x69, 0x74, 0x69, 0x6f, 0x6e, 0x65, 0x64, 0x43, 0x61, 0x6c, 0x6c, 0x2f, 0x53, 0x74, 0x61, 0x74, 0x65, 0x66, 0x75, 0x6c, 0x50, 0x61, 0x72, 0x74, 0x69, 0x74, 0x69, 0x6f, 0x6e, 0x65, 0x64, 0x43, 0x61, 0x6c, 0x6c, 0x2f, 0x43, 0x6f, 0x6e, 0x76, 0x32, 0x44, 0x3b, 0x4c, 0x61, 0x73, 0x74, 0x56, 0x61, 0x6c, 0x75, 0x65, 0x51, 0x75, 0x61, 0x6e, 0x74, 0x2f, 0x46, 0x61, 0x6b, 0x65, 0x51, 0x75, 0x61, 0x6e, 0x74, 0x57, 0x69, 0x74, 0x68, 0x4d, 0x69, 0x6e, 0x4d, 0x61, 0x78, 0x56, 0x61, 0x72, 0x73, 0x50, 0x65, 0x72, 0x43, 0x68, 0x61, 0x6e, 0x6e, 0x65, 0x6c, 0x3b, 0x73, 0x65, 0x71, 0x75, 0x65, 0x6e, 0x74, 0x69, 0x61, 0x6c, 0x2f, 0x71, 0x75, 0x61, 0x6e, 0x74, 0x5f, 0x63, 0x6f, 0x6e, 0x76, 0x32, 0x64, 0x5f, 0x31, 0x2f, 0x53, 0x74, 0x61, 0x74, 0x65, 0x66, 0x75, 0x6c, 0x50, 0x61, 0x72, 0x74, 0x69, 0x74, 0x69, 0x6f, 0x6e, 0x65, 0x64, 0x43, 0x61, 0x6c, 0x6c, 0x2f, 0x53, 0x74, 0x61, 0x74, 0x65, 0x66, 0x75, 0x6c, 0x50, 0x61, 0x72, 0x74, 0x69, 0x74, 0x69, 0x6f, 0x6e, 0x65, 0x64, 0x43, 0x61, 0x6c, 0x6c, 0x2f, 0x4c, 0x61, 0x73, 0x74, 0x56, 0x61, 0x6c, 0x75, 0x65, 0x51, 0x75, 0x61, 0x6e, 0x74, 0x2f, 0x46, 0x61, 0x6b, 0x65, 0x51, 0x75, 0x61, 0x6e, 0x74, 0x57, 0x69, 0x74, 0x68, 0x4d, 0x69, 0x6e, 0x4d, 0x61, 0x78, 0x56, 0x61, 0x72, 0x73, 0x50, 0x65, 0x72, 0x43, 0x68, 0x61, 0x6e, 0x6e, 0x65, 0x6c, 0x00, 0x04, 0x00, 0x00, 0x00, 0x10, 0x00, 0x00, 0x00, 0x03, 0x00, 0x00, 0x00, 0x03, 0x00, 0x00, 0x00, 0x08, 0x00, 0x00, 0x00, 0xe0, 0xfa, 0xff, 0xff, 0x18, 0x00, 0x00, 0x00, 0x28, 0x00, 0x00, 0x00, 0x44, 0x00, 0x00, 0x00, 0x06, 0x00, 0x00, 0x00, 0x00, 0x00, 0x00, 0x09, 0x8c, 0x00, 0x00, 0x00, 0x04, 0x00, 0x00, 0x00, 0xff, 0xff, 0xff, 0xff, 0x0f, 0x00, 0x00, 0x00, 0x0f, 0x00, 0x00, 0x00, 0x08, 0x00, 0x00, 0x00, 0xcc, 0xfa, 0xff, 0xff, 0x08, 0x00, 0x00, 0x00, 0x10, 0x00, 0x00, 0x00, 0x01, 0x00, 0x00, 0x00, 0xe7, 0xff, 0xff, 0xff, 0xff, 0xff, 0xff, 0xff, 0x01, 0x00, 0x00, 0x00, 0xa2, 0x87, 0x03, 0x3d, 0x4e, 0x00, 0x00, 0x00, 0x4d, 0x61, 0x78, 0x50, 0x6f, 0x6f, 0x6c, 0x3b, 0x73, 0x65, 0x71, 0x75, 0x65, 0x6e, 0x74, 0x69, 0x61, 0x6c, 0x2f, 0x71, 0x75, 0x61, 0x6e, 0x74, 0x5f, 0x6d, 0x61, 0x78, 0x5f, 0x70, 0x6f, 0x6f, 0x6c, 0x69, 0x6e, 0x67, 0x32, 0x64, 0x2f, 0x50, 0x61, 0x72, 0x74, 0x69, 0x74, 0x69, 0x6f, 0x6e, 0x65, 0x64, 0x43, 0x61, 0x6c, 0x6c, 0x2f, 0x50, 0x61, 0x72, 0x74, 0x69, 0x74, 0x69, 0x6f, 0x6e, 0x65, 0x64, 0x43, 0x61, 0x6c, 0x6c, 0x2f, 0x4d, 0x61, 0x78, 0x50, 0x6f, 0x6f, 0x6c, 0x00, 0x00, 0x04, 0x00, 0x00, 0x00, 0x01, 0x00, 0x00, 0x00, 0x0f, 0x00, 0x00, 0x00, 0x0f, 0x00, 0x00, 0x00, 0x08, 0x00, 0x00, 0x00, 0x98, 0xfb, 0xff, 0xff, 0x18, 0x00, 0x00, 0x00, 0x28, 0x00, 0x00, 0x00, 0x44, 0x00, 0x00, 0x00, 0x05, 0x00, 0x00, 0x00, 0x00, 0x00, 0x00, 0x09, 0x5c, 0x01, 0x00, 0x00, 0x04, 0x00, 0x00, 0x00, 0xff, 0xff, 0xff, 0xff, 0x1e, 0x00, 0x00, 0x00, 0x1e, 0x00, 0x00, 0x00, 0x08, 0x00, 0x00, 0x00, 0x84, 0xfb, 0xff, 0xff, 0x08, 0x00, 0x00, 0x00, 0x10, 0x00, 0x00, 0x00, 0x01, 0x00, 0x00, 0x00, 0xe7, 0xff, 0xff, 0xff, 0xff, 0xff, 0xff, 0xff, 0x01, 0x00, 0x00, 0x00, 0xa2, 0x87, 0x03, 0x3d, 0x1c, 0x01, 0x00, 0x00, 0x52, 0x65, 0x6c, 0x75, 0x3b, 0x73, 0x65, 0x71, 0x75, 0x65, 0x6e, 0x74, 0x69, 0x61, 0x6c, 0x2f, 0x71, 0x75, 0x61, 0x6e, 0x74, 0x5f, 0x63, 0x6f, 0x6e, 0x76, 0x32, 0x64, 0x2f, 0x53, 0x74, 0x61, 0x74, 0x65, 0x66, 0x75, 0x6c, 0x50, 0x61, 0x72, 0x74, 0x69, 0x74, 0x69, 0x6f, 0x6e, 0x65, 0x64, 0x43, 0x61, 0x6c, 0x6c, 0x2f, 0x53, 0x74, 0x61, 0x74, 0x65, 0x66, 0x75, 0x6c, 0x50, 0x61, 0x72, 0x74, 0x69, 0x74, 0x69, 0x6f, 0x6e, 0x65, 0x64, 0x43, 0x61, 0x6c, 0x6c, 0x2f, 0x52, 0x65, 0x6c, 0x75, 0x3b, 0x42, 0x69, 0x61, 0x73, 0x41, 0x64, 0x64, 0x3b, 0x73, 0x65, 0x71, 0x75, 0x65, 0x6e, 0x74, 0x69, 0x61, 0x6c, 0x2f, 0x71, 0x75, 0x61, 0x6e, 0x74, 0x5f, 0x63, 0x6f, 0x6e, 0x76, 0x32, 0x64, 0x2f, 0x53, 0x74, 0x61, 0x74, 0x65, 0x66, 0x75, 0x6c, 0x50, 0x61, 0x72, 0x74, 0x69, 0x74, 0x69, 0x6f, 0x6e, 0x65, 0x64, 0x43, 0x61, 0x6c, 0x6c, 0x2f, 0x53, 0x74, 0x61, 0x74, 0x65, 0x66, 0x75, 0x6c, 0x50, 0x61, 0x72, 0x74, 0x69, 0x74, 0x69, 0x6f, 0x6e, 0x65, 0x64, 0x43, 0x61, 0x6c, 0x6c, 0x2f, 0x42, 0x69, 0x61, 0x73, 0x41, 0x64, 0x64, 0x3b, 0x43, 0x6f, 0x6e, 0x76, 0x32, 0x44, 0x3b, 0x73, 0x65, 0x71, 0x75, 0x65, 0x6e, 0x74, 0x69, 0x61, 0x6c, 0x2f, 0x71, 0x75, 0x61, 0x6e, 0x74, 0x5f, 0x63, 0x6f, 0x6e, 0x76, 0x32, 0x64, 0x2f, 0x53, 0x74, 0x61, 0x74, 0x65, 0x66, 0x75, 0x6c, 0x50, 0x61, 0x72, 0x74, 0x69, 0x74, 0x69, 0x6f, 0x6e, 0x65, 0x64, 0x43, 0x61, 0x6c, 0x6c, 0x2f, 0x53, 0x74, 0x61, 0x74, 0x65, 0x66, 0x75, 0x6c, 0x50, 0x61, 0x72, 0x74, 0x69, 0x74, 0x69, 0x6f, 0x6e, 0x65, 0x64, 0x43, 0x61, 0x6c, 0x6c, 0x2f, 0x43, 0x6f, 0x6e, 0x76, 0x32, 0x44, 0x3b, 0x73, 0x65, 0x71, 0x75, 0x65, 0x6e, 0x74, 0x69, 0x61, 0x6c, 0x2f, 0x71, 0x75, 0x61, 0x6e, 0x74, 0x5f, 0x63, 0x6f, 0x6e, 0x76, 0x32, 0x64, 0x2f, 0x33, 0x37, 0x30, 0x31, 0x00, 0x00, 0x00, 0x00, 0x04, 0x00, 0x00, 0x00, 0x01, 0x00, 0x00, 0x00, 0x1e, 0x00, 0x00, 0x00, 0x1e, 0x00, 0x00, 0x00, 0x08, 0x00, 0x00, 0x00, 0xa2, 0xfd, 0xff, 0xff, 0x14, 0x00, 0x00, 0x00, 0x84, 0x00, 0x00, 0x00, 0x04, 0x00, 0x00, 0x00, 0x00, 0x00, 0x00, 0x02, 0x9c, 0x00, 0x00, 0x00, 0xf4, 0xfc, 0xff, 0xff, 0x08, 0x00, 0x00, 0x00, 0x48, 0x00, 0x00, 0x00, 0x08, 0x00, 0x00, 0x00, 0x00, 0x00, 0x00, 0x00, 0x00, 0x00, 0x00, 0x00, 0x00, 0x00, 0x00, 0x00, 0x00, 0x00, 0x00, 0x00, 0x00, 0x00, 0x00, 0x00, 0x00, 0x00, 0x00, 0x00, 0x00, 0x00, 0x00, 0x00, 0x00, 0x00, 0x00, 0x00, 0x00, 0x00, 0x00, 0x00, 0x00, 0x00, 0x00, 0x00, 0x00, 0x00, 0x00, 0x00, 0x00, 0x00, 0x00, 0x00, 0x00, 0x00, 0x00, 0x00, 0x00, 0x00, 0x00, 0x00, 0x00, 0x00, 0x00, 0x00, 0x00, 0x00, 0x00, 0x00, 0x08, 0x00, 0x00, 0x00, 0xc0, 0x03, 0x84, 0x38, 0x34, 0xeb, 0x71, 0x38, 0xb9, 0x72, 0x98, 0x38, 0x35, 0x53, 0x77, 0x38, 0xae, 0xd3, 0x6a, 0x38, 0x0b, 0xd9, 0x6c, 0x38, 0x23, 0x91, 0x9f, 0x38, 0xc2, 0x89, 0x93, 0x38, 0x1c, 0x00, 0x00, 0x00, 0x73, 0x65, 0x71, 0x75, 0x65, 0x6e, 0x74, 0x69, 0x61, 0x6c, 0x2f, 0x71, 0x75, 0x61, 0x6e, 0x74, 0x5f, 0x63, 0x6f, 0x6e, 0x76, 0x32, 0x64, 0x2f, 0x33, 0x37, 0x30, 0x31, 0x00, 0x00, 0x00, 0x00, 0x01, 0x00, 0x00, 0x00, 0x08, 0x00, 0x00, 0x00, 0x5a, 0xfe, 0xff, 0xff, 0x14, 0x00, 0x00, 0x00, 0x84, 0x00, 0x00, 0x00, 0x03, 0x00, 0x00, 0x00, 0x00, 0x00, 0x00, 0x09, 0x7c, 0x01, 0x00, 0x00, 0xac, 0xfd, 0xff, 0xff, 0x08, 0x00, 0x00, 0x00, 0x48, 0x00, 0x00, 0x00, 0x08, 0x00, 0x00, 0x00, 0x00, 0x00, 0x00, 0x00, 0x00, 0x00, 0x00, 0x00, 0x00, 0x00, 0x00, 0x00, 0x00, 0x00, 0x00, 0x00, 0x00, 0x00, 0x00, 0x00, 0x00, 0x00, 0x00, 0x00, 0x00, 0x00, 0x00, 0x00, 0x00, 0x00, 0x00, 0x00, 0x00, 0x00, 0x00, 0x00, 0x00, 0x00, 0x00, 0x00, 0x00, 0x00, 0x00, 0x00, 0x00, 0x00, 0x00, 0x00, 0x00, 0x00, 0x00, 0x00, 0x00, 0x00, 0x00, 0x00, 0x00, 0x00, 0x00, 0x00, 0x00, 0x00, 0x00, 0x00, 0x08, 0x00, 0x00, 0x00, 0x8e, 0x4d, 0x18, 0x3b, 0x76, 0x8c, 0x0b, 0x3b, 0x6f, 0xe0, 0x2f, 0x3b, 0xd0, 0xaa, 0x0e, 0x3b, 0x31, 0x75, 0x07, 0x3b, 0xa1, 0x9f, 0x08, 0x3b, 0xec, 0x16, 0x38, 0x3b, 0x4c, 0x36, 0x2a, 0x3b, 0xff, 0x00, 0x00, 0x00, 0x43, 0x6f, 0x6e, 0x76, 0x32, 0x44, 0x3b, 0x73, 0x65, 0x71, 0x75, 0x65, 0x6e, 0x74, 0x69, 0x61, 0x6c, 0x2f, 0x71, 0x75, 0x61, 0x6e, 0x74, 0x5f, 0x63, 0x6f, 0x6e, 0x76, 0x32, 0x64, 0x2f, 0x53, 0x74, 0x61, 0x74, 0x65, 0x66, 0x75, 0x6c, 0x50, 0x61, 0x72, 0x74, 0x69, 0x74, 0x69, 0x6f, 0x6e, 0x65, 0x64, 0x43, 0x61, 0x6c, 0x6c, 0x2f, 0x53, 0x74, 0x61, 0x74, 0x65, 0x66, 0x75, 0x6c, 0x50, 0x61, 0x72, 0x74, 0x69, 0x74, 0x69, 0x6f, 0x6e, 0x65, 0x64, 0x43, 0x61, 0x6c, 0x6c, 0x2f, 0x43, 0x6f, 0x6e, 0x76, 0x32, 0x44, 0x3b, 0x4c, 0x61, 0x73, 0x74, 0x56, 0x61, 0x6c, 0x75, 0x65, 0x51, 0x75, 0x61, 0x6e, 0x74, 0x2f, 0x46, 0x61, 0x6b, 0x65, 0x51, 0x75, 0x61, 0x6e, 0x74, 0x57, 0x69, 0x74, 0x68, 0x4d, 0x69, 0x6e, 0x4d, 0x61, 0x78, 0x56, 0x61, 0x72, 0x73, 0x50, 0x65, 0x72, 0x43, 0x68, 0x61, 0x6e, 0x6e, 0x65, 0x6c, 0x3b, 0x73, 0x65, 0x71, 0x75, 0x65, 0x6e, 0x74, 0x69, 0x61, 0x6c, 0x2f, 0x71, 0x75, 0x61, 0x6e, 0x74, 0x5f, 0x63, 0x6f, 0x6e, 0x76, 0x32, 0x64, 0x2f, 0x53, 0x74, 0x61, 0x74, 0x65, 0x66, 0x75, 0x6c, 0x50, 0x61, 0x72, 0x74, 0x69, 0x74, 0x69, 0x6f, 0x6e, 0x65, 0x64, 0x43, 0x61, 0x6c, 0x6c, 0x2f, 0x53, 0x74, 0x61, 0x74, 0x65, 0x66, 0x75, 0x6c, 0x50, 0x61, 0x72, 0x74, 0x69, 0x74, 0x69, 0x6f, 0x6e, 0x65, 0x64, 0x43, 0x61, 0x6c, 0x6c, 0x2f, 0x4c, 0x61, 0x73, 0x74, 0x56, 0x61, 0x6c, 0x75, 0x65, 0x51, 0x75, 0x61, 0x6e, 0x74, 0x2f, 0x46, 0x61, 0x6b, 0x65, 0x51, 0x75, 0x61, 0x6e, 0x74, 0x57, 0x69, 0x74, 0x68, 0x4d, 0x69, 0x6e, 0x4d, 0x61, 0x78, 0x56, 0x61, 0x72, 0x73, 0x50, 0x65, 0x72, 0x43, 0x68, 0x61, 0x6e, 0x6e, 0x65, 0x6c, 0x00, 0x04, 0x00, 0x00, 0x00, 0x08, 0x00, 0x00, 0x00, 0x03, 0x00, 0x00, 0x00, 0x03, 0x00, 0x00, 0x00, 0x01, 0x00, 0x00, 0x00, 0x00, 0x00, 0x0e, 0x00, 0x18, 0x00, 0x14, 0x00, 0x13, 0x00, 0x0c, 0x00, 0x08, 0x00, 0x04, 0x00, 0x0e, 0x00, 0x00, 0x00, 0x18, 0x00, 0x00, 0x00, 0x18, 0x00, 0x00, 0x00, 0x02, 0x00, 0x00, 0x00, 0x00, 0x00, 0x00, 0x02, 0x58, 0x00, 0x00, 0x00, 0x04, 0x00, 0x04, 0x00, 0x04, 0x00, 0x00, 0x00, 0x44, 0x00, 0x00, 0x00, 0x43, 0x6f, 0x6e, 0x73, 0x74, 0x3b, 0x73, 0x65, 0x71, 0x75, 0x65, 0x6e, 0x74, 0x69, 0x61, 0x6c, 0x2f, 0x71, 0x75, 0x61, 0x6e, 0x74, 0x5f, 0x66, 0x6c, 0x61, 0x74, 0x74, 0x65, 0x6e, 0x2f, 0x50, 0x61, 0x72, 0x74, 0x69, 0x74, 0x69, 0x6f, 0x6e, 0x65, 0x64, 0x43, 0x61, 0x6c, 0x6c, 0x2f, 0x50, 0x61, 0x72, 0x74, 0x69, 0x74, 0x69, 0x6f, 0x6e, 0x65, 0x64, 0x43, 0x61, 0x6c, 0x6c, 0x2f, 0x43, 0x6f, 0x6e, 0x73, 0x74, 0x00, 0x00, 0x00, 0x00, 0x01, 0x00, 0x00, 0x00, 0x02, 0x00, 0x00, 0x00, 0x14, 0x00, 0x1c, 0x00, 0x18, 0x00, 0x17, 0x00, 0x10, 0x00, 0x0c, 0x00, 0x08, 0x00, 0x00, 0x00, 0x00, 0x00, 0x04, 0x00, 0x14, 0x00, 0x00, 0x00, 0x18, 0x00, 0x00, 0x00, 0x34, 0x00, 0x00, 0x00, 0x50, 0x00, 0x00, 0x00, 0x01, 0x00, 0x00, 0x00, 0x00, 0x00, 0x00, 0x09, 0x50, 0x00, 0x00, 0x00, 0x04, 0x00, 0x00, 0x00, 0xff, 0xff, 0xff, 0xff, 0x20, 0x00, 0x00, 0x00, 0x20, 0x00, 0x00, 0x00, 0x01, 0x00, 0x00, 0x00, 0x0c, 0x00, 0x0c, 0x00, 0x00, 0x00, 0x00, 0x00, 0x08, 0x00, 0x04, 0x00, 0x0c, 0x00, 0x00, 0x00, 0x08, 0x00, 0x00, 0x00, 0x10, 0x00, 0x00, 0x00, 0x01, 0x00, 0x00, 0x00, 0x80, 0xff, 0xff, 0xff, 0xff, 0xff, 0xff, 0xff, 0x01, 0x00, 0x00, 0x00, 0xf1, 0xe5, 0xdd, 0x3c, 0x07, 0x00, 0x00, 0x00, 0x69, 0x6e, 0x70, 0x75, 0x74, 0x5f, 0x31, 0x00, 0x04, 0x00, 0x00, 0x00, 0x01, 0x00, 0x00, 0x00, 0x20, 0x00, 0x00, 0x00, 0x20, 0x00, 0x00, 0x00, 0x01, 0x00, 0x00, 0x00, 0x04, 0x00, 0x00, 0x00, 0x54, 0x00, 0x00, 0x00, 0x34, 0x00, 0x00, 0x00, 0x24, 0x00, 0x00, 0x00, 0x04, 0x00, 0x00, 0x00, 0xc8, 0xff, 0xff, 0xff, 0x09, 0x00, 0x00, 0x00, 0x04, 0x00, 0x00, 0x00, 0x00, 0x00, 0x00, 0x09, 0x0c, 0x00, 0x0c, 0x00, 0x0b, 0x00, 0x00, 0x00, 0x00, 0x00, 0x04, 0x00, 0x0c, 0x00, 0x00, 0x00, 0x16, 0x00, 0x00, 0x00, 0x00, 0x00, 0x00, 0x16, 0xf0, 0xff, 0xff, 0xff, 0x11, 0x00, 0x00, 0x00, 0x02, 0x00, 0x00, 0x00, 0x00, 0x00, 0x00, 0x11, 0x0c, 0x00, 0x10, 0x00, 0x0f, 0x00, 0x00, 0x00, 0x08, 0x00, 0x04, 0x00, 0x0c, 0x00, 0x00, 0x00, 0x03, 0x00, 0x00, 0x00, 0x03, 0x00, 0x00, 0x00, 0x00, 0x00, 0x00, 0x03};
const int model_data_len = 7056;