const unsigned char model_data[] __attribute__((aligned(8))) = {0x1c, 0x00, 0x00, 0x00, 0x54, 0x46, 0x4c, 0x33, 0x14, 0x00, 0x20, 0x00, 0x1c, 0x00, 0x18, 0x00, 0x14, 0x00, 0x10, 0x00, 0x0c, 0x00, 0x00, 0x00, 0x08, 0x00, 0x04, 0x00, 0x14, 0x00, 0x00, 0x00, 0x1c, 0x00, 0x00, 0x00, 0x1c, 0x00, 0x00, 0x00, 0x4c, 0x00, 0x00, 0x00, 0xdc, 0x0a, 0x00, 0x00, 0xec, 0x0a, 0x00, 0x00, 0xf4, 0x1a, 0x00, 0x00, 0x03, 0x00, 0x00, 0x00, 0x00, 0x00, 0x00, 0x00, 0x01, 0x00, 0x00, 0x00, 0x0c, 0x00, 0x00, 0x00, 0x08, 0x00, 0x0c, 0x00, 0x08, 0x00, 0x04, 0x00, 0x08, 0x00, 0x00, 0x00, 0x0f, 0x00, 0x00, 0x00, 0x04, 0x00, 0x00, 0x00, 0x13, 0x00, 0x00, 0x00, 0x6d, 0x69, 0x6e, 0x5f, 0x72, 0x75, 0x6e, 0x74, 0x69, 0x6d, 0x65, 0x5f, 0x76, 0x65, 0x72, 0x73, 0x69, 0x6f, 0x6e, 0x00, 0x10, 0x00, 0x00, 0x00, 0x8c, 0x0a, 0x00, 0x00, 0x84, 0x0a, 0x00, 0x00, 0x6c, 0x0a, 0x00, 0x00, 0x0c, 0x0a, 0x00, 0x00, 0xdc, 0x09, 0x00, 0x00, 0xd4, 0x09, 0x00, 0x00, 0xcc, 0x09, 0x00, 0x00, 0x3c, 0x05, 0x00, 0x00, 0xec, 0x04, 0x00, 0x00, 0xe4, 0x04, 0x00, 0x00, 0xdc, 0x04, 0x00, 0x00, 0xd4, 0x04, 0x00, 0x00, 0x44, 0x00, 0x00, 0x00, 0x2c, 0x00, 0x00, 0x00, 0x24, 0x00, 0x00, 0x00, 0x04, 0x00, 0x00, 0x00, 0xd2, 0xf5, 0xff, 0xff, 0x04, 0x00, 0x00, 0x00, 0x10, 0x00, 0x00, 0x00, 0x31, 0x2e, 0x31, 0x34, 0x2e, 0x30, 0x00, 0x00, 0x00, 0x00, 0x00, 0x00, 0x00, 0x00, 0x00, 0x00, 0x98, 0xe6, 0xff, 0xff, 0xf2, 0xf5, 0xff, 0xff, 0x04, 0x00, 0x00, 0x00, 0x08, 0x00, 0x00, 0x00, 0x38, 0xfc, 0xff, 0xff, 0xcb, 0x03, 0x00, 0x00, 0x06, 0xf6, 0xff, 0xff, 0x04, 0x00, 0x00, 0x00, 0x80, 0x04, 0x00, 0x00, 0xf8, 0x05, 0xf2, 0x16, 0x0a, 0xbb, 0x0b, 0xcc, 0x07, 0xf1, 0x0b, 0xf6, 0x1f, 0x1a, 0x13, 0xfb, 0xb7, 0xe2, 0xd1, 0x21, 0x04, 0xe2, 0x24, 0xd5, 0xff, 0x12, 0x21, 0xc0, 0x03, 0xf9, 0x00, 0xd8, 0xba, 0xc9, 0xe0, 0xfa, 0xf3, 0xd9, 0xc7, 0xe9, 0x20, 0xc0, 0x16, 0xcf, 0xf6, 0xe8, 0xc4, 0xbd, 0x18, 0xd1, 0xca, 0xf3, 0xf0, 0xe3, 0xfa, 0xf0, 0xff, 0xd3, 0x04, 0xf9, 0xf9, 0xeb, 0xf0, 0xec, 0x2b, 0x09, 0xfa, 0xfa, 0x0e, 0x10, 0xdb, 0x19, 0x29, 0x0e, 0x0a, 0xe5, 0x0f, 0xf0, 0x18, 0x02, 0x26, 0x17, 0x1d, 0xfa, 0x0d, 0xf8, 0x0a, 0x0f, 0x01, 0xd3, 0xea, 0x15, 0x12, 0x11, 0x12, 0x0f, 0xfb, 0x11, 0x00, 0xfa, 0xf9, 0x99, 0x07, 0xdc, 0x10, 0xf0, 0x07, 0xfa, 0xfd, 0x06, 0x07, 0xf3, 0xe5, 0xde, 0xfd, 0x29, 0xfb, 0xd6, 0x1e, 0xc9, 0x2a, 0x1d, 0x29, 0xe3, 0x20, 0x08, 0x25, 0x04, 0x0a, 0xf4, 0x1c, 0xe9, 0xf8, 0x10, 0xc1, 0xf3, 0xf5, 0xf3, 0xe3, 0xe8, 0x05, 0xf2, 0x07, 0x05, 0xf2, 0xed, 0xeb, 0x23, 0xce, 0xde, 0xf7, 0xdc, 0x07, 0x12, 0xf1, 0xe4, 0xdd, 0xf7, 0xdc, 0xfd, 0x13, 0x07, 0xfa, 0xe7, 0x0b, 0xf2, 0xee, 0x03, 0xd5, 0xae, 0xd2, 0x00, 0x16, 0x19, 0x10, 0x1d, 0x18, 0x11, 0x14, 0xf9, 0x17, 0x03, 0xfe, 0xf7, 0xd8, 0xa4, 0xf4, 0xfe, 0x0c, 0x12, 0x14, 0x16, 0xef, 0x16, 0xfd, 0xed, 0x19, 0xca, 0xf4, 0xe4, 0xf2, 0xed, 0xeb, 0x1c, 0x08, 0x02, 0x08, 0x08, 0xd1, 0xed, 0xf5, 0xfe, 0x0b, 0xe4, 0x4e, 0xe8, 0x2d, 0x4e, 0x2d, 0xee, 0x0c, 0x0a, 0x1e, 0xf9, 0x12, 0x09, 0xe8, 0x11, 0xf6, 0xef, 0xd7, 0xe3, 0x18, 0x3b, 0xfb, 0xff, 0x1d, 0x07, 0xf1, 0x17, 0x16, 0xf2, 0xf6, 0xeb, 0x0a, 0x09, 0x05, 0xee, 0xff, 0x0c, 0xe3, 0xeb, 0x13, 0x16, 0x0a, 0xf8, 0x21, 0x0b, 0x14, 0xf8, 0x0a, 0x0c, 0x01, 0x0d, 0xf0, 0xbe, 0xe1, 0x16, 0x1b, 0x0d, 0xf6, 0xfb, 0x06, 0x06, 0x18, 0xe8, 0x15, 0x18, 0x20, 0x1d, 0xd5, 0xac, 0xeb, 0xfe, 0x15, 0x16, 0x06, 0x09, 0x07, 0x0d, 0xf8, 0xd1, 0xdf, 0xd3, 0xc5, 0xe8, 0xe1, 0x0d, 0xa5, 0x02, 0x03, 0xfd, 0xea, 0x0e, 0x27, 0xec, 0xd8, 0x31, 0xac, 0xe2, 0x77, 0xec, 0x3a, 0x6d, 0x13, 0xe8, 0x17, 0xe5, 0xfe, 0x20, 0x27, 0x05, 0x06, 0xe7, 0x01, 0xf2, 0xdf, 0xef, 0xdd, 0x07, 0x24, 0xfe, 0x21, 0x0a, 0xff, 0x0c, 0x25, 0x05, 0xfd, 0xe9, 0x00, 0x02, 0xdc, 0xfc, 0xf2, 0x03, 0xfc, 0xe6, 0x0c, 0xed, 0x08, 0xef, 0x2c, 0x03, 0x0b, 0x10, 0x1a, 0x0c, 0x15, 0xed, 0xc9, 0x81, 0xee, 0xfe, 0x0a, 0xfc, 0x04, 0x0c, 0x3d, 0x11, 0x2a, 0x00, 0x05, 0xf5, 0x0f, 0x03, 0xe9, 0xa0, 0xea, 0x13, 0xf3, 0x16, 0x13, 0x1d, 0xf6, 0xfc, 0xe8, 0xdc, 0xc5, 0xce, 0xf3, 0xde, 0xe9, 0x09, 0xe3, 0x07, 0xdd, 0xee, 0xf5, 0x09, 0xd3, 0xe4, 0xe5, 0x2f, 0xa9, 0xbe, 0x43, 0xb4, 0x24, 0x45, 0x31, 0xdd, 0xb4, 0xb5, 0x8f, 0x02, 0x03, 0xfb, 0xe5, 0xf1, 0xf5, 0xef, 0xdc, 0xfb, 0xd9, 0xb6, 0x06, 0xf6, 0xdb, 0xda, 0xed, 0xe4, 0x09, 0xf8, 0xf5, 0x10, 0xf9, 0xfc, 0xcc, 0x17, 0x02, 0xc3, 0xe2, 0xf1, 0xed, 0xe4, 0xef, 0x11, 0x20, 0xf5, 0xef, 0xf4, 0xf0, 0xfa, 0x00, 0x1b, 0xcb, 0xba, 0xd7, 0xf1, 0xe3, 0x02, 0x10, 0x0e, 0xdf, 0x10, 0x11, 0x04, 0x21, 0x06, 0xdb, 0x01, 0xc7, 0xdc, 0xca, 0xfa, 0x14, 0xf2, 0xee, 0xf1, 0xfc, 0xff, 0xe1, 0xfc, 0xc0, 0xc3, 0xfe, 0xe8, 0xfe, 0x04, 0xf2, 0xf9, 0xc4, 0xdd, 0xe9, 0x1e, 0x05, 0xd2, 0xbd, 0xf0, 0xc8, 0xcc, 0x0d, 0xc9, 0x37, 0x30, 0x24, 0xba, 0x99, 0xa7, 0x9f, 0x1a, 0xb8, 0xe6, 0xed, 0xee, 0xe6, 0xff, 0xeb, 0xdf, 0xd9, 0xe5, 0xe6, 0xe9, 0xd4, 0xee, 0xb3, 0xda, 0x0c, 0xfd, 0xcf, 0xfd, 0xcd, 0x11, 0xd4, 0xe9, 0xf1, 0xfa, 0xf9, 0xe4, 0xe6, 0xd7, 0xd8, 0xd1, 0x07, 0xee, 0x00, 0xdd, 0xf0, 0xf3, 0x18, 0xfc, 0x00, 0x24, 0xd9, 0x0a, 0xe5, 0xe1, 0xf0, 0xe2, 0x07, 0x11, 0xf8, 0x08, 0x0c, 0xff, 0xe6, 0x00, 0xcf, 0x0b, 0xe7, 0x01, 0xdc, 0xf0, 0xf4, 0xe4, 0x0c, 0xfc, 0x02, 0xf8, 0xff, 0x44, 0xf3, 0x2c, 0x02, 0x1f, 0xeb, 0xf3, 0xe1, 0x05, 0x04, 0x05, 0x52, 0x2f, 0x2b, 0xd3, 0xef, 0x1b, 0xf9, 0x3e, 0xd8, 0x0a, 0xe7, 0x34, 0xeb, 0x17, 0x19, 0x25, 0x4f, 0x2f, 0x17, 0x15, 0x09, 0x14, 0x41, 0x2c, 0x03, 0x2c, 0xfa, 0x24, 0x1d, 0x17, 0x2b, 0x38, 0xf1, 0x1c, 0x2c, 0xf7, 0x09, 0x09, 0x1a, 0x03, 0x01, 0x08, 0xfb, 0x1b, 0x0e, 0x22, 0x0b, 0x01, 0xc2, 0xfd, 0xeb, 0xf4, 0xf3, 0xff, 0x2b, 0x04, 0xd2, 0xee, 0x06, 0x09, 0xf8, 0x07, 0xf8, 0xfd, 0xba, 0xfc, 0xe7, 0x04, 0xf7, 0xf8, 0x10, 0xf4, 0xfc, 0x29, 0xfd, 0xeb, 0xdc, 0xdd, 0xdc, 0xd4, 0x0b, 0xee, 0xed, 0xf9, 0xf6, 0x64, 0xfb, 0x44, 0x1b, 0x08, 0xf7, 0xe4, 0xe5, 0xee, 0xf2, 0xf2, 0x3d, 0x2b, 0xfc, 0xfd, 0x0c, 0x15, 0xeb, 0x23, 0xf5, 0xdf, 0xeb, 0x3e, 0xfb, 0x05, 0xe8, 0xfd, 0xfa, 0x0a, 0x01, 0xfb, 0xf9, 0x0d, 0x26, 0xfe, 0xfd, 0x1d, 0x25, 0xf7, 0xf7, 0x05, 0x08, 0x19, 0xed, 0x19, 0x17, 0xdb, 0x12, 0x1e, 0x06, 0x21, 0xe9, 0xe0, 0x23, 0x1f, 0x28, 0x17, 0x01, 0xfe, 0xf1, 0xfe, 0xf4, 0x20, 0x02, 0xfc, 0xff, 0xf4, 0x22, 0x58, 0x06, 0x1a, 0xdb, 0x07, 0xe8, 0xed, 0xe6, 0xff, 0xf6, 0x1f, 0xf9, 0x07, 0x1e, 0xf0, 0x30, 0x67, 0x1a, 0xe8, 0xe9, 0xe1, 0xe4, 0xea, 0x1d, 0x04, 0xf9, 0x09, 0x0e, 0x25, 0x09, 0x21, 0x12, 0x0d, 0x0b, 0xf5, 0xde, 0xed, 0xfe, 0xf6, 0x37, 0x0f, 0x13, 0x02, 0x09, 0x24, 0xb4, 0x09, 0xcc, 0xb3, 0xee, 0xec, 0xf0, 0xf9, 0x02, 0xf4, 0xe4, 0xfb, 0x09, 0xea, 0xf2, 0x26, 0x2a, 0x07, 0xfa, 0xea, 0x14, 0xfb, 0x0a, 0xf2, 0x10, 0xf7, 0xe8, 0x1b, 0x04, 0xf7, 0x0c, 0xf5, 0xd4, 0x0d, 0x02, 0x0f, 0x0d, 0x05, 0xf2, 0x11, 0x11, 0x0c, 0xdc, 0xf1, 0xf7, 0xf9, 0xef, 0xf6, 0x0b, 0x0b, 0x17, 0x5e, 0x20, 0x08, 0xfa, 0xe9, 0xf1, 0x08, 0xdc, 0xfe, 0xea, 0x02, 0xfc, 0x01, 0xf4, 0xf6, 0x23, 0x40, 0x25, 0xf9, 0xca, 0x04, 0xef, 0xff, 0x14, 0xf3, 0x01, 0x36, 0x24, 0x1e, 0x2c, 0xfd, 0x22, 0x1c, 0x42, 0xe1, 0xf2, 0x0a, 0xf3, 0xe7, 0xed, 0xfc, 0x1e, 0xd1, 0x50, 0x19, 0x86, 0x2a, 0xad, 0x9d, 0xdd, 0x07, 0xc4, 0x28, 0xfe, 0xda, 0xf8, 0xfe, 0xec, 0xf3, 0x08, 0x16, 0x1e, 0x14, 0x1c, 0x13, 0xf3, 0xf0, 0xd9, 0x0e, 0xf0, 0xe7, 0xf4, 0xfc, 0xef, 0xff, 0x1d, 0x0e, 0x22, 0xf6, 0xfd, 0x19, 0x06, 0x07, 0xf3, 0x0c, 0xfd, 0x02, 0xde, 0xf9, 0x09, 0x0d, 0x00, 0x05, 0x0f, 0xee, 0x24, 0x5b, 0x24, 0x0a, 0x04, 0xf0, 0xea, 0xfb, 0xe9, 0xe7, 0xfb, 0x15, 0xff, 0xea, 0xe4, 0xfb, 0x26, 0x61, 0x19, 0xec, 0xed, 0xf6, 0xf8, 0xe5, 0xfe, 0xf0, 0x01, 0x16, 0x41, 0x3d, 0x1c, 0x1a, 0xf9, 0x0a, 0x25, 0xfe, 0x28, 0x12, 0x32, 0xfa, 0x21, 0x22, 0x24, 0xd5, 0x6a, 0x38, 0xd4, 0x41, 0xe3, 0xb0, 0xec, 0x27, 0x38, 0x67, 0x77, 0xed, 0xdf, 0x10, 0x25, 0xfb, 0x12, 0x08, 0x0a, 0x02, 0x16, 0x5e, 0xe9, 0x1a, 0x21, 0x1e, 0x16, 0x16, 0xfd, 0x01, 0xf7, 0xee, 0x16, 0x0c, 0x13, 0x0a, 0x1f, 0x34, 0xfd, 0x1e, 0x0f, 0x1f, 0x03, 0x12, 0xd3, 0x0f, 0x08, 0xf5, 0xf6, 0xf7, 0x06, 0x05, 0x27, 0x6a, 0x1b, 0x07, 0x22, 0x15, 0xfa, 0xeb, 0x27, 0xf5, 0xf9, 0xf1, 0x04, 0xf4, 0x27, 0x02, 0x19, 0x43, 0x31, 0xf1, 0x06, 0x12, 0x00, 0xf8, 0x02, 0x0d, 0x20, 0x0f, 0x5f, 0x53, 0x05, 0x13, 0xf8, 0x12, 0x03, 0xf2, 0x3b, 0x1d, 0x10, 0x0b, 0x0a, 0x20, 0x50, 0x03, 0x4b, 0x1d, 0x08, 0x36, 0xe3, 0xb7, 0xda, 0x50, 0x4f, 0x56, 0x50, 0xf6, 0x28, 0x2c, 0x25, 0x17, 0x0b, 0x26, 0x2f, 0x16, 0x2c, 0x08, 0x25, 0x28, 0x22, 0x07, 0x45, 0x44, 0xec, 0x09, 0x4d, 0xff, 0x13, 0x02, 0x1e, 0x01, 0x02, 0xfa, 0x32, 0x1d, 0x34, 0x35, 0x1b, 0x33, 0x11, 0x0e, 0x18, 0x10, 0xf8, 0xf4, 0x07, 0x1f, 0x08, 0xf4, 0x23, 0xf0, 0x07, 0x02, 0x0b, 0x1f, 0xfc, 0xfd, 0x12, 0x0d, 0x1b, 0xfc, 0x1d, 0xfd, 0x11, 0xff, 0x20, 0x11, 0x1e, 0xff, 0x0b, 0xf1, 0x3c, 0xeb, 0xff, 0xff, 0x40, 0xeb, 0xff, 0xff, 0x44, 0xeb, 0xff, 0xff, 0x9e, 0xfa, 0xff, 0xff, 0x04, 0x00, 0x00, 0x00, 0x40, 0x00, 0x00, 0x00, 0xf8, 0xff, 0xff, 0xff, 0x06, 0x00, 0x00, 0x00, 0xcf, 0xff, 0xff, 0xff, 0x0c, 0x00, 0x00, 0x00, 0x87, 0x00, 0x00, 0x00, 0x1e, 0x00, 0x00, 0x00, 0xf4, 0xff, 0xff, 0xff, 0x10, 0x00, 0x00, 0x00, 0x74, 0x00, 0x00, 0x00, 0x0e, 0x00, 0x00, 0x00, 0x79, 0x00, 0x00, 0x00, 0x07, 0x00, 0x00, 0x00, 0xd3, 0xff, 0xff, 0xff, 0x0d, 0x00, 0x00, 0x00, 0x20, 0x00, 0x00, 0x00, 0x06, 0x00, 0x00, 0x00, 0xea, 0xfa, 0xff, 0xff, 0x04, 0x00, 0x00, 0x00, 0x80, 0x04, 0x00, 0x00, 0x0f, 0xfc, 0xf9, 0xfa, 0xe5, 0x02, 0x16, 0x02, 0x32, 0xe8, 0x2b, 0x2f, 0x72, 0xf8, 0xf7, 0x3e, 0x05, 0x33, 0x36, 0x29, 0x32, 0x1a, 0x4e, 0x0d, 0xe4, 0xd2, 0xe0, 0xdc, 0xa2, 0xae, 0xd4, 0xd7, 0xc7, 0xd7, 0xf9, 0x0f, 0xb9, 0x99, 0xe1, 0xec, 0xf6, 0xd2, 0x36, 0x08, 0xf9, 0xc0, 0x04, 0x06, 0xfd, 0xcf, 0xde, 0xf2, 0xda, 0xf4, 0x91, 0xd8, 0xbb, 0xf1, 0x81, 0xe0, 0xb1, 0xab, 0xae, 0xdb, 0x16, 0xca, 0x9d, 0xd7, 0xda, 0xc3, 0xf7, 0xfe, 0xf9, 0x0c, 0x10, 0xe5, 0xed, 0xf7, 0xec, 0x12, 0x17, 0x2e, 0xf8, 0x29, 0x25, 0x30, 0x22, 0x2f, 0x00, 0x0b, 0x1d, 0x07, 0x08, 0x00, 0xc3, 0xe6, 0xf2, 0x00, 0xfc, 0xef, 0x04, 0xf9, 0x05, 0xd8, 0x2c, 0x11, 0x24, 0x2c, 0xe3, 0x02, 0x3e, 0x19, 0x0a, 0xe2, 0x7f, 0xd7, 0xe5, 0x07, 0xf3, 0xe4, 0xf2, 0x06, 0x0d, 0xee, 0xe7, 0xf8, 0xdb, 0x01, 0xff, 0xe3, 0x30, 0x01, 0x20, 0x04, 0x1c, 0x16, 0x36, 0x12, 0x1a, 0xe8, 0xb1, 0x1a, 0xf9, 0xee, 0x01, 0xf4, 0xfb, 0xfc, 0xfe, 0xec, 0x09, 0x1c, 0x31, 0x1f, 0xdd, 0x17, 0x33, 0xfd, 0x14, 0xf6, 0x14, 0x0f, 0x54, 0xce, 0x04, 0x2d, 0xcb, 0xc5, 0xd5, 0xff, 0xe8, 0xf9, 0xea, 0xe2, 0x07, 0x01, 0x15, 0xf0, 0x20, 0x27, 0x08, 0xdf, 0xf6, 0x22, 0x06, 0x02, 0x7f, 0x04, 0x07, 0xf9, 0x02, 0x26, 0xff, 0xf8, 0x0f, 0xec, 0xed, 0xd9, 0xdb, 0x10, 0x3e, 0x54, 0x10, 0x3a, 0xfe, 0x21, 0x2e, 0xec, 0x2b, 0x09, 0x39, 0x01, 0xff, 0x01, 0x18, 0x11, 0xf2, 0xff, 0x04, 0xfd, 0xf1, 0x00, 0xf1, 0xea, 0xd5, 0xc0, 0x88, 0xb2, 0xd9, 0x81, 0xae, 0xbd, 0xe0, 0xbb, 0xe9, 0xb3, 0xe0, 0xa8, 0xc6, 0xbb, 0x01, 0xfc, 0xfa, 0x01, 0xff, 0x04, 0xe1, 0xfe, 0xdc, 0xea, 0x99, 0xb4, 0xef, 0x8f, 0xc7, 0xe5, 0xe9, 0xaf, 0xe6, 0xba, 0xbb, 0xdb, 0xc3, 0xcd, 0x03, 0xff, 0xfd, 0x01, 0xf8, 0xff, 0xd7, 0xf1, 0x00, 0xd4, 0x97, 0xb4, 0xf0, 0x83, 0xe2, 0xeb, 0xcd, 0xe6, 0xf5, 0xd2, 0xe0, 0xcb, 0xa1, 0xbf, 0xc9, 0xcb, 0x81, 0xd9, 0xd0, 0xc4, 0xc4, 0xdb, 0xfd, 0x2c, 0xd9, 0xe9, 0xed, 0xb9, 0xe0, 0x2d, 0x4d, 0xd7, 0x35, 0x3b, 0xfa, 0x29, 0xea, 0x11, 0x14, 0xaf, 0xcd, 0xc6, 0xd9, 0xb9, 0xe0, 0xcc, 0xfa, 0xf4, 0x2e, 0x04, 0x08, 0xfe, 0xfa, 0x04, 0xf4, 0xab, 0x42, 0xeb, 0xf3, 0x25, 0x5d, 0x46, 0xd3, 0x29, 0xc8, 0xea, 0x02, 0xcd, 0x04, 0xe4, 0x0f, 0x2b, 0xfc, 0x60, 0x51, 0x2d, 0x37, 0xe3, 0x3e, 0x21, 0x54, 0xd6, 0x75, 0x3f, 0x07, 0xf3, 0xc7, 0xbe, 0x94, 0xce, 0xe9, 0xc0, 0xea, 0xcc, 0x02, 0x20, 0xa5, 0x15, 0x2f, 0x0d, 0x36, 0x53, 0x52, 0x4c, 0xec, 0x5f, 0x72, 0xfa, 0x4d, 0x47, 0xe9, 0xa2, 0x93, 0xb5, 0x8e, 0xbc, 0xad, 0xc2, 0x28, 0x09, 0x81, 0x07, 0x04, 0x09, 0x35, 0x22, 0x4e, 0x30, 0x0b, 0x4f, 0x44, 0x5d, 0x3c, 0x14, 0xe1, 0xd8, 0xab, 0xce, 0x9d, 0xd0, 0xc8, 0xd9, 0x07, 0xfe, 0xa9, 0x1c, 0xfa, 0xe2, 0x09, 0x15, 0xfa, 0x47, 0x05, 0x2d, 0x47, 0xea, 0x38, 0x52, 0xf9, 0x18, 0x0e, 0x07, 0x04, 0x01, 0xd4, 0xee, 0xf4, 0xde, 0xa1, 0xb4, 0xed, 0x84, 0xab, 0x9d, 0xd7, 0xbf, 0xce, 0xc9, 0xbe, 0x8d, 0x96, 0xa5, 0xfe, 0xfd, 0x14, 0xfc, 0x09, 0x01, 0xcf, 0xdd, 0xdd, 0xe0, 0x90, 0xaf, 0xe2, 0x81, 0xc4, 0xc1, 0xd9, 0xd1, 0xf2, 0x97, 0xc2, 0xbc, 0xad, 0xa5, 0x14, 0xef, 0x14, 0x0e, 0x06, 0xe7, 0xc2, 0x11, 0xd7, 0xda, 0xbf, 0xc3, 0xc5, 0x89, 0xc7, 0xd3, 0xce, 0xeb, 0xca, 0xca, 0xcc, 0xb9, 0x99, 0xb6, 0xc2, 0xd1, 0xc5, 0xf6, 0xde, 0xdb, 0xf8, 0xe5, 0x0b, 0x23, 0xb0, 0x3a, 0x18, 0x06, 0x0d, 0x4e, 0x48, 0xfd, 0x0e, 0x03, 0x3c, 0x3b, 0xef, 0x09, 0xe0, 0xe2, 0x81, 0xde, 0xc7, 0xc8, 0xf2, 0xda, 0x1c, 0x25, 0xd9, 0x26, 0x3a, 0xf3, 0x3e, 0x1c, 0xfd, 0x32, 0x49, 0x0e, 0x1e, 0x18, 0x18, 0xf6, 0xb2, 0xdd, 0x95, 0xca, 0xe8, 0xd6, 0xed, 0xeb, 0x0f, 0xf5, 0xd3, 0x27, 0x0e, 0xf2, 0x22, 0x32, 0x06, 0x0b, 0x47, 0x2c, 0x1a, 0x48, 0xfb, 0x2c, 0xdc, 0x10, 0xfc, 0x04, 0x51, 0xf8, 0x3d, 0x00, 0xa1, 0xd1, 0xa3, 0xb7, 0x08, 0x02, 0xfa, 0xd9, 0x94, 0x94, 0xf1, 0x14, 0x00, 0xf2, 0xf4, 0xdb, 0x19, 0x14, 0x19, 0xed, 0xf7, 0xfd, 0xfa, 0xff, 0xa8, 0x9d, 0xac, 0x92, 0xc8, 0xe6, 0xae, 0x03, 0xbf, 0xcb, 0xcc, 0x9a, 0xe5, 0x81, 0xce, 0xa0, 0x15, 0x29, 0x2a, 0xd9, 0x30, 0xfa, 0x23, 0x29, 0xf0, 0xcf, 0xcf, 0xb1, 0xdf, 0xc0, 0xab, 0x85, 0x44, 0x28, 0xcb, 0xd3, 0xf5, 0xbf, 0xe1, 0xc6, 0xf3, 0x08, 0x15, 0xfb, 0x28, 0xf6, 0x33, 0x34, 0x81, 0xa3, 0x17, 0xcf, 0xe2, 0x19, 0xec, 0xc5, 0xbc, 0xcb, 0xb4, 0xcf, 0xc5, 0xaf, 0xac, 0xe8, 0x03, 0xf6, 0xc7, 0xf9, 0xe6, 0x02, 0x03, 0xfe, 0xc3, 0xd3, 0xde, 0xbb, 0xcf, 0xdc, 0xd1, 0xaa, 0xdf, 0xa1, 0xbb, 0xc0, 0xcb, 0xa7, 0xf9, 0xab, 0xfb, 0x18, 0x14, 0x08, 0x29, 0xf9, 0x1f, 0x07, 0xe5, 0xde, 0xe5, 0xf7, 0xe9, 0x12, 0xd8, 0xe6, 0xdd, 0x02, 0xea, 0x00, 0xd6, 0xf5, 0xd8, 0xad, 0xfd, 0x00, 0x05, 0xfc, 0xf8, 0xff, 0xda, 0xf0, 0xe6, 0xd4, 0xa3, 0xb0, 0xc6, 0x98, 0xb1, 0xb4, 0xd4, 0xa0, 0xd4, 0xce, 0xdb, 0xb6, 0x97, 0xd2, 0xff, 0xff, 0x13, 0x0d, 0x01, 0xff, 0xd1, 0xf0, 0xf2, 0xea, 0xab, 0xb2, 0xd3, 0x81, 0xcf, 0xe5, 0xd8, 0xd0, 0xdf, 0xca, 0xce, 0xc7, 0x9d, 0xba, 0x00, 0xee, 0x10, 0xfd, 0xfd, 0x02, 0xed, 0xfe, 0xdb, 0xd9, 0xaf, 0xb7, 0xd6, 0x8a, 0xbf, 0xc7, 0xd7, 0xc7, 0xe4, 0xcb, 0xd4, 0xb4, 0xaf, 0xdf, 0xe1, 0x01, 0xf5, 0xfe, 0x14, 0xfd, 0x10, 0x08, 0x2a, 0x32, 0x11, 0xfc, 0x3a, 0xf0, 0xdc, 0x55, 0x06, 0x0b, 0x3d, 0x32, 0xf5, 0x0d, 0xcb, 0xd3, 0x10, 0xf3, 0x12, 0xf9, 0xf0, 0xf4, 0x14, 0x0f, 0x55, 0x31, 0xf6, 0x20, 0x4b, 0x12, 0x61, 0x7f, 0xd2, 0xd4, 0x4c, 0xdd, 0xd4, 0xfd, 0xee, 0xcd, 0xef, 0x02, 0xfd, 0xee, 0xfc, 0xf7, 0x02, 0x06, 0x1f, 0xe8, 0x32, 0x28, 0x57, 0xe7, 0xe5, 0x1d, 0x26, 0x06, 0xfe, 0xf8, 0xed, 0x16, 0xc3, 0xd8, 0xff, 0xb0, 0xc7, 0xb4, 0xb3, 0xb2, 0x82, 0xc4, 0xea, 0xc3, 0xd8, 0x99, 0xcc, 0xc3, 0x18, 0xd4, 0xef, 0xbe, 0x11, 0x94, 0xd1, 0xfc, 0xda, 0xfd, 0xec, 0x32, 0xc9, 0x97, 0xa2, 0xe0, 0xce, 0xad, 0x39, 0xdf, 0x09, 0x17, 0xfe, 0xc4, 0xca, 0x0e, 0x04, 0xf1, 0xd3, 0x1b, 0x34, 0xcc, 0xd1, 0xf1, 0x60, 0x51, 0x1b, 0xf7, 0x16, 0xf4, 0x27, 0x11, 0x38, 0x35, 0x4b, 0x54, 0x46, 0x7f, 0xfe, 0x0e, 0x39, 0x01, 0x4b, 0x50, 0xfa, 0xef, 0xec, 0x0e, 0xcd, 0xd7, 0xf8, 0xee, 0xd9, 0xd3, 0xcd, 0xf7, 0xeb, 0x49, 0xa5, 0xb7, 0x1f, 0xc3, 0xce, 0x0b, 0xf2, 0xc2, 0x12, 0x14, 0xcd, 0x47, 0xa2, 0xf5, 0xe7, 0x20, 0xea, 0x15, 0xc5, 0xf4, 0xde, 0xb1, 0x19, 0xcf, 0x00, 0xe4, 0xda, 0xeb, 0x19, 0xcd, 0xe1, 0x2c, 0x06, 0x12, 0xc5, 0xe9, 0x08, 0xbe, 0x2d, 0x25, 0xca, 0x06, 0x04, 0x03, 0x1b, 0x01, 0x3f, 0x30, 0xe2, 0x11, 0x24, 0xfc, 0x02, 0x37, 0x07, 0x16, 0x29, 0x1e, 0xe6, 0x7f, 0xda, 0x14, 0xe3, 0xdc, 0x0d, 0xdc, 0xb5, 0xd9, 0xe3, 0xed, 0xed, 0x4a, 0xc7, 0x1a, 0x0d, 0xaf, 0x2f, 0x0e, 0x25, 0x3c, 0x7f, 0x51, 0x06, 0xe3, 0xe5, 0x22, 0xe3, 0xe4, 0xff, 0xd8, 0xe0, 0xe7, 0xa7, 0xdb, 0x0e, 0xf9, 0xc7, 0xe8, 0x2e, 0xc8, 0x1f, 0xe7, 0xff, 0xc2, 0x56, 0xe6, 0xcc, 0xa4, 0x00, 0x32, 0x40, 0xf2, 0x0a, 0xf3, 0x38, 0x03, 0xe5, 0x05, 0x27, 0x5b, 0xef, 0x0f, 0xe3, 0x1d, 0xf7, 0xfe, 0x5d, 0xf7, 0x7f, 0x21, 0x15, 0x5a, 0x50, 0x04, 0xee, 0xdb, 0x19, 0x05, 0x3f, 0xff, 0x52, 0x0e, 0x09, 0x07, 0x77, 0xd6, 0x40, 0x20, 0xe2, 0x40, 0x12, 0xe8, 0x7f, 0xd6, 0x2b, 0x1e, 0x1c, 0x0e, 0xea, 0xf0, 0xf7, 0xe0, 0xcc, 0xfc, 0xd3, 0x0f, 0xfa, 0xce, 0x44, 0x05, 0xa3, 0xdf, 0xf0, 0xfd, 0xfd, 0xe9, 0xde, 0xd9, 0xd7, 0xc4, 0xbd, 0x02, 0x05, 0xfe, 0x06, 0xc3, 0xeb, 0xf2, 0xd1, 0xe3, 0x2d, 0x18, 0x21, 0xe4, 0x4c, 0xf7, 0x12, 0xdf, 0x05, 0xef, 0xaf, 0x0a, 0xeb, 0xb6, 0x09, 0xf8, 0x20, 0xf0, 0xff, 0xff, 0x24, 0xf0, 0xff, 0xff, 0x7e, 0xff, 0xff, 0xff, 0x04, 0x00, 0x00, 0x00, 0x20, 0x00, 0x00, 0x00, 0xe1, 0xff, 0xff, 0xff, 0xf5, 0xff, 0xff, 0xff, 0xef, 0xff, 0xff, 0xff, 0xeb, 0xff, 0xff, 0xff, 0x12, 0x00, 0x00, 0x00, 0xee, 0xff, 0xff, 0xff, 0x01, 0x00, 0x00, 0x00, 0xfd, 0xff, 0xff, 0xff, 0xaa, 0xff, 0xff, 0xff, 0x04, 0x00, 0x00, 0x00, 0x48, 0x00, 0x00, 0x00, 0xfa, 0xf9, 0x23, 0x06, 0xfb, 0x18, 0xf2, 0x1b, 0x7f, 0xe9, 0x0d, 0x3e, 0xe9, 0x00, 0x57, 0x0a, 0x27, 0x7f, 0x7f, 0x07, 0x7e, 0x05, 0x2c, 0xe1, 0xa4, 0x84, 0xd5, 0xea, 0x41, 0x7f, 0x2b, 0x54, 0x60, 0xc4, 0x2c, 0x4b, 0x0a, 0x03, 0x3f, 0x1b, 0x33, 0x7f, 0xdd, 0xeb, 0x29, 0x74, 0x1f, 0xe5, 0x4b, 0x7f, 0xe8, 0x4f, 0x4d, 0x54, 0x22, 0x1b, 0x7f, 0xdb, 0x08, 0x65, 0xe7, 0x1a, 0x35, 0x07, 0x2b, 0x7f, 0xf5, 0x00, 0x6e, 0x04, 0xd5, 0x34, 0x00, 0x00, 0x06, 0x00, 0x08, 0x00, 0x04, 0x00, 0x06, 0x00, 0x00, 0x00, 0x04, 0x00, 0x00, 0x00, 0x08, 0x00, 0x00, 0x00, 0xff, 0xff, 0xff, 0xff, 0x40, 0x02, 0x00, 0x00, 0xc4, 0xf0, 0xff, 0xff, 0xc8, 0xf0, 0xff, 0xff, 0x0f, 0x00, 0x00, 0x00, 0x4d, 0x4c, 0x49, 0x52, 0x20, 0x43, 0x6f, 0x6e, 0x76, 0x65, 0x72, 0x74, 0x65, 0x64, 0x2e, 0x00, 0x01, 0x00, 0x00, 0x00, 0x14, 0x00, 0x00, 0x00, 0x00, 0x00, 0x0e, 0x00, 0x18, 0x00, 0x14, 0x00, 0x10, 0x00, 0x0c, 0x00, 0x08, 0x00, 0x04, 0x00, 0x0e, 0x00, 0x00, 0x00, 0x14, 0x00, 0x00, 0x00, 0x1c, 0x00, 0x00, 0x00, 0xd4, 0x01, 0x00, 0x00, 0xd8, 0x01, 0x00, 0x00, 0xdc, 0x01, 0x00, 0x00, 0x04, 0x00, 0x00, 0x00, 0x6d, 0x61, 0x69, 0x6e, 0x00, 0x00, 0x00, 0x00, 0x06, 0x00, 0x00, 0x00, 0x6c, 0x01, 0x00, 0x00, 0x08, 0x01, 0x00, 0x00, 0xb4, 0x00, 0x00, 0x00, 0x70, 0x00, 0x00, 0x00, 0x48, 0x00, 0x00, 0x00, 0x04, 0x00, 0x00, 0x00, 0x1a, 0xff, 0xff, 0xff, 0x14, 0x00, 0x00, 0x00, 0x00, 0x00, 0x00, 0x08, 0x10, 0x00, 0x00, 0x00, 0x14, 0x00, 0x00, 0x00, 0x03, 0x00, 0x00, 0x00, 0x50, 0xf1, 0xff, 0xff, 0x01, 0x00, 0x00, 0x00, 0x0d, 0x00, 0x00, 0x00, 0x03, 0x00, 0x00, 0x00, 0x0a, 0x00, 0x00, 0x00, 0x0b, 0x00, 0x00, 0x00, 0x0c, 0x00, 0x00, 0x00, 0x00, 0x00, 0x0a, 0x00, 0x10, 0x00, 0x0c, 0x00, 0x08, 0x00, 0x04, 0x00, 0x0a, 0x00, 0x00, 0x00, 0x0c, 0x00, 0x00, 0x00, 0x10, 0x00, 0x00, 0x00, 0x02, 0x00, 0x00, 0x00, 0x01, 0x00, 0x00, 0x00, 0x0a, 0x00, 0x00, 0x00, 0x02, 0x00, 0x00, 0x00, 0x09, 0x00, 0x00, 0x00, 0x01, 0x00, 0x00, 0x00, 0x7e, 0xff, 0xff, 0xff, 0x14, 0x00, 0x00, 0x00, 0x00, 0x00, 0x00, 0x05, 0x24, 0x00, 0x00, 0x00, 0x28, 0x00, 0x00, 0x00, 0x01, 0x00, 0x00, 0x00, 0x6e, 0xff, 0xff, 0xff, 0x02, 0x00, 0x00, 0x00, 0x02, 0x00, 0x00, 0x00, 0x02, 0x00, 0x00, 0x00, 0x02, 0x00, 0x00, 0x00, 0x00, 0x00, 0x00, 0x01, 0x01, 0x00, 0x00, 0x00, 0x09, 0x00, 0x00, 0x00, 0x01, 0x00, 0x00, 0x00, 0x08, 0x00, 0x00, 0x00, 0x5e, 0xff, 0xff, 0xff, 0x10, 0x00, 0x00, 0x00, 0x00, 0x00, 0x00, 0x01, 0x1c, 0x00, 0x00, 0x00, 0x20, 0x00, 0x00, 0x00, 0x50, 0xff, 0xff, 0xff, 0x00, 0x00, 0x00, 0x01, 0x01, 0x00, 0x00, 0x00, 0x01, 0x00, 0x00, 0x00, 0x00, 0x00, 0x00, 0x01, 0x01, 0x00, 0x00, 0x00, 0x08, 0x00, 0x00, 0x00, 0x03, 0x00, 0x00, 0x00, 0x05, 0x00, 0x00, 0x00, 0x06, 0x00, 0x00, 0x00, 0x07, 0x00, 0x00, 0x00, 0x00, 0x00, 0x0e, 0x00, 0x1a, 0x00, 0x14, 0x00, 0x10, 0x00, 0x0c, 0x00, 0x0b, 0x00, 0x04, 0x00, 0x0e, 0x00, 0x00, 0x00, 0x24, 0x00, 0x00, 0x00, 0x00, 0x00, 0x00, 0x05, 0x34, 0x00, 0x00, 0x00, 0x38, 0x00, 0x00, 0x00, 0x01, 0x00, 0x00, 0x00, 0x00, 0x00, 0x0e, 0x00, 0x18, 0x00, 0x17, 0x00, 0x10, 0x00, 0x0c, 0x00, 0x08, 0x00, 0x04, 0x00, 0x0e, 0x00, 0x00, 0x00, 0x02, 0x00, 0x00, 0x00, 0x02, 0x00, 0x00, 0x00, 0x02, 0x00, 0x00, 0x00, 0x02, 0x00, 0x00, 0x00, 0x00, 0x00, 0x00, 0x01, 0x01, 0x00, 0x00, 0x00, 0x05, 0x00, 0x00, 0x00, 0x01, 0x00, 0x00, 0x00, 0x04, 0x00, 0x00, 0x00, 0x00, 0x00, 0x0e, 0x00, 0x14, 0x00, 0x00, 0x00, 0x10, 0x00, 0x0c, 0x00, 0x0b, 0x00, 0x04, 0x00, 0x0e, 0x00, 0x00, 0x00, 0x1c, 0x00, 0x00, 0x00, 0x00, 0x00, 0x00, 0x01, 0x28, 0x00, 0x00, 0x00, 0x2c, 0x00, 0x00, 0x00, 0x0c, 0x00, 0x14, 0x00, 0x13, 0x00, 0x0c, 0x00, 0x08, 0x00, 0x07, 0x00, 0x0c, 0x00, 0x00, 0x00, 0x00, 0x00, 0x00, 0x01, 0x01, 0x00, 0x00, 0x00, 0x01, 0x00, 0x00, 0x00, 0x00, 0x00, 0x00, 0x01, 0x01, 0x00, 0x00, 0x00, 0x04, 0x00, 0x00, 0x00, 0x03, 0x00, 0x00, 0x00, 0x00, 0x00, 0x00, 0x00, 0x02, 0x00, 0x00, 0x00, 0x03, 0x00, 0x00, 0x00, 0x01, 0x00, 0x00, 0x00, 0x0d, 0x00, 0x00, 0x00, 0x01, 0x00, 0x00, 0x00, 0x00, 0x00, 0x00, 0x00, 0x0e, 0x00, 0x00, 0x00, 0x84, 0x0d, 0x00, 0x00, 0xf8, 0x0c, 0x00, 0x00, 0x40, 0x0b, 0x00, 0x00, 0x84, 0x0a, 0x00, 0x00, 0xf8, 0x08, 0x00, 0x00, 0x3c, 0x08, 0x00, 0x00, 0x30, 0x06, 0x00, 0x00, 0x14, 0x05, 0x00, 0x00, 0x80, 0x03, 0x00, 0x00, 0xbc, 0x02, 0x00, 0x00, 0x10, 0x02, 0x00, 0x00, 0xd4, 0x00, 0x00, 0x00, 0x70, 0x00, 0x00, 0x00, 0x04, 0x00, 0x00, 0x00, 0xc8, 0xf2, 0xff, 0xff, 0x18, 0x00, 0x00, 0x00, 0x20, 0x00, 0x00, 0x00, 0x40, 0x00, 0x00, 0x00, 0x0e, 0x00, 0x00, 0x00, 0x00, 0x00, 0x00, 0x09, 0x44, 0x00, 0x00, 0x00, 0x02, 0x00, 0x00, 0x00, 0xff, 0xff, 0xff, 0xff, 0x02, 0x00, 0x00, 0x00, 0xac, 0xf2, 0xff, 0xff, 0x08, 0x00, 0x00, 0x00, 0x14, 0x00, 0x00, 0x00, 0x01, 0x00, 0x00, 0x00, 0xff, 0xff, 0xff, 0xff, 0xff, 0xff, 0xff, 0xff, 0x00, 0x00, 0x00, 0x00, 0x01, 0x00, 0x00, 0x00, 0x88, 0x92, 0x1f, 0x3e, 0x08, 0x00, 0x00, 0x00, 0x49, 0x64, 0x65, 0x6e, 0x74, 0x69, 0x74, 0x79, 0x00, 0x00, 0x00, 0x00, 0x02, 0x00, 0x00, 0x00, 0x01, 0x00, 0x00, 0x00, 0x02, 0x00, 0x00, 0x00, 0xb2, 0xf3, 0xff, 0xff, 0x14, 0x00, 0x00, 0x00, 0x30, 0x00, 0x00, 0x00, 0x0d, 0x00, 0x00, 0x00, 0x00, 0x00, 0x00, 0x02, 0x44, 0x00, 0x00, 0x00, 0x04, 0xf3, 0xff, 0xff, 0x08, 0x00, 0x00, 0x00, 0x10, 0x00, 0x00, 0x00, 0x01, 0x00, 0x00, 0x00, 0x00, 0x00, 0x00, 0x00, 0x00, 0x00, 0x00, 0x00, 0x01, 0x00, 0x00, 0x00, 0x76, 0xac, 0x21, 0x39, 0x1b, 0x00, 0x00, 0x00, 0x73, 0x65, 0x71, 0x75, 0x65, 0x6e, 0x74, 0x69, 0x61, 0x6c, 0x2f, 0x71, 0x75, 0x61, 0x6e, 0x74, 0x5f, 0x64, 0x65, 0x6e, 0x73, 0x65, 0x2f, 0x33, 0x39, 0x31, 0x35, 0x00, 0x01, 0x00, 0x00, 0x00, 0x02, 0x00, 0x00, 0x00, 0x12, 0xf4, 0xff, 0xff, 0x14, 0x00, 0x00, 0x00, 0x34, 0x00, 0x00, 0x00, 0x0c, 0x00, 0x00, 0x00, 0x00, 0x00, 0x00, 0x09, 0x18, 0x01, 0x00, 0x00, 0x64, 0xf3, 0xff, 0xff, 0x08, 0x00, 0x00, 0x00, 0x14, 0x00, 0x00, 0x00, 0x01, 0x00, 0x00, 0x00, 0x00, 0x00, 0x00, 0x00, 0x00, 0x00, 0x00, 0x00, 0x00, 0x00, 0x00, 0x00, 0x01, 0x00, 0x00, 0x00, 0x1b, 0x62, 0x95, 0x3b, 0xe9, 0x00, 0x00, 0x00, 0x4d, 0x61, 0x74, 0x4d, 0x75, 0x6c, 0x3b, 0x73, 0x65, 0x71, 0x75, 0x65, 0x6e, 0x74, 0x69, 0x61, 0x6c, 0x2f, 0x71, 0x75, 0x61, 0x6e, 0x74, 0x5f, 0x64, 0x65, 0x6e, 0x73, 0x65, 0x2f, 0x53, 0x74, 0x61, 0x74, 0x65, 0x66, 0x75, 0x6c, 0x50, 0x61, 0x72, 0x74, 0x69, 0x74, 0x69, 0x6f, 0x6e, 0x65, 0x64, 0x43, 0x61, 0x6c, 0x6c, 0x2f, 0x53, 0x74, 0x61, 0x74, 0x65, 0x66, 0x75, 0x6c, 0x50, 0x61, 0x72, 0x74, 0x69, 0x74, 0x69, 0x6f, 0x6e, 0x65, 0x64, 0x43, 0x61, 0x6c, 0x6c, 0x2f, 0x4d, 0x61, 0x74, 0x4d, 0x75, 0x6c, 0x3b, 0x4c, 0x61, 0x73, 0x74, 0x56, 0x61, 0x6c, 0x75, 0x65, 0x51, 0x75, 0x61, 0x6e, 0x74, 0x2f, 0x46, 0x61, 0x6b, 0x65, 0x51, 0x75, 0x61, 0x6e, 0x74, 0x57, 0x69, 0x74, 0x68, 0x4d, 0x69, 0x6e, 0x4d, 0x61, 0x78, 0x56, 0x61, 0x72, 0x73, 0x3b, 0x73, 0x65, 0x71, 0x75, 0x65, 0x6e, 0x74, 0x69, 0x61, 0x6c, 0x2f, 0x71, 0x75, 0x61, 0x6e, 0x74, 0x5f, 0x64, 0x65, 0x6e, 0x73, 0x65, 0x2f, 0x53, 0x74, 0x61, 0x74, 0x65, 0x66, 0x75, 0x6c, 0x50, 0x61, 0x72, 0x74, 0x69, 0x74, 0x69, 0x6f, 0x6e, 0x65, 0x64, 0x43, 0x61, 0x6c, 0x6c, 0x2f, 0x53, 0x74, 0x61, 0x74, 0x65, 0x66, 0x75, 0x6c, 0x50, 0x61, 0x72, 0x74, 0x69, 0x74, 0x69, 0x6f, 0x6e, 0x65, 0x64, 0x43, 0x61, 0x6c, 0x6c, 0x2f, 0x4c, 0x61, 0x73, 0x74, 0x56, 0x61, 0x6c, 0x75, 0x65, 0x51, 0x75, 0x61, 0x6e, 0x74, 0x2f, 0x46, 0x61, 0x6b, 0x65, 0x51, 0x75, 0x61, 0x6e, 0x74, 0x57, 0x69, 0x74, 0x68, 0x4d, 0x69, 0x6e, 0x4d, 0x61, 0x78, 0x56, 0x61, 0x72, 0x73, 0x00, 0x00, 0x00, 0x02, 0x00, 0x00, 0x00, 0x02, 0x00, 0x00, 0x00, 0x40, 0x02, 0x00, 0x00, 0xc8, 0xf4, 0xff, 0xff, 0x18, 0x00, 0x00, 0x00, 0x20, 0x00, 0x00, 0x00, 0x40, 0x00, 0x00, 0x00, 0x0b, 0x00, 0x00, 0x00, 0x00, 0x00, 0x00, 0x09, 0x84, 0x00, 0x00, 0x00, 0x02, 0x00, 0x00, 0x00, 0xff, 0xff, 0xff, 0xff, 0x40, 0x02, 0x00, 0x00, 0xac, 0xf4, 0xff, 0xff, 0x08, 0x00, 0x00, 0x00, 0x14, 0x00, 0x00, 0x00, 0x01, 0x00, 0x00, 0x00, 0x80, 0xff, 0xff, 0xff, 0xff, 0xff, 0xff, 0xff, 0x00, 0x00, 0x00, 0x00, 0x01, 0x00, 0x00, 0x00, 0xf9, 0x87, 0x0a, 0x3d, 0x48, 0x00, 0x00, 0x00, 0x52, 0x65, 0x73, 0x68, 0x61, 0x70, 0x65, 0x3b, 0x73, 0x65, 0x71, 0x75, 0x65, 0x6e, 0x74, 0x69, 0x61, 0x6c, 0x2f, 0x71, 0x75, 0x61, 0x6e, 0x74, 0x5f, 0x66, 0x6c, 0x61, 0x74, 0x74, 0x65, 0x6e, 0x2f, 0x50, 0x61, 0x72, 0x74, 0x69, 0x74, 0x69, 0x6f, 0x6e, 0x65, 0x64, 0x43, 0x61, 0x6c, 0x6c, 0x2f, 0x50, 0x61, 0x72, 0x74, 0x69, 0x74, 0x69, 0x6f, 0x6e, 0x65, 0x64, 0x43, 0x61, 0x6c, 0x6c, 0x2f, 0x52, 0x65, 0x73, 0x68, 0x61, 0x70, 0x65, 0x00, 0x00, 0x00, 0x00, 0x02, 0x00, 0x00, 0x00, 0x01, 0x00, 0x00, 0x00, 0x40, 0x02, 0x00, 0x00, 0x70, 0xf5, 0xff, 0xff, 0x18, 0x00, 0x00, 0x00, 0x28, 0x00, 0x00, 0x00, 0x48, 0x00, 0x00, 0x00, 0x0a, 0x00, 0x00, 0x00, 0x00, 0x00, 0x00, 0x09, 0x94, 0x00, 0x00, 0x00, 0x04, 0x00, 0x00, 0x00, 0xff, 0xff, 0xff, 0xff, 0x06, 0x00, 0x00, 0x00, 0x06, 0x00, 0x00, 0x00, 0x10, 0x00, 0x00, 0x00, 0x5c, 0xf5, 0xff, 0xff, 0x08, 0x00, 0x00, 0x00, 0x14, 0x00, 0x00, 0x00, 0x01, 0x00, 0x00, 0x00, 0x80, 0xff, 0xff, 0xff, 0xff, 0xff, 0xff, 0xff, 0x00, 0x00, 0x00, 0x00, 0x01, 0x00, 0x00, 0x00, 0xf9, 0x87, 0x0a, 0x3d, 0x50, 0x00, 0x00, 0x00, 0x4d, 0x61, 0x78, 0x50, 0x6f, 0x6f, 0x6c, 0x3b, 0x73, 0x65, 0x71, 0x75, 0x65, 0x6e, 0x74, 0x69, 0x61, 0x6c, 0x2f, 0x71, 0x75, 0x61, 0x6e, 0x74, 0x5f, 0x6d, 0x61, 0x78, 0x5f, 0x70, 0x6f, 0x6f, 0x6c, 0x69, 0x6e, 0x67, 0x32, 0x64, 0x5f, 0x31, 0x2f, 0x50, 0x61, 0x72, 0x74, 0x69, 0x74, 0x69, 0x6f, 0x6e, 0x65, 0x64, 0x43, 0x61, 0x6c, 0x6c, 0x2f, 0x50, 0x61, 0x72, 0x74, 0x69, 0x74, 0x69, 0x6f, 0x6e, 0x65, 0x64, 0x43, 0x61, 0x6c, 0x6c, 0x2f, 0x4d, 0x61, 0x78, 0x50, 0x6f, 0x6f, 0x6c, 0x00, 0x00, 0x00, 0x00, 0x04, 0x00, 0x00, 0x00, 0x01, 0x00, 0x00, 0x00, 0x06, 0x00, 0x00, 0x00, 0x06, 0x00, 0x00, 0x00, 0x10, 0x00, 0x00, 0x00, 0x30, 0xf6, 0xff, 0xff, 0x18, 0x00, 0x00, 0x00, 0x28, 0x00, 0x00, 0x00, 0x44, 0x00, 0x00, 0x00, 0x09, 0x00, 0x00, 0x00, 0x00, 0x00, 0x00, 0x09, 0x64, 0x01, 0x00, 0x00, 0x04, 0x00, 0x00, 0x00, 0xff, 0xff, 0xff, 0xff, 0x0d, 0x00, 0x00, 0x00, 0x0d, 0x00, 0x00, 0x00, 0x10, 0x00, 0x00, 0x00, 0x1c, 0xf6, 0xff, 0xff, 0x08, 0x00, 0x00, 0x00, 0x10, 0x00, 0x00, 0x00, 0x01, 0x00, 0x00, 0x00, 0x80, 0xff, 0xff, 0xff, 0xff, 0xff, 0xff, 0xff, 0x01, 0x00, 0x00, 0x00, 0xf9, 0x87, 0x0a, 0x3d, 0x24, 0x01, 0x00, 0x00, 0x52, 0x65, 0x6c, 0x75, 0x3b, 0x73, 0x65, 0x71, 0x75, 0x65, 0x6e, 0x74, 0x69, 0x61, 0x6c, 0x2f, 0x71, 0x75, 0x61, 0x6e, 0x74, 0x5f, 0x63, 0x6f, 0x6e, 0x76, 0x32, 0x64, 0x5f, 0x31, 0x2f, 0x53, 0x74, 0x61, 0x74, 0x65, 0x66, 0x75, 0x6c, 0x50, 0x61, 0x72, 0x74, 0x69, 0x74, 0x69, 0x6f, 0x6e, 0x65, 0x64, 0x43, 0x61, 0x6c, 0x6c, 0x2f, 0x53, 0x74, 0x61, 0x74, 0x65, 0x66, 0x75, 0x6c, 0x50, 0x61, 0x72, 0x74, 0x69, 0x74, 0x69, 0x6f, 0x6e, 0x65, 0x64, 0x43, 0x61, 0x6c, 0x6c, 0x2f, 0x52, 0x65, 0x6c, 0x75, 0x3b, 0x42, 0x69, 0x61, 0x73, 0x41, 0x64, 0x64, 0x3b, 0x73, 0x65, 0x71, 0x75, 0x65, 0x6e, 0x74, 0x69, 0x61, 0x6c, 0x2f, 0x71, 0x75, 0x61, 0x6e, 0x74, 0x5f, 0x63, 0x6f, 0x6e, 0x76, 0x32, 0x64, 0x5f, 0x31, 0x2f, 0x53, 0x74, 0x61, 0x74, 0x65, 0x66, 0x75, 0x6c, 0x50, 0x61, 0x72, 0x74, 0x69, 0x74, 0x69, 0x6f, 0x6e, 0x65, 0x64, 0x43, 0x61, 0x6c, 0x6c, 0x2f, 0x53, 0x74, 0x61, 0x74, 0x65, 0x66, 0x75, 0x6c, 0x50, 0x61, 0x72, 0x74, 0x69, 0x74, 0x69, 0x6f, 0x6e, 0x65, 0x64, 0x43, 0x61, 0x6c, 0x6c, 0x2f, 0x42, 0x69, 0x61, 0x73, 0x41, 0x64, 0x64, 0x3b, 0x43, 0x6f, 0x6e, 0x76, 0x32, 0x44, 0x3b, 0x73, 0x65, 0x71, 0x75, 0x65, 0x6e, 0x74, 0x69, 0x61, 0x6c, 0x2f, 0x71, 0x75, 0x61, 0x6e, 0x74, 0x5f, 0x63, 0x6f, 0x6e, 0x76, 0x32, 0x64, 0x5f, 0x31, 0x2f, 0x53, 0x74, 0x61, 0x74, 0x65, 0x66, 0x75, 0x6c, 0x50, 0x61, 0x72, 0x74, 0x69, 0x74, 0x69, 0x6f, 0x6e, 0x65, 0x64, 0x43, 0x61, 0x6c, 0x6c, 0x2f, 0x53, 0x74, 0x61, 0x74, 0x65, 0x66, 0x75, 0x6c, 0x50, 0x61, 0x72, 0x74, 0x69, 0x74, 0x69, 0x6f, 0x6e, 0x65, 0x64, 0x43, 0x61, 0x6c, 0x6c, 0x2f, 0x43, 0x6f, 0x6e, 0x76, 0x32, 0x44, 0x3b, 0x73, 0x65, 0x71, 0x75, 0x65, 0x6e, 0x74, 0x69, 0x61, 0x6c, 0x2f, 0x71, 0x75, 0x61, 0x6e, 0x74, 0x5f, 0x63, 0x6f, 0x6e, 0x76, 0x32, 0x64, 0x5f, 0x31, 0x2f, 0x33, 0x38, 0x39, 0x39, 0x00, 0x00, 0x00, 0x00, 0x04, 0x00, 0x00, 0x00, 0x01, 0x00, 0x00, 0x00, 0x0d, 0x00, 0x00, 0x00, 0x0d, 0x00, 0x00, 0x00, 0x10, 0x00, 0x00, 0x00, 0x42, 0xf8, 0xff, 0xff, 0x14, 0x00, 0x00, 0x00, 0xe4, 0x00, 0x00, 0x00, 0x08, 0x00, 0x00, 0x00, 0x00, 0x00, 0x00, 0x02, 0xfc, 0x00, 0x00, 0x00, 0x94, 0xf7, 0xff, 0xff, 0x08, 0x00, 0x00, 0x00, 0x88, 0x00, 0x00, 0x00, 0x10, 0x00, 0x00, 0x00, 0x00, 0x00, 0x00, 0x00, 0x00, 0x00, 0x00, 0x00, 0x00, 0x00, 0x00, 0x00, 0x00, 0x00, 0x00, 0x00, 0x00, 0x00, 0x00, 0x00, 0x00, 0x00, 0x00, 0x00, 0x00, 0x00, 0x00, 0x00, 0x00, 0x00, 0x00, 0x00, 0x00, 0x00, 0x00, 0x00, 0x00, 0x00, 0x00, 0x00, 0x00, 0x00, 0x00, 0x00, 0x00, 0x00, 0x00, 0x00, 0x00, 0x00, 0x00, 0x00, 0x00, 0x00, 0x00, 0x00, 0x00, 0x00, 0x00, 0x00, 0x00, 0x00, 0x00, 0x00, 0x00, 0x00, 0x00, 0x00, 0x00, 0x00, 0x00, 0x00, 0x00, 0x00, 0x00, 0x00, 0x00, 0x00, 0x00, 0x00, 0x00, 0x00, 0x00, 0x00, 0x00, 0x00, 0x00, 0x00, 0x00, 0x00, 0x00, 0x00, 0x00, 0x00, 0x00, 0x00, 0x00, 0x00, 0x00, 0x00, 0x00, 0x00, 0x00, 0x00, 0x00, 0x00, 0x00, 0x00, 0x00, 0x00, 0x00, 0x00, 0x00, 0x00, 0x00, 0x00, 0x00, 0x00, 0x00, 0x00, 0x00, 0x00, 0x00, 0x00, 0x00, 0x00, 0x00, 0x00, 0x10, 0x00, 0x00, 0x00, 0xa1, 0x54, 0x42, 0x3a, 0x0c, 0x9d, 0x6e, 0x3a, 0x6a, 0x62, 0x54, 0x3a, 0xa9, 0x5d, 0xb0, 0x3a, 0x6d, 0xdd, 0x06, 0x3a, 0xc8, 0x1e, 0x19, 0x3a, 0x87, 0x76, 0x85, 0x3a, 0x8d, 0x60, 0x36, 0x3a, 0x4d, 0xef, 0x29, 0x3a, 0x4e, 0xa0, 0x80, 0x3a, 0x21, 0x14, 0xaf, 0x3a, 0x78, 0xd3, 0x22, 0x3a, 0xc5, 0x3b, 0x07, 0x3a, 0x78, 0xd3, 0x18, 0x3a, 0x88, 0xb1, 0x21, 0x3a, 0x3c, 0xa7, 0x2e, 0x3a, 0x1e, 0x00, 0x00, 0x00, 0x73, 0x65, 0x71, 0x75, 0x65, 0x6e, 0x74, 0x69, 0x61, 0x6c, 0x2f, 0x71, 0x75, 0x61, 0x6e, 0x74, 0x5f, 0x63, 0x6f, 0x6e, 0x76, 0x32, 0x64, 0x5f, 0x31, 0x2f, 0x33, 0x38, 0x39, 0x39, 0x00, 0x00, 0x01, 0x00, 0x00, 0x00, 0x10, 0x00, 0x00, 0x00, 0x5a, 0xf9, 0xff, 0xff, 0x14, 0x00, 0x00, 0x00, 0xe4, 0x00, 0x00, 0x00, 0x07, 0x00, 0x00, 0x00, 0x00, 0x00, 0x00, 0x09, 0xe0, 0x01, 0x00, 0x00, 0xac, 0xf8, 0xff, 0xff, 0x08, 0x00, 0x00, 0x00, 0x88, 0x00, 0x00, 0x00, 0x10, 0x00, 0x00, 0x00, 0x00, 0x00, 0x00, 0x00, 0x00, 0x00, 0x00, 0x00, 0x00, 0x00, 0x00, 0x00, 0x00, 0x00, 0x00, 0x00, 0x00, 0x00, 0x00, 0x00, 0x00, 0x00, 0x00, 0x00, 0x00, 0x00, 0x00, 0x00, 0x00, 0x00, 0x00, 0x00, 0x00, 0x00, 0x00, 0x00, 0x00, 0x00, 0x00, 0x00, 0x00, 0x00, 0x00, 0x00, 0x00, 0x00, 0x00, 0x00, 0x00, 0x00, 0x00, 0x00, 0x00, 0x00, 0x00, 0x00, 0x00, 0x00, 0x00, 0x00, 0x00, 0x00, 0x00, 0x00, 0x00, 0x00, 0x00, 0x00, 0x00, 0x00, 0x00, 0x00, 0x00, 0x00, 0x00, 0x00, 0x00, 0x00, 0x00, 0x00, 0x00, 0x00, 0x00, 0x00, 0x00, 0x00, 0x00, 0x00, 0x00, 0x00, 0x00, 0x00, 0x00, 0x00, 0x00, 0x00, 0x00, 0x00, 0x00, 0x00, 0x00, 0x00, 0x00, 0x00, 0x00, 0x00, 0x00, 0x00, 0x00, 0x00, 0x00, 0x00, 0x00, 0x00, 0x00, 0x00, 0x00, 0x00, 0x00, 0x00, 0x00, 0x00, 0x00, 0x00, 0x00, 0x00, 0x00, 0x00, 0x10, 0x00, 0x00, 0x00, 0xe6, 0x3a, 0x8a, 0x3b, 0xa6, 0xba, 0xa9, 0x3b, 0x70, 0x12, 0x97, 0x3b, 0x2c, 0xe7, 0xfa, 0x3b, 0xd7, 0xdc, 0x3f, 0x3b, 0x49, 0xd5, 0x59, 0x3b, 0x43, 0xde, 0xbd, 0x3b, 0x38, 0xba, 0x81, 0x3b, 0x04, 0xc1, 0x71, 0x3b, 0xbb, 0xfc, 0xb6, 0x3b, 0x5f, 0x12, 0xf9, 0x3b, 0x12, 0xa4, 0x67, 0x3b, 0x0e, 0x63, 0x40, 0x3b, 0x25, 0x6a, 0x59, 0x3b, 0x99, 0x07, 0x66, 0x3b, 0x75, 0x77, 0x78, 0x3b, 0x03, 0x01, 0x00, 0x00, 0x43, 0x6f, 0x6e, 0x76, 0x32, 0x44, 0x3b, 0x73, 0x65, 0x71, 0x75, 0x65, 0x6e, 0x74, 0x69, 0x61, 0x6c, 0x2f, 0x71, 0x75, 0x61, 0x6e, 0x74, 0x5f, 0x63, 0x6f, 0x6e, 0x76, 0x32, 0x64, 0x5f, 0x31, 0x2f, 0x53, 0x74, 0x61, 0x74, 0x65, 0x66, 0x75, 0x6c, 0x50, 0x61, 0x72, 0x74, 0x69, 0x74, 0x69, 0x6f, 0x6e, 0x65, 0x64, 0x43, 0x61, 0x6c, 0x6c, 0x2f, 0x53, 0x74, 0x61, 0x74, 0x65, 0x66, 0x75, 0x6c, 0x50, 0x61, 0x72, 0x74, 0x69, 0x74, 0x69, 0x6f, 0x6e, 0x65, 0x64, 0x43, 0x61, 0x6c, 0x6c, 0x2f, 0x43, 0x6f, 0x6e, 0x76, 0x32, 0x44, 0x3b, 0x4c, 0x61, 0x73, 0x74, 0x56, 0x61, 0x6c, 0x75, 0x65, 0x51, 0x75, 0x61, 0x6e, 0x74, 0x2f, 0x46, 0x61, 0x6b, 0x65, 0x51, 0x75, 0x61, 0x6e, 0x74, 0x57, 0x69, 0x74, 0x68, 0x4d, 0x69, 0x6e, 0x4d, 0x61, 0x78, 0x56, 0x61, 0x72, 0x73, 0x50, 0x65, 0x72, 0x43, 0x68, 0x61, 0x6e, 0x6e, 0x65, 0x6c, 0x3b, 0x73, 0x65, 0x71, 0x75, 0x65, 0x6e, 0x74, 0x69, 0x61, 0x6c, 0x2f, 0x71, 0x75, 0x61, 0x6e, 0x74, 0x5f, 0x63, 0x6f, 0x6e, 0x76, 0x32, 0x64, 0x5f, 0x31, 0x2f, 0x53, 0x74, 0x61, 0x74, 0x65, 0x66, 0x75, 0x6c, 0x50, 0x61, 0x72, 0x74, 0x69, 0x74, 0x69, 0x6f, 0x6e, 0x65, 0x64, 0x43, 0x61, 0x6c, 0x6c, 0x2f, 0x53, 0x74, 0x61, 0x74, 0x65, 0x66, 0x75, 0x6c, 0x50, 0x61, 0x72, 0x74, 0x69, 0x74, 0x69, 0x6f, 0x6e, 0x65, 0x64, 0x43, 0x61, 0x6c, 0x6c, 0x2f, 0x4c, 0x61, 0x73, 0x74, 0x56, 0x61, 0x6c, 0x75, 0x65, 0x51, 0x75, 0x61, 0x6e, 0x74, 0x2f, 0x46, 0x61, 0x6b, 0x65, 0x51, 0x75, 0x61, 0x6e, 0x74, 0x57, 0x69, 0x74, 0x68, 0x4d, 0x69, 0x6e, 0x4d, 0x61, 0x78, 0x56, 0x61, 0x72, 0x73, 0x50, 0x65, 0x72, 0x43, 0x68, 0x61, 0x6e, 0x6e, 0x65, 0x6c, 0x00, 0x04, 0x00, 0x00, 0x00, 0x10, 0x00, 0x00, 0x00, 0x03, 0x00, 0x00, 0x00, 0x03, 0x00, 0x00, 0x00, 0x08, 0x00, 0x00, 0x00, 0xe0, 0xfa, 0xff, 0xff, 0x18, 0x00, 0x00, 0x00, 0x28, 0x00, 0x00, 0x00, 0x44, 0x00, 0x00, 0x00, 0x06, 0x00, 0x00, 0x00, 0x00, 0x00, 0x00, 0x09, 0x8c, 0x00, 0x00, 0x00, 0x04, 0x00, 0x00, 0x00, 0xff, 0xff, 0xff, 0xff, 0x0f, 0x00, 0x00, 0x00, 0x0f, 0x00, 0x00, 0x00, 0x08, 0x00, 0x00, 0x00, 0xcc, 0xfa, 0xff, 0xff, 0x08, 0x00, 0x00, 0x00, 0x10, 0x00, 0x00, 0x00, 0x01, 0x00, 0x00, 0x00, 0x80, 0xff, 0xff, 0xff, 0xff, 0xff, 0xff, 0xff, 0x01, 0x00, 0x00, 0x00, 0xdb, 0xf2, 0x33, 0x3e, 0x4e, 0x00, 0x00, 0x00, 0x4d, 0x61, 0x78, 0x50, 0x6f, 0x6f, 0x6c, 0x3b, 0x73, 0x65, 0x71, 0x75, 0x65, 0x6e, 0x74, 0x69, 0x61, 0x6c, 0x2f, 0x71, 0x75, 0x61, 0x6e, 0x74, 0x5f, 0x6d, 0x61, 0x78, 0x5f, 0x70, 0x6f, 0x6f, 0x6c, 0x69, 0x6e, 0x67, 0x32, 0x64, 0x2f, 0x50, 0x61, 0x72, 0x74, 0x69, 0x74, 0x69, 0x6f, 0x6e, 0x65, 0x64, 0x43, 0x61, 0x6c, 0x6c, 0x2f, 0x50, 0x61, 0x72, 0x74, 0x69, 0x74, 0x69, 0x6f, 0x6e, 0x65, 0x64, 0x43, 0x61, 0x6c, 0x6c, 0x2f, 0x4d, 0x61, 0x78, 0x50, 0x6f, 0x6f, 0x6c, 0x00, 0x00, 0x04, 0x00, 0x00, 0x00, 0x01, 0x00, 0x00, 0x00, 0x0f, 0x00, 0x00, 0x00, 0x0f, 0x00, 0x00, 0x00, 0x08, 0x00, 0x00, 0x00, 0x98, 0xfb, 0xff, 0xff, 0x18, 0x00, 0x00, 0x00, 0x28, 0x00, 0x00, 0x00, 0x44, 0x00, 0x00, 0x00, 0x05, 0x00, 0x00, 0x00, 0x00, 0x00, 0x00, 0x09, 0x5c, 0x01, 0x00, 0x00, 0x04, 0x00, 0x00, 0x00, 0xff, 0xff, 0xff, 0xff, 0x1e, 0x00, 0x00, 0x00, 0x1e, 0x00, 0x00, 0x00, 0x08, 0x00, 0x00, 0x00, 0x84, 0xfb, 0xff, 0xff, 0x08, 0x00, 0x00, 0x00, 0x10, 0x00, 0x00, 0x00, 0x01, 0x00, 0x00, 0x00, 0x80, 0xff, 0xff, 0xff, 0xff, 0xff, 0xff, 0xff, 0x01, 0x00, 0x00, 0x00, 0xdb, 0xf2, 0x33, 0x3e, 0x1c, 0x01, 0x00, 0x00, 0x52, 0x65, 0x6c, 0x75, 0x3b, 0x73, 0x65, 0x71, 0x75, 0x65, 0x6e, 0x74, 0x69, 0x61, 0x6c, 0x2f, 0x71, 0x75, 0x61, 0x6e, 0x74, 0x5f, 0x63, 0x6f, 0x6e, 0x76, 0x32, 0x64, 0x2f, 0x53, 0x74, 0x61, 0x74, 0x65, 0x66, 0x75, 0x6c, 0x50, 0x61, 0x72, 0x74, 0x69, 0x74, 0x69, 0x6f, 0x6e, 0x65, 0x64, 0x43, 0x61, 0x6c, 0x6c, 0x2f, 0x53, 0x74, 0x61, 0x74, 0x65, 0x66, 0x75, 0x6c, 0x50, 0x61, 0x72, 0x74, 0x69, 0x74, 0x69, 0x6f, 0x6e, 0x65, 0x64, 0x43, 0x61, 0x6c, 0x6c, 0x2f, 0x52, 0x65, 0x6c, 0x75, 0x3b, 0x42, 0x69, 0x61, 0x73, 0x41, 0x64, 0x64, 0x3b, 0x73, 0x65, 0x71, 0x75, 0x65, 0x6e, 0x74, 0x69, 0x61, 0x6c, 0x2f, 0x71, 0x75, 0x61, 0x6e, 0x74, 0x5f, 0x63, 0x6f, 0x6e, 0x76, 0x32, 0x64, 0x2f, 0x53, 0x74, 0x61, 0x74, 0x65, 0x66, 0x75, 0x6c, 0x50, 0x61, 0x72, 0x74, 0x69, 0x74, 0x69, 0x6f, 0x6e, 0x65, 0x64, 0x43, 0x61, 0x6c, 0x6c, 0x2f, 0x53, 0x74, 0x61, 0x74, 0x65, 0x66, 0x75, 0x6c, 0x50, 0x61, 0x72, 0x74, 0x69, 0x74, 0x69, 0x6f, 0x6e, 0x65, 0x64, 0x43, 0x61, 0x6c, 0x6c, 0x2f, 0x42, 0x69, 0x61, 0x73, 0x41, 0x64, 0x64, 0x3b, 0x43, 0x6f, 0x6e, 0x76, 0x32, 0x44, 0x3b, 0x73, 0x65, 0x71, 0x75, 0x65, 0x6e, 0x74, 0x69, 0x61, 0x6c, 0x2f, 0x71, 0x75, 0x61, 0x6e, 0x74, 0x5f, 0x63, 0x6f, 0x6e, 0x76, 0x32, 0x64, 0x2f, 0x53, 0x74, 0x61, 0x74, 0x65, 0x66, 0x75, 0x6c, 0x50, 0x61, 0x72, 0x74, 0x69, 0x74, 0x69, 0x6f, 0x6e, 0x65, 0x64, 0x43, 0x61, 0x6c, 0x6c, 0x2f, 0x53, 0x74, 0x61, 0x74, 0x65, 0x66, 0x75, 0x6c, 0x50, 0x61, 0x72, 0x74, 0x69, 0x74, 0x69, 0x6f, 0x6e, 0x65, 0x64, 0x43, 0x61, 0x6c, 0x6c, 0x2f, 0x43, 0x6f, 0x6e, 0x76, 0x32, 0x44, 0x3b, 0x73, 0x65, 0x71, 0x75, 0x65, 0x6e, 0x74, 0x69, 0x61, 0x6c, 0x2f, 0x71, 0x75, 0x61, 0x6e, 0x74, 0x5f, 0x63, 0x6f, 0x6e, 0x76, 0x32, 0x64, 0x2f, 0x33, 0x38, 0x38, 0x34, 0x00, 0x00, 0x00, 0x00, 0x04, 0x00, 0x00, 0x00, 0x01, 0x00, 0x00, 0x00, 0x1e, 0x00, 0x00, 0x00, 0x1e, 0x00, 0x00, 0x00, 0x08, 0x00, 0x00, 0x00, 0xa2, 0xfd, 0xff, 0xff, 0x14, 0x00, 0x00, 0x00, 0x84, 0x00, 0x00, 0x00, 0x04, 0x00, 0x00, 0x00, 0x00, 0x00, 0x00, 0x02, 0x9c, 0x00, 0x00, 0x00, 0xf4, 0xfc, 0xff, 0xff, 0x08, 0x00, 0x00, 0x00, 0x48, 0x00, 0x00, 0x00, 0x08, 0x00, 0x00, 0x00, 0x00, 0x00, 0x00, 0x00, 0x00, 0x00, 0x00, 0x00, 0x00, 0x00, 0x00, 0x00, 0x00, 0x00, 0x00, 0x00, 0x00, 0x00, 0x00, 0x00, 0x00, 0x00, 0x00, 0x00, 0x00, 0x00, 0x00, 0x00, 0x00, 0x00, 0x00, 0x00, 0x00, 0x00, 0x00, 0x00, 0x00, 0x00, 0x00, 0x00, 0x00, 0x00, 0x00, 0x00, 0x00, 0x00, 0x00, 0x00, 0x00, 0x00, 0x00, 0x00, 0x00, 0x00, 0x00, 0x00, 0x00, 0x00, 0x00, 0x00, 0x00, 0x00, 0x00, 0x00, 0x08, 0x00, 0x00, 0x00, 0x28, 0xe9, 0x40, 0x3a, 0x58, 0xbe, 0x46, 0x3a, 0x66, 0x57, 0xb8, 0x39, 0x1e, 0x14, 0x0b, 0x3a, 0x99, 0x2c, 0x43, 0x3a, 0x6d, 0x0e, 0xf7, 0x39, 0xd8, 0x43, 0x6e, 0x3a, 0x06, 0xf8, 0x4b, 0x3a, 0x1c, 0x00, 0x00, 0x00, 0x73, 0x65, 0x71, 0x75, 0x65, 0x6e, 0x74, 0x69, 0x61, 0x6c, 0x2f, 0x71, 0x75, 0x61, 0x6e, 0x74, 0x5f, 0x63, 0x6f, 0x6e, 0x76, 0x32, 0x64, 0x2f, 0x33, 0x38, 0x38, 0x34, 0x00, 0x00, 0x00, 0x00, 0x01, 0x00, 0x00, 0x00, 0x08, 0x00, 0x00, 0x00, 0x5a, 0xfe, 0xff, 0xff, 0x14, 0x00, 0x00, 0x00, 0x84, 0x00, 0x00, 0x00, 0x03, 0x00, 0x00, 0x00, 0x00, 0x00, 0x00, 0x09, 0x7c, 0x01, 0x00, 0x00, 0xac, 0xfd, 0xff, 0xff, 0x08, 0x00, 0x00, 0x00, 0x48, 0x00, 0x00, 0x00, 0x08, 0x00, 0x00, 0x00, 0x00, 0x00, 0x00, 0x00, 0x00, 0x00, 0x00, 0x00, 0x00, 0x00, 0x00, 0x00, 0x00, 0x00, 0x00, 0x00, 0x00, 0x00, 0x00, 0x00, 0x00, 0x00, 0x00, 0x00, 0x00, 0x00, 0x00, 0x00, 0x00, 0x00, 0x00, 0x00, 0x00, 0x00, 0x00, 0x00, 0x00, 0x00, 0x00, 0x00, 0x00, 0x00, 0x00, 0x00, 0x00, 0x00, 0x00, 0x00, 0x00, 0x00, 0x00, 0x00, 0x00, 0x00, 0x00, 0x00, 0x00, 0x00, 0x00, 0x00, 0x00, 0x00, 0x00, 0x00, 0x08, 0x00, 0x00, 0x00, 0xe5, 0x94, 0xce, 0x3b, 0xe5, 0xd3, 0xd4, 0x3b, 0xab, 0x67, 0x45, 0x3b, 0x3e, 0xef, 0x94, 0x3b, 0x66, 0x01, 0xd1, 0x3b, 0x3a, 0x48, 0x84, 0x3b, 0x63, 0x26, 0xff, 0x3b, 0x5f, 0x6c, 0xda, 0x3b, 0xff, 0x00, 0x00, 0x00, 0x43, 0x6f, 0x6e, 0x76, 0x32, 0x44, 0x3b, 0x73, 0x65, 0x71, 0x75, 0x65, 0x6e, 0x74, 0x69, 0x61, 0x6c, 0x2f, 0x71, 0x75, 0x61, 0x6e, 0x74, 0x5f, 0x63, 0x6f, 0x6e, 0x76, 0x32, 0x64, 0x2f, 0x53, 0x74, 0x61, 0x74, 0x65, 0x66, 0x75, 0x6c, 0x50, 0x61, 0x72, 0x74, 0x69, 0x74, 0x69, 0x6f, 0x6e, 0x65, 0x64, 0x43, 0x61, 0x6c, 0x6c, 0x2f, 0x53, 0x74, 0x61, 0x74, 0x65, 0x66, 0x75, 0x6c, 0x50, 0x61, 0x72, 0x74, 0x69, 0x74, 0x69, 0x6f, 0x6e, 0x65, 0x64, 0x43, 0x61, 0x6c, 0x6c, 0x2f, 0x43, 0x6f, 0x6e, 0x76, 0x32, 0x44, 0x3b, 0x4c, 0x61, 0x73, 0x74, 0x56, 0x61, 0x6c, 0x75, 0x65, 0x51, 0x75, 0x61, 0x6e, 0x74, 0x2f, 0x46, 0x61, 0x6b, 0x65, 0x51, 0x75, 0x61, 0x6e, 0x74, 0x57, 0x69, 0x74, 0x68, 0x4d, 0x69, 0x6e, 0x4d, 0x61, 0x78, 0x56, 0x61, 0x72, 0x73, 0x50, 0x65, 0x72, 0x43, 0x68, 0x61, 0x6e, 0x6e, 0x65, 0x6c, 0x3b, 0x73, 0x65, 0x71, 0x75, 0x65, 0x6e, 0x74, 0x69, 0x61, 0x6c, 0x2f, 0x71, 0x75, 0x61, 0x6e, 0x74, 0x5f, 0x63, 0x6f, 0x6e, 0x76, 0x32, 0x64, 0x2f, 0x53, 0x74, 0x61, 0x74, 0x65, 0x66, 0x75, 0x6c, 0x50, 0x61, 0x72, 0x74, 0x69, 0x74, 0x69, 0x6f, 0x6e, 0x65, 0x64, 0x43, 0x61, 0x6c, 0x6c, 0x2f, 0x53, 0x74, 0x61, 0x74, 0x65, 0x66, 0x75, 0x6c, 0x50, 0x61, 0x72, 0x74, 0x69, 0x74, 0x69, 0x6f, 0x6e, 0x65, 0x64, 0x43, 0x61, 0x6c, 0x6c, 0x2f, 0x4c, 0x61, 0x73, 0x74, 0x56, 0x61, 0x6c, 0x75, 0x65, 0x51, 0x75, 0x61, 0x6e, 0x74, 0x2f, 0x46, 0x61, 0x6b, 0x65, 0x51, 0x75, 0x61, 0x6e, 0x74, 0x57, 0x69, 0x74, 0x68, 0x4d, 0x69, 0x6e, 0x4d, 0x61, 0x78, 0x56, 0x61, 0x72, 0x73, 0x50, 0x65, 0x72, 0x43, 0x68, 0x61, 0x6e, 0x6e, 0x65, 0x6c, 0x00, 0x04, 0x00, 0x00, 0x00, 0x08, 0x00, 0x00, 0x00, 0x03, 0x00, 0x00, 0x00, 0x03, 0x00, 0x00, 0x00, 0x01, 0x00, 0x00, 0x00, 0x00, 0x00, 0x0e, 0x00, 0x18, 0x00, 0x14, 0x00, 0x13, 0x00, 0x0c, 0x00, 0x08, 0x00, 0x04, 0x00, 0x0e, 0x00, 0x00, 0x00, 0x18, 0x00, 0x00, 0x00, 0x18, 0x00, 0x00, 0x00, 0x02, 0x00, 0x00, 0x00, 0x00, 0x00, 0x00, 0x02, 0x58, 0x00, 0x00, 0x00, 0x04, 0x00, 0x04, 0x00, 0x04, 0x00, 0x00, 0x00, 0x44, 0x00, 0x00, 0x00, 0x43, 0x6f, 0x6e, 0x73, 0x74, 0x3b, 0x73, 0x65, 0x71, 0x75, 0x65, 0x6e, 0x74, 0x69, 0x61, 0x6c, 0x2f, 0x71, 0x75, 0x61, 0x6e, 0x74, 0x5f, 0x66, 0x6c, 0x61, 0x74, 0x74, 0x65, 0x6e, 0x2f, 0x50, 0x61, 0x72, 0x74, 0x69, 0x74, 0x69, 0x6f, 0x6e, 0x65, 0x64, 0x43, 0x61, 0x6c, 0x6c, 0x2f, 0x50, 0x61, 0x72, 0x74, 0x69, 0x74, 0x69, 0x6f, 0x6e, 0x65, 0x64, 0x43, 0x61, 0x6c, 0x6c, 0x2f, 0x43, 0x6f, 0x6e, 0x73, 0x74, 0x00, 0x00, 0x00, 0x00, 0x01, 0x00, 0x00, 0x00, 0x02, 0x00, 0x00, 0x00, 0x14, 0x00, 0x1c, 0x00, 0x18, 0x00, 0x17, 0x00, 0x10, 0x00, 0x0c, 0x00, 0x08, 0x00, 0x00, 0x00, 0x00, 0x00, 0x04, 0x00, 0x14, 0x00, 0x00, 0x00, 0x18, 0x00, 0x00, 0x00, 0x34, 0x00, 0x00, 0x00, 0x50, 0x00, 0x00, 0x00, 0x01, 0x00, 0x00, 0x00, 0x00, 0x00, 0x00, 0x09, 0x50, 0x00, 0x00, 0x00, 0x04, 0x00, 0x00, 0x00, 0xff, 0xff, 0xff, 0xff, 0x20, 0x00, 0x00, 0x00, 0x20, 0x00, 0x00, 0x00, 0x01, 0x00, 0x00, 0x00, 0x0c, 0x00, 0x0c, 0x00, 0x00, 0x00, 0x00, 0x00, 0x08, 0x00, 0x04, 0x00, 0x0c, 0x00, 0x00, 0x00, 0x08, 0x00, 0x00, 0x00, 0x10, 0x00, 0x00, 0x00, 0x01, 0x00, 0x00, 0x00, 0x80, 0xff, 0xff, 0xff, 0xff, 0xff, 0xff, 0xff, 0x01, 0x00, 0x00, 0x00, 0x0f, 0x0f, 0xef, 0x3d, 0x07, 0x00, 0x00, 0x00, 0x69, 0x6e, 0x70, 0x75, 0x74, 0x5f, 0x31, 0x00, 0x04, 0x00, 0x00, 0x00, 0x01, 0x00, 0x00, 0x00, 0x20, 0x00, 0x00, 0x00, 0x20, 0x00, 0x00, 0x00, 0x01, 0x00, 0x00, 0x00, 0x04, 0x00, 0x00, 0x00, 0x54, 0x00, 0x00, 0x00, 0x34, 0x00, 0x00, 0x00, 0x24, 0x00, 0x00, 0x00, 0x04, 0x00, 0x00, 0x00, 0xc8, 0xff, 0xff, 0xff, 0x09, 0x00, 0x00, 0x00, 0x04, 0x00, 0x00, 0x00, 0x00, 0x00, 0x00, 0x09, 0x0c, 0x00, 0x0c, 0x00, 0x0b, 0x00, 0x00, 0x00, 0x00, 0x00, 0x04, 0x00, 0x0c, 0x00, 0x00, 0x00, 0x16, 0x00, 0x00, 0x00, 0x00, 0x00, 0x00, 0x16, 0xf0, 0xff, 0xff, 0xff, 0x11, 0x00, 0x00, 0x00, 0x02, 0x00, 0x00, 0x00, 0x00, 0x00, 0x00, 0x11, 0x0c, 0x00, 0x10, 0x00, 0x0f, 0x00, 0x00, 0x00, 0x08, 0x00, 0x04, 0x00, 0x0c, 0x00, 0x00, 0x00, 0x03, 0x00, 0x00, 0x00, 0x03, 0x00, 0x00, 0x00, 0x00, 0x00, 0x00, 0x03};
const int model_data_len = 7056;