const unsigned char model_data[] __attribute__((aligned(8))) = {0x1c, 0x00, 0x00, 0x00, 0x54, 0x46, 0x4c, 0x33, 0x14, 0x00, 0x20, 0x00, 0x1c, 0x00, 0x18, 0x00, 0x14, 0x00, 0x10, 0x00, 0x0c, 0x00, 0x00, 0x00, 0x08, 0x00, 0x04, 0x00, 0x14, 0x00, 0x00, 0x00, 0x1c, 0x00, 0x00, 0x00, 0x1c, 0x00, 0x00, 0x00, 0x4c, 0x00, 0x00, 0x00, 0xd4, 0x1e, 0x00, 0x00, 0xe4, 0x1e, 0x00, 0x00, 0xc4, 0x29, 0x00, 0x00, 0x03, 0x00, 0x00, 0x00, 0x00, 0x00, 0x00, 0x00, 0x01, 0x00, 0x00, 0x00, 0x0c, 0x00, 0x00, 0x00, 0x08, 0x00, 0x0c, 0x00, 0x08, 0x00, 0x04, 0x00, 0x08, 0x00, 0x00, 0x00, 0x0e, 0x00, 0x00, 0x00, 0x04, 0x00, 0x00, 0x00, 0x13, 0x00, 0x00, 0x00, 0x6d, 0x69, 0x6e, 0x5f, 0x72, 0x75, 0x6e, 0x74, 0x69, 0x6d, 0x65, 0x5f, 0x76, 0x65, 0x72, 0x73, 0x69, 0x6f, 0x6e, 0x00, 0x0f, 0x00, 0x00, 0x00, 0x84, 0x1e, 0x00, 0x00, 0x7c, 0x1e, 0x00, 0x00, 0x64, 0x1e, 0x00, 0x00, 0x04, 0x1e, 0x00, 0x00, 0xd4, 0x1d, 0x00, 0x00, 0x44, 0x19, 0x00, 0x00, 0xf4, 0x18, 0x00, 0x00, 0x64, 0x00, 0x00, 0x00, 0x4c, 0x00, 0x00, 0x00, 0x44, 0x00, 0x00, 0x00, 0x3c, 0x00, 0x00, 0x00, 0x34, 0x00, 0x00, 0x00, 0x2c, 0x00, 0x00, 0x00, 0x24, 0x00, 0x00, 0x00, 0x04, 0x00, 0x00, 0x00, 0xd6, 0xe1, 0xff, 0xff, 0x04, 0x00, 0x00, 0x00, 0x10, 0x00, 0x00, 0x00, 0x31, 0x2e, 0x31, 0x34, 0x2e, 0x30, 0x00, 0x00, 0x00, 0x00, 0x00, 0x00, 0x00, 0x00, 0x00, 0x00, 0x98, 0xd7, 0xff, 0xff, 0x9c, 0xd7, 0xff, 0xff, 0xa0, 0xd7, 0xff, 0xff, 0xa4, 0xd7, 0xff, 0xff, 0xa8, 0xd7, 0xff, 0xff, 0x06, 0xe2, 0xff, 0xff, 0x04, 0x00, 0x00, 0x00, 0x08, 0x00, 0x00, 0x00, 0xd2, 0xfe, 0xff, 0xff, 0x2e, 0x01, 0x00, 0x00, 0x1a, 0xe2, 0xff, 0xff, 0x04, 0x00, 0x00, 0x00, 0x80, 0x18, 0x00, 0x00, 0xfd, 0x07, 0xfc, 0x04, 0xfe, 0x03, 0x07, 0x08, 0xfb, 0x02, 0x00, 0xf9, 0x06, 0x11, 0x01, 0x01, 0xf7, 0xec, 0xe7, 0xed, 0x00, 0xe5, 0x06, 0xf0, 0xf1, 0x0a, 0xea, 0xff, 0xe5, 0xec, 0xfb, 0xed, 0x12, 0xfa, 0x03, 0x07, 0xfd, 0x02, 0xff, 0x0a, 0x03, 0x16, 0x0d, 0xfd, 0x10, 0x04, 0xfe, 0xfd, 0x27, 0x0a, 0xff, 0x08, 0xfe, 0x09, 0x00, 0x0b, 0x04, 0x23, 0x09, 0x07, 0x07, 0x08, 0x05, 0x08, 0x0a, 0xf7, 0xf9, 0xf6, 0x01, 0xed, 0x07, 0xf6, 0x17, 0x0b, 0xf6, 0xfa, 0x05, 0xf5, 0xfb, 0xf9, 0x08, 0xed, 0xe1, 0xe3, 0x06, 0xe0, 0x03, 0xde, 0x11, 0xf8, 0xcf, 0x00, 0xe2, 0xde, 0xdc, 0xe5, 0x0e, 0xdd, 0xba, 0xd2, 0x00, 0xad, 0x01, 0xc8, 0x11, 0x0e, 0xb2, 0xf9, 0xd6, 0xb3, 0xb0, 0xc6, 0x03, 0xe7, 0xab, 0xd8, 0xfd, 0xb8, 0x01, 0xbc, 0x03, 0x04, 0xb2, 0x05, 0xe4, 0xc6, 0xc7, 0xd4, 0x07, 0xd9, 0xad, 0xd0, 0xfb, 0xaf, 0xff, 0xa9, 0xfe, 0x06, 0xa0, 0xfc, 0xce, 0xb6, 0xbc, 0xdb, 0x08, 0xec, 0xf2, 0xe6, 0xfb, 0xe8, 0xf9, 0xdb, 0xf4, 0x0c, 0xde, 0x04, 0xf8, 0xef, 0xe7, 0xe8, 0x12, 0xf9, 0xf1, 0xfa, 0x04, 0xf3, 0xfe, 0xfd, 0xfd, 0x1c, 0xfc, 0x03, 0xff, 0xfe, 0xf3, 0xf6, 0xf8, 0xfe, 0xee, 0x02, 0x07, 0xe8, 0x07, 0xea, 0xfd, 0xfb, 0xff, 0xfc, 0xff, 0xfa, 0xf3, 0xf9, 0x00, 0x00, 0xdd, 0x01, 0x08, 0xe8, 0x01, 0xf2, 0xee, 0xfb, 0xd7, 0x02, 0xfb, 0xff, 0xf1, 0x01, 0x03, 0xf7, 0xda, 0xf7, 0x01, 0xe3, 0xff, 0xea, 0x05, 0x02, 0xd9, 0xf9, 0xf9, 0xee, 0xed, 0xfb, 0xff, 0x08, 0xfe, 0x01, 0xfb, 0x14, 0xfc, 0x08, 0x01, 0x07, 0x06, 0xfe, 0x08, 0x21, 0xfb, 0x03, 0x13, 0x13, 0x15, 0x04, 0x09, 0x0e, 0xf9, 0x0c, 0xff, 0x32, 0x03, 0xf9, 0x14, 0x13, 0x19, 0x0b, 0x2d, 0x1a, 0x1a, 0x14, 0xfc, 0x34, 0x02, 0x23, 0xf8, 0x42, 0x27, 0x09, 0x2d, 0x26, 0x27, 0x15, 0x2f, 0x19, 0x12, 0x0c, 0xfe, 0x15, 0x08, 0x16, 0x02, 0x2f, 0x1d, 0xf9, 0x12, 0x16, 0x0b, 0x12, 0x2c, 0x10, 0x00, 0x08, 0xff, 0x02, 0xfd, 0xfc, 0x0d, 0x37, 0x03, 0xfe, 0x06, 0x0e, 0xef, 0x04, 0x2a, 0xf1, 0xda, 0xfc, 0x00, 0xf5, 0xfc, 0xe5, 0x03, 0x2e, 0xe9, 0xfb, 0xf9, 0xed, 0xe6, 0xea, 0x29, 0xfb, 0xd8, 0xe6, 0x00, 0xdd, 0x01, 0xe3, 0xf9, 0x26, 0xe5, 0x02, 0xf7, 0xec, 0xd6, 0xf1, 0x11, 0xe4, 0xa2, 0xd6, 0x02, 0xbb, 0x07, 0xc4, 0xf4, 0x1b, 0xb9, 0xfc, 0xeb, 0xc7, 0xc9, 0xce, 0x0f, 0xde, 0x98, 0xd0, 0x05, 0xaa, 0x09, 0xb0, 0x01, 0xff, 0x95, 0xff, 0xd0, 0xaf, 0xb8, 0xd5, 0x22, 0xfd, 0x04, 0xef, 0xfd, 0xf4, 0x04, 0xee, 0xf5, 0x1f, 0xe4, 0x06, 0xf0, 0x00, 0xf5, 0xf3, 0x22, 0x10, 0x1f, 0x0f, 0x08, 0x33, 0x03, 0x16, 0xf2, 0x2b, 0x1b, 0x01, 0x1c, 0x17, 0x15, 0x0d, 0x15, 0x07, 0x25, 0x1b, 0x02, 0x14, 0x03, 0x10, 0xfa, 0x0c, 0x2c, 0x03, 0x0f, 0x1f, 0x08, 0x0c, 0x05, 0x09, 0x01, 0x07, 0x08, 0x0e, 0xff, 0x08, 0xf8, 0x11, 0xfe, 0x06, 0x05, 0x05, 0xfa, 0x01, 0x00, 0x08, 0x08, 0x12, 0xfe, 0x0f, 0xfc, 0x09, 0xfd, 0x0a, 0xfe, 0xfe, 0x08, 0xfe, 0xf5, 0x0c, 0xfb, 0xff, 0xfd, 0xfa, 0xf9, 0x0b, 0x08, 0x16, 0xf9, 0x05, 0xfc, 0x06, 0x01, 0x19, 0x02, 0x01, 0x1b, 0x1b, 0x0e, 0x11, 0x06, 0x1d, 0xff, 0x19, 0xed, 0x24, 0x15, 0xff, 0x14, 0x11, 0x18, 0x0d, 0x2a, 0x2b, 0x30, 0x11, 0x04, 0x2e, 0x09, 0x26, 0xe4, 0x29, 0x21, 0xfa, 0x1d, 0x22, 0x29, 0x17, 0x32, 0x09, 0x12, 0x11, 0xff, 0x12, 0x05, 0x09, 0x11, 0x21, 0x09, 0x04, 0x0b, 0x0c, 0x12, 0x15, 0x17, 0x0d, 0x03, 0x0a, 0x01, 0x08, 0x02, 0x04, 0x06, 0x29, 0xfe, 0x03, 0x03, 0x08, 0xfe, 0x04, 0x20, 0xf6, 0x01, 0x01, 0xfb, 0xf2, 0xfa, 0xfa, 0xfe, 0x2c, 0x0a, 0xfa, 0x05, 0x01, 0xec, 0xf6, 0x19, 0xf1, 0xe7, 0xe3, 0xff, 0xdf, 0x07, 0xe5, 0x0e, 0x1a, 0xde, 0x04, 0xe5, 0xdc, 0xd9, 0xec, 0x06, 0xec, 0xbd, 0xc9, 0x08, 0xc4, 0x01, 0xc5, 0x07, 0x0b, 0xc3, 0x02, 0xd5, 0xc6, 0xc3, 0xd0, 0xff, 0xe1, 0xb1, 0xbd, 0x08, 0xb7, 0xff, 0xc0, 0x08, 0x04, 0xa6, 0xfe, 0xcf, 0xc7, 0xbe, 0xca, 0x16, 0xff, 0xf3, 0xe6, 0x00, 0x06, 0x09, 0xf9, 0xf8, 0x12, 0xec, 0x04, 0xf6, 0xfc, 0xeb, 0xef, 0x20, 0x17, 0x27, 0x08, 0x02, 0x1a, 0xfd, 0x19, 0xf7, 0x24, 0x14, 0x03, 0x16, 0x15, 0xfa, 0x07, 0x23, 0x1d, 0x33, 0x0d, 0x06, 0x27, 0xfc, 0x15, 0xfa, 0x26, 0x24, 0x03, 0x15, 0x18, 0x16, 0x09, 0x0a, 0x15, 0x26, 0x0d, 0x03, 0x16, 0x02, 0x06, 0x01, 0x0f, 0x20, 0x08, 0x11, 0x15, 0x0d, 0x10, 0x00, 0x08, 0x0d, 0x0b, 0x02, 0x07, 0x06, 0xff, 0xf9, 0x03, 0x06, 0xff, 0x0f, 0x13, 0x08, 0xfe, 0xfd, 0xfc, 0xfc, 0xfb, 0x00, 0x0e, 0xfd, 0x0d, 0xfb, 0xfd, 0x00, 0x07, 0x01, 0x19, 0x02, 0x01, 0x0a, 0xfb, 0xfe, 0xfc, 0xfb, 0xf8, 0x00, 0x07, 0xf4, 0x05, 0x0e, 0xff, 0x01, 0xf8, 0x06, 0x0a, 0x03, 0x0a, 0x16, 0xf9, 0x04, 0x0b, 0x01, 0x0e, 0xff, 0xff, 0x0a, 0x00, 0x0c, 0x0f, 0x00, 0x08, 0x29, 0x08, 0x16, 0x08, 0x01, 0x17, 0xfa, 0x0f, 0x14, 0x29, 0x23, 0xfc, 0x14, 0x10, 0x16, 0x08, 0x24, 0x1e, 0x16, 0x17, 0x06, 0x22, 0xfe, 0x12, 0x00, 0x38, 0x1e, 0x08, 0x19, 0x22, 0x1b, 0x0a, 0x1b, 0x04, 0xf9, 0x05, 0x03, 0x09, 0x01, 0xf8, 0x0e, 0x26, 0x00, 0x03, 0x0b, 0xf5, 0xf2, 0x01, 0x08, 0xe8, 0xd8, 0xd9, 0xfd, 0xdf, 0x06, 0xd8, 0x04, 0x05, 0xd4, 0xf9, 0xec, 0xdf, 0xd6, 0xdf, 0xf5, 0xe0, 0xca, 0xdb, 0x08, 0xb6, 0x01, 0xcb, 0x00, 0x0f, 0xbb, 0xfd, 0xd9, 0xc9, 0xc9, 0xd8, 0xfc, 0xe0, 0xc4, 0xcf, 0x02, 0xc1, 0xfa, 0xd6, 0x03, 0x00, 0xce, 0x02, 0xd6, 0xd1, 0xc1, 0xce, 0x17, 0xfc, 0x01, 0xeb, 0xfe, 0x09, 0x05, 0xf9, 0x03, 0x0d, 0xfa, 0xfe, 0xff, 0xf3, 0xf6, 0xf2, 0x1b, 0x07, 0x19, 0x08, 0x04, 0x13, 0x01, 0x10, 0xfb, 0x15, 0x12, 0xff, 0x0e, 0x1b, 0x10, 0x05, 0x16, 0x17, 0x31, 0x0b, 0xfa, 0x2d, 0xff, 0x24, 0xfe, 0x1c, 0x2c, 0xfc, 0x12, 0x2e, 0x17, 0x15, 0x14, 0x0a, 0x29, 0x0a, 0xfb, 0x16, 0x07, 0x1b, 0x01, 0x13, 0x21, 0xff, 0x14, 0x17, 0x0a, 0x13, 0x06, 0x0b, 0x08, 0x0c, 0xf9, 0x0c, 0x02, 0x11, 0xfa, 0xff, 0x19, 0xf8, 0x10, 0x20, 0x03, 0x14, 0xfa, 0xfe, 0x01, 0xfa, 0x02, 0x03, 0xff, 0x0f, 0x00, 0xfa, 0x00, 0x06, 0xff, 0x06, 0xf7, 0x05, 0x0b, 0xfc, 0x00, 0xf6, 0xf9, 0x05, 0xfb, 0xfc, 0xf5, 0xfd, 0x03, 0x02, 0x04, 0xfe, 0xf9, 0xfe, 0x0a, 0x0f, 0x06, 0x09, 0xfd, 0x17, 0xfd, 0x16, 0xe5, 0x0d, 0x05, 0x03, 0x05, 0x12, 0x0d, 0x04, 0x0d, 0x0e, 0x03, 0x02, 0x03, 0x06, 0xfb, 0x09, 0xe9, 0x10, 0x03, 0xfa, 0x06, 0x01, 0x02, 0x01, 0x0f, 0x06, 0x0d, 0x08, 0x03, 0x0a, 0xf9, 0x0f, 0x03, 0x17, 0x14, 0xf8, 0x03, 0x0c, 0x05, 0x08, 0x08, 0x07, 0x01, 0xf1, 0xfd, 0x00, 0x01, 0x02, 0x07, 0x18, 0x08, 0x01, 0x08, 0x00, 0xff, 0xf5, 0x0c, 0xfe, 0xe5, 0xf6, 0x02, 0xe7, 0xf9, 0xe6, 0x07, 0x00, 0xe0, 0xff, 0xea, 0xe6, 0xd9, 0xe7, 0xfa, 0xd8, 0xc9, 0xdc, 0xfe, 0xcc, 0x03, 0xcc, 0xfc, 0xe7, 0xd2, 0xfc, 0xdb, 0xc6, 0xcb, 0xd0, 0xe8, 0xec, 0xd5, 0xce, 0x05, 0xdb, 0xff, 0xe0, 0x09, 0xef, 0xda, 0x09, 0xd6, 0xd9, 0xcc, 0xcf, 0x1f, 0x14, 0x1d, 0x02, 0xf9, 0x2e, 0xfe, 0x13, 0xec, 0x32, 0x1c, 0x09, 0x12, 0x16, 0x11, 0x0a, 0x2f, 0x2b, 0x42, 0x2b, 0xfd, 0x3e, 0x06, 0x34, 0xee, 0x3d, 0x55, 0xf9, 0x33, 0x3c, 0x33, 0x24, 0x27, 0x23, 0x44, 0x2e, 0xfc, 0x47, 0xfc, 0x36, 0xf9, 0x27, 0x4d, 0x09, 0x2b, 0x3b, 0x36, 0x21, 0x08, 0x0d, 0x32, 0x0d, 0x07, 0x13, 0x07, 0x07, 0xfd, 0x05, 0x28, 0x02, 0x0a, 0x11, 0x07, 0x19, 0xf9, 0x0d, 0x01, 0x13, 0xff, 0x09, 0x00, 0x15, 0xef, 0xfd, 0x07, 0xfc, 0x06, 0x14, 0x12, 0x0b, 0x02, 0x0b, 0x00, 0xfa, 0xfa, 0x13, 0xfc, 0x15, 0xf7, 0x01, 0x06, 0x03, 0xfc, 0x0f, 0xff, 0x04, 0x04, 0x02, 0xfe, 0xfc, 0x01, 0x01, 0xf9, 0xfe, 0xff, 0xfd, 0x03, 0xfc, 0xfe, 0xf0, 0x08, 0xff, 0x14, 0x0b, 0x13, 0x09, 0xfe, 0x17, 0x01, 0x16, 0xea, 0x0a, 0x0c, 0xfa, 0x18, 0x15, 0x19, 0x13, 0x00, 0xf9, 0x07, 0xfb, 0xf8, 0x02, 0x03, 0x0c, 0xeb, 0x01, 0x04, 0xfd, 0xfa, 0x0b, 0xfc, 0x00, 0x03, 0x06, 0x0f, 0xfa, 0x05, 0x0d, 0x03, 0x0c, 0xf6, 0x01, 0x07, 0x07, 0x12, 0x07, 0xfd, 0xfd, 0x16, 0x12, 0x0d, 0x0a, 0x03, 0x08, 0x00, 0x1a, 0x02, 0x18, 0x11, 0xfa, 0x1a, 0x17, 0x0a, 0x06, 0x06, 0xfb, 0xee, 0x0f, 0x04, 0xea, 0x01, 0xfb, 0x0b, 0x10, 0x05, 0x05, 0xfb, 0x07, 0xfc, 0xfe, 0xdf, 0xe1, 0xcd, 0xd9, 0xfd, 0xcc, 0x04, 0xca, 0x0f, 0xeb, 0xd7, 0x06, 0xdc, 0xd7, 0xd4, 0xd2, 0xd5, 0xd4, 0xcb, 0xc9, 0xfd, 0xd2, 0x04, 0xdb, 0xfa, 0xdc, 0xdd, 0x00, 0xdc, 0xdd, 0xcd, 0xd9, 0x23, 0x27, 0x39, 0x0e, 0x06, 0x44, 0x00, 0x32, 0xf8, 0x31, 0x2c, 0x01, 0x19, 0x3b, 0x28, 0x16, 0x51, 0x4f, 0x77, 0x55, 0xfc, 0x79, 0x02, 0x60, 0xec, 0x6a, 0x74, 0x06, 0x57, 0x6c, 0x5a, 0x52, 0x40, 0x2c, 0x5f, 0x3b, 0x08, 0x5d, 0xff, 0x53, 0xed, 0x41, 0x5a, 0x09, 0x3b, 0x4f, 0x57, 0x35, 0x12, 0x0c, 0x16, 0x06, 0x01, 0x1c, 0x04, 0x10, 0xfd, 0x13, 0x2f, 0x05, 0x14, 0x02, 0x18, 0x14, 0x07, 0xfe, 0xe6, 0x04, 0x03, 0xf2, 0xfc, 0xf4, 0xfe, 0x0b, 0xf9, 0xfc, 0x07, 0x07, 0xf9, 0xfd, 0xfb, 0x05, 0x04, 0x01, 0x09, 0x12, 0x04, 0x12, 0xef, 0x07, 0xfe, 0xfc, 0x05, 0x0c, 0x09, 0x04, 0x0b, 0xf7, 0xfd, 0x04, 0xf9, 0xfb, 0x00, 0xfb, 0xf5, 0xff, 0xf5, 0x08, 0x00, 0xf9, 0x07, 0x01, 0xf7, 0xf9, 0x05, 0x00, 0x00, 0xf7, 0x06, 0xf8, 0xe8, 0xf6, 0xfd, 0xfc, 0xf7, 0xf3, 0xff, 0x00, 0xff, 0xf2, 0x04, 0xf5, 0xf9, 0xfd, 0xfa, 0xff, 0xed, 0x03, 0xf5, 0xfd, 0xf8, 0xf4, 0xfc, 0xf4, 0x03, 0xf0, 0x09, 0xf2, 0x08, 0xfe, 0x01, 0xfe, 0xfd, 0x03, 0x01, 0xfb, 0x08, 0xfc, 0xfb, 0x02, 0x08, 0xfe, 0xf7, 0xff, 0x01, 0x06, 0x04, 0x06, 0x04, 0xf4, 0x01, 0x09, 0x05, 0x07, 0xf1, 0xf9, 0xf9, 0xf2, 0xdd, 0xe8, 0xfe, 0xd3, 0xfb, 0xe2, 0x0c, 0xec, 0xe0, 0x08, 0xdb, 0xe2, 0xdc, 0xe4, 0xec, 0xda, 0xcd, 0xd3, 0x07, 0xd9, 0xff, 0xd9, 0x12, 0xf0, 0xd5, 0x07, 0xd4, 0xcb, 0xd0, 0xd8, 0xe2, 0xdb, 0xd0, 0xd7, 0x04, 0xd9, 0x07, 0xcf, 0x03, 0xcf, 0xd3, 0x09, 0xde, 0xd1, 0xd7, 0xdc, 0x2d, 0x29, 0x3f, 0x13, 0x06, 0x42, 0xfd, 0x38, 0xee, 0x20, 0x32, 0xf9, 0x2b, 0x47, 0x3d, 0x19, 0x4f, 0x41, 0x60, 0x45, 0x05, 0x5b, 0xfd, 0x4e, 0xe5, 0x52, 0x5d, 0x04, 0x49, 0x3e, 0x53, 0x45, 0x2a, 0x20, 0x34, 0x29, 0xfc, 0x37, 0x05, 0x1f, 0xfe, 0x21, 0x3d, 0x04, 0x18, 0x24, 0x21, 0x29, 0xed, 0xf6, 0xf1, 0xf3, 0x01, 0xe8, 0x02, 0xe2, 0xfb, 0xe4, 0x00, 0x00, 0xf9, 0xeb, 0xf1, 0xe5, 0xdc, 0xe5, 0xc7, 0xe3, 0x07, 0xb8, 0xfe, 0xc8, 0x0b, 0xd0, 0xc3, 0x01, 0xd6, 0xc8, 0xce, 0xdc, 0xfa, 0x02, 0x04, 0x03, 0x01, 0x14, 0x06, 0x05, 0xf7, 0xfc, 0xff, 0x03, 0x00, 0x0f, 0xf9, 0xf6, 0x02, 0xf4, 0xff, 0x04, 0x02, 0xf6, 0x05, 0xfe, 0xdf, 0xfb, 0x04, 0xff, 0xf8, 0xfd, 0xfb, 0x00, 0xee, 0xe7, 0xec, 0xef, 0x08, 0xef, 0xf7, 0xf1, 0xd9, 0xf7, 0xee, 0xfc, 0xf8, 0xf7, 0xef, 0xf7, 0x02, 0xf9, 0xff, 0xee, 0xfe, 0xf9, 0x03, 0x05, 0xde, 0xf6, 0xf4, 0x06, 0xed, 0xf9, 0xfa, 0x03, 0x0a, 0x0a, 0x09, 0x03, 0xfb, 0x02, 0x03, 0x17, 0xe6, 0x01, 0x01, 0x05, 0x04, 0x0e, 0x0a, 0x0f, 0x07, 0xfa, 0xfc, 0x03, 0x07, 0xf5, 0x06, 0x00, 0x02, 0x03, 0x01, 0x02, 0x07, 0x09, 0xfe, 0x04, 0xc7, 0xc3, 0xd2, 0xce, 0x05, 0xd5, 0x02, 0xd3, 0x0b, 0xcd, 0xcc, 0x06, 0xc9, 0xcc, 0xcd, 0xd3, 0xe5, 0xe8, 0xcb, 0xdc, 0x05, 0xd1, 0x01, 0xdf, 0xfc, 0xdf, 0xbf, 0x05, 0xe7, 0xd7, 0xd0, 0xe7, 0xff, 0xef, 0xf7, 0xf6, 0x08, 0xfa, 0x09, 0xf0, 0xf1, 0x09, 0xf1, 0xfc, 0xeb, 0xf9, 0xed, 0xf9, 0x3a, 0x3d, 0x47, 0x35, 0xff, 0x47, 0x09, 0x42, 0xdf, 0x27, 0x32, 0x09, 0x2d, 0x4b, 0x46, 0x2c, 0x32, 0x32, 0x48, 0x27, 0x07, 0x43, 0x04, 0x43, 0xed, 0x25, 0x3b, 0x03, 0x2e, 0x3d, 0x3d, 0x33, 0x05, 0x00, 0x15, 0x03, 0x06, 0x07, 0x08, 0x16, 0xf9, 0xfb, 0x1b, 0xff, 0x04, 0x06, 0x0d, 0x11, 0xcc, 0xde, 0xc8, 0xde, 0xff, 0xc8, 0xff, 0xca, 0x08, 0xcd, 0xe0, 0xff, 0xd7, 0xcf, 0xda, 0xe3, 0xbd, 0xcb, 0xa9, 0xc4, 0xfc, 0xb0, 0xff, 0xc3, 0xf6, 0xc3, 0xa8, 0xfb, 0xca, 0xbd, 0xb6, 0xcb, 0x00, 0x07, 0xf8, 0x03, 0x08, 0x1c, 0xfd, 0x0a, 0xf3, 0x08, 0x01, 0x03, 0xfe, 0x14, 0x02, 0x05, 0x18, 0x03, 0x09, 0x11, 0xfa, 0x07, 0x05, 0x12, 0xaa, 0x11, 0x06, 0xfb, 0x0b, 0x06, 0x01, 0x09, 0xf8, 0xef, 0xf6, 0xf9, 0xfa, 0xfa, 0xff, 0xf4, 0xc3, 0xfb, 0xf4, 0x0a, 0xf5, 0xf8, 0xf7, 0xf4, 0xee, 0xf7, 0xf4, 0xfa, 0xfe, 0xf7, 0xf9, 0xfc, 0xde, 0xf1, 0xf9, 0xfa, 0xf5, 0xfb, 0xf9, 0xf0, 0x04, 0x13, 0x04, 0x1a, 0xf8, 0x15, 0x04, 0x15, 0xec, 0x11, 0x1b, 0xfb, 0x13, 0x0e, 0x1d, 0x0f, 0x0f, 0x1d, 0x0d, 0x23, 0x04, 0x02, 0x08, 0x11, 0x00, 0x2a, 0x1e, 0x09, 0x04, 0x07, 0x14, 0x09, 0xeb, 0xe5, 0xd0, 0xe4, 0xfc, 0xcd, 0xf9, 0xdd, 0x0c, 0xea, 0xda, 0xf9, 0xe5, 0xd9, 0xd9, 0xe1, 0xda, 0xeb, 0xdc, 0xe1, 0xfd, 0xeb, 0x08, 0xdc, 0xfc, 0xdf, 0xd8, 0x00, 0xf1, 0xd5, 0xd8, 0xe3, 0x1b, 0x11, 0x15, 0x0e, 0x06, 0x25, 0x03, 0x19, 0xf1, 0x22, 0x1a, 0x00, 0x1b, 0x1b, 0x13, 0x0f, 0x3f, 0x3d, 0x47, 0x41, 0xfb, 0x40, 0xf9, 0x43, 0xeb, 0x45, 0x5a, 0x04, 0x3e, 0x51, 0x4a, 0x3e, 0x3a, 0x33, 0x3e, 0x3b, 0x05, 0x44, 0xfc, 0x49, 0xf1, 0x2c, 0x4e, 0xf9, 0x2e, 0x35, 0x40, 0x43, 0xef, 0x14, 0x17, 0x19, 0xff, 0x0f, 0xf9, 0x0d, 0xfc, 0x03, 0x2a, 0xfd, 0x0f, 0x11, 0x1a, 0x1a, 0xc6, 0xd1, 0xd5, 0xe0, 0x00, 0xcc, 0xfa, 0xc7, 0x12, 0xc3, 0xe2, 0xfc, 0xdb, 0xc5, 0xd9, 0xd8, 0xbe, 0xd4, 0xb2, 0xce, 0xfb, 0xb4, 0x04, 0xbc, 0xff, 0xbe, 0xb6, 0x07, 0xc2, 0xc6, 0xbd, 0xbb, 0xf9, 0x0a, 0x03, 0xfb, 0xf9, 0x0d, 0x02, 0x13, 0xeb, 0x09, 0x00, 0xff, 0x00, 0x19, 0x00, 0xfe, 0x10, 0x15, 0x05, 0x00, 0x02, 0x0a, 0xfd, 0x10, 0xb6, 0x05, 0x05, 0x04, 0xff, 0x10, 0x0a, 0x0b, 0x03, 0x00, 0xf6, 0xfe, 0xfb, 0xf9, 0x03, 0xff, 0xc4, 0xfd, 0x01, 0x02, 0xf9, 0xfd, 0xfd, 0xf8, 0xf8, 0xfa, 0xff, 0xef, 0xf9, 0xf9, 0xff, 0x05, 0xeb, 0xf1, 0xfe, 0x04, 0x00, 0x02, 0xf1, 0xfa, 0x02, 0x01, 0x06, 0xfb, 0x01, 0xfc, 0xff, 0x0f, 0xf2, 0x10, 0x09, 0x05, 0x0c, 0x0b, 0x0a, 0x03, 0x15, 0x08, 0x06, 0x07, 0x01, 0xff, 0x04, 0xfc, 0x13, 0x0e, 0xfe, 0xf9, 0x0c, 0x0f, 0x0b, 0x14, 0x03, 0xef, 0xf1, 0xf4, 0xff, 0xe2, 0xfd, 0xea, 0x04, 0xf9, 0xe1, 0xfa, 0xf1, 0xe7, 0xe9, 0xf6, 0xf2, 0xeb, 0xe1, 0xed, 0xfb, 0xd4, 0xfc, 0xec, 0xfe, 0x03, 0xd7, 0xfc, 0xec, 0xe5, 0xe7, 0xf3, 0xf9, 0x04, 0xec, 0xfa, 0x03, 0xf8, 0xff, 0xf5, 0xfc, 0xf7, 0xee, 0xf9, 0xfb, 0xea, 0xf6, 0xf2, 0x1c, 0x16, 0x1d, 0x11, 0x06, 0x14, 0xfd, 0x14, 0xde, 0x07, 0x17, 0xf9, 0x17, 0x16, 0x21, 0x10, 0x32, 0x2f, 0x36, 0x28, 0x07, 0x3a, 0x02, 0x38, 0xea, 0x1e, 0x2c, 0xfc, 0x1e, 0x35, 0x32, 0x33, 0x18, 0x22, 0x37, 0x28, 0x06, 0x28, 0xfe, 0x22, 0xf8, 0x23, 0x3a, 0x05, 0x17, 0x13, 0x22, 0x1f, 0xe1, 0xe1, 0xd4, 0xe5, 0x07, 0xd8, 0x03, 0xca, 0x0c, 0xdf, 0xf1, 0x05, 0xe8, 0xcc, 0xce, 0xee, 0xdd, 0xd9, 0xbb, 0xcf, 0xf8, 0xbe, 0xff, 0xc9, 0xfd, 0xf0, 0xc2, 0x09, 0xde, 0xcf, 0xc7, 0xd1, 0xfe, 0x00, 0xfb, 0xfd, 0xfa, 0x05, 0x03, 0x0b, 0xf5, 0xfe, 0xfe, 0xfc, 0xfd, 0x02, 0xfd, 0xfc, 0xf5, 0xf3, 0xf9, 0xf2, 0x06, 0xf4, 0xfd, 0x03, 0xf6, 0xf8, 0xf4, 0xfb, 0x05, 0x00, 0xfa, 0xfc, 0x03, 0x0a, 0x04, 0xfd, 0x05, 0x04, 0x03, 0x08, 0xd7, 0x02, 0xfe, 0xfd, 0x03, 0x05, 0x00, 0x06, 0x1b, 0x0e, 0x06, 0x0f, 0x09, 0x11, 0x02, 0x13, 0xe6, 0x23, 0x0b, 0x07, 0x0e, 0x0c, 0x1a, 0x06, 0x09, 0x06, 0xfc, 0x09, 0x03, 0x01, 0x07, 0xff, 0x0e, 0x06, 0x01, 0x01, 0x01, 0x00, 0x04, 0x04, 0x01, 0xf4, 0xe9, 0xf0, 0xfc, 0xe9, 0x08, 0xee, 0x14, 0xfd, 0xe9, 0xfa, 0xf0, 0xe3, 0xe7, 0xed, 0x0b, 0xf6, 0xd6, 0xf0, 0x05, 0xc8, 0x03, 0xdf, 0x0a, 0x0d, 0xe3, 0x07, 0xe1, 0xe5, 0xd5, 0xe6, 0xe2, 0xe1, 0xcb, 0xe6, 0xfd, 0xce, 0xff, 0xd0, 0x0a, 0xf3, 0xc6, 0xfd, 0xde, 0xde, 0xd3, 0xe3, 0xe9, 0xe4, 0xd3, 0xdf, 0xfd, 0xd2, 0x02, 0xdb, 0xfe, 0xea, 0xd0, 0x01, 0xe1, 0xdb, 0xe1, 0xe8, 0x04, 0xf8, 0x00, 0xf6, 0x06, 0xf2, 0xf9, 0xee, 0xfd, 0xee, 0xe5, 0x05, 0xf5, 0xff, 0xff, 0xf6, 0x10, 0x13, 0x1d, 0x06, 0xfe, 0x1f, 0xfb, 0x20, 0xf0, 0xf9, 0x12, 0xff, 0x0a, 0x16, 0x1b, 0x1a, 0x2e, 0x2d, 0x52, 0x2b, 0x01, 0x4b, 0xf9, 0x45, 0xf9, 0x23, 0x50, 0xfa, 0x37, 0x37, 0x3c, 0x25, 0x08, 0x05, 0x09, 0x0d, 0x02, 0x13, 0xff, 0x07, 0xf4, 0x0f, 0x26, 0x03, 0x12, 0x11, 0x0d, 0x0f, 0x0c, 0xfa, 0xe5, 0x15, 0xf9, 0xf0, 0x07, 0xf8, 0x02, 0x04, 0xef, 0x01, 0x10, 0x00, 0xf0, 0x07, 0x03, 0xfd, 0xfa, 0x02, 0xfa, 0x11, 0x03, 0x14, 0xf8, 0xf7, 0xff, 0xfe, 0xff, 0x0b, 0xf9, 0x02, 0xff, 0xfb, 0x0a, 0x13, 0x01, 0x0a, 0x04, 0x03, 0x01, 0x05, 0x18, 0xfd, 0x0d, 0x17, 0x08, 0x00, 0x03, 0x04, 0xff, 0x05, 0xfb, 0x01, 0x05, 0xfe, 0xed, 0x0b, 0x04, 0xff, 0x07, 0x06, 0xff, 0x08, 0x1c, 0x0f, 0x1a, 0x0f, 0x09, 0x02, 0xf9, 0x03, 0xdc, 0x16, 0x00, 0x05, 0x0b, 0x0c, 0x18, 0x0f, 0x11, 0x10, 0x0d, 0x0d, 0x06, 0xfc, 0x03, 0x09, 0x09, 0x1b, 0x0e, 0x09, 0x0e, 0x15, 0x08, 0x0c, 0xf3, 0xdc, 0xd4, 0xf4, 0x08, 0xc3, 0xfe, 0xe4, 0x05, 0xf3, 0xc9, 0xff, 0xe0, 0xd0, 0xe3, 0xe5, 0x07, 0xe0, 0xb5, 0xde, 0x03, 0xbb, 0xfa, 0xca, 0x10, 0x01, 0xac, 0x02, 0xe4, 0xcc, 0xbc, 0xdf, 0x02, 0xdd, 0xac, 0xda, 0xfc, 0xb4, 0xfb, 0xb1, 0xfc, 0x0a, 0xa0, 0xfd, 0xd0, 0xc5, 0xb7, 0xd5, 0xf1, 0xf6, 0xcb, 0xdd, 0x03, 0xc9, 0x03, 0xd5, 0xf9, 0x0b, 0xbe, 0xfe, 0xeb, 0xd9, 0xd1, 0xea, 0xeb, 0xf3, 0xea, 0xff, 0xfe, 0xfb, 0xfd, 0xe8, 0xfb, 0x0a, 0xf1, 0xfe, 0xf8, 0xef, 0xf9, 0xfb, 0x05, 0x25, 0x19, 0x10, 0x07, 0x25, 0x04, 0x14, 0xf2, 0x12, 0x1d, 0xfc, 0x14, 0x23, 0x16, 0x17, 0x22, 0x30, 0x61, 0x3f, 0x03, 0x5e, 0xff, 0x42, 0x01, 0x20, 0x55, 0xfc, 0x2c, 0x53, 0x3d, 0x2d, 0x0b, 0x13, 0x4b, 0x26, 0x03, 0x27, 0x02, 0x23, 0xf2, 0x10, 0x38, 0x01, 0x20, 0x2a, 0x2b, 0x1d, 0x0a, 0x13, 0x20, 0x14, 0xf8, 0x25, 0x04, 0x13, 0xfd, 0x00, 0x1d, 0x03, 0x15, 0x17, 0x19, 0x19, 0x05, 0x01, 0x00, 0xf9, 0xfc, 0x14, 0x05, 0x12, 0xf5, 0xf9, 0xfa, 0x02, 0xff, 0x10, 0x04, 0xfb, 0x16, 0x14, 0x0d, 0x15, 0x00, 0x17, 0xfd, 0x16, 0xe6, 0x0c, 0x19, 0x08, 0x13, 0x13, 0x10, 0x16, 0x00, 0xf6, 0xff, 0x0d, 0xfe, 0xfe, 0xf8, 0xfb, 0xf8, 0x10, 0x09, 0xfc, 0x09, 0x02, 0xf6, 0xf6, 0xfa, 0xf7, 0xef, 0xfc, 0x01, 0xec, 0x02, 0xf4, 0xf2, 0xef, 0xee, 0xfc, 0xf6, 0xea, 0xf5, 0xf2, 0x18, 0x0c, 0x06, 0x08, 0x05, 0xfa, 0x07, 0x00, 0xf8, 0x1c, 0xf7, 0x04, 0xff, 0x0e, 0xfa, 0x07, 0x0c, 0xea, 0xcb, 0xf9, 0x00, 0xbb, 0x06, 0xc2, 0x19, 0x16, 0xbf, 0xfb, 0xe9, 0xc7, 0xd5, 0xe4, 0xf5, 0xe9, 0xa2, 0xdb, 0x06, 0xab, 0x04, 0xc6, 0x0f, 0x06, 0xa3, 0xf9, 0xd9, 0xbd, 0xc3, 0xcc, 0x02, 0xe6, 0xa1, 0xcd, 0x08, 0xb0, 0xfa, 0xcc, 0xf5, 0x07, 0xa5, 0x03, 0xe1, 0xbe, 0xc0, 0xdc, 0x24, 0xf4, 0xdc, 0xf0, 0xfc, 0xd7, 0xfe, 0xe9, 0xff, 0x1d, 0xc6, 0x06, 0x02, 0xf9, 0xda, 0xec, 0x22, 0x1e, 0x10, 0x08, 0x03, 0x11, 0xfe, 0x17, 0xf3, 0x32, 0x11, 0x04, 0x18, 0x04, 0x14, 0x0b, 0x34, 0x25, 0x32, 0x2e, 0x04, 0x3f, 0xff, 0x2c, 0xf7, 0x30, 0x2b, 0x05, 0x2b, 0x2a, 0x33, 0x1f, 0x27, 0x2a, 0x56, 0x31, 0x00, 0x51, 0xff, 0x40, 0xf4, 0x2a, 0x56, 0x01, 0x30, 0x4c, 0x49, 0x35, 0x0d, 0x15, 0x42, 0x1b, 0x02, 0x3a, 0x02, 0x20, 0x02, 0x13, 0x33, 0xfd, 0x1f, 0x2e, 0x28, 0x1a, 0x03, 0x05, 0x0c, 0x0e, 0xfc, 0x07, 0xff, 0x04, 0xfb, 0xfd, 0x07, 0xfa, 0x0c, 0x02, 0x02, 0x0e, 0xfd, 0xf7, 0xfc, 0xfe, 0x08, 0xf3, 0x03, 0xfa, 0xf2, 0xff, 0x04, 0x05, 0xf8, 0x07, 0xfd, 0x02, 0xf6, 0xf1, 0xf3, 0x01, 0xfd, 0xfb, 0xfe, 0xf2, 0xfb, 0x00, 0xf8, 0x04, 0x0e, 0xf6, 0xfd, 0x08, 0x06, 0x00, 0x04, 0x02, 0xfb, 0xf7, 0x08, 0xf5, 0x02, 0x0f, 0xf7, 0xfc, 0xf5, 0xfe, 0xf9, 0xf4, 0xf8, 0xf2, 0xeb, 0xf1, 0x01, 0xe2, 0x02, 0xe7, 0x09, 0xf6, 0xed, 0xfd, 0xfa, 0x00, 0xde, 0xf1, 0x09, 0xf6, 0xe9, 0xf3, 0x05, 0xe1, 0x01, 0xe3, 0x05, 0x16, 0xe7, 0xfd, 0xff, 0xed, 0xee, 0xf3, 0xf1, 0xcb, 0xa2, 0xc0, 0x04, 0x96, 0xfb, 0xaf, 0x0e, 0xfe, 0x95, 0x07, 0xc9, 0xad, 0xbb, 0xd5, 0xfe, 0xd9, 0x95, 0xc8, 0xfd, 0x9e, 0x07, 0xb5, 0x03, 0x05, 0x91, 0xfd, 0xd0, 0xb5, 0xa9, 0xcb, 0x04, 0xcf, 0x82, 0xc9, 0xfa, 0x96, 0xff, 0xa8, 0x0b, 0xfd, 0x89, 0x05, 0xd5, 0xb0, 0xb4, 0xc7, 0x15, 0xed, 0xb6, 0xd5, 0xf9, 0xc0, 0xf9, 0xcb, 0x0a, 0x0c, 0x9a, 0xfc, 0xdd, 0xcc, 0xcf, 0xd2, 0x13, 0x0c, 0x08, 0xf9, 0xfa, 0x05, 0x04, 0x04, 0xf4, 0x1f, 0xf0, 0xfd, 0x08, 0x18, 0xfa, 0x0d, 0x14, 0x18, 0x31, 0x1a, 0xfd, 0x21, 0xfc, 0x25, 0xf6, 0x1d, 0x18, 0x02, 0x0c, 0x1f, 0x19, 0x11, 0x23, 0x1f, 0x43, 0x20, 0x01, 0x43, 0x01, 0x2d, 0xf4, 0x1b, 0x23, 0xfc, 0x27, 0x26, 0x39, 0x25, 0x0d, 0x0b, 0x14, 0x0f, 0xf9, 0xf7, 0x01, 0xf8, 0xf5, 0x01, 0x04, 0xfe, 0x12, 0x09, 0x18, 0x19, 0xfd, 0xf6, 0xcc, 0xeb, 0xfb, 0xbe, 0xfe, 0xdc, 0xfb, 0xff, 0xc6, 0xfd, 0xf1, 0xe7, 0xe2, 0x03, 0x04, 0xfa, 0xff, 0x02, 0x05, 0xfc, 0xf9, 0xf5, 0x09, 0x04, 0xfd, 0xff, 0xfa, 0xf9, 0x07, 0xfe, 0x0c, 0x1a, 0x18, 0x0e, 0xfb, 0x1a, 0x04, 0x17, 0x01, 0x00, 0x19, 0xfd, 0x14, 0x1a, 0x0e, 0x12, 0xf1, 0x03, 0xfa, 0xfe, 0x02, 0xf7, 0x04, 0xfe, 0x09, 0xe3, 0xf8, 0xfe, 0xf7, 0xfc, 0xfc, 0xff, 0xdc, 0xef, 0xfe, 0xf0, 0x00, 0xf0, 0x07, 0xf1, 0xfc, 0xd0, 0xf7, 0x00, 0xfb, 0xfd, 0xf9, 0xf2, 0xef, 0x0c, 0xfe, 0x04, 0x00, 0x19, 0xfc, 0x15, 0xe8, 0xf3, 0x10, 0xff, 0xfd, 0x08, 0x0b, 0x07, 0xed, 0x1a, 0x20, 0x1c, 0xfc, 0x1b, 0x06, 0x24, 0xee, 0x06, 0x28, 0x00, 0x18, 0x1c, 0x1d, 0x11, 0xf4, 0x23, 0x40, 0x2a, 0xfa, 0x52, 0xff, 0x43, 0xfe, 0xef, 0x4d, 0xfb, 0x1f, 0x49, 0x4e, 0x30, 0x09, 0x1d, 0x52, 0x36, 0x06, 0x41, 0x03, 0x3d, 0x08, 0xfa, 0x55, 0x06, 0x25, 0x3e, 0x3e, 0x2c, 0xfa, 0x26, 0x5d, 0x26, 0x00, 0x5c, 0xf8, 0x51, 0xfc, 0x00, 0x63, 0xf8, 0x30, 0x47, 0x49, 0x30, 0xec, 0x16, 0x0e, 0x19, 0xf9, 0x17, 0x06, 0x24, 0x06, 0xef, 0x29, 0xfd, 0x0a, 0x16, 0x0d, 0x16, 0xef, 0x09, 0x09, 0x09, 0x00, 0x06, 0xfc, 0x00, 0x00, 0xe7, 0xf5, 0x06, 0xfb, 0x0d, 0x0a, 0x0e, 0x08, 0x07, 0x15, 0x07, 0xfe, 0x1b, 0x03, 0x0d, 0x07, 0x08, 0x05, 0xfa, 0xfd, 0x02, 0x0b, 0x07, 0x04, 0x09, 0x1f, 0xfc, 0x06, 0x11, 0xfe, 0x0f, 0x14, 0x02, 0x26, 0x03, 0xfd, 0xfb, 0x11, 0xfe, 0xff, 0x06, 0x29, 0x09, 0x06, 0x20, 0x02, 0x11, 0xf9, 0xfe, 0x31, 0xf9, 0x05, 0x13, 0x1e, 0xfe, 0xfd, 0xf9, 0xfd, 0xfd, 0xfd, 0xf4, 0x05, 0xf0, 0x06, 0x06, 0x00, 0xff, 0x05, 0xdc, 0x05, 0x02, 0xed, 0xf2, 0xe9, 0xf1, 0xff, 0xf1, 0xf9, 0xf2, 0x01, 0xd7, 0xf7, 0x01, 0xee, 0xfb, 0xf0, 0xf6, 0xd2, 0xe4, 0xea, 0xe6, 0x02, 0xcd, 0x02, 0xe5, 0x0a, 0xc8, 0xda, 0x02, 0xdb, 0xd6, 0xd0, 0xec, 0xc6, 0xe9, 0xef, 0xec, 0x09, 0xf4, 0xff, 0xf1, 0xfb, 0xca, 0xe8, 0x04, 0xe3, 0xf3, 0xf1, 0xf1, 0xde, 0xf0, 0xfd, 0xfb, 0x02, 0xf8, 0xfd, 0xfa, 0xf4, 0xd8, 0xf5, 0xf8, 0xf6, 0xf4, 0x05, 0xf8, 0xdd, 0x06, 0x23, 0x05, 0xff, 0x09, 0x04, 0x23, 0xf4, 0xd5, 0x11, 0xff, 0xfa, 0x17, 0x18, 0x13, 0xe3, 0x06, 0x23, 0x0d, 0x04, 0x26, 0xfe, 0x1e, 0x05, 0xe4, 0x23, 0xf7, 0x07, 0x1c, 0x24, 0x0b, 0xf7, 0x1c, 0x57, 0x22, 0x08, 0x4b, 0xf8, 0x37, 0x06, 0xef, 0x47, 0xfd, 0x15, 0x37, 0x39, 0x2d, 0xf5, 0x21, 0x6f, 0x3a, 0x04, 0x5c, 0x04, 0x42, 0xf8, 0xf5, 0x71, 0x04, 0x35, 0x4a, 0x42, 0x2e, 0xeb, 0x01, 0x09, 0x19, 0x04, 0x00, 0xf8, 0x11, 0x10, 0xe2, 0x1d, 0xfa, 0x04, 0x05, 0x0e, 0x0d, 0xda, 0xe8, 0xd9, 0xec, 0xfa, 0xd0, 0x03, 0xe7, 0x04, 0xdb, 0xe8, 0x01, 0xe6, 0xe9, 0xf8, 0xf4, 0xe7, 0xfb, 0xde, 0xe6, 0x04, 0xe8, 0x05, 0xed, 0x09, 0xf0, 0xde, 0xff, 0xea, 0xeb, 0xfa, 0xee, 0xf0, 0xfb, 0x03, 0xf2, 0xfb, 0xef, 0xf8, 0xf7, 0x02, 0xf5, 0xfc, 0x00, 0xfa, 0xf8, 0x07, 0xfd, 0x01, 0xf5, 0xf1, 0xed, 0x07, 0xf4, 0xf8, 0x03, 0x0f, 0xf3, 0xf7, 0x07, 0xf7, 0x04, 0x06, 0x00, 0x00, 0x02, 0xff, 0xfe, 0xfd, 0xef, 0xfa, 0xf6, 0x02, 0x08, 0x00, 0xf7, 0x01, 0xf0, 0x02, 0xfd, 0xe7, 0xe7, 0xf5, 0xeb, 0x07, 0xe1, 0x02, 0xe8, 0x07, 0xe7, 0xea, 0xfa, 0xf5, 0xf1, 0xe1, 0xeb, 0xd5, 0xda, 0xd1, 0xf3, 0x07, 0xda, 0xf8, 0xd8, 0x19, 0xdf, 0xdb, 0xfe, 0xe3, 0xdc, 0xd4, 0xf8, 0xd4, 0xf2, 0xf2, 0xeb, 0x07, 0xe6, 0x02, 0xf7, 0xf8, 0xd6, 0xf6, 0x00, 0xed, 0xf3, 0xe8, 0xf1, 0xde, 0xf9, 0x03, 0xf8, 0xfa, 0x05, 0x07, 0xf9, 0xfc, 0xd0, 0x06, 0x03, 0xfa, 0xf4, 0xff, 0x07, 0xde, 0x0d, 0x09, 0xfe, 0xf9, 0x15, 0x01, 0xff, 0xfe, 0xcf, 0x05, 0x06, 0x04, 0x03, 0x0f, 0x0c, 0xef, 0x0d, 0x21, 0x16, 0xf8, 0x18, 0x04, 0x25, 0xf4, 0xef, 0x20, 0xfa, 0x13, 0x19, 0x25, 0x14, 0xfc, 0x19, 0x47, 0x3e, 0x06, 0x3a, 0x00, 0x3a, 0xee, 0xf9, 0x40, 0x04, 0x29, 0x34, 0x3d, 0x21, 0xfa, 0x2a, 0x56, 0x3d, 0xfa, 0x46, 0xff, 0x40, 0xfc, 0xf9, 0x4e, 0xfc, 0x31, 0x37, 0x47, 0x35, 0xe2, 0xfc, 0x0a, 0x1d, 0x01, 0x01, 0xfb, 0x05, 0xfc, 0xe4, 0x05, 0x00, 0x09, 0x09, 0x17, 0x10, 0xd9, 0xeb, 0xdd, 0xf3, 0x02, 0xde, 0xfd, 0xe9, 0x0a, 0xd9, 0xea, 0xfe, 0xee, 0xf4, 0x08, 0xf8, 0xdb, 0xe9, 0xd1, 0xee, 0xfd, 0xdd, 0x04, 0xea, 0x0b, 0xd9, 0xd6, 0x07, 0xf2, 0xea, 0xe3, 0xf4, 0xec, 0xf5, 0xe5, 0xf8, 0xfd, 0xf3, 0x01, 0xf7, 0xfb, 0xf5, 0xda, 0xfc, 0xf2, 0xef, 0xff, 0xf3, 0xff, 0xf7, 0xef, 0xf4, 0xfe, 0xf8, 0xf9, 0x01, 0x0b, 0xff, 0xfa, 0x06, 0xf2, 0xef, 0xfd, 0xf4, 0x0a, 0xfb, 0xfc, 0x04, 0xfc, 0xec, 0xff, 0xea, 0x04, 0x01, 0x04, 0x03, 0x05, 0xf0, 0xfe, 0x01, 0xfa, 0xff, 0xf6, 0x08, 0x03, 0xfd, 0x07, 0xf7, 0x17, 0xfe, 0xf6, 0xfd, 0x01, 0x03, 0xfa, 0xff, 0xf7, 0xfb, 0xf9, 0xfe, 0xfd, 0xf5, 0xfb, 0xf2, 0x08, 0xfa, 0xfc, 0x06, 0xfd, 0xe8, 0xf7, 0xef, 0xdf, 0xf9, 0xe9, 0xfc, 0xf9, 0xea, 0x02, 0xed, 0xf3, 0xe6, 0xe7, 0x08, 0xe9, 0xf8, 0xef, 0xec, 0xde, 0xe1, 0xf4, 0xe8, 0x05, 0xe2, 0xfd, 0xe5, 0x03, 0xc6, 0xea, 0xf8, 0xde, 0xe3, 0xee, 0xf6, 0xe2, 0xf9, 0x0d, 0xf9, 0x08, 0xfa, 0x05, 0x01, 0xf0, 0xe6, 0xf2, 0xff, 0xf4, 0x04, 0x07, 0x0c, 0xfc, 0x1b, 0x20, 0x1e, 0x06, 0x20, 0x01, 0x2e, 0xfc, 0xfe, 0x26, 0xfb, 0x1c, 0x25, 0x28, 0x1e, 0x01, 0x24, 0x3c, 0x24, 0x03, 0x42, 0xfe, 0x3c, 0x02, 0xef, 0x41, 0xf8, 0x23, 0x32, 0x2e, 0x2e, 0x0b, 0x27, 0x3f, 0x33, 0x05, 0x3e, 0x07, 0x33, 0xfa, 0xfd, 0x34, 0xff, 0x2d, 0x36, 0x40, 0x38, 0xf8, 0x0d, 0x06, 0x0d, 0x06, 0xf6, 0x02, 0x08, 0xfd, 0xf6, 0x0c, 0xf8, 0x0e, 0x06, 0x0f, 0x11, 0xee, 0xf2, 0xea, 0xfc, 0xfe, 0xe8, 0xf9, 0xf0, 0x04, 0xeb, 0xf3, 0xff, 0xeb, 0xf0, 0xf6, 0xf5, 0xec, 0xeb, 0xc5, 0xf4, 0xfe, 0xd3, 0x04, 0xe0, 0x0b, 0xe5, 0xce, 0x04, 0xe5, 0xda, 0xe4, 0xeb, 0xf6, 0xf4, 0xe0, 0xf6, 0xf9, 0xe2, 0xff, 0xee, 0xfa, 0xf6, 0xe6, 0xf9, 0xe1, 0xf1, 0xed, 0xf1, 0xfa, 0xf6, 0xf2, 0xea, 0x00, 0xeb, 0xfa, 0xf1, 0x04, 0x02, 0xe7, 0x00, 0xee, 0xe9, 0xf8, 0xf7, 0xf6, 0x01, 0xfb, 0xfe, 0xfe, 0xf8, 0xfd, 0xfd, 0x04, 0xff, 0xfd, 0x06, 0x01, 0xf2, 0x01, 0x07, 0x00, 0x04, 0xfa, 0x07, 0x06, 0x06, 0xff, 0x08, 0x16, 0x0a, 0x06, 0xf8, 0xff, 0xfd, 0xfd, 0x04, 0xf5, 0xf5, 0xeb, 0xfb, 0xfb, 0xe9, 0xfd, 0xe9, 0x14, 0xf6, 0xf7, 0xf9, 0x08, 0xed, 0xee, 0xf9, 0xf0, 0xfc, 0xee, 0xf6, 0xfe, 0xf6, 0xff, 0xfc, 0x13, 0xf7, 0xfa, 0x05, 0xf6, 0x00, 0xfc, 0xfc, 0xf2, 0xf3, 0xf2, 0xf2, 0xff, 0xed, 0x05, 0xfa, 0xfd, 0xea, 0xec, 0x06, 0xf6, 0x01, 0xfa, 0xf7, 0xef, 0xfe, 0x0a, 0x0d, 0x01, 0xf2, 0xfd, 0xff, 0x03, 0xe8, 0xf6, 0xfb, 0xfc, 0xfc, 0x04, 0x04, 0xf8, 0x0f, 0x1c, 0x13, 0xfc, 0x1e, 0xfa, 0x16, 0xf6, 0xf9, 0x1e, 0x04, 0x13, 0x16, 0x19, 0x1b, 0x0c, 0x2a, 0x39, 0x25, 0x00, 0x38, 0x02, 0x2c, 0x07, 0x19, 0x2f, 0xfa, 0x26, 0x31, 0x3a, 0x31, 0x17, 0x10, 0x22, 0x36, 0xfd, 0x25, 0xfe, 0x2a, 0xff, 0x16, 0x2e, 0x01, 0x2b, 0x27, 0x35, 0x2b, 0xd7, 0xf0, 0xe0, 0xf9, 0x00, 0xd5, 0x00, 0xe4, 0x19, 0xcc, 0xd6, 0xf9, 0xea, 0xe0, 0xf9, 0xf8, 0xd7, 0xd9, 0xbc, 0xd4, 0xf9, 0xc1, 0xf9, 0xc9, 0x0a, 0xce, 0xad, 0x03, 0xd3, 0xc5, 0xda, 0xcf, 0xdc, 0xe7, 0xbe, 0xd6, 0xf8, 0xbd, 0x02, 0xd1, 0x0b, 0xdd, 0xbb, 0xfe, 0xce, 0xc3, 0xd7, 0xea, 0xf6, 0xe8, 0xdc, 0xf0, 0xfb, 0xf6, 0x01, 0xed, 0x00, 0xf7, 0xde, 0xfb, 0xf5, 0xf7, 0x01, 0xea, 0xf9, 0xed, 0xff, 0xed, 0x07, 0xfb, 0xfd, 0xf1, 0x0d, 0x00, 0x02, 0xfd, 0xf3, 0xf4, 0xf4, 0xf8, 0x01, 0xf9, 0xf9, 0xfd, 0x00, 0xe9, 0xfc, 0xea, 0x0f, 0xfb, 0x01, 0xfb, 0xf8, 0xf2, 0x04, 0x01, 0x07, 0xfe, 0x07, 0x01, 0xfc, 0xfe, 0x07, 0x01, 0x06, 0x0a, 0xfb, 0x06, 0x03, 0x06, 0x02, 0xf8, 0xe6, 0xeb, 0xfa, 0xfd, 0xfa, 0xe9, 0x01, 0xea, 0x14, 0xee, 0xef, 0xfd, 0xec, 0xe9, 0xee, 0xf1, 0xf5, 0xf8, 0x04, 0x0a, 0xf8, 0x0a, 0x02, 0xf1, 0x12, 0x05, 0xfb, 0x01, 0xfe, 0xf4, 0x01, 0xf6, 0xfe, 0xfd, 0xec, 0x0a, 0x00, 0xf5, 0xfc, 0xf4, 0xff, 0x04, 0xf0, 0x05, 0xf7, 0xf2, 0xfa, 0x01, 0xed, 0xfa, 0xe9, 0xf8, 0x02, 0xf9, 0x03, 0xe8, 0xf6, 0xe7, 0xeb, 0x02, 0xf0, 0xdd, 0xf8, 0xf8, 0xef, 0x09, 0x0b, 0xf3, 0x06, 0x07, 0xfe, 0x04, 0xf8, 0xf5, 0x02, 0x05, 0x0a, 0xff, 0xfd, 0x01, 0x25, 0x2b, 0x30, 0x35, 0x01, 0x36, 0x00, 0x36, 0xf3, 0x1e, 0x25, 0x03, 0x1e, 0x24, 0x2c, 0x27, 0x1f, 0x31, 0x30, 0x37, 0x03, 0x31, 0xf8, 0x2b, 0x05, 0x2f, 0x1e, 0x06, 0x2b, 0x2b, 0x31, 0x23, 0xd6, 0xcf, 0xd0, 0xee, 0xfb, 0xc0, 0x06, 0xce, 0x13, 0xcc, 0xd7, 0x03, 0xf4, 0xca, 0xd5, 0xeb, 0xb2, 0xb3, 0x91, 0xa7, 0x06, 0x82, 0x04, 0x9a, 0x0c, 0x94, 0x88, 0x04, 0xaf, 0x8a, 0xa4, 0xa6, 0xc0, 0xd5, 0xa0, 0xc0, 0x05, 0x9d, 0xfd, 0xb0, 0x0b, 0xbd, 0x98, 0x01, 0xb9, 0xba, 0xa5, 0xce, 0xf1, 0xe7, 0xe7, 0xf6, 0x07, 0xe3, 0x04, 0xf6, 0x04, 0xf2, 0xd8, 0xfc, 0xf3, 0xfb, 0xea, 0xea, 0xff, 0xf8, 0x1b, 0x09, 0x07, 0x10, 0x04, 0x03, 0x0c, 0x01, 0x0a, 0x01, 0xfd, 0xff, 0x0f, 0xfd, 0xfd, 0xfb, 0x01, 0xfc, 0x07, 0xf3, 0xfe, 0xf1, 0x08, 0x04, 0x04, 0xf9, 0xfa, 0xf8, 0x02, 0x05, 0xfb, 0x0e, 0xfc, 0x04, 0xfa, 0x07, 0xfb, 0x06, 0x09, 0xfa, 0x03, 0x06, 0x0d, 0xfe, 0xfd, 0xf9, 0x14, 0x08, 0x01, 0x08, 0x07, 0x0b, 0xf8, 0x09, 0x19, 0x0b, 0x0a, 0xff, 0x0e, 0x03, 0x01, 0x02, 0x05, 0x02, 0x07, 0x09, 0xfa, 0x0f, 0xfa, 0x0b, 0x16, 0xff, 0x0b, 0x06, 0x00, 0x0b, 0xfb, 0x02, 0xfd, 0x06, 0xfe, 0x0d, 0x01, 0x04, 0x00, 0x02, 0xfe, 0x02, 0x00, 0xfe, 0x02, 0xfb, 0x01, 0x02, 0x01, 0xf8, 0x0c, 0x06, 0x00, 0xf3, 0x03, 0xfa, 0x01, 0x02, 0x01, 0x02, 0xf9, 0xf9, 0x0a, 0x04, 0x0b, 0x08, 0x14, 0x13, 0xf9, 0x21, 0x01, 0x1b, 0x01, 0x19, 0x26, 0xfa, 0x25, 0x26, 0x26, 0x21, 0x13, 0x1f, 0x33, 0x31, 0x04, 0x24, 0x00, 0x1f, 0xf0, 0x10, 0x32, 0xff, 0x2c, 0x2a, 0x33, 0x2e, 0x29, 0x22, 0x25, 0x2a, 0x07, 0x28, 0xf8, 0x25, 0xf9, 0x32, 0x28, 0x02, 0x1f, 0x26, 0x2a, 0x2f, 0xd1, 0xd2, 0xc1, 0xf5, 0xf9, 0xba, 0x03, 0xc1, 0x20, 0xdd, 0xcf, 0x00, 0xd6, 0xc0, 0xc4, 0xe3, 0xa7, 0xc3, 0xa0, 0xc2, 0x06, 0xaa, 0x02, 0xb6, 0x17, 0xb1, 0xb0, 0xfc, 0xb7, 0xb9, 0xb1, 0xb0, 0xd0, 0xdb, 0xca, 0xd3, 0x04, 0xc9, 0x04, 0xe4, 0xf8, 0xe2, 0xc7, 0x02, 0xde, 0xe1, 0xd5, 0xd3, 0x08, 0x15, 0x1d, 0x0d, 0x04, 0x18, 0xfb, 0x24, 0xfc, 0x21, 0x04, 0xf7, 0x0f, 0x14, 0x0e, 0x0f, 0x25, 0x1e, 0x39, 0x29, 0xfb, 0x3e, 0x06, 0x31, 0x04, 0x2d, 0x3c, 0x01, 0x29, 0x3f, 0x2d, 0x2b, 0x06, 0x03, 0x03, 0x09, 0x05, 0xf8, 0x04, 0xfc, 0x08, 0x06, 0xfb, 0xfa, 0xff, 0xf2, 0xfb, 0xfb, 0xff, 0x00, 0x08, 0xfe, 0x07, 0x11, 0x04, 0x07, 0x1e, 0xfe, 0xfd, 0xfc, 0xff, 0x02, 0x05, 0xff, 0x11, 0x0d, 0x14, 0x10, 0x02, 0x11, 0x06, 0x0e, 0x25, 0x0e, 0x15, 0xff, 0x12, 0x07, 0x12, 0x10, 0x06, 0x03, 0x0c, 0x10, 0xfa, 0x04, 0x04, 0xff, 0x30, 0x08, 0x05, 0x02, 0x12, 0x07, 0x01, 0xf6, 0xf4, 0xf7, 0xf3, 0xff, 0xfa, 0xff, 0x06, 0xf3, 0x11, 0x02, 0xf7, 0xf8, 0xf7, 0xf7, 0xf7, 0xf2, 0xfd, 0x04, 0x00, 0x02, 0x04, 0x0b, 0x09, 0xfc, 0xf7, 0xfd, 0xf8, 0x05, 0x03, 0xed, 0x06, 0xfd, 0x30, 0x31, 0x35, 0x33, 0x01, 0x32, 0x02, 0x31, 0xf7, 0x2a, 0x33, 0x03, 0x3f, 0x2a, 0x31, 0x35, 0x27, 0x19, 0x3c, 0x2a, 0xfd, 0x33, 0x03, 0x29, 0xfd, 0x1c, 0x3a, 0xf7, 0x18, 0x35, 0x30, 0x13, 0x04, 0x0b, 0x0c, 0x11, 0x04, 0x08, 0xff, 0x0c, 0x11, 0x01, 0x02, 0xfa, 0x16, 0x0c, 0x13, 0x0d, 0xc3, 0xc7, 0xc5, 0xd7, 0x07, 0xbf, 0xf7, 0xb7, 0x16, 0xd4, 0xc9, 0xf9, 0xce, 0xb8, 0xc1, 0xc9, 0xd5, 0xdb, 0xba, 0xd6, 0xff, 0xba, 0xf9, 0xbb, 0x14, 0xdc, 0xcb, 0xff, 0xd9, 0xc6, 0xc1, 0xce, 0xfa, 0x04, 0xe3, 0xf2, 0x02, 0xfb, 0x01, 0xed, 0x0c, 0x08, 0xe1, 0x00, 0xf8, 0xf6, 0xee, 0xe4, 0x27, 0x1e, 0x30, 0x23, 0xfe, 0x3b, 0x01, 0x2c, 0xef, 0x30, 0x26, 0x00, 0x2b, 0x34, 0x2d, 0x23, 0x44, 0x2f, 0x50, 0x46, 0xfb, 0x55, 0x07, 0x3e, 0x0b, 0x45, 0x5a, 0xfd, 0x33, 0x48, 0x43, 0x2f, 0xfb, 0xff, 0xfb, 0xff, 0xfb, 0xef, 0x02, 0xf4, 0x14, 0xfa, 0x00, 0xff, 0xfd, 0xf1, 0xfa, 0x04, 0xe7, 0xf6, 0xf9, 0xee, 0xf8, 0xfb, 0x01, 0xeb, 0x53, 0xec, 0xf5, 0xfd, 0xf8, 0x04, 0xf7, 0xf4, 0x15, 0x09, 0x05, 0x09, 0x04, 0x0b, 0xf9, 0x09, 0x39, 0x0c, 0x05, 0x02, 0x14, 0x0e, 0x0e, 0x15, 0x07, 0x0f, 0x04, 0x0a, 0x07, 0x0b, 0xf9, 0x0b, 0x1a, 0x10, 0x0f, 0x03, 0x08, 0x07, 0x0e, 0x14, 0xf4, 0xe0, 0xf7, 0xe9, 0x04, 0xde, 0xf9, 0xea, 0x09, 0xeb, 0xec, 0x04, 0xf2, 0xed, 0xe7, 0xe9, 0xe8, 0xeb, 0xf1, 0xe6, 0x02, 0xf7, 0x01, 0xeb, 0xfa, 0xd2, 0xe0, 0xf8, 0x01, 0xf7, 0xe9, 0xf5, 0x1e, 0x1d, 0x32, 0x11, 0xf9, 0x35, 0x07, 0x30, 0xf1, 0x18, 0x2c, 0x07, 0x25, 0x2f, 0x31, 0x23, 0x1b, 0x16, 0x2a, 0x1c, 0x00, 0x21, 0x05, 0x25, 0x05, 0x15, 0x1d, 0xf8, 0x10, 0x23, 0x25, 0x1a, 0xe8, 0xef, 0xeb, 0xf2, 0x07, 0xd4, 0x01, 0xe7, 0x0a, 0xe2, 0xef, 0x02, 0xeb, 0xdb, 0xf1, 0xef, 0xc5, 0xbb, 0xc4, 0xc5, 0x03, 0xc0, 0x02, 0xb7, 0x15, 0xc0, 0xb0, 0x02, 0xca, 0xba, 0xb9, 0xc5, 0xcc, 0xd1, 0xc1, 0xc8, 0x03, 0xc8, 0xfb, 0xba, 0x11, 0xcf, 0xac, 0x01, 0xce, 0xcd, 0xbd, 0xc1, 0x0a, 0xed, 0xed, 0xe8, 0xfc, 0xe4, 0x07, 0xf2, 0x00, 0x01, 0xda, 0xf9, 0xf2, 0xf0, 0xf2, 0xf3, 0x32, 0x33, 0x2e, 0x25, 0xf9, 0x3f, 0xfa, 0x2c, 0xf7, 0x41, 0x28, 0x02, 0x22, 0x34, 0x31, 0x29, 0x41, 0x35, 0x4c, 0x3c, 0x03, 0x42, 0x04, 0x45, 0xfb, 0x43, 0x40, 0xff, 0x3d, 0x3d, 0x3e, 0x39, 0xfc, 0xf6, 0xfb, 0xfa, 0x00, 0xe9, 0x07, 0xf1, 0x13, 0xfe, 0xfb, 0x05, 0xf9, 0xe3, 0xfd, 0xfd, 0xed, 0xeb, 0xfb, 0xf8, 0xfc, 0xfc, 0xfa, 0xf7, 0x47, 0xf9, 0xf9, 0xff, 0xf9, 0xf9, 0xeb, 0xf0, 0x01, 0x06, 0x02, 0x04, 0xfa, 0x07, 0xfb, 0x08, 0x36, 0x0b, 0x04, 0x05, 0x12, 0x02, 0x03, 0x05, 0x12, 0x0b, 0x0d, 0x0a, 0xf9, 0x06, 0xfb, 0x09, 0x0c, 0x0b, 0xfa, 0xfc, 0x03, 0xf9, 0x06, 0x06, 0x04, 0xfd, 0xf3, 0x02, 0xfe, 0xfc, 0xfb, 0xf7, 0x10, 0xf3, 0xf5, 0x01, 0xfe, 0xfa, 0xf7, 0xfe, 0xe0, 0xf0, 0xfb, 0xf9, 0x00, 0x02, 0xfc, 0x02, 0xf0, 0xf4, 0xfd, 0x03, 0xf0, 0xea, 0xf1, 0xee, 0xf5, 0x09, 0x16, 0x06, 0xfc, 0x1d, 0xf9, 0x21, 0xfb, 0xfe, 0x13, 0x03, 0x05, 0x0b, 0x13, 0x05, 0x01, 0x17, 0x2e, 0x10, 0x03, 0x23, 0xf7, 0x18, 0x03, 0x03, 0x28, 0x04, 0x15, 0x25, 0x1e, 0x17, 0x04, 0x05, 0x1b, 0x0b, 0xfd, 0x0e, 0x02, 0x08, 0x02, 0x08, 0x15, 0xfb, 0x08, 0x1b, 0x12, 0x00, 0xdb, 0xed, 0xef, 0xf3, 0x04, 0xf3, 0x00, 0xf1, 0x1c, 0xf7, 0xe6, 0x06, 0xe8, 0xf3, 0xe8, 0xeb, 0xcf, 0xd8, 0xc3, 0xd9, 0xfa, 0xc1, 0xf9, 0xcb, 0x18, 0xde, 0xdf, 0xfa, 0xd9, 0xd3, 0xc3, 0xd6, 0xe0, 0xdf, 0xcc, 0xda, 0x01, 0xd3, 0x04, 0xd3, 0x10, 0xd5, 0xcf, 0x00, 0xe4, 0xe4, 0xda, 0xda, 0x17, 0x23, 0x2c, 0x19, 0xfd, 0x2e, 0xf8, 0x33, 0xf8, 0x1b, 0x11, 0x00, 0x1e, 0x35, 0x28, 0x14, 0x1f, 0x24, 0x4a, 0x2b, 0xfc, 0x41, 0x01, 0x35, 0x01, 0x13, 0x36, 0xff, 0x23, 0x33, 0x2d, 0x27, 0x01, 0x00, 0xfb, 0x05, 0x01, 0xf5, 0xfd, 0xef, 0x0b, 0xfb, 0x02, 0x04, 0x00, 0x04, 0xff, 0x01, 0x0b, 0x08, 0xfd, 0x0c, 0x01, 0x0b, 0xfa, 0x04, 0x0d, 0x05, 0x02, 0xfb, 0xfe, 0xff, 0xfd, 0x06, 0xfd, 0xf6, 0xf6, 0xfe, 0xfc, 0xfe, 0x03, 0xfa, 0x2f, 0x04, 0x04, 0x00, 0xfc, 0xf9, 0xfe, 0xfb, 0xe4, 0xe9, 0xed, 0xf2, 0xf8, 0xfb, 0x07, 0xe9, 0x1f, 0xe6, 0xea, 0xf9, 0xed, 0xec, 0xec, 0x02, 0xfb, 0xfc, 0x04, 0xf5, 0x02, 0xfd, 0x05, 0x01, 0xf3, 0x05, 0xf6, 0x03, 0x05, 0xf9, 0xf2, 0xfd, 0xf9, 0x15, 0x13, 0x16, 0x05, 0x0e, 0x07, 0x11, 0xf1, 0xfd, 0x1c, 0xf9, 0x08, 0x1a, 0x11, 0x16, 0xf8, 0x06, 0x29, 0x13, 0xfc, 0x3a, 0x07, 0x24, 0xf6, 0xee, 0x29, 0x02, 0x1b, 0x1e, 0x2b, 0x17, 0x1e, 0x25, 0x36, 0x1d, 0x02, 0x3a, 0xf9, 0x24, 0xf8, 0x0f, 0x3c, 0xf7, 0x1b, 0x1e, 0x21, 0x25, 0x0c, 0x1b, 0x27, 0x1e, 0x02, 0x23, 0x07, 0x24, 0x00, 0x13, 0x31, 0x05, 0x25, 0x24, 0x1f, 0x22, 0x00, 0x01, 0x08, 0x07, 0x02, 0x13, 0xff, 0x08, 0xf9, 0x0f, 0x13, 0xf9, 0x09, 0x10, 0x00, 0x06, 0xef, 0xf4, 0xe8, 0xf2, 0xff, 0xee, 0x00, 0xe6, 0x0d, 0x06, 0xf1, 0xf9, 0xf2, 0xeb, 0xd9, 0xed, 0xd5, 0xcc, 0xb0, 0xd5, 0x01, 0xb1, 0xfc, 0xae, 0x11, 0xdc, 0xb7, 0x05, 0xcc, 0xc4, 0xbb, 0xdd, 0xf4, 0xfa, 0xf7, 0xf0, 0xfc, 0xf3, 0x01, 0xfb, 0x0d, 0xff, 0xdb, 0x08, 0xe7, 0xed, 0xf4, 0xf1, 0xf7, 0x05, 0x13, 0xea, 0xf9, 0x0c, 0xff, 0x09, 0xfd, 0xf5, 0x0b, 0x04, 0xf1, 0xfb, 0x07, 0x02, 0x01, 0x0a, 0xfa, 0x03, 0x01, 0xed, 0x03, 0xe7, 0x09, 0xfc, 0xff, 0x08, 0x03, 0xee, 0x02, 0x04, 0x07, 0x01, 0xf9, 0xf7, 0xfd, 0xfe, 0xf7, 0x04, 0x0d, 0xf4, 0xef, 0xf8, 0xee, 0xe8, 0xf4, 0xf9, 0x00, 0xf7, 0x05, 0xf4, 0xfb, 0xfd, 0xfe, 0xf9, 0x16, 0xf4, 0xf6, 0x02, 0xfe, 0xf0, 0xfa, 0xf8, 0xf0, 0xea, 0xee, 0xf4, 0x04, 0xf8, 0xff, 0xfc, 0x19, 0xef, 0xfc, 0x06, 0xfa, 0xf2, 0xeb, 0xfe, 0xe9, 0xf6, 0xec, 0xef, 0x05, 0xfe, 0x04, 0xfa, 0x02, 0xe0, 0xf3, 0xf9, 0xf2, 0xf7, 0x04, 0xef, 0x06, 0x23, 0x32, 0x0d, 0x06, 0x3b, 0xfb, 0x1f, 0xf1, 0x0a, 0x39, 0x06, 0x19, 0x2a, 0x27, 0x11, 0xfc, 0x14, 0x57, 0x22, 0x06, 0x4f, 0xfe, 0x38, 0xf8, 0x04, 0x4e, 0xf9, 0x21, 0x3a, 0x3e, 0x1a, 0xff, 0x2c, 0x57, 0x22, 0xfb, 0x4b, 0xf9, 0x4b, 0x04, 0xf2, 0x66, 0xfa, 0x27, 0x42, 0x49, 0x2f, 0x12, 0x0a, 0x3b, 0x1e, 0xf8, 0x2b, 0xfa, 0x28, 0x05, 0xf9, 0x38, 0xff, 0x0f, 0x2a, 0x27, 0x16, 0x16, 0x07, 0x1d, 0x0b, 0xfb, 0x12, 0xf7, 0x14, 0x0c, 0xfb, 0x11, 0x05, 0x05, 0x12, 0x10, 0x11, 0xf5, 0xd9, 0xeb, 0xea, 0xf9, 0xdc, 0x04, 0xf1, 0x0d, 0xe6, 0xdd, 0x03, 0xe3, 0xdd, 0xf7, 0xec, 0xe7, 0xd9, 0xa0, 0xc7, 0x07, 0x9c, 0x04, 0xc4, 0x0c, 0xe7, 0xa9, 0x04, 0xca, 0xb0, 0xc4, 0xcf, 0xf5, 0xdf, 0xc3, 0xdb, 0x01, 0xdc, 0xfc, 0xdb, 0x05, 0xf4, 0xbd, 0xff, 0xe5, 0xd6, 0xd2, 0xd9, 0xfb, 0xeb, 0xd2, 0xe6, 0xfd, 0xe3, 0x04, 0xef, 0x02, 0xf8, 0xd7, 0xfb, 0xf2, 0xe6, 0xeb, 0xea, 0x01, 0x0d, 0x01, 0xff, 0x02, 0xf2, 0x02, 0xf4, 0x0a, 0xff, 0xfd, 0x00, 0xfd, 0xe8, 0xfe, 0xfc, 0xe0, 0xf2, 0xe6, 0xe0, 0x05, 0xe4, 0xfb, 0xe2, 0x12, 0xee, 0xf3, 0xfb, 0xf2, 0xe6, 0xf3, 0xe8, 0x02, 0x0d, 0x01, 0xf7, 0x00, 0x0c, 0x01, 0x08, 0x0b, 0xfa, 0xfc, 0x06, 0xff, 0xfd, 0x08, 0x06, 0x03, 0x11, 0x07, 0x0a, 0xfb, 0x16, 0x03, 0x10, 0x0e, 0x16, 0x13, 0xfe, 0x0d, 0x15, 0x0c, 0x12, 0xeb, 0xfc, 0xfc, 0xfc, 0xfc, 0x0b, 0xfc, 0xf5, 0x08, 0xda, 0x03, 0x02, 0xf5, 0xeb, 0xfe, 0xf9, 0xed, 0x16, 0x37, 0x07, 0x04, 0x41, 0x03, 0x36, 0xee, 0xed, 0x41, 0xfe, 0x1e, 0x38, 0x2a, 0x1a, 0x07, 0x1a, 0x60, 0x27, 0x06, 0x53, 0xfe, 0x44, 0xf7, 0xf3, 0x5e, 0xfc, 0x27, 0x38, 0x3f, 0x27, 0xfd, 0x21, 0x5b, 0x29, 0x01, 0x58, 0xf9, 0x3d, 0x04, 0xf8, 0x65, 0xfd, 0x22, 0x41, 0x41, 0x23, 0xde, 0x0b, 0x2b, 0x03, 0xfd, 0x1e, 0xfa, 0x1a, 0x0a, 0xe1, 0x45, 0xff, 0x0c, 0x15, 0x24, 0x1a, 0xdf, 0xef, 0xf0, 0xe9, 0x05, 0xeb, 0x02, 0xf2, 0x05, 0xcf, 0xeb, 0xfe, 0xea, 0xf4, 0xea, 0xfd, 0xd4, 0xdb, 0xc9, 0xd2, 0x02, 0xbd, 0x03, 0xc5, 0x13, 0xd7, 0xd5, 0x05, 0xdb, 0xd3, 0xd5, 0xe5, 0xd3, 0xd6, 0xa3, 0xd4, 0xfb, 0xbb, 0x07, 0xbf, 0x03, 0xd4, 0xb5, 0xf9, 0xcb, 0xbe, 0xc3, 0xcb, 0xea, 0xed, 0xbb, 0xd7, 0xfa, 0xc8, 0x00, 0xe0, 0x09, 0xec, 0xcb, 0x04, 0xe6, 0xd2, 0xdf, 0xe6, 0x00, 0xfd, 0xf3, 0xf9, 0xfb, 0xfa, 0xf8, 0x0a, 0x03, 0x03, 0x01, 0xfb, 0xf6, 0xfd, 0xff, 0xfb, 0xfd, 0xfe, 0x04, 0x04, 0x01, 0x05, 0x06, 0x09, 0x0a, 0x0a, 0x00, 0xf9, 0xfd, 0xfb, 0xfe, 0x04, 0x05, 0x07, 0x11, 0x08, 0x02, 0x00, 0x00, 0x0a, 0x07, 0xfe, 0x0b, 0xfd, 0xf7, 0x0c, 0x05, 0xf7, 0xed, 0x01, 0x04, 0x02, 0x07, 0x0e, 0xfa, 0x0d, 0x04, 0xf6, 0x0f, 0xfa, 0x05, 0x00, 0x0c, 0x01, 0x0e, 0x0a, 0x1c, 0x17, 0xfd, 0x21, 0x01, 0x15, 0x00, 0x04, 0x1e, 0xfd, 0x0e, 0x00, 0x23, 0x12, 0xea, 0x09, 0x0f, 0x04, 0x07, 0x26, 0xfa, 0x21, 0xf1, 0xe9, 0x1e, 0xf8, 0x09, 0x17, 0x08, 0x0d, 0x09, 0x36, 0x5d, 0x41, 0x02, 0x62, 0x02, 0x4a, 0xf1, 0xfb, 0x6b, 0x04, 0x2a, 0x5b, 0x53, 0x2f, 0xfe, 0x27, 0x63, 0x37, 0x05, 0x61, 0x03, 0x48, 0xf8, 0xfa, 0x7d, 0xfc, 0x3c, 0x57, 0x4a, 0x2e, 0x0a, 0x30, 0x7f, 0x35, 0x04, 0x74, 0xf9, 0x5d, 0xef, 0x02, 0x7b, 0x01, 0x27, 0x4e, 0x4c, 0x3c, 0xf4, 0x1d, 0x42, 0x2e, 0xf9, 0x43, 0x00, 0x3f, 0xf5, 0xf6, 0x5f, 0x02, 0x1b, 0x36, 0x33, 0x32, 0xe8, 0xfd, 0xf8, 0xfe, 0x08, 0xfc, 0x07, 0xf2, 0x0f, 0xda, 0x1d, 0xf9, 0xf4, 0xf2, 0xff, 0xf0, 0xde, 0xe2, 0xd8, 0xea, 0xfa, 0xd4, 0xfd, 0xe2, 0x0c, 0xe4, 0xf1, 0xfb, 0xe8, 0xdd, 0xe9, 0xf2, 0xe1, 0xe1, 0xbd, 0xe4, 0x02, 0xc0, 0xfe, 0xce, 0x13, 0xe5, 0xde, 0xfa, 0xda, 0xce, 0xcf, 0xe7, 0xf8, 0xf5, 0xf5, 0xe8, 0xff, 0x0e, 0xf7, 0xfe, 0x0a, 0xf9, 0x00, 0xff, 0xf9, 0x02, 0xf6, 0xef, 0x02, 0x0f, 0x35, 0x0c, 0x02, 0x3c, 0x01, 0x21, 0xfe, 0xfe, 0x37, 0xf8, 0x07, 0x1c, 0x21, 0x0b, 0xa6, 0xfa, 0xff, 0xff, 0x04, 0x00, 0x00, 0x00, 0x40, 0x00, 0x00, 0x00, 0xc5, 0xf8, 0xff, 0xff, 0xf4, 0xfa, 0xff, 0xff, 0xc4, 0xfc, 0xff, 0xff, 0x91, 0x01, 0x00, 0x00, 0xa4, 0xf9, 0xff, 0xff, 0x8d, 0xff, 0xff, 0xff, 0x13, 0xfc, 0xff, 0xff, 0x5d, 0x02, 0x00, 0x00, 0x6f, 0x1a, 0x00, 0x00, 0x91, 0xf7, 0xff, 0xff, 0x5e, 0xff, 0xff, 0xff, 0x62, 0xf7, 0xff, 0xff, 0x1d, 0x02, 0x00, 0x00, 0xb9, 0x00, 0x00, 0x00, 0x77, 0xfd, 0xff, 0xff, 0xe5, 0xfd, 0xff, 0xff, 0xf2, 0xfa, 0xff, 0xff, 0x04, 0x00, 0x00, 0x00, 0x80, 0x04, 0x00, 0x00, 0x1d, 0x34, 0xe0, 0x28, 0x0c, 0x32, 0x46, 0x1e, 0x60, 0x32, 0x09, 0x6d, 0x7f, 0x54, 0x13, 0x34, 0x0c, 0x77, 0xc1, 0x42, 0x07, 0x43, 0x45, 0x0d, 0x1b, 0x04, 0xd2, 0x0d, 0x13, 0xf7, 0x3c, 0xfe, 0x2e, 0x36, 0x1f, 0x70, 0x47, 0x25, 0x4d, 0x36, 0x19, 0x1e, 0x0b, 0x6d, 0x5a, 0x24, 0x46, 0x12, 0x1f, 0xed, 0xea, 0x49, 0xd7, 0x16, 0x1d, 0x1f, 0x21, 0x3c, 0xd4, 0x5d, 0x36, 0x14, 0x2f, 0x46, 0x56, 0x24, 0xde, 0x26, 0x32, 0x4a, 0x52, 0x3e, 0x0c, 0x2d, 0x1a, 0x09, 0xf2, 0xee, 0xf8, 0x1f, 0x23, 0x73, 0xef, 0x50, 0x69, 0x65, 0x34, 0x17, 0x28, 0x6c, 0xd1, 0x44, 0x54, 0x46, 0x10, 0x46, 0x01, 0x1c, 0x0b, 0x03, 0x29, 0x10, 0x28, 0xe3, 0x5e, 0x54, 0x22, 0x73, 0x3a, 0x59, 0x7f, 0x4a, 0x38, 0x55, 0x19, 0x5b, 0x41, 0x5b, 0x41, 0x18, 0xf4, 0xf7, 0x21, 0x36, 0xdc, 0xf3, 0x11, 0x10, 0x16, 0x18, 0x16, 0x2c, 0x36, 0x1f, 0x35, 0x38, 0x5e, 0x66, 0xff, 0x28, 0x3b, 0x40, 0x4a, 0x4f, 0xec, 0xfd, 0x08, 0x2f, 0x0d, 0x1b, 0x3e, 0x1b, 0x55, 0x4e, 0xe5, 0x44, 0x7f, 0x2b, 0x37, 0x24, 0x5c, 0x51, 0x12, 0x40, 0x40, 0x55, 0x45, 0x18, 0xef, 0x15, 0xfd, 0x1d, 0xf4, 0x07, 0x58, 0x07, 0x43, 0x2b, 0x13, 0x51, 0x54, 0x21, 0x3b, 0x5a, 0x26, 0x46, 0x10, 0x5a, 0x55, 0x4c, 0x4d, 0x4d, 0x16, 0x16, 0x11, 0x20, 0xfd, 0xf3, 0x3c, 0x10, 0x39, 0x43, 0x01, 0x34, 0x25, 0x22, 0x2f, 0x24, 0x47, 0x4e, 0xdb, 0x59, 0x49, 0x2d, 0x5c, 0x4d, 0xf8, 0x1b, 0x18, 0x24, 0xfa, 0x09, 0x22, 0xf4, 0x38, 0x3c, 0xee, 0x2d, 0x62, 0x36, 0xfb, 0x10, 0x2e, 0x34, 0xeb, 0x32, 0x34, 0x1c, 0x2a, 0x27, 0xf6, 0x0c, 0xe2, 0x2f, 0x1c, 0x23, 0x50, 0x17, 0x4f, 0x78, 0xf9, 0x52, 0x7f, 0x54, 0x5c, 0x51, 0x4f, 0x34, 0xee, 0x37, 0x3e, 0x4d, 0x53, 0x3c, 0x10, 0xf1, 0xee, 0x1f, 0x01, 0x0e, 0x25, 0x16, 0x5b, 0x32, 0xec, 0x3d, 0x70, 0x1f, 0x50, 0x4b, 0x1b, 0x54, 0x0c, 0x5c, 0x62, 0x36, 0x1f, 0x19, 0xfe, 0x14, 0x8a, 0xb7, 0x30, 0x05, 0x8a, 0x4c, 0x39, 0xcd, 0x2b, 0x8e, 0xca, 0x87, 0xb5, 0xf7, 0x5e, 0x88, 0x1c, 0x0d, 0xf5, 0xfb, 0x0e, 0x24, 0x63, 0x9b, 0x73, 0x05, 0xc5, 0x42, 0x9a, 0xfb, 0x20, 0xba, 0x36, 0xb2, 0x19, 0xe9, 0xc3, 0xc8, 0xdd, 0xa7, 0xcf, 0xd6, 0xe3, 0x48, 0x5c, 0xe9, 0x94, 0x73, 0xf8, 0xd5, 0x25, 0x8b, 0x6d, 0x9b, 0x81, 0xe2, 0x4e, 0x3f, 0x55, 0x61, 0x54, 0xf0, 0xed, 0xd3, 0x09, 0xe1, 0x5d, 0x01, 0xe9, 0x8d, 0xf6, 0x05, 0xf1, 0x02, 0x10, 0xec, 0x17, 0xe9, 0x47, 0x5a, 0xd6, 0x36, 0x73, 0x75, 0x5a, 0x37, 0x6c, 0x6f, 0xec, 0x50, 0x5e, 0x33, 0x48, 0x1f, 0x22, 0xf0, 0x12, 0x27, 0xdc, 0xfa, 0x03, 0xf1, 0x4c, 0x40, 0xdc, 0x42, 0x55, 0x71, 0x7f, 0x63, 0x57, 0x6f, 0xe6, 0x69, 0x7d, 0x7f, 0x52, 0x29, 0x13, 0x28, 0x24, 0x1d, 0xed, 0xea, 0x2b, 0x0e, 0x54, 0x45, 0xdb, 0x66, 0x61, 0x1c, 0x4d, 0x66, 0x32, 0x6f, 0x26, 0x4d, 0x6c, 0x31, 0x59, 0x6c, 0x8d, 0x59, 0x20, 0x51, 0x2f, 0xf7, 0xce, 0x05, 0xf9, 0xf0, 0x11, 0xbd, 0x6d, 0xd5, 0xdb, 0x84, 0x06, 0x63, 0xc9, 0x42, 0xf8, 0x81, 0xf2, 0xd1, 0x10, 0xf0, 0xf2, 0x9f, 0x04, 0x2f, 0xd2, 0xac, 0x1c, 0xc1, 0xf2, 0xbf, 0x58, 0xd4, 0xa2, 0xb5, 0xc7, 0x3a, 0x0b, 0xa0, 0x0c, 0xd7, 0x32, 0xb5, 0x53, 0x83, 0x64, 0xe7, 0xea, 0x8c, 0x85, 0x4c, 0xcf, 0xd5, 0x3e, 0x60, 0x92, 0xc0, 0xf1, 0x31, 0x9c, 0x79, 0xb0, 0x26, 0x12, 0xe2, 0x81, 0xf9, 0xd6, 0xe9, 0x03, 0x40, 0x22, 0x01, 0x3d, 0xf4, 0x46, 0x58, 0xdb, 0x67, 0x45, 0x58, 0x3f, 0x30, 0x5d, 0x38, 0xf0, 0x45, 0x53, 0x6a, 0x2e, 0x2f, 0x0a, 0x03, 0xe3, 0x0b, 0xed, 0xf9, 0x39, 0xeb, 0x1b, 0x54, 0xe1, 0x57, 0x7f, 0x2e, 0x3b, 0x4a, 0x36, 0x7a, 0x22, 0x5e, 0x7d, 0x68, 0x4a, 0x1f, 0xd4, 0x2c, 0xd0, 0x05, 0x2c, 0xdf, 0x2f, 0x18, 0x41, 0x5e, 0xe4, 0x69, 0x2f, 0x23, 0x4f, 0x64, 0x23, 0x3c, 0x28, 0x5d, 0x3e, 0x5b, 0x1c, 0x60, 0xeb, 0xf8, 0xe8, 0x11, 0x33, 0x17, 0xfa, 0xfa, 0xcc, 0xbc, 0x03, 0x84, 0x13, 0xe0, 0x92, 0xc8, 0x88, 0x93, 0x04, 0xa4, 0xd4, 0xaf, 0xbc, 0x8d, 0x2a, 0xf7, 0x43, 0x10, 0x18, 0x04, 0x06, 0xd7, 0xc4, 0x8f, 0x4d, 0x8f, 0x1d, 0xd8, 0x8e, 0xfa, 0xa6, 0xb4, 0x15, 0x98, 0xbb, 0x88, 0xc1, 0x81, 0x25, 0x0a, 0x36, 0xe6, 0x20, 0xe9, 0x2a, 0x19, 0x09, 0xba, 0x3e, 0xa1, 0x03, 0xd1, 0xe9, 0xb0, 0xc7, 0xf6, 0x3c, 0xa1, 0xc5, 0xd9, 0xe8, 0x9d, 0x04, 0x38, 0xd3, 0x0b, 0x2c, 0xf5, 0x31, 0x26, 0x1c, 0x34, 0xe4, 0x35, 0x36, 0x70, 0x36, 0x01, 0x22, 0x46, 0xe5, 0x0a, 0x2c, 0x26, 0xea, 0x19, 0x1f, 0x2b, 0xba, 0x2a, 0x1e, 0x02, 0x33, 0x02, 0x1c, 0x66, 0x00, 0x53, 0x7f, 0x44, 0x72, 0x2f, 0x55, 0x2e, 0xf5, 0x64, 0x56, 0x31, 0x4b, 0x1e, 0xf5, 0x11, 0x0e, 0x43, 0x06, 0xe8, 0x2c, 0xec, 0x52, 0x1e, 0xda, 0x68, 0x3e, 0x59, 0x63, 0x62, 0x31, 0x4d, 0x03, 0x5c, 0x3c, 0x6e, 0x3a, 0x21, 0x16, 0x2f, 0xec, 0x32, 0xf1, 0x07, 0x12, 0xfc, 0x47, 0x55, 0x0a, 0x2d, 0x3c, 0x49, 0x10, 0x0b, 0x3a, 0x2c, 0xe8, 0x62, 0x3a, 0x42, 0x24, 0x37, 0x0a, 0x2d, 0x01, 0x57, 0x04, 0x09, 0x33, 0xf1, 0x69, 0x77, 0xf2, 0x47, 0x78, 0x30, 0x59, 0x5e, 0x28, 0x5a, 0xea, 0x60, 0x38, 0x4c, 0x28, 0x2f, 0x11, 0x0f, 0x1b, 0x3e, 0x05, 0x1d, 0x50, 0x0d, 0x59, 0x5f, 0x07, 0x60, 0x7f, 0x27, 0x2d, 0x3b, 0x40, 0x3f, 0xf8, 0x56, 0x58, 0x2d, 0x4e, 0x57, 0x91, 0x98, 0xa0, 0x86, 0x36, 0x6a, 0xc0, 0x1c, 0xb0, 0xbb, 0xf0, 0x83, 0x08, 0xcc, 0xbf, 0x6f, 0x81, 0xf2, 0xb9, 0x38, 0x01, 0x4f, 0xbf, 0xd4, 0x3f, 0xa6, 0xb9, 0xf5, 0xef, 0x4d, 0x19, 0x25, 0x59, 0x3b, 0x9f, 0x0c, 0x7b, 0x16, 0x37, 0x5e, 0xa3, 0xf5, 0x98, 0xb3, 0xe7, 0xf2, 0xd0, 0xd3, 0xe4, 0x2e, 0xfc, 0xe5, 0x3d, 0x92, 0xe8, 0xfe, 0x23, 0xb4, 0x0e, 0x43, 0x38, 0xcf, 0x87, 0x0b, 0xe6, 0xb0, 0x89, 0x42, 0x54, 0x04, 0x90, 0x12, 0x29, 0xf8, 0x0c, 0x10, 0x01, 0xe8, 0x12, 0x0a, 0x5b, 0x3f, 0xda, 0x2d, 0x4f, 0x5b, 0x67, 0x45, 0x2d, 0x52, 0xe1, 0x3a, 0x3b, 0x5d, 0x4f, 0x52, 0x0c, 0x33, 0x03, 0x1b, 0xe1, 0x15, 0x47, 0xdd, 0x4b, 0x46, 0xf5, 0x7a, 0x7f, 0x2d, 0x50, 0x73, 0x36, 0x2c, 0xe3, 0x7f, 0x7c, 0x24, 0x28, 0x5d, 0x28, 0x2b, 0xfb, 0x5b, 0xd2, 0x20, 0x78, 0xf8, 0x26, 0x3a, 0xe0, 0x62, 0x50, 0x4f, 0x54, 0x52, 0x39, 0x29, 0xfa, 0x6c, 0x33, 0x2e, 0x2d, 0x46, 0xea, 0x00, 0xf2, 0x29, 0xf2, 0xfb, 0x43, 0x13, 0x38, 0x66, 0xd6, 0x2d, 0x7f, 0x2a, 0x2e, 0x50, 0x2e, 0x21, 0x06, 0x5e, 0x41, 0x53, 0x11, 0x3c, 0xdc, 0x3a, 0x18, 0x45, 0xd8, 0x1b, 0x21, 0xd8, 0x57, 0x32, 0x1d, 0x70, 0x2d, 0x37, 0x3c, 0x1b, 0x1f, 0x73, 0xd2, 0x65, 0x24, 0x3b, 0x49, 0x0d, 0x02, 0x1b, 0xd2, 0x0d, 0xee, 0x1d, 0x46, 0xe5, 0x39, 0x3f, 0x21, 0x37, 0x4b, 0x18, 0x38, 0x49, 0x1d, 0x4c, 0x06, 0x5b, 0x5e, 0x50, 0x21, 0x4d, 0x16, 0x09, 0x05, 0x0e, 0xfa, 0xf0, 0x4c, 0x23, 0x33, 0x7b, 0xf5, 0x6b, 0x7a, 0x2b, 0x63, 0x34, 0x4d, 0x70, 0x16, 0x7f, 0x51, 0x32, 0x44, 0x3e, 0x04, 0xf4, 0x13, 0x30, 0xff, 0x1f, 0x16, 0x15, 0x54, 0x5a, 0xf1, 0x30, 0x63, 0x1e, 0x53, 0x45, 0x39, 0x35, 0x1b, 0x6e, 0x58, 0x2c, 0x54, 0x4c, 0x09, 0x00, 0x03, 0x0f, 0x22, 0x27, 0x37, 0xf7, 0x32, 0x47, 0xe1, 0x3f, 0x2f, 0x43, 0x23, 0x3d, 0x59, 0x27, 0x26, 0x66, 0x3b, 0x63, 0x6f, 0x26, 0x00, 0xf0, 0xe5, 0x3d, 0x27, 0x21, 0x51, 0xff, 0x2d, 0x33, 0x1c, 0x25, 0x7e, 0x64, 0x1a, 0x4e, 0x5e, 0x46, 0x23, 0x3e, 0x7f, 0x68, 0x39, 0x4e, 0x0c, 0x23, 0x08, 0x51, 0xfb, 0x08, 0x3a, 0x20, 0x2f, 0x27, 0x0e, 0x51, 0x41, 0x28, 0x40, 0x26, 0x56, 0x67, 0xec, 0x2b, 0x56, 0x39, 0x34, 0x31, 0x27, 0x1f, 0x0e, 0x13, 0x15, 0xe4, 0x2f, 0x06, 0x41, 0x59, 0x04, 0x1c, 0x60, 0x0c, 0x45, 0x23, 0x1c, 0x39, 0xde, 0x54, 0x39, 0x2f, 0x5e, 0x50, 0x7e, 0xff, 0xff, 0xff, 0x04, 0x00, 0x00, 0x00, 0x20, 0x00, 0x00, 0x00, 0xad, 0xff, 0xff, 0xff, 0xa1, 0xff, 0xff, 0xff, 0x6f, 0x09, 0x00, 0x00, 0xb8, 0xff, 0xff, 0xff, 0xd2, 0xff, 0xff, 0xff, 0xb6, 0xff, 0xff, 0xff, 0xb9, 0xff, 0xff, 0xff, 0xa9, 0xff, 0xff, 0xff, 0xaa, 0xff, 0xff, 0xff, 0x04, 0x00, 0x00, 0x00, 0x48, 0x00, 0x00, 0x00, 0x35, 0x48, 0x42, 0x59, 0x69, 0x4f, 0x20, 0x6a, 0x7f, 0x1c, 0x4f, 0x20, 0x34, 0x67, 0x60, 0x49, 0x79, 0x7f, 0x43, 0xba, 0x2e, 0x10, 0x1c, 0x9d, 0xcf, 0x81, 0xf8, 0x0b, 0x64, 0x75, 0x54, 0x7f, 0x28, 0xf6, 0x6c, 0x4b, 0x3f, 0x2c, 0x1d, 0x5d, 0x53, 0x7f, 0x1e, 0x22, 0x52, 0x3f, 0x50, 0x12, 0x46, 0x7f, 0x1a, 0x2d, 0x6f, 0x6c, 0x46, 0x7c, 0x65, 0xd7, 0x69, 0x65, 0xe6, 0x7f, 0x2e, 0x47, 0x7b, 0x75, 0x2e, 0x50, 0x7f, 0x4d, 0x1e, 0x1b, 0x00, 0x00, 0x06, 0x00, 0x08, 0x00, 0x04, 0x00, 0x06, 0x00, 0x00, 0x00, 0x04, 0x00, 0x00, 0x00, 0x08, 0x00, 0x00, 0x00, 0xff, 0xff, 0xff, 0xff, 0x40, 0x0c, 0x00, 0x00, 0xc0, 0xf5, 0xff, 0xff, 0xc4, 0xf5, 0xff, 0xff, 0x0f, 0x00, 0x00, 0x00, 0x4d, 0x4c, 0x49, 0x52, 0x20, 0x43, 0x6f, 0x6e, 0x76, 0x65, 0x72, 0x74, 0x65, 0x64, 0x2e, 0x00, 0x01, 0x00, 0x00, 0x00, 0x14, 0x00, 0x00, 0x00, 0x00, 0x00, 0x0e, 0x00, 0x18, 0x00, 0x14, 0x00, 0x10, 0x00, 0x0c, 0x00, 0x08, 0x00, 0x04, 0x00, 0x0e, 0x00, 0x00, 0x00, 0x14, 0x00, 0x00, 0x00, 0x1c, 0x00, 0x00, 0x00, 0x90, 0x01, 0x00, 0x00, 0x94, 0x01, 0x00, 0x00, 0x98, 0x01, 0x00, 0x00, 0x04, 0x00, 0x00, 0x00, 0x6d, 0x61, 0x69, 0x6e, 0x00, 0x00, 0x00, 0x00, 0x05, 0x00, 0x00, 0x00, 0x28, 0x01, 0x00, 0x00, 0xd4, 0x00, 0x00, 0x00, 0x80, 0x00, 0x00, 0x00, 0x48, 0x00, 0x00, 0x00, 0x04, 0x00, 0x00, 0x00, 0x9a, 0xff, 0xff, 0xff, 0x14, 0x00, 0x00, 0x00, 0x00, 0x00, 0x00, 0x08, 0x10, 0x00, 0x00, 0x00, 0x14, 0x00, 0x00, 0x00, 0x03, 0x00, 0x00, 0x00, 0x48, 0xf6, 0xff, 0xff, 0x01, 0x00, 0x00, 0x00, 0x0c, 0x00, 0x00, 0x00, 0x03, 0x00, 0x00, 0x00, 0x0b, 0x00, 0x00, 0x00, 0x06, 0x00, 0x00, 0x00, 0x07, 0x00, 0x00, 0x00, 0x00, 0x00, 0x0a, 0x00, 0x10, 0x00, 0x0c, 0x00, 0x08, 0x00, 0x04, 0x00, 0x0a, 0x00, 0x00, 0x00, 0x0c, 0x00, 0x00, 0x00, 0x10, 0x00, 0x00, 0x00, 0x02, 0x00, 0x00, 0x00, 0x01, 0x00, 0x00, 0x00, 0x0b, 0x00, 0x00, 0x00, 0x02, 0x00, 0x00, 0x00, 0x0a, 0x00, 0x00, 0x00, 0x01, 0x00, 0x00, 0x00, 0x00, 0x00, 0x0e, 0x00, 0x1a, 0x00, 0x14, 0x00, 0x10, 0x00, 0x0c, 0x00, 0x0b, 0x00, 0x04, 0x00, 0x0e, 0x00, 0x00, 0x00, 0x24, 0x00, 0x00, 0x00, 0x00, 0x00, 0x00, 0x05, 0x34, 0x00, 0x00, 0x00, 0x38, 0x00, 0x00, 0x00, 0x01, 0x00, 0x00, 0x00, 0x00, 0x00, 0x0e, 0x00, 0x18, 0x00, 0x17, 0x00, 0x10, 0x00, 0x0c, 0x00, 0x08, 0x00, 0x04, 0x00, 0x0e, 0x00, 0x00, 0x00, 0x02, 0x00, 0x00, 0x00, 0x02, 0x00, 0x00, 0x00, 0x02, 0x00, 0x00, 0x00, 0x02, 0x00, 0x00, 0x00, 0x00, 0x00, 0x00, 0x01, 0x01, 0x00, 0x00, 0x00, 0x0a, 0x00, 0x00, 0x00, 0x01, 0x00, 0x00, 0x00, 0x09, 0x00, 0x00, 0x00, 0xbe, 0xff, 0xff, 0xff, 0x10, 0x00, 0x00, 0x00, 0x00, 0x00, 0x00, 0x01, 0x1c, 0x00, 0x00, 0x00, 0x20, 0x00, 0x00, 0x00, 0xb0, 0xff, 0xff, 0xff, 0x00, 0x00, 0x00, 0x01, 0x01, 0x00, 0x00, 0x00, 0x01, 0x00, 0x00, 0x00, 0x00, 0x00, 0x00, 0x01, 0x01, 0x00, 0x00, 0x00, 0x09, 0x00, 0x00, 0x00, 0x03, 0x00, 0x00, 0x00, 0x08, 0x00, 0x00, 0x00, 0x04, 0x00, 0x00, 0x00, 0x05, 0x00, 0x00, 0x00, 0x00, 0x00, 0x0e, 0x00, 0x14, 0x00, 0x00, 0x00, 0x10, 0x00, 0x0c, 0x00, 0x0b, 0x00, 0x04, 0x00, 0x0e, 0x00, 0x00, 0x00, 0x1c, 0x00, 0x00, 0x00, 0x00, 0x00, 0x00, 0x01, 0x28, 0x00, 0x00, 0x00, 0x2c, 0x00, 0x00, 0x00, 0x0c, 0x00, 0x14, 0x00, 0x13, 0x00, 0x0c, 0x00, 0x08, 0x00, 0x07, 0x00, 0x0c, 0x00, 0x00, 0x00, 0x00, 0x00, 0x00, 0x01, 0x01, 0x00, 0x00, 0x00, 0x01, 0x00, 0x00, 0x00, 0x00, 0x00, 0x00, 0x01, 0x01, 0x00, 0x00, 0x00, 0x08, 0x00, 0x00, 0x00, 0x03, 0x00, 0x00, 0x00, 0x00, 0x00, 0x00, 0x00, 0x02, 0x00, 0x00, 0x00, 0x03, 0x00, 0x00, 0x00, 0x01, 0x00, 0x00, 0x00, 0x0c, 0x00, 0x00, 0x00, 0x01, 0x00, 0x00, 0x00, 0x00, 0x00, 0x00, 0x00, 0x0d, 0x00, 0x00, 0x00, 0xa0, 0x08, 0x00, 0x00, 0x40, 0x08, 0x00, 0x00, 0x6c, 0x07, 0x00, 0x00, 0x98, 0x06, 0x00, 0x00, 0x74, 0x05, 0x00, 0x00, 0x40, 0x04, 0x00, 0x00, 0xdc, 0x03, 0x00, 0x00, 0x60, 0x03, 0x00, 0x00, 0x74, 0x02, 0x00, 0x00, 0x80, 0x01, 0x00, 0x00, 0xec, 0x00, 0x00, 0x00, 0x70, 0x00, 0x00, 0x00, 0x04, 0x00, 0x00, 0x00, 0xa8, 0xf7, 0xff, 0xff, 0x18, 0x00, 0x00, 0x00, 0x20, 0x00, 0x00, 0x00, 0x40, 0x00, 0x00, 0x00, 0x0d, 0x00, 0x00, 0x00, 0x00, 0x00, 0x00, 0x09, 0x44, 0x00, 0x00, 0x00, 0x02, 0x00, 0x00, 0x00, 0xff, 0xff, 0xff, 0xff, 0x02, 0x00, 0x00, 0x00, 0x8c, 0xf7, 0xff, 0xff, 0x08, 0x00, 0x00, 0x00, 0x14, 0x00, 0x00, 0x00, 0x01, 0x00, 0x00, 0x00, 0x04, 0x00, 0x00, 0x00, 0x00, 0x00, 0x00, 0x00, 0x00, 0x00, 0x00, 0x00, 0x01, 0x00, 0x00, 0x00, 0x91, 0x74, 0x25, 0x3e, 0x08, 0x00, 0x00, 0x00, 0x49, 0x64, 0x65, 0x6e, 0x74, 0x69, 0x74, 0x79, 0x00, 0x00, 0x00, 0x00, 0x02, 0x00, 0x00, 0x00, 0x01, 0x00, 0x00, 0x00, 0x02, 0x00, 0x00, 0x00, 0x10, 0xf8, 0xff, 0xff, 0x18, 0x00, 0x00, 0x00, 0x20, 0x00, 0x00, 0x00, 0x40, 0x00, 0x00, 0x00, 0x0c, 0x00, 0x00, 0x00, 0x00, 0x00, 0x00, 0x09, 0x54, 0x00, 0x00, 0x00, 0x02, 0x00, 0x00, 0x00, 0xff, 0xff, 0xff, 0xff, 0x40, 0x0c, 0x00, 0x00, 0xf4, 0xf7, 0xff, 0xff, 0x08, 0x00, 0x00, 0x00, 0x14, 0x00, 0x00, 0x00, 0x01, 0x00, 0x00, 0x00, 0x80, 0xff, 0xff, 0xff, 0xff, 0xff, 0xff, 0xff, 0x00, 0x00, 0x00, 0x00, 0x01, 0x00, 0x00, 0x00, 0x72, 0x6b, 0x83, 0x3c, 0x1a, 0x00, 0x00, 0x00, 0x73, 0x65, 0x71, 0x75, 0x65, 0x6e, 0x74, 0x69, 0x61, 0x6c, 0x2f, 0x66, 0x6c, 0x61, 0x74, 0x74, 0x65, 0x6e, 0x2f, 0x52, 0x65, 0x73, 0x68, 0x61, 0x70, 0x65, 0x00, 0x00, 0x02, 0x00, 0x00, 0x00, 0x01, 0x00, 0x00, 0x00, 0x40, 0x0c, 0x00, 0x00, 0x88, 0xf8, 0xff, 0xff, 0x18, 0x00, 0x00, 0x00, 0x28, 0x00, 0x00, 0x00, 0x48, 0x00, 0x00, 0x00, 0x0b, 0x00, 0x00, 0x00, 0x00, 0x00, 0x00, 0x09, 0x64, 0x00, 0x00, 0x00, 0x04, 0x00, 0x00, 0x00, 0xff, 0xff, 0xff, 0xff, 0x0e, 0x00, 0x00, 0x00, 0x0e, 0x00, 0x00, 0x00, 0x10, 0x00, 0x00, 0x00, 0x74, 0xf8, 0xff, 0xff, 0x08, 0x00, 0x00, 0x00, 0x14, 0x00, 0x00, 0x00, 0x01, 0x00, 0x00, 0x00, 0x80, 0xff, 0xff, 0xff, 0xff, 0xff, 0xff, 0xff, 0x00, 0x00, 0x00, 0x00, 0x01, 0x00, 0x00, 0x00, 0x72, 0x6b, 0x83, 0x3c, 0x20, 0x00, 0x00, 0x00, 0x73, 0x65, 0x71, 0x75, 0x65, 0x6e, 0x74, 0x69, 0x61, 0x6c, 0x2f, 0x6d, 0x61, 0x78, 0x5f, 0x70, 0x6f, 0x6f, 0x6c, 0x69, 0x6e, 0x67, 0x32, 0x64, 0x2f, 0x4d, 0x61, 0x78, 0x50, 0x6f, 0x6f, 0x6c, 0x00, 0x00, 0x00, 0x00, 0x04, 0x00, 0x00, 0x00, 0x01, 0x00, 0x00, 0x00, 0x0e, 0x00, 0x00, 0x00, 0x0e, 0x00, 0x00, 0x00, 0x10, 0x00, 0x00, 0x00, 0x18, 0xf9, 0xff, 0xff, 0x18, 0x00, 0x00, 0x00, 0x28, 0x00, 0x00, 0x00, 0x48, 0x00, 0x00, 0x00, 0x0a, 0x00, 0x00, 0x00, 0x00, 0x00, 0x00, 0x09, 0xc4, 0x00, 0x00, 0x00, 0x04, 0x00, 0x00, 0x00, 0xff, 0xff, 0xff, 0xff, 0x1c, 0x00, 0x00, 0x00, 0x1c, 0x00, 0x00, 0x00, 0x10, 0x00, 0x00, 0x00, 0x04, 0xf9, 0xff, 0xff, 0x08, 0x00, 0x00, 0x00, 0x14, 0x00, 0x00, 0x00, 0x01, 0x00, 0x00, 0x00, 0x80, 0xff, 0xff, 0xff, 0xff, 0xff, 0xff, 0xff, 0x00, 0x00, 0x00, 0x00, 0x01, 0x00, 0x00, 0x00, 0x72, 0x6b, 0x83, 0x3c, 0x83, 0x00, 0x00, 0x00, 0x73, 0x65, 0x71, 0x75, 0x65, 0x6e, 0x74, 0x69, 0x61, 0x6c, 0x2f, 0x63, 0x6f, 0x6e, 0x76, 0x32, 0x64, 0x5f, 0x31, 0x2f, 0x52, 0x65, 0x6c, 0x75, 0x3b, 0x73, 0x65, 0x71, 0x75, 0x65, 0x6e, 0x74, 0x69, 0x61, 0x6c, 0x2f, 0x63, 0x6f, 0x6e, 0x76, 0x32, 0x64, 0x5f, 0x31, 0x2f, 0x42, 0x69, 0x61, 0x73, 0x41, 0x64, 0x64, 0x3b, 0x73, 0x65, 0x71, 0x75, 0x65, 0x6e, 0x74, 0x69, 0x61, 0x6c, 0x2f, 0x63, 0x6f, 0x6e, 0x76, 0x32, 0x64, 0x5f, 0x31, 0x2f, 0x43, 0x6f, 0x6e, 0x76, 0x32, 0x44, 0x3b, 0x73, 0x65, 0x71, 0x75, 0x65, 0x6e, 0x74, 0x69, 0x61, 0x6c, 0x2f, 0x63, 0x6f, 0x6e, 0x76, 0x32, 0x64, 0x5f, 0x31, 0x2f, 0x42, 0x69, 0x61, 0x73, 0x41, 0x64, 0x64, 0x2f, 0x52, 0x65, 0x61, 0x64, 0x56, 0x61, 0x72, 0x69, 0x61, 0x62, 0x6c, 0x65, 0x4f, 0x70, 0x2f, 0x72, 0x65, 0x73, 0x6f, 0x75, 0x72, 0x63, 0x65, 0x00, 0x04, 0x00, 0x00, 0x00, 0x01, 0x00, 0x00, 0x00, 0x1c, 0x00, 0x00, 0x00, 0x1c, 0x00, 0x00, 0x00, 0x10, 0x00, 0x00, 0x00, 0x08, 0xfa, 0xff, 0xff, 0x18, 0x00, 0x00, 0x00, 0x28, 0x00, 0x00, 0x00, 0x48, 0x00, 0x00, 0x00, 0x09, 0x00, 0x00, 0x00, 0x00, 0x00, 0x00, 0x09, 0xbc, 0x00, 0x00, 0x00, 0x04, 0x00, 0x00, 0x00, 0xff, 0xff, 0xff, 0xff, 0x1e, 0x00, 0x00, 0x00, 0x1e, 0x00, 0x00, 0x00, 0x08, 0x00, 0x00, 0x00, 0xf4, 0xf9, 0xff, 0xff, 0x08, 0x00, 0x00, 0x00, 0x14, 0x00, 0x00, 0x00, 0x01, 0x00, 0x00, 0x00, 0x80, 0xff, 0xff, 0xff, 0xff, 0xff, 0xff, 0xff, 0x00, 0x00, 0x00, 0x00, 0x01, 0x00, 0x00, 0x00, 0x89, 0xaa, 0x8d, 0x3b, 0x7b, 0x00, 0x00, 0x00, 0x73, 0x65, 0x71, 0x75, 0x65, 0x6e, 0x74, 0x69, 0x61, 0x6c, 0x2f, 0x63, 0x6f, 0x6e, 0x76, 0x32, 0x64, 0x2f, 0x52, 0x65, 0x6c, 0x75, 0x3b, 0x73, 0x65, 0x71, 0x75, 0x65, 0x6e, 0x74, 0x69, 0x61, 0x6c, 0x2f, 0x63, 0x6f, 0x6e, 0x76, 0x32, 0x64, 0x2f, 0x42, 0x69, 0x61, 0x73, 0x41, 0x64, 0x64, 0x3b, 0x73, 0x65, 0x71, 0x75, 0x65, 0x6e, 0x74, 0x69, 0x61, 0x6c, 0x2f, 0x63, 0x6f, 0x6e, 0x76, 0x32, 0x64, 0x2f, 0x43, 0x6f, 0x6e, 0x76, 0x32, 0x44, 0x3b, 0x73, 0x65, 0x71, 0x75, 0x65, 0x6e, 0x74, 0x69, 0x61, 0x6c, 0x2f, 0x63, 0x6f, 0x6e, 0x76, 0x32, 0x64, 0x2f, 0x42, 0x69, 0x61, 0x73, 0x41, 0x64, 0x64, 0x2f, 0x52, 0x65, 0x61, 0x64, 0x56, 0x61, 0x72, 0x69, 0x61, 0x62, 0x6c, 0x65, 0x4f, 0x70, 0x2f, 0x72, 0x65, 0x73, 0x6f, 0x75, 0x72, 0x63, 0x65, 0x00, 0x04, 0x00, 0x00, 0x00, 0x01, 0x00, 0x00, 0x00, 0x1e, 0x00, 0x00, 0x00, 0x1e, 0x00, 0x00, 0x00, 0x08, 0x00, 0x00, 0x00, 0x46, 0xfb, 0xff, 0xff, 0x14, 0x00, 0x00, 0x00, 0x30, 0x00, 0x00, 0x00, 0x08, 0x00, 0x00, 0x00, 0x00, 0x00, 0x00, 0x02, 0x5c, 0x00, 0x00, 0x00, 0xc4, 0xfa, 0xff, 0xff, 0x08, 0x00, 0x00, 0x00, 0x10, 0x00, 0x00, 0x00, 0x01, 0x00, 0x00, 0x00, 0x00, 0x00, 0x00, 0x00, 0x00, 0x00, 0x00, 0x00, 0x01, 0x00, 0x00, 0x00, 0xb9, 0xe2, 0xb7, 0x38, 0x30, 0x00, 0x00, 0x00, 0x73, 0x65, 0x71, 0x75, 0x65, 0x6e, 0x74, 0x69, 0x61, 0x6c, 0x2f, 0x64, 0x65, 0x6e, 0x73, 0x65, 0x2f, 0x42, 0x69, 0x61, 0x73, 0x41, 0x64, 0x64, 0x2f, 0x52, 0x65, 0x61, 0x64, 0x56, 0x61, 0x72, 0x69, 0x61, 0x62, 0x6c, 0x65, 0x4f, 0x70, 0x2f, 0x72, 0x65, 0x73, 0x6f, 0x75, 0x72, 0x63, 0x65, 0x00, 0x00, 0x00, 0x00, 0x01, 0x00, 0x00, 0x00, 0x02, 0x00, 0x00, 0x00, 0xbe, 0xfb, 0xff, 0xff, 0x14, 0x00, 0x00, 0x00, 0x30, 0x00, 0x00, 0x00, 0x07, 0x00, 0x00, 0x00, 0x00, 0x00, 0x00, 0x09, 0x40, 0x00, 0x00, 0x00, 0x3c, 0xfb, 0xff, 0xff, 0x08, 0x00, 0x00, 0x00, 0x10, 0x00, 0x00, 0x00, 0x01, 0x00, 0x00, 0x00, 0x00, 0x00, 0x00, 0x00, 0x00, 0x00, 0x00, 0x00, 0x01, 0x00, 0x00, 0x00, 0xc7, 0x19, 0xb3, 0x3b, 0x17, 0x00, 0x00, 0x00, 0x73, 0x65, 0x71, 0x75, 0x65, 0x6e, 0x74, 0x69, 0x61, 0x6c, 0x2f, 0x64, 0x65, 0x6e, 0x73, 0x65, 0x2f, 0x4d, 0x61, 0x74, 0x4d, 0x75, 0x6c, 0x00, 0x02, 0x00, 0x00, 0x00, 0x02, 0x00, 0x00, 0x00, 0x40, 0x0c, 0x00, 0x00, 0x1e, 0xfc, 0xff, 0xff, 0x14, 0x00, 0x00, 0x00, 0xe8, 0x00, 0x00, 0x00, 0x06, 0x00, 0x00, 0x00, 0x00, 0x00, 0x00, 0x02, 0x14, 0x01, 0x00, 0x00, 0x9c, 0xfb, 0xff, 0xff, 0x08, 0x00, 0x00, 0x00, 0x8c, 0x00, 0x00, 0x00, 0x10, 0x00, 0x00, 0x00, 0x00, 0x00, 0x00, 0x00, 0x00, 0x00, 0x00, 0x00, 0x00, 0x00, 0x00, 0x00, 0x00, 0x00, 0x00, 0x00, 0x00, 0x00, 0x00, 0x00, 0x00, 0x00, 0x00, 0x00, 0x00, 0x00, 0x00, 0x00, 0x00, 0x00, 0x00, 0x00, 0x00, 0x00, 0x00, 0x00, 0x00, 0x00, 0x00, 0x00, 0x00, 0x00, 0x00, 0x00, 0x00, 0x00, 0x00, 0x00, 0x00, 0x00, 0x00, 0x00, 0x00, 0x00, 0x00, 0x00, 0x00, 0x00, 0x00, 0x00, 0x00, 0x00, 0x00, 0x00, 0x00, 0x00, 0x00, 0x00, 0x00, 0x00, 0x00, 0x00, 0x00, 0x00, 0x00, 0x00, 0x00, 0x00, 0x00, 0x00, 0x00, 0x00, 0x00, 0x00, 0x00, 0x00, 0x00, 0x00, 0x00, 0x00, 0x00, 0x00, 0x00, 0x00, 0x00, 0x00, 0x00, 0x00, 0x00, 0x00, 0x00, 0x00, 0x00, 0x00, 0x00, 0x00, 0x00, 0x00, 0x00, 0x00, 0x00, 0x00, 0x00, 0x00, 0x00, 0x00, 0x00, 0x00, 0x00, 0x00, 0x00, 0x00, 0x00, 0x00, 0x00, 0x00, 0x00, 0x00, 0x00, 0x00, 0x00, 0x00, 0x10, 0x00, 0x00, 0x00, 0x74, 0x6f, 0x8f, 0x37, 0x6a, 0xd8, 0x96, 0x37, 0x1f, 0xee, 0xe2, 0x37, 0x42, 0x0f, 0xb8, 0x37, 0x56, 0xd5, 0xc1, 0x36, 0xef, 0x7a, 0x96, 0x37, 0xad, 0x3c, 0xc0, 0x36, 0xed, 0x08, 0x8a, 0x37, 0x2a, 0x53, 0x66, 0x37, 0xc5, 0x5c, 0x8a, 0x37, 0xfc, 0xab, 0xb5, 0x37, 0x47, 0x60, 0xbc, 0x36, 0xee, 0x8e, 0x8c, 0x37, 0xe3, 0x20, 0x8f, 0x37, 0xf0, 0x72, 0x9a, 0x37, 0x5e, 0x7a, 0xa0, 0x37, 0x33, 0x00, 0x00, 0x00, 0x73, 0x65, 0x71, 0x75, 0x65, 0x6e, 0x74, 0x69, 0x61, 0x6c, 0x2f, 0x63, 0x6f, 0x6e, 0x76, 0x32, 0x64, 0x5f, 0x31, 0x2f, 0x42, 0x69, 0x61, 0x73, 0x41, 0x64, 0x64, 0x2f, 0x52, 0x65, 0x61, 0x64, 0x56, 0x61, 0x72, 0x69, 0x61, 0x62, 0x6c, 0x65, 0x4f, 0x70, 0x2f, 0x72, 0x65, 0x73, 0x6f, 0x75, 0x72, 0x63, 0x65, 0x00, 0x01, 0x00, 0x00, 0x00, 0x10, 0x00, 0x00, 0x00, 0x4e, 0xfd, 0xff, 0xff, 0x14, 0x00, 0x00, 0x00, 0xe4, 0x00, 0x00, 0x00, 0x05, 0x00, 0x00, 0x00, 0x00, 0x00, 0x00, 0x09, 0xf8, 0x00, 0x00, 0x00, 0xcc, 0xfc, 0xff, 0xff, 0x08, 0x00, 0x00, 0x00, 0x88, 0x00, 0x00, 0x00, 0x10, 0x00, 0x00, 0x00, 0x00, 0x00, 0x00, 0x00, 0x00, 0x00, 0x00, 0x00, 0x00, 0x00, 0x00, 0x00, 0x00, 0x00, 0x00, 0x00, 0x00, 0x00, 0x00, 0x00, 0x00, 0x00, 0x00, 0x00, 0x00, 0x00, 0x00, 0x00, 0x00, 0x00, 0x00, 0x00, 0x00, 0x00, 0x00, 0x00, 0x00, 0x00, 0x00, 0x00, 0x00, 0x00, 0x00, 0x00, 0x00, 0x00, 0x00, 0x00, 0x00, 0x00, 0x00, 0x00, 0x00, 0x00, 0x00, 0x00, 0x00, 0x00, 0x00, 0x00, 0x00, 0x00, 0x00, 0x00, 0x00, 0x00, 0x00, 0x00, 0x00, 0x00, 0x00, 0x00, 0x00, 0x00, 0x00, 0x00, 0x00, 0x00, 0x00, 0x00, 0x00, 0x00, 0x00, 0x00, 0x00, 0x00, 0x00, 0x00, 0x00, 0x00, 0x00, 0x00, 0x00, 0x00, 0x00, 0x00, 0x00, 0x00, 0x00, 0x00, 0x00, 0x00, 0x00, 0x00, 0x00, 0x00, 0x00, 0x00, 0x00, 0x00, 0x00, 0x00, 0x00, 0x00, 0x00, 0x00, 0x00, 0x00, 0x00, 0x00, 0x00, 0x00, 0x00, 0x00, 0x00, 0x00, 0x00, 0x00, 0x10, 0x00, 0x00, 0x00, 0x3a, 0x99, 0x81, 0x3b, 0x31, 0x4b, 0x88, 0x3b, 0xf0, 0x09, 0xcd, 0x3b, 0xca, 0x4d, 0xa6, 0x3b, 0x80, 0x22, 0xaf, 0x3a, 0xbb, 0xf6, 0x87, 0x3b, 0x43, 0xb1, 0xad, 0x3a, 0x22, 0x70, 0x79, 0x3b, 0x25, 0x1b, 0x50, 0x3b, 0xa5, 0x07, 0x7a, 0x3b, 0x7c, 0x25, 0xa4, 0x3b, 0x36, 0x34, 0xaa, 0x3a, 0x82, 0xff, 0x7d, 0x3b, 0x3d, 0x52, 0x81, 0x3b, 0xb9, 0x8c, 0x8b, 0x3b, 0x43, 0xff, 0x90, 0x3b, 0x1a, 0x00, 0x00, 0x00, 0x73, 0x65, 0x71, 0x75, 0x65, 0x6e, 0x74, 0x69, 0x61, 0x6c, 0x2f, 0x63, 0x6f, 0x6e, 0x76, 0x32, 0x64, 0x5f, 0x31, 0x2f, 0x43, 0x6f, 0x6e, 0x76, 0x32, 0x44, 0x00, 0x00, 0x04, 0x00, 0x00, 0x00, 0x10, 0x00, 0x00, 0x00, 0x03, 0x00, 0x00, 0x00, 0x03, 0x00, 0x00, 0x00, 0x08, 0x00, 0x00, 0x00, 0x6e, 0xfe, 0xff, 0xff, 0x14, 0x00, 0x00, 0x00, 0x88, 0x00, 0x00, 0x00, 0x04, 0x00, 0x00, 0x00, 0x00, 0x00, 0x00, 0x02, 0xb4, 0x00, 0x00, 0x00, 0xec, 0xfd, 0xff, 0xff, 0x08, 0x00, 0x00, 0x00, 0x4c, 0x00, 0x00, 0x00, 0x08, 0x00, 0x00, 0x00, 0x00, 0x00, 0x00, 0x00, 0x00, 0x00, 0x00, 0x00, 0x00, 0x00, 0x00, 0x00, 0x00, 0x00, 0x00, 0x00, 0x00, 0x00, 0x00, 0x00, 0x00, 0x00, 0x00, 0x00, 0x00, 0x00, 0x00, 0x00, 0x00, 0x00, 0x00, 0x00, 0x00, 0x00, 0x00, 0x00, 0x00, 0x00, 0x00, 0x00, 0x00, 0x00, 0x00, 0x00, 0x00, 0x00, 0x00, 0x00, 0x00, 0x00, 0x00, 0x00, 0x00, 0x00, 0x00, 0x00, 0x00, 0x00, 0x00, 0x00, 0x00, 0x00, 0x00, 0x00, 0x00, 0x00, 0x00, 0x00, 0x08, 0x00, 0x00, 0x00, 0xbd, 0xb9, 0x98, 0x37, 0x10, 0x04, 0x9f, 0x37, 0xbe, 0xc0, 0x71, 0x37, 0x5a, 0x11, 0x9c, 0x37, 0xa5, 0x03, 0xb3, 0x37, 0x5d, 0x80, 0xaa, 0x37, 0xb1, 0xe9, 0x90, 0x37, 0xfc, 0x57, 0xac, 0x37, 0x31, 0x00, 0x00, 0x00, 0x73, 0x65, 0x71, 0x75, 0x65, 0x6e, 0x74, 0x69, 0x61, 0x6c, 0x2f, 0x63, 0x6f, 0x6e, 0x76, 0x32, 0x64, 0x2f, 0x42, 0x69, 0x61, 0x73, 0x41, 0x64, 0x64, 0x2f, 0x52, 0x65, 0x61, 0x64, 0x56, 0x61, 0x72, 0x69, 0x61, 0x62, 0x6c, 0x65, 0x4f, 0x70, 0x2f, 0x72, 0x65, 0x73, 0x6f, 0x75, 0x72, 0x63, 0x65, 0x00, 0x00, 0x00, 0x01, 0x00, 0x00, 0x00, 0x08, 0x00, 0x00, 0x00, 0x3e, 0xff, 0xff, 0xff, 0x14, 0x00, 0x00, 0x00, 0x84, 0x00, 0x00, 0x00, 0x03, 0x00, 0x00, 0x00, 0x00, 0x00, 0x00, 0x09, 0x98, 0x00, 0x00, 0x00, 0xbc, 0xfe, 0xff, 0xff, 0x08, 0x00, 0x00, 0x00, 0x48, 0x00, 0x00, 0x00, 0x08, 0x00, 0x00, 0x00, 0x00, 0x00, 0x00, 0x00, 0x00, 0x00, 0x00, 0x00, 0x00, 0x00, 0x00, 0x00, 0x00, 0x00, 0x00, 0x00, 0x00, 0x00, 0x00, 0x00, 0x00, 0x00, 0x00, 0x00, 0x00, 0x00, 0x00, 0x00, 0x00, 0x00, 0x00, 0x00, 0x00, 0x00, 0x00, 0x00, 0x00, 0x00, 0x00, 0x00, 0x00, 0x00, 0x00, 0x00, 0x00, 0x00, 0x00, 0x00, 0x00, 0x00, 0x00, 0x00, 0x00, 0x00, 0x00, 0x00, 0x00, 0x00, 0x00, 0x00, 0x00, 0x00, 0x00, 0x00, 0x08, 0x00, 0x00, 0x00, 0x03, 0x21, 0x98, 0x3b, 0x0b, 0x65, 0x9e, 0x3b, 0xfc, 0xce, 0x70, 0x3b, 0x48, 0x75, 0x9b, 0x3b, 0xa1, 0x50, 0xb2, 0x3b, 0xdc, 0xd5, 0xa9, 0x3b, 0xc7, 0x58, 0x90, 0x3b, 0xa3, 0xab, 0xab, 0x3b, 0x18, 0x00, 0x00, 0x00, 0x73, 0x65, 0x71, 0x75, 0x65, 0x6e, 0x74, 0x69, 0x61, 0x6c, 0x2f, 0x63, 0x6f, 0x6e, 0x76, 0x32, 0x64, 0x2f, 0x43, 0x6f, 0x6e, 0x76, 0x32, 0x44, 0x00, 0x00, 0x00, 0x00, 0x04, 0x00, 0x00, 0x00, 0x08, 0x00, 0x00, 0x00, 0x03, 0x00, 0x00, 0x00, 0x03, 0x00, 0x00, 0x00, 0x01, 0x00, 0x00, 0x00, 0x00, 0x00, 0x0e, 0x00, 0x18, 0x00, 0x14, 0x00, 0x13, 0x00, 0x0c, 0x00, 0x08, 0x00, 0x04, 0x00, 0x0e, 0x00, 0x00, 0x00, 0x18, 0x00, 0x00, 0x00, 0x18, 0x00, 0x00, 0x00, 0x02, 0x00, 0x00, 0x00, 0x00, 0x00, 0x00, 0x02, 0x2c, 0x00, 0x00, 0x00, 0x04, 0x00, 0x04, 0x00, 0x04, 0x00, 0x00, 0x00, 0x18, 0x00, 0x00, 0x00, 0x73, 0x65, 0x71, 0x75, 0x65, 0x6e, 0x74, 0x69, 0x61, 0x6c, 0x2f, 0x66, 0x6c, 0x61, 0x74, 0x74, 0x65, 0x6e, 0x2f, 0x43, 0x6f, 0x6e, 0x73, 0x74, 0x00, 0x00, 0x00, 0x00, 0x01, 0x00, 0x00, 0x00, 0x02, 0x00, 0x00, 0x00, 0x14, 0x00, 0x1c, 0x00, 0x18, 0x00, 0x17, 0x00, 0x10, 0x00, 0x0c, 0x00, 0x08, 0x00, 0x00, 0x00, 0x00, 0x00, 0x04, 0x00, 0x14, 0x00, 0x00, 0x00, 0x18, 0x00, 0x00, 0x00, 0x34, 0x00, 0x00, 0x00, 0x50, 0x00, 0x00, 0x00, 0x01, 0x00, 0x00, 0x00, 0x00, 0x00, 0x00, 0x09, 0x50, 0x00, 0x00, 0x00, 0x04, 0x00, 0x00, 0x00, 0xff, 0xff, 0xff, 0xff, 0x20, 0x00, 0x00, 0x00, 0x20, 0x00, 0x00, 0x00, 0x01, 0x00, 0x00, 0x00, 0x0c, 0x00, 0x0c, 0x00, 0x00, 0x00, 0x00, 0x00, 0x08, 0x00, 0x04, 0x00, 0x0c, 0x00, 0x00, 0x00, 0x08, 0x00, 0x00, 0x00, 0x10, 0x00, 0x00, 0x00, 0x01, 0x00, 0x00, 0x00, 0x80, 0xff, 0xff, 0xff, 0xff, 0xff, 0xff, 0xff, 0x01, 0x00, 0x00, 0x00, 0x81, 0x80, 0x80, 0x3b, 0x07, 0x00, 0x00, 0x00, 0x69, 0x6e, 0x70, 0x75, 0x74, 0x5f, 0x31, 0x00, 0x04, 0x00, 0x00, 0x00, 0x01, 0x00, 0x00, 0x00, 0x20, 0x00, 0x00, 0x00, 0x20, 0x00, 0x00, 0x00, 0x01, 0x00, 0x00, 0x00, 0x04, 0x00, 0x00, 0x00, 0x54, 0x00, 0x00, 0x00, 0x34, 0x00, 0x00, 0x00, 0x24, 0x00, 0x00, 0x00, 0x04, 0x00, 0x00, 0x00, 0xc8, 0xff, 0xff, 0xff, 0x09, 0x00, 0x00, 0x00, 0x04, 0x00, 0x00, 0x00, 0x00, 0x00, 0x00, 0x09, 0x0c, 0x00, 0x0c, 0x00, 0x0b, 0x00, 0x00, 0x00, 0x00, 0x00, 0x04, 0x00, 0x0c, 0x00, 0x00, 0x00, 0x16, 0x00, 0x00, 0x00, 0x00, 0x00, 0x00, 0x16, 0xf0, 0xff, 0xff, 0xff, 0x11, 0x00, 0x00, 0x00, 0x02, 0x00, 0x00, 0x00, 0x00, 0x00, 0x00, 0x11, 0x0c, 0x00, 0x10, 0x00, 0x0f, 0x00, 0x00, 0x00, 0x08, 0x00, 0x04, 0x00, 0x0c, 0x00, 0x00, 0x00, 0x03, 0x00, 0x00, 0x00, 0x03, 0x00, 0x00, 0x00, 0x00, 0x00, 0x00, 0x03};
const int model_data_len = 10848;