const unsigned char model_data[] __attribute__((aligned(8))) = {0x1c, 0x00, 0x00, 0x00, 0x54, 0x46, 0x4c, 0x33, 0x14, 0x00, 0x20, 0x00, 0x1c, 0x00, 0x18, 0x00, 0x14, 0x00, 0x10, 0x00, 0x0c, 0x00, 0x00, 0x00, 0x08, 0x00, 0x04, 0x00, 0x14, 0x00, 0x00, 0x00, 0x1c, 0x00, 0x00, 0x00, 0x1c, 0x00, 0x00, 0x00, 0x4c, 0x00, 0x00, 0x00, 0xdc, 0x0a, 0x00, 0x00, 0xec, 0x0a, 0x00, 0x00, 0xf4, 0x1a, 0x00, 0x00, 0x03, 0x00, 0x00, 0x00, 0x00, 0x00, 0x00, 0x00, 0x01, 0x00, 0x00, 0x00, 0x0c, 0x00, 0x00, 0x00, 0x08, 0x00, 0x0c, 0x00, 0x08, 0x00, 0x04, 0x00, 0x08, 0x00, 0x00, 0x00, 0x0f, 0x00, 0x00, 0x00, 0x04, 0x00, 0x00, 0x00, 0x13, 0x00, 0x00, 0x00, 0x6d, 0x69, 0x6e, 0x5f, 0x72, 0x75, 0x6e, 0x74, 0x69, 0x6d, 0x65, 0x5f, 0x76, 0x65, 0x72, 0x73, 0x69, 0x6f, 0x6e, 0x00, 0x10, 0x00, 0x00, 0x00, 0x8c, 0x0a, 0x00, 0x00, 0x84, 0x0a, 0x00, 0x00, 0x6c, 0x0a, 0x00, 0x00, 0x0c, 0x0a, 0x00, 0x00, 0xdc, 0x09, 0x00, 0x00, 0xd4, 0x09, 0x00, 0x00, 0xcc, 0x09, 0x00, 0x00, 0x3c, 0x05, 0x00, 0x00, 0xec, 0x04, 0x00, 0x00, 0xe4, 0x04, 0x00, 0x00, 0xdc, 0x04, 0x00, 0x00, 0xd4, 0x04, 0x00, 0x00, 0x44, 0x00, 0x00, 0x00, 0x2c, 0x00, 0x00, 0x00, 0x24, 0x00, 0x00, 0x00, 0x04, 0x00, 0x00, 0x00, 0xd2, 0xf5, 0xff, 0xff, 0x04, 0x00, 0x00, 0x00, 0x10, 0x00, 0x00, 0x00, 0x31, 0x2e, 0x31, 0x34, 0x2e, 0x30, 0x00, 0x00, 0x00, 0x00, 0x00, 0x00, 0x00, 0x00, 0x00, 0x00, 0x98, 0xe6, 0xff, 0xff, 0xf2, 0xf5, 0xff, 0xff, 0x04, 0x00, 0x00, 0x00, 0x08, 0x00, 0x00, 0x00, 0xf7, 0xfd, 0xff, 0xff, 0x08, 0x02, 0x00, 0x00, 0x06, 0xf6, 0xff, 0xff, 0x04, 0x00, 0x00, 0x00, 0x80, 0x04, 0x00, 0x00, 0x1c, 0xe7, 0xf3, 0x29, 0x1e, 0x1f, 0x1f, 0x53, 0x1a, 0x20, 0x19, 0x10, 0x18, 0x21, 0x19, 0x15, 0x46, 0x14, 0xfc, 0x3a, 0x51, 0x45, 0x5d, 0x35, 0x52, 0x5e, 0x61, 0x44, 0x35, 0x48, 0x4a, 0x44, 0x16, 0x4c, 0x25, 0x0a, 0x0c, 0xfb, 0x09, 0x07, 0x21, 0x09, 0x22, 0x03, 0x0e, 0x00, 0xf9, 0x10, 0x0e, 0x1e, 0x26, 0xf8, 0x01, 0xf9, 0xf6, 0xfa, 0xfe, 0xef, 0x06, 0xfd, 0xf7, 0xfe, 0xf3, 0xed, 0xe6, 0x46, 0x38, 0xf3, 0xf0, 0xf2, 0xf9, 0xfc, 0xfd, 0xf1, 0xf7, 0xfa, 0xf2, 0xea, 0xfb, 0xf3, 0xfe, 0xa0, 0xbf, 0x0a, 0x1b, 0x00, 0x0a, 0xee, 0xf5, 0xfa, 0x04, 0xfe, 0xff, 0xff, 0xf0, 0xeb, 0x08, 0xec, 0xf6, 0x0d, 0x08, 0x0a, 0x08, 0x4f, 0x12, 0x02, 0x04, 0xf8, 0xfd, 0xfe, 0xfc, 0xf4, 0x3a, 0xf9, 0xff, 0x42, 0x3c, 0x32, 0x33, 0x22, 0x4d, 0x49, 0x45, 0x30, 0x2d, 0x3b, 0x21, 0x42, 0xe5, 0xf0, 0x0f, 0xe6, 0xe2, 0xe8, 0xf1, 0xe6, 0xe9, 0xf0, 0xf7, 0xe1, 0xe6, 0xe8, 0xef, 0x09, 0xf1, 0x26, 0x0a, 0xf3, 0xeb, 0xe9, 0xf0, 0xfd, 0xed, 0xf8, 0xfe, 0xfb, 0xfd, 0xfe, 0xf1, 0xf1, 0xf1, 0x1e, 0x14, 0xf3, 0xf0, 0xe8, 0xea, 0xfe, 0xfa, 0xee, 0xe2, 0xf0, 0xe3, 0xf8, 0xfb, 0x0b, 0xe7, 0xce, 0xb5, 0xfb, 0xfa, 0xf7, 0xf7, 0xe1, 0xe5, 0xe6, 0xe8, 0xe2, 0xe9, 0xe7, 0xe2, 0xd8, 0xef, 0x03, 0x00, 0xf1, 0xf4, 0xdd, 0xe7, 0x0b, 0xeb, 0xe2, 0xea, 0xe8, 0xe9, 0xdd, 0xe3, 0xe6, 0x0b, 0x06, 0x0b, 0xe4, 0xf7, 0xfc, 0xfe, 0xfb, 0x2b, 0x24, 0x12, 0xf0, 0xe7, 0x00, 0x0b, 0x3f, 0xe4, 0x01, 0x11, 0xf9, 0xf0, 0x02, 0xeb, 0xe0, 0xec, 0x09, 0xef, 0xeb, 0x0b, 0xf4, 0xd8, 0xf8, 0x15, 0x26, 0x1e, 0x08, 0x23, 0x1a, 0x0f, 0x09, 0x13, 0x2f, 0x0b, 0x07, 0x0f, 0x1d, 0x10, 0x0a, 0xf9, 0x1a, 0x25, 0xf0, 0xf3, 0xf7, 0xf7, 0x0b, 0x07, 0x09, 0xf9, 0x09, 0xff, 0x00, 0xfb, 0x0e, 0xbd, 0xcc, 0xd4, 0xd2, 0xc7, 0xce, 0xda, 0xf1, 0xc6, 0xcb, 0xd6, 0xca, 0xc1, 0xe1, 0xdd, 0xd9, 0xc3, 0xfb, 0x01, 0xc9, 0xb7, 0x81, 0xa0, 0x8f, 0xb9, 0xc2, 0x9b, 0xb3, 0xb2, 0xc8, 0xb2, 0xc9, 0xe4, 0x07, 0x03, 0xd1, 0xd4, 0xdc, 0xc4, 0xe7, 0xc2, 0xf3, 0xd1, 0xda, 0xc4, 0xd5, 0xe9, 0x0b, 0xf7, 0x03, 0x1d, 0xd6, 0xf3, 0xe8, 0xd2, 0xdf, 0xcf, 0xea, 0xec, 0xe8, 0xee, 0xe9, 0xd6, 0xfa, 0x1e, 0x2c, 0xfe, 0x05, 0x1f, 0x0f, 0x19, 0xf7, 0x0a, 0x1f, 0x14, 0x0b, 0x11, 0x01, 0x12, 0x08, 0x01, 0x2a, 0x2f, 0xfa, 0xf9, 0xfd, 0x00, 0xf3, 0xf3, 0xe6, 0xff, 0xf2, 0xf5, 0xf5, 0xf1, 0x07, 0xcd, 0xa4, 0xe4, 0xcb, 0xac, 0xb3, 0xc7, 0xe2, 0xbe, 0xcd, 0xbe, 0xc3, 0xc7, 0xce, 0xda, 0xc1, 0xce, 0xf6, 0xf8, 0xd2, 0xd2, 0xcf, 0xc9, 0xda, 0xbd, 0xe7, 0xce, 0xd0, 0xdb, 0xda, 0xe5, 0xd0, 0x0f, 0x02, 0x0b, 0x15, 0x19, 0x08, 0x1c, 0x1e, 0x21, 0x13, 0x19, 0x1a, 0x0a, 0x29, 0x07, 0x12, 0x07, 0x04, 0x10, 0x06, 0x1b, 0x0f, 0x08, 0xfd, 0xfa, 0x06, 0x11, 0x18, 0x13, 0x02, 0xfe, 0xfa, 0x12, 0xe8, 0xe7, 0x1a, 0x0f, 0x1a, 0x00, 0x16, 0x1d, 0x10, 0x0d, 0x11, 0x07, 0x0b, 0x01, 0x1d, 0xef, 0x32, 0x0c, 0xe3, 0xf0, 0xf7, 0xfb, 0x08, 0xf1, 0x04, 0xe6, 0xfc, 0xf5, 0xf7, 0x00, 0xf4, 0xec, 0xdb, 0xda, 0xf8, 0x07, 0x04, 0xff, 0xfc, 0xe6, 0xf0, 0xf0, 0xf8, 0x05, 0xfc, 0xea, 0xd7, 0xff, 0xfa, 0xf8, 0xfb, 0x0a, 0x00, 0xff, 0x2f, 0xee, 0x01, 0xf4, 0xf3, 0x08, 0xfa, 0xf9, 0xfa, 0x42, 0x18, 0x01, 0x4a, 0x4b, 0x46, 0x56, 0x41, 0x49, 0x4b, 0x41, 0x42, 0x34, 0x37, 0x41, 0x2d, 0x04, 0x08, 0x0d, 0x15, 0x13, 0x27, 0x19, 0x05, 0x1c, 0x03, 0x10, 0x1e, 0x12, 0x0e, 0x12, 0x08, 0x10, 0x19, 0x02, 0x19, 0x05, 0x16, 0x01, 0xfd, 0x10, 0x0b, 0x2e, 0x06, 0x0e, 0x14, 0x0d, 0x0c, 0x0d, 0xe7, 0xd4, 0xea, 0xfa, 0xf3, 0xf5, 0x01, 0xfb, 0xff, 0x01, 0xfc, 0xeb, 0xf1, 0x01, 0x01, 0x07, 0xb0, 0x95, 0x12, 0x18, 0x03, 0x11, 0xfa, 0xf5, 0x03, 0x0a, 0x08, 0xff, 0xff, 0xf8, 0xe1, 0xe6, 0x1a, 0x04, 0xe1, 0xe9, 0xe0, 0xe0, 0xa8, 0xec, 0xeb, 0xe1, 0xe2, 0xe8, 0xf3, 0xf6, 0xeb, 0xc1, 0xf7, 0x01, 0xbf, 0xa6, 0xba, 0xb7, 0xd7, 0x93, 0xb4, 0xa4, 0xb4, 0xc0, 0xc3, 0xc7, 0xbb, 0xf0, 0xaf, 0xd5, 0x00, 0xf2, 0xf9, 0xfc, 0x06, 0xf6, 0xea, 0xe9, 0xf4, 0xfe, 0x00, 0xfc, 0xe9, 0xf9, 0xd5, 0xd3, 0xfa, 0xfb, 0xfa, 0x17, 0xfd, 0x03, 0xf9, 0xfa, 0x10, 0x0e, 0x0a, 0x0a, 0x07, 0x0e, 0xbd, 0xb7, 0x01, 0x11, 0x19, 0x0d, 0x17, 0x00, 0x0c, 0x14, 0xfa, 0x13, 0x10, 0x10, 0x0c, 0xed, 0x6c, 0x45, 0xf5, 0xe8, 0xf6, 0x07, 0x14, 0x0a, 0x03, 0xeb, 0x02, 0xf5, 0xf5, 0x04, 0x02, 0xfd, 0x12, 0xfd, 0xeb, 0xed, 0xf4, 0xfa, 0xc6, 0x0a, 0xf9, 0xfb, 0xf2, 0xf0, 0xfa, 0x00, 0xfa, 0xdd, 0x0d, 0xfc, 0xd6, 0xc9, 0xc0, 0xd2, 0xd1, 0xc8, 0xb5, 0xc8, 0xe5, 0xe5, 0xcd, 0xe8, 0xbe, 0x1d, 0x0f, 0x02, 0x08, 0x14, 0x2b, 0xfe, 0x0f, 0x0c, 0x1a, 0x0e, 0x09, 0x17, 0x12, 0x1b, 0x0b, 0xfa, 0xde, 0xf6, 0x0c, 0x00, 0x14, 0x0e, 0x01, 0x08, 0xff, 0x0f, 0x07, 0x06, 0x0b, 0xf8, 0x0b, 0x12, 0xe6, 0xe0, 0x12, 0x18, 0x0c, 0x0a, 0xfc, 0x01, 0x17, 0x04, 0x21, 0x13, 0x1d, 0x00, 0xfb, 0x18, 0x3c, 0x51, 0x15, 0x11, 0x10, 0x1b, 0x0e, 0x20, 0x20, 0x21, 0x0c, 0x10, 0x11, 0x1a, 0x28, 0x1a, 0x0e, 0xf9, 0x08, 0x27, 0x18, 0x17, 0xf8, 0x18, 0x1a, 0x10, 0x24, 0x07, 0x18, 0x21, 0x19, 0xf9, 0xf6, 0xfa, 0x1c, 0x16, 0x08, 0x05, 0xfc, 0xd1, 0xdc, 0xff, 0xf7, 0x16, 0x02, 0x09, 0xb4, 0x15, 0x02, 0xe6, 0x04, 0x01, 0x0c, 0x16, 0x12, 0x21, 0x0e, 0x1b, 0x11, 0x0f, 0x06, 0x27, 0x12, 0xea, 0xe2, 0xde, 0xe5, 0xeb, 0xe5, 0xd8, 0xf3, 0xee, 0xe3, 0xe9, 0xef, 0xf4, 0xfd, 0x01, 0xf8, 0x06, 0xe3, 0xe3, 0x05, 0x09, 0x0a, 0x10, 0x05, 0xfd, 0x09, 0x07, 0x0b, 0x0e, 0xf9, 0xf4, 0xf4, 0x2f, 0x36, 0x2e, 0x1f, 0x45, 0x43, 0x33, 0x1c, 0x35, 0x28, 0x34, 0x2f, 0x2a, 0x30, 0x1b, 0x2d, 0x4e, 0x05, 0xfb, 0x3c, 0x4b, 0x75, 0x56, 0x60, 0x4a, 0x59, 0x54, 0x3a, 0x46, 0x3d, 0x36, 0x30, 0x29, 0xe9, 0xf6, 0x31, 0x2a, 0x21, 0x3b, 0x28, 0x2d, 0x13, 0x24, 0x1a, 0x23, 0x33, 0x14, 0xf1, 0x1d, 0xfe, 0xda, 0x11, 0x13, 0x1e, 0x2c, 0x23, 0x2c, 0x27, 0x23, 0x0b, 0x0e, 0x26, 0x1f, 0xfe, 0xf1, 0xd5, 0xf5, 0xeb, 0xf3, 0xfc, 0xe5, 0xff, 0xea, 0xf4, 0xee, 0xe8, 0xee, 0xfa, 0xf2, 0xed, 0x05, 0xd4, 0xdf, 0x19, 0x18, 0x0e, 0x18, 0xf4, 0x00, 0x02, 0x0c, 0x14, 0x14, 0xfd, 0x03, 0xfe, 0x4c, 0x57, 0x35, 0x44, 0x56, 0x38, 0x30, 0x1d, 0x4c, 0x34, 0x45, 0x3c, 0x23, 0x3a, 0x2d, 0x40, 0x2a, 0xfd, 0xf9, 0x24, 0x31, 0x38, 0x42, 0x21, 0x30, 0x25, 0x38, 0x33, 0x28, 0x26, 0x35, 0x32, 0xe9, 0x02, 0xfb, 0xee, 0xf3, 0xf1, 0xf3, 0xda, 0xe3, 0xe5, 0xfb, 0xe9, 0xe9, 0xe9, 0xfd, 0xe1, 0xe5, 0x03, 0xf5, 0xed, 0xe9, 0xeb, 0xe6, 0x02, 0xfb, 0x06, 0xe4, 0xf3, 0xeb, 0xf9, 0x05, 0x01, 0xf1, 0x13, 0x0b, 0xe5, 0xfb, 0xec, 0xea, 0x00, 0xfa, 0xea, 0xdd, 0xf9, 0xf6, 0xf7, 0xf6, 0xf9, 0x09, 0xd0, 0xee, 0x0e, 0xfe, 0xff, 0x09, 0x0d, 0x06, 0x14, 0x11, 0xfe, 0x0f, 0x18, 0x06, 0x08, 0x18, 0x29, 0x2c, 0x00, 0x11, 0xf9, 0x02, 0x06, 0x05, 0x24, 0x0f, 0xfb, 0x0d, 0x07, 0x0a, 0x1a, 0xff, 0x0e, 0x0a, 0x0c, 0x0b, 0x0e, 0x02, 0xce, 0x0b, 0x0e, 0x05, 0x00, 0xf7, 0x02, 0x02, 0x21, 0xc9, 0xdf, 0x07, 0xae, 0xc1, 0xab, 0xb8, 0xbe, 0xc8, 0xa5, 0xbe, 0xc5, 0xbb, 0xc7, 0xb4, 0xdd, 0xe8, 0x04, 0xff, 0xef, 0xe3, 0xf1, 0xf8, 0xf4, 0xe8, 0xf1, 0xf8, 0xee, 0xe7, 0xea, 0xe8, 0x0c, 0xeb, 0xec, 0x10, 0xe4, 0xe6, 0xf7, 0xf5, 0xf4, 0xe8, 0xed, 0xee, 0xfa, 0x03, 0xf3, 0xea, 0xf7, 0x02, 0x16, 0x3b, 0x0a, 0xf7, 0xfc, 0x20, 0x12, 0x0b, 0x10, 0xfc, 0xff, 0x07, 0xfc, 0xfb, 0xff, 0xfc, 0x59, 0x73, 0xfc, 0x02, 0xfa, 0xf1, 0x04, 0xf6, 0x04, 0xfa, 0x03, 0xfd, 0xf5, 0x08, 0x03, 0x3c, 0xeb, 0xff, 0xff, 0x40, 0xeb, 0xff, 0xff, 0x44, 0xeb, 0xff, 0xff, 0x9e, 0xfa, 0xff, 0xff, 0x04, 0x00, 0x00, 0x00, 0x40, 0x00, 0x00, 0x00, 0xf0, 0x01, 0x00, 0x00, 0xe0, 0xfe, 0xff, 0xff, 0xb8, 0xf8, 0xff, 0xff, 0x0f, 0x04, 0x00, 0x00, 0xfc, 0x02, 0x00, 0x00, 0x0d, 0x03, 0x00, 0x00, 0x01, 0x02, 0x00, 0x00, 0x2e, 0x06, 0x00, 0x00, 0x8c, 0x02, 0x00, 0x00, 0x94, 0x01, 0x00, 0x00, 0x6c, 0x01, 0x00, 0x00, 0x56, 0x03, 0x00, 0x00, 0xbc, 0x03, 0x00, 0x00, 0x2e, 0x02, 0x00, 0x00, 0x11, 0x04, 0x00, 0x00, 0x46, 0x01, 0x00, 0x00, 0xea, 0xfa, 0xff, 0xff, 0x04, 0x00, 0x00, 0x00, 0x80, 0x04, 0x00, 0x00, 0xfe, 0x04, 0x26, 0x01, 0x18, 0x07, 0x8f, 0x1e, 0xa6, 0x98, 0x06, 0x16, 0x09, 0x0a, 0xae, 0x04, 0xe5, 0xfb, 0xf4, 0xfb, 0xf3, 0xfe, 0xfd, 0xf9, 0xff, 0xfc, 0x15, 0xe5, 0x19, 0xf3, 0x81, 0x08, 0xab, 0x9c, 0x09, 0x0c, 0xf2, 0xf4, 0xb5, 0xfb, 0xef, 0xf5, 0x08, 0x07, 0x02, 0xfa, 0x0b, 0xf8, 0x01, 0x01, 0x2d, 0x14, 0x0b, 0x0a, 0x86, 0x1a, 0xb1, 0xac, 0xf6, 0x08, 0xfe, 0xfe, 0xbd, 0x03, 0xff, 0xf7, 0xfe, 0xeb, 0x00, 0x03, 0xfc, 0x04, 0x05, 0x04, 0x1e, 0xde, 0x0b, 0x01, 0xf3, 0x22, 0x1b, 0x15, 0xd9, 0x06, 0xcb, 0xfa, 0x32, 0xe9, 0x74, 0x7f, 0x29, 0xe7, 0x3f, 0xe4, 0x48, 0x55, 0xff, 0x01, 0x29, 0xfc, 0x2a, 0x10, 0xd7, 0xfe, 0x04, 0xe1, 0x0b, 0xfd, 0xe3, 0xec, 0xfb, 0xf8, 0x26, 0x2c, 0x1d, 0xf0, 0xf1, 0xf9, 0x41, 0x0d, 0xfe, 0xfd, 0x31, 0x08, 0x08, 0x03, 0xb7, 0x1c, 0xa9, 0xa2, 0xdd, 0xfe, 0xe2, 0xf5, 0xbe, 0xe1, 0x15, 0xfe, 0xe1, 0x01, 0x06, 0x01, 0x0c, 0x0b, 0xf9, 0xfc, 0xea, 0x0b, 0x0c, 0xff, 0x28, 0x18, 0x35, 0x32, 0xb9, 0x00, 0xd3, 0xe9, 0x00, 0xa2, 0x6d, 0x6c, 0xd4, 0xee, 0xe3, 0xf4, 0x76, 0xf4, 0xf8, 0x01, 0x08, 0xf0, 0x04, 0xf9, 0x2b, 0xff, 0x52, 0x26, 0x01, 0xef, 0xf2, 0xe0, 0xfb, 0xe9, 0x4c, 0x53, 0xb6, 0xe7, 0xe3, 0xd8, 0x62, 0xde, 0x00, 0xff, 0x18, 0xf5, 0x1d, 0xf9, 0x1c, 0x19, 0x00, 0x11, 0x00, 0xf6, 0xdf, 0xf1, 0xe7, 0xfb, 0x71, 0x7f, 0xe0, 0xe9, 0x3b, 0xd5, 0x77, 0x27, 0xf9, 0x01, 0x46, 0x14, 0x1b, 0xf9, 0x81, 0x0a, 0x99, 0x8c, 0xfb, 0xfc, 0x01, 0xfd, 0xa6, 0xf8, 0xeb, 0xce, 0xf5, 0xfc, 0xfd, 0xf8, 0xe5, 0x03, 0xfc, 0x03, 0x10, 0x13, 0x27, 0x11, 0x85, 0x17, 0xa7, 0x9a, 0xf7, 0xf5, 0x06, 0x02, 0xac, 0x05, 0xf9, 0xe7, 0xfa, 0xf0, 0xf8, 0x02, 0xfb, 0x04, 0x04, 0xfd, 0x2d, 0xfd, 0x1c, 0x01, 0x90, 0x1f, 0xad, 0x90, 0xf8, 0xda, 0x08, 0xf4, 0xa8, 0x01, 0xc9, 0xdf, 0xfe, 0x0e, 0x09, 0x01, 0xd8, 0xf3, 0xfe, 0x00, 0x0e, 0xfb, 0x1c, 0xfb, 0x91, 0x1e, 0xae, 0x9d, 0x01, 0xf4, 0xf9, 0xfa, 0xb6, 0xfc, 0xf1, 0xde, 0xfd, 0x00, 0xfe, 0x02, 0xef, 0x04, 0x02, 0xfc, 0x27, 0x12, 0x07, 0x06, 0x81, 0x0a, 0xb9, 0xa4, 0x07, 0xfb, 0x01, 0x08, 0xb6, 0xf9, 0xf6, 0xf1, 0xfa, 0xf2, 0xfb, 0x0e, 0xfb, 0xff, 0xff, 0x03, 0x24, 0xfc, 0x1b, 0xf9, 0x97, 0x0a, 0xa4, 0x99, 0x05, 0x16, 0x04, 0x0f, 0xbe, 0xfd, 0xdf, 0xda, 0x01, 0xfc, 0x09, 0x05, 0xdc, 0xf4, 0x01, 0x00, 0x26, 0x00, 0x1c, 0xfe, 0x8f, 0x0f, 0xae, 0xa5, 0xf4, 0x01, 0x07, 0x11, 0xca, 0x03, 0x00, 0x00, 0xf9, 0xfd, 0x00, 0xef, 0x00, 0xf8, 0xff, 0xfd, 0x1f, 0x16, 0xfc, 0x03, 0x81, 0xff, 0xb2, 0x9e, 0xf5, 0xe7, 0xf8, 0x07, 0xc4, 0x04, 0x10, 0x07, 0xf1, 0xf6, 0x01, 0x09, 0x03, 0xf3, 0x01, 0x01, 0x33, 0x03, 0x0b, 0x02, 0x92, 0x1c, 0xb7, 0xa1, 0xf4, 0x08, 0x03, 0xef, 0xad, 0x06, 0xe2, 0xe3, 0x09, 0xfb, 0x00, 0xfb, 0xee, 0x06, 0xfd, 0x02, 0x2b, 0x1f, 0x1e, 0xfb, 0x8c, 0x16, 0xa6, 0xa7, 0x01, 0xf9, 0x0b, 0x00, 0xc3, 0xf3, 0xff, 0xfe, 0xf5, 0x10, 0x00, 0xf9, 0x05, 0xfc, 0x01, 0x02, 0x15, 0xf3, 0x0e, 0x0c, 0x81, 0xfc, 0xb1, 0x9b, 0xfd, 0xfe, 0x08, 0xfa, 0xb3, 0xf9, 0xf6, 0x0d, 0xff, 0xe9, 0x02, 0xfa, 0x0d, 0xfa, 0x03, 0xfd, 0x36, 0x06, 0x0d, 0xf3, 0x88, 0x1b, 0xa4, 0xa1, 0x06, 0x0d, 0xf3, 0xfa, 0xb6, 0x05, 0xe4, 0xf9, 0xf1, 0x00, 0x00, 0x02, 0xec, 0xff, 0x89, 0x81, 0x15, 0x25, 0x14, 0x02, 0xa8, 0xff, 0xc8, 0xc6, 0xf3, 0x0b, 0xfb, 0x0b, 0xd5, 0x00, 0xfc, 0xe7, 0xf6, 0x02, 0xff, 0x14, 0xf8, 0xfe, 0xfb, 0x8b, 0x02, 0xf6, 0x08, 0x0d, 0xa4, 0xfd, 0xcb, 0xc4, 0xf5, 0xf5, 0x08, 0xf9, 0xcc, 0x02, 0xe1, 0xea, 0x06, 0x02, 0x09, 0x10, 0xec, 0xf5, 0x95, 0xb1, 0x03, 0xff, 0x15, 0xf9, 0xa5, 0x18, 0xbc, 0xb6, 0xf3, 0x12, 0xf8, 0xf9, 0xcb, 0x0a, 0xcc, 0xd0, 0x0c, 0x0c, 0xf6, 0x07, 0xc5, 0x08, 0xfe, 0xfe, 0x14, 0x20, 0x24, 0x0c, 0x81, 0x10, 0xab, 0xa9, 0xf6, 0x01, 0xf9, 0x05, 0xb2, 0xfe, 0xf9, 0xee, 0xfc, 0xfd, 0x05, 0xfa, 0x05, 0xf5, 0x02, 0x03, 0x2c, 0x07, 0x0c, 0x01, 0x82, 0x05, 0xaf, 0xae, 0x03, 0xf2, 0x01, 0x04, 0xb2, 0x04, 0x01, 0x02, 0x05, 0xf7, 0x05, 0xf4, 0x06, 0xf3, 0x00, 0xff, 0x2f, 0x04, 0x20, 0x04, 0x9c, 0x17, 0xc9, 0xb2, 0x02, 0xee, 0x0a, 0xf8, 0xd6, 0xf9, 0x0f, 0x1a, 0x0e, 0xfc, 0x06, 0x09, 0x1a, 0xf7, 0x04, 0x00, 0x28, 0xfb, 0x22, 0xfb, 0x8a, 0x1e, 0xa1, 0x99, 0xfc, 0x02, 0xfa, 0x09, 0xb9, 0xfb, 0xf1, 0xee, 0x04, 0xee, 0xf8, 0xf6, 0xe7, 0xfd, 0x05, 0x01, 0x08, 0x01, 0x18, 0x07, 0x81, 0x0a, 0xa8, 0xa8, 0x04, 0xef, 0x03, 0x01, 0xc6, 0xf9, 0x08, 0x05, 0xf9, 0x0d, 0x01, 0xfb, 0x16, 0xfd, 0xfa, 0x01, 0x34, 0x1c, 0x1a, 0x06, 0x8b, 0x0a, 0xb6, 0x9e, 0xfc, 0x08, 0xfd, 0x06, 0xc4, 0x09, 0xff, 0x10, 0x02, 0x09, 0xfd, 0x0d, 0xff, 0xfa, 0x02, 0xff, 0x23, 0x06, 0x0e, 0x06, 0x83, 0x0f, 0xa1, 0xa1, 0x04, 0xf6, 0xf3, 0x03, 0xa9, 0xf3, 0xfb, 0xec, 0xfa, 0x14, 0xfa, 0x0c, 0xef, 0x05, 0xfe, 0x00, 0x1b, 0x0d, 0x0a, 0xfb, 0x81, 0x04, 0xbf, 0xac, 0xfc, 0xf5, 0xff, 0xf8, 0xbd, 0x06, 0xfa, 0xff, 0xf8, 0x06, 0xf5, 0xfc, 0x00, 0xfd, 0x00, 0x01, 0x29, 0x04, 0x17, 0x0a, 0x96, 0x14, 0xc1, 0xb2, 0xff, 0x0e, 0x08, 0xf4, 0xb3, 0xfa, 0xfa, 0xeb, 0xfd, 0x01, 0x01, 0xf9, 0xfc, 0x08, 0x04, 0xfc, 0x22, 0xf2, 0x1d, 0x14, 0x81, 0x1f, 0x9a, 0x9f, 0xfa, 0xe3, 0xfc, 0xf9, 0xb9, 0x09, 0xf0, 0xfb, 0xf5, 0x08, 0xfe, 0x13, 0xf5, 0xfb, 0xff, 0x02, 0x18, 0x06, 0x11, 0x0b, 0x82, 0x1b, 0xb9, 0xab, 0xf2, 0x0b, 0x07, 0x00, 0xc3, 0x08, 0x00, 0xfc, 0xf7, 0xf4, 0xfb, 0xfc, 0x0b, 0xfa, 0x03, 0x01, 0x38, 0xfe, 0x1e, 0xec, 0x8b, 0x1c, 0xb6, 0x9e, 0xfc, 0x0e, 0x00, 0xf9, 0xac, 0xfe, 0xf0, 0xe3, 0xef, 0x00, 0x06, 0x01, 0xe6, 0x02, 0x09, 0xff, 0x3a, 0xf4, 0x18, 0xf4, 0x81, 0x24, 0xaf, 0x88, 0xf1, 0xed, 0xf2, 0x11, 0xcc, 0x03, 0xdf, 0xdd, 0xf1, 0xee, 0xf1, 0x11, 0xf0, 0x06, 0xfb, 0x00, 0x29, 0xf9, 0x0f, 0x06, 0x8e, 0x08, 0xae, 0x8c, 0xf7, 0x13, 0x00, 0xfe, 0xb5, 0x0e, 0xf7, 0xde, 0xf1, 0x16, 0x0a, 0xee, 0xec, 0x08, 0x03, 0x01, 0x3b, 0x12, 0x11, 0x11, 0x97, 0x19, 0xa2, 0x98, 0xed, 0x01, 0xfb, 0x11, 0xc0, 0x03, 0xe2, 0xd4, 0xf6, 0x0f, 0xf5, 0xfb, 0xcf, 0x02, 0x02, 0xfd, 0x2b, 0xfd, 0x22, 0xfc, 0x86, 0x25, 0xb4, 0xae, 0xf0, 0xf8, 0x0b, 0xfc, 0xc4, 0x06, 0xfd, 0xe8, 0x03, 0x09, 0x04, 0x10, 0xf0, 0x04, 0x03, 0x03, 0x31, 0x10, 0x0a, 0x08, 0x81, 0x04, 0xb6, 0xa4, 0x01, 0x18, 0xec, 0xff, 0xc8, 0xf3, 0x05, 0x11, 0xf2, 0x16, 0xf3, 0xf7, 0x0f, 0xf2, 0x01, 0xfc, 0x21, 0xe7, 0x1f, 0x0d, 0x87, 0x12, 0xa8, 0xa8, 0x03, 0xf6, 0xfe, 0xf1, 0xb6, 0x04, 0xeb, 0xf5, 0xff, 0x04, 0x09, 0x07, 0xe5, 0x06, 0x06, 0x05, 0x40, 0xf6, 0x2c, 0xf7, 0x91, 0x31, 0xbe, 0xc8, 0xf3, 0x12, 0xfa, 0xf7, 0xe4, 0xf6, 0x0e, 0x0d, 0x17, 0x0f, 0xf1, 0xec, 0x01, 0x00, 0xfc, 0xfc, 0x40, 0x06, 0x20, 0x0d, 0x81, 0x21, 0xd2, 0xbd, 0xfa, 0xda, 0xfd, 0xf6, 0xd6, 0xf9, 0x10, 0xfd, 0x11, 0x05, 0xfa, 0xed, 0x16, 0xf8, 0xfe, 0xff, 0x4b, 0xf4, 0x37, 0x0e, 0x94, 0x1d, 0xcd, 0xc2, 0xf5, 0xf8, 0xf5, 0x02, 0xc5, 0xfc, 0x15, 0xf9, 0x16, 0x11, 0x03, 0x11, 0x13, 0xf6, 0x00, 0xfe, 0x2b, 0x0d, 0x2d, 0x0e, 0x81, 0x17, 0xa7, 0x9c, 0x0e, 0xf6, 0x08, 0x05, 0xba, 0x0b, 0xf9, 0xef, 0x0c, 0xf5, 0x08, 0x0b, 0xfc, 0x00, 0xfd, 0x03, 0x30, 0x17, 0x1d, 0x02, 0x8f, 0x1a, 0xc0, 0xbd, 0x03, 0x06, 0xf6, 0xeb, 0xdd, 0xf8, 0x06, 0x16, 0x0c, 0xfd, 0x0e, 0xf6, 0xfa, 0x01, 0x05, 0x02, 0x35, 0x11, 0x26, 0x01, 0xad, 0x1a, 0xee, 0xf8, 0x01, 0xe5, 0x18, 0xe7, 0x01, 0xff, 0x28, 0x24, 0xfd, 0xfc, 0xf9, 0xf5, 0x3c, 0x08, 0x20, 0xf0, 0xff, 0xff, 0x24, 0xf0, 0xff, 0xff, 0x7e, 0xff, 0xff, 0xff, 0x04, 0x00, 0x00, 0x00, 0x20, 0x00, 0x00, 0x00, 0xed, 0xff, 0xff, 0xff, 0xf2, 0xff, 0xff, 0xff, 0xbe, 0xfd, 0xff, 0xff, 0x42, 0x04, 0x00, 0x00, 0x39, 0xfd, 0xff, 0xff, 0x8f, 0x01, 0x00, 0x00, 0xcc, 0xff, 0xff, 0xff, 0x80, 0xfb, 0xff, 0xff, 0xaa, 0xff, 0xff, 0xff, 0x04, 0x00, 0x00, 0x00, 0x48, 0x00, 0x00, 0x00, 0x1d, 0x51, 0x2e, 0x3c, 0x71, 0x7f, 0x17, 0x6b, 0x43, 0x23, 0x57, 0x22, 0x39, 0x70, 0x7f, 0x4a, 0x5f, 0x63, 0x09, 0x10, 0x96, 0x02, 0x26, 0x81, 0xf9, 0x1a, 0x97, 0xc5, 0x86, 0xba, 0xc4, 0x81, 0xb6, 0xc7, 0x82, 0xb8, 0x05, 0x13, 0x81, 0x07, 0x2a, 0x90, 0xfb, 0x24, 0x90, 0x06, 0xfe, 0x87, 0x06, 0xf8, 0x81, 0x00, 0x13, 0x9f, 0x0f, 0x7a, 0x40, 0xf1, 0x6c, 0x52, 0xfa, 0x7f, 0x31, 0x04, 0x28, 0x9b, 0xfe, 0x2d, 0x90, 0x06, 0x20, 0x81, 0x00, 0x00, 0x06, 0x00, 0x08, 0x00, 0x04, 0x00, 0x06, 0x00, 0x00, 0x00, 0x04, 0x00, 0x00, 0x00, 0x08, 0x00, 0x00, 0x00, 0xff, 0xff, 0xff, 0xff, 0x40, 0x02, 0x00, 0x00, 0xc4, 0xf0, 0xff, 0xff, 0xc8, 0xf0, 0xff, 0xff, 0x0f, 0x00, 0x00, 0x00, 0x4d, 0x4c, 0x49, 0x52, 0x20, 0x43, 0x6f, 0x6e, 0x76, 0x65, 0x72, 0x74, 0x65, 0x64, 0x2e, 0x00, 0x01, 0x00, 0x00, 0x00, 0x14, 0x00, 0x00, 0x00, 0x00, 0x00, 0x0e, 0x00, 0x18, 0x00, 0x14, 0x00, 0x10, 0x00, 0x0c, 0x00, 0x08, 0x00, 0x04, 0x00, 0x0e, 0x00, 0x00, 0x00, 0x14, 0x00, 0x00, 0x00, 0x1c, 0x00, 0x00, 0x00, 0xd4, 0x01, 0x00, 0x00, 0xd8, 0x01, 0x00, 0x00, 0xdc, 0x01, 0x00, 0x00, 0x04, 0x00, 0x00, 0x00, 0x6d, 0x61, 0x69, 0x6e, 0x00, 0x00, 0x00, 0x00, 0x06, 0x00, 0x00, 0x00, 0x6c, 0x01, 0x00, 0x00, 0x08, 0x01, 0x00, 0x00, 0xb4, 0x00, 0x00, 0x00, 0x70, 0x00, 0x00, 0x00, 0x48, 0x00, 0x00, 0x00, 0x04, 0x00, 0x00, 0x00, 0x1a, 0xff, 0xff, 0xff, 0x14, 0x00, 0x00, 0x00, 0x00, 0x00, 0x00, 0x08, 0x10, 0x00, 0x00, 0x00, 0x14, 0x00, 0x00, 0x00, 0x03, 0x00, 0x00, 0x00, 0x50, 0xf1, 0xff, 0xff, 0x01, 0x00, 0x00, 0x00, 0x0d, 0x00, 0x00, 0x00, 0x03, 0x00, 0x00, 0x00, 0x0a, 0x00, 0x00, 0x00, 0x0b, 0x00, 0x00, 0x00, 0x0c, 0x00, 0x00, 0x00, 0x00, 0x00, 0x0a, 0x00, 0x10, 0x00, 0x0c, 0x00, 0x08, 0x00, 0x04, 0x00, 0x0a, 0x00, 0x00, 0x00, 0x0c, 0x00, 0x00, 0x00, 0x10, 0x00, 0x00, 0x00, 0x02, 0x00, 0x00, 0x00, 0x01, 0x00, 0x00, 0x00, 0x0a, 0x00, 0x00, 0x00, 0x02, 0x00, 0x00, 0x00, 0x09, 0x00, 0x00, 0x00, 0x01, 0x00, 0x00, 0x00, 0x7e, 0xff, 0xff, 0xff, 0x14, 0x00, 0x00, 0x00, 0x00, 0x00, 0x00, 0x05, 0x24, 0x00, 0x00, 0x00, 0x28, 0x00, 0x00, 0x00, 0x01, 0x00, 0x00, 0x00, 0x6e, 0xff, 0xff, 0xff, 0x02, 0x00, 0x00, 0x00, 0x02, 0x00, 0x00, 0x00, 0x02, 0x00, 0x00, 0x00, 0x02, 0x00, 0x00, 0x00, 0x00, 0x00, 0x00, 0x01, 0x01, 0x00, 0x00, 0x00, 0x09, 0x00, 0x00, 0x00, 0x01, 0x00, 0x00, 0x00, 0x08, 0x00, 0x00, 0x00, 0x5e, 0xff, 0xff, 0xff, 0x10, 0x00, 0x00, 0x00, 0x00, 0x00, 0x00, 0x01, 0x1c, 0x00, 0x00, 0x00, 0x20, 0x00, 0x00, 0x00, 0x50, 0xff, 0xff, 0xff, 0x00, 0x00, 0x00, 0x01, 0x01, 0x00, 0x00, 0x00, 0x01, 0x00, 0x00, 0x00, 0x00, 0x00, 0x00, 0x01, 0x01, 0x00, 0x00, 0x00, 0x08, 0x00, 0x00, 0x00, 0x03, 0x00, 0x00, 0x00, 0x05, 0x00, 0x00, 0x00, 0x06, 0x00, 0x00, 0x00, 0x07, 0x00, 0x00, 0x00, 0x00, 0x00, 0x0e, 0x00, 0x1a, 0x00, 0x14, 0x00, 0x10, 0x00, 0x0c, 0x00, 0x0b, 0x00, 0x04, 0x00, 0x0e, 0x00, 0x00, 0x00, 0x24, 0x00, 0x00, 0x00, 0x00, 0x00, 0x00, 0x05, 0x34, 0x00, 0x00, 0x00, 0x38, 0x00, 0x00, 0x00, 0x01, 0x00, 0x00, 0x00, 0x00, 0x00, 0x0e, 0x00, 0x18, 0x00, 0x17, 0x00, 0x10, 0x00, 0x0c, 0x00, 0x08, 0x00, 0x04, 0x00, 0x0e, 0x00, 0x00, 0x00, 0x02, 0x00, 0x00, 0x00, 0x02, 0x00, 0x00, 0x00, 0x02, 0x00, 0x00, 0x00, 0x02, 0x00, 0x00, 0x00, 0x00, 0x00, 0x00, 0x01, 0x01, 0x00, 0x00, 0x00, 0x05, 0x00, 0x00, 0x00, 0x01, 0x00, 0x00, 0x00, 0x04, 0x00, 0x00, 0x00, 0x00, 0x00, 0x0e, 0x00, 0x14, 0x00, 0x00, 0x00, 0x10, 0x00, 0x0c, 0x00, 0x0b, 0x00, 0x04, 0x00, 0x0e, 0x00, 0x00, 0x00, 0x1c, 0x00, 0x00, 0x00, 0x00, 0x00, 0x00, 0x01, 0x28, 0x00, 0x00, 0x00, 0x2c, 0x00, 0x00, 0x00, 0x0c, 0x00, 0x14, 0x00, 0x13, 0x00, 0x0c, 0x00, 0x08, 0x00, 0x07, 0x00, 0x0c, 0x00, 0x00, 0x00, 0x00, 0x00, 0x00, 0x01, 0x01, 0x00, 0x00, 0x00, 0x01, 0x00, 0x00, 0x00, 0x00, 0x00, 0x00, 0x01, 0x01, 0x00, 0x00, 0x00, 0x04, 0x00, 0x00, 0x00, 0x03, 0x00, 0x00, 0x00, 0x00, 0x00, 0x00, 0x00, 0x02, 0x00, 0x00, 0x00, 0x03, 0x00, 0x00, 0x00, 0x01, 0x00, 0x00, 0x00, 0x0d, 0x00, 0x00, 0x00, 0x01, 0x00, 0x00, 0x00, 0x00, 0x00, 0x00, 0x00, 0x0e, 0x00, 0x00, 0x00, 0x84, 0x0d, 0x00, 0x00, 0xf8, 0x0c, 0x00, 0x00, 0x40, 0x0b, 0x00, 0x00, 0x84, 0x0a, 0x00, 0x00, 0xf8, 0x08, 0x00, 0x00, 0x3c, 0x08, 0x00, 0x00, 0x30, 0x06, 0x00, 0x00, 0x14, 0x05, 0x00, 0x00, 0x80, 0x03, 0x00, 0x00, 0xbc, 0x02, 0x00, 0x00, 0x10, 0x02, 0x00, 0x00, 0xd4, 0x00, 0x00, 0x00, 0x70, 0x00, 0x00, 0x00, 0x04, 0x00, 0x00, 0x00, 0xc8, 0xf2, 0xff, 0xff, 0x18, 0x00, 0x00, 0x00, 0x20, 0x00, 0x00, 0x00, 0x40, 0x00, 0x00, 0x00, 0x0e, 0x00, 0x00, 0x00, 0x00, 0x00, 0x00, 0x09, 0x44, 0x00, 0x00, 0x00, 0x02, 0x00, 0x00, 0x00, 0xff, 0xff, 0xff, 0xff, 0x02, 0x00, 0x00, 0x00, 0xac, 0xf2, 0xff, 0xff, 0x08, 0x00, 0x00, 0x00, 0x14, 0x00, 0x00, 0x00, 0x01, 0x00, 0x00, 0x00, 0xff, 0xff, 0xff, 0xff, 0xff, 0xff, 0xff, 0xff, 0x00, 0x00, 0x00, 0x00, 0x01, 0x00, 0x00, 0x00, 0x6b, 0xbb, 0x74, 0x3d, 0x08, 0x00, 0x00, 0x00, 0x49, 0x64, 0x65, 0x6e, 0x74, 0x69, 0x74, 0x79, 0x00, 0x00, 0x00, 0x00, 0x02, 0x00, 0x00, 0x00, 0x01, 0x00, 0x00, 0x00, 0x02, 0x00, 0x00, 0x00, 0xb2, 0xf3, 0xff, 0xff, 0x14, 0x00, 0x00, 0x00, 0x30, 0x00, 0x00, 0x00, 0x0d, 0x00, 0x00, 0x00, 0x00, 0x00, 0x00, 0x02, 0x44, 0x00, 0x00, 0x00, 0x04, 0xf3, 0xff, 0xff, 0x08, 0x00, 0x00, 0x00, 0x10, 0x00, 0x00, 0x00, 0x01, 0x00, 0x00, 0x00, 0x00, 0x00, 0x00, 0x00, 0x00, 0x00, 0x00, 0x00, 0x01, 0x00, 0x00, 0x00, 0xbe, 0xcc, 0xac, 0x38, 0x1b, 0x00, 0x00, 0x00, 0x73, 0x65, 0x71, 0x75, 0x65, 0x6e, 0x74, 0x69, 0x61, 0x6c, 0x2f, 0x71, 0x75, 0x61, 0x6e, 0x74, 0x5f, 0x64, 0x65, 0x6e, 0x73, 0x65, 0x2f, 0x33, 0x36, 0x34, 0x38, 0x00, 0x01, 0x00, 0x00, 0x00, 0x02, 0x00, 0x00, 0x00, 0x12, 0xf4, 0xff, 0xff, 0x14, 0x00, 0x00, 0x00, 0x34, 0x00, 0x00, 0x00, 0x0c, 0x00, 0x00, 0x00, 0x00, 0x00, 0x00, 0x09, 0x18, 0x01, 0x00, 0x00, 0x64, 0xf3, 0xff, 0xff, 0x08, 0x00, 0x00, 0x00, 0x14, 0x00, 0x00, 0x00, 0x01, 0x00, 0x00, 0x00, 0x00, 0x00, 0x00, 0x00, 0x00, 0x00, 0x00, 0x00, 0x00, 0x00, 0x00, 0x00, 0x01, 0x00, 0x00, 0x00, 0x78, 0xb5, 0xe1, 0x3b, 0xe9, 0x00, 0x00, 0x00, 0x4d, 0x61, 0x74, 0x4d, 0x75, 0x6c, 0x3b, 0x73, 0x65, 0x71, 0x75, 0x65, 0x6e, 0x74, 0x69, 0x61, 0x6c, 0x2f, 0x71, 0x75, 0x61, 0x6e, 0x74, 0x5f, 0x64, 0x65, 0x6e, 0x73, 0x65, 0x2f, 0x53, 0x74, 0x61, 0x74, 0x65, 0x66, 0x75, 0x6c, 0x50, 0x61, 0x72, 0x74, 0x69, 0x74, 0x69, 0x6f, 0x6e, 0x65, 0x64, 0x43, 0x61, 0x6c, 0x6c, 0x2f, 0x53, 0x74, 0x61, 0x74, 0x65, 0x66, 0x75, 0x6c, 0x50, 0x61, 0x72, 0x74, 0x69, 0x74, 0x69, 0x6f, 0x6e, 0x65, 0x64, 0x43, 0x61, 0x6c, 0x6c, 0x2f, 0x4d, 0x61, 0x74, 0x4d, 0x75, 0x6c, 0x3b, 0x4c, 0x61, 0x73, 0x74, 0x56, 0x61, 0x6c, 0x75, 0x65, 0x51, 0x75, 0x61, 0x6e, 0x74, 0x2f, 0x46, 0x61, 0x6b, 0x65, 0x51, 0x75, 0x61, 0x6e, 0x74, 0x57, 0x69, 0x74, 0x68, 0x4d, 0x69, 0x6e, 0x4d, 0x61, 0x78, 0x56, 0x61, 0x72, 0x73, 0x3b, 0x73, 0x65, 0x71, 0x75, 0x65, 0x6e, 0x74, 0x69, 0x61, 0x6c, 0x2f, 0x71, 0x75, 0x61, 0x6e, 0x74, 0x5f, 0x64, 0x65, 0x6e, 0x73, 0x65, 0x2f, 0x53, 0x74, 0x61, 0x74, 0x65, 0x66, 0x75, 0x6c, 0x50, 0x61, 0x72, 0x74, 0x69, 0x74, 0x69, 0x6f, 0x6e, 0x65, 0x64, 0x43, 0x61, 0x6c, 0x6c, 0x2f, 0x53, 0x74, 0x61, 0x74, 0x65, 0x66, 0x75, 0x6c, 0x50, 0x61, 0x72, 0x74, 0x69, 0x74, 0x69, 0x6f, 0x6e, 0x65, 0x64, 0x43, 0x61, 0x6c, 0x6c, 0x2f, 0x4c, 0x61, 0x73, 0x74, 0x56, 0x61, 0x6c, 0x75, 0x65, 0x51, 0x75, 0x61, 0x6e, 0x74, 0x2f, 0x46, 0x61, 0x6b, 0x65, 0x51, 0x75, 0x61, 0x6e, 0x74, 0x57, 0x69, 0x74, 0x68, 0x4d, 0x69, 0x6e, 0x4d, 0x61, 0x78, 0x56, 0x61, 0x72, 0x73, 0x00, 0x00, 0x00, 0x02, 0x00, 0x00, 0x00, 0x02, 0x00, 0x00, 0x00, 0x40, 0x02, 0x00, 0x00, 0xc8, 0xf4, 0xff, 0xff, 0x18, 0x00, 0x00, 0x00, 0x20, 0x00, 0x00, 0x00, 0x40, 0x00, 0x00, 0x00, 0x0b, 0x00, 0x00, 0x00, 0x00, 0x00, 0x00, 0x09, 0x84, 0x00, 0x00, 0x00, 0x02, 0x00, 0x00, 0x00, 0xff, 0xff, 0xff, 0xff, 0x40, 0x02, 0x00, 0x00, 0xac, 0xf4, 0xff, 0xff, 0x08, 0x00, 0x00, 0x00, 0x14, 0x00, 0x00, 0x00, 0x01, 0x00, 0x00, 0x00, 0x81, 0xff, 0xff, 0xff, 0xff, 0xff, 0xff, 0xff, 0x00, 0x00, 0x00, 0x00, 0x01, 0x00, 0x00, 0x00, 0x83, 0xfd, 0x43, 0x3c, 0x48, 0x00, 0x00, 0x00, 0x52, 0x65, 0x73, 0x68, 0x61, 0x70, 0x65, 0x3b, 0x73, 0x65, 0x71, 0x75, 0x65, 0x6e, 0x74, 0x69, 0x61, 0x6c, 0x2f, 0x71, 0x75, 0x61, 0x6e, 0x74, 0x5f, 0x66, 0x6c, 0x61, 0x74, 0x74, 0x65, 0x6e, 0x2f, 0x50, 0x61, 0x72, 0x74, 0x69, 0x74, 0x69, 0x6f, 0x6e, 0x65, 0x64, 0x43, 0x61, 0x6c, 0x6c, 0x2f, 0x50, 0x61, 0x72, 0x74, 0x69, 0x74, 0x69, 0x6f, 0x6e, 0x65, 0x64, 0x43, 0x61, 0x6c, 0x6c, 0x2f, 0x52, 0x65, 0x73, 0x68, 0x61, 0x70, 0x65, 0x00, 0x00, 0x00, 0x00, 0x02, 0x00, 0x00, 0x00, 0x01, 0x00, 0x00, 0x00, 0x40, 0x02, 0x00, 0x00, 0x70, 0xf5, 0xff, 0xff, 0x18, 0x00, 0x00, 0x00, 0x28, 0x00, 0x00, 0x00, 0x48, 0x00, 0x00, 0x00, 0x0a, 0x00, 0x00, 0x00, 0x00, 0x00, 0x00, 0x09, 0x94, 0x00, 0x00, 0x00, 0x04, 0x00, 0x00, 0x00, 0xff, 0xff, 0xff, 0xff, 0x06, 0x00, 0x00, 0x00, 0x06, 0x00, 0x00, 0x00, 0x10, 0x00, 0x00, 0x00, 0x5c, 0xf5, 0xff, 0xff, 0x08, 0x00, 0x00, 0x00, 0x14, 0x00, 0x00, 0x00, 0x01, 0x00, 0x00, 0x00, 0x81, 0xff, 0xff, 0xff, 0xff, 0xff, 0xff, 0xff, 0x00, 0x00, 0x00, 0x00, 0x01, 0x00, 0x00, 0x00, 0x83, 0xfd, 0x43, 0x3c, 0x50, 0x00, 0x00, 0x00, 0x4d, 0x61, 0x78, 0x50, 0x6f, 0x6f, 0x6c, 0x3b, 0x73, 0x65, 0x71, 0x75, 0x65, 0x6e, 0x74, 0x69, 0x61, 0x6c, 0x2f, 0x71, 0x75, 0x61, 0x6e, 0x74, 0x5f, 0x6d, 0x61, 0x78, 0x5f, 0x70, 0x6f, 0x6f, 0x6c, 0x69, 0x6e, 0x67, 0x32, 0x64, 0x5f, 0x31, 0x2f, 0x50, 0x61, 0x72, 0x74, 0x69, 0x74, 0x69, 0x6f, 0x6e, 0x65, 0x64, 0x43, 0x61, 0x6c, 0x6c, 0x2f, 0x50, 0x61, 0x72, 0x74, 0x69, 0x74, 0x69, 0x6f, 0x6e, 0x65, 0x64, 0x43, 0x61, 0x6c, 0x6c, 0x2f, 0x4d, 0x61, 0x78, 0x50, 0x6f, 0x6f, 0x6c, 0x00, 0x00, 0x00, 0x00, 0x04, 0x00, 0x00, 0x00, 0x01, 0x00, 0x00, 0x00, 0x06, 0x00, 0x00, 0x00, 0x06, 0x00, 0x00, 0x00, 0x10, 0x00, 0x00, 0x00, 0x30, 0xf6, 0xff, 0xff, 0x18, 0x00, 0x00, 0x00, 0x28, 0x00, 0x00, 0x00, 0x44, 0x00, 0x00, 0x00, 0x09, 0x00, 0x00, 0x00, 0x00, 0x00, 0x00, 0x09, 0x64, 0x01, 0x00, 0x00, 0x04, 0x00, 0x00, 0x00, 0xff, 0xff, 0xff, 0xff, 0x0d, 0x00, 0x00, 0x00, 0x0d, 0x00, 0x00, 0x00, 0x10, 0x00, 0x00, 0x00, 0x1c, 0xf6, 0xff, 0xff, 0x08, 0x00, 0x00, 0x00, 0x10, 0x00, 0x00, 0x00, 0x01, 0x00, 0x00, 0x00, 0x81, 0xff, 0xff, 0xff, 0xff, 0xff, 0xff, 0xff, 0x01, 0x00, 0x00, 0x00, 0x83, 0xfd, 0x43, 0x3c, 0x24, 0x01, 0x00, 0x00, 0x52, 0x65, 0x6c, 0x75, 0x3b, 0x73, 0x65, 0x71, 0x75, 0x65, 0x6e, 0x74, 0x69, 0x61, 0x6c, 0x2f, 0x71, 0x75, 0x61, 0x6e, 0x74, 0x5f, 0x63, 0x6f, 0x6e, 0x76, 0x32, 0x64, 0x5f, 0x31, 0x2f, 0x53, 0x74, 0x61, 0x74, 0x65, 0x66, 0x75, 0x6c, 0x50, 0x61, 0x72, 0x74, 0x69, 0x74, 0x69, 0x6f, 0x6e, 0x65, 0x64, 0x43, 0x61, 0x6c, 0x6c, 0x2f, 0x53, 0x74, 0x61, 0x74, 0x65, 0x66, 0x75, 0x6c, 0x50, 0x61, 0x72, 0x74, 0x69, 0x74, 0x69, 0x6f, 0x6e, 0x65, 0x64, 0x43, 0x61, 0x6c, 0x6c, 0x2f, 0x52, 0x65, 0x6c, 0x75, 0x3b, 0x42, 0x69, 0x61, 0x73, 0x41, 0x64, 0x64, 0x3b, 0x73, 0x65, 0x71, 0x75, 0x65, 0x6e, 0x74, 0x69, 0x61, 0x6c, 0x2f, 0x71, 0x75, 0x61, 0x6e, 0x74, 0x5f, 0x63, 0x6f, 0x6e, 0x76, 0x32, 0x64, 0x5f, 0x31, 0x2f, 0x53, 0x74, 0x61, 0x74, 0x65, 0x66, 0x75, 0x6c, 0x50, 0x61, 0x72, 0x74, 0x69, 0x74, 0x69, 0x6f, 0x6e, 0x65, 0x64, 0x43, 0x61, 0x6c, 0x6c, 0x2f, 0x53, 0x74, 0x61, 0x74, 0x65, 0x66, 0x75, 0x6c, 0x50, 0x61, 0x72, 0x74, 0x69, 0x74, 0x69, 0x6f, 0x6e, 0x65, 0x64, 0x43, 0x61, 0x6c, 0x6c, 0x2f, 0x42, 0x69, 0x61, 0x73, 0x41, 0x64, 0x64, 0x3b, 0x43, 0x6f, 0x6e, 0x76, 0x32, 0x44, 0x3b, 0x73, 0x65, 0x71, 0x75, 0x65, 0x6e, 0x74, 0x69, 0x61, 0x6c, 0x2f, 0x71, 0x75, 0x61, 0x6e, 0x74, 0x5f, 0x63, 0x6f, 0x6e, 0x76, 0x32, 0x64, 0x5f, 0x31, 0x2f, 0x53, 0x74, 0x61, 0x74, 0x65, 0x66, 0x75, 0x6c, 0x50, 0x61, 0x72, 0x74, 0x69, 0x74, 0x69, 0x6f, 0x6e, 0x65, 0x64, 0x43, 0x61, 0x6c, 0x6c, 0x2f, 0x53, 0x74, 0x61, 0x74, 0x65, 0x66, 0x75, 0x6c, 0x50, 0x61, 0x72, 0x74, 0x69, 0x74, 0x69, 0x6f, 0x6e, 0x65, 0x64, 0x43, 0x61, 0x6c, 0x6c, 0x2f, 0x43, 0x6f, 0x6e, 0x76, 0x32, 0x44, 0x3b, 0x73, 0x65, 0x71, 0x75, 0x65, 0x6e, 0x74, 0x69, 0x61, 0x6c, 0x2f, 0x71, 0x75, 0x61, 0x6e, 0x74, 0x5f, 0x63, 0x6f, 0x6e, 0x76, 0x32, 0x64, 0x5f, 0x31, 0x2f, 0x33, 0x36, 0x33, 0x32, 0x00, 0x00, 0x00, 0x00, 0x04, 0x00, 0x00, 0x00, 0x01, 0x00, 0x00, 0x00, 0x0d, 0x00, 0x00, 0x00, 0x0d, 0x00, 0x00, 0x00, 0x10, 0x00, 0x00, 0x00, 0x42, 0xf8, 0xff, 0xff, 0x14, 0x00, 0x00, 0x00, 0xe4, 0x00, 0x00, 0x00, 0x08, 0x00, 0x00, 0x00, 0x00, 0x00, 0x00, 0x02, 0xfc, 0x00, 0x00, 0x00, 0x94, 0xf7, 0xff, 0xff, 0x08, 0x00, 0x00, 0x00, 0x88, 0x00, 0x00, 0x00, 0x10, 0x00, 0x00, 0x00, 0x00, 0x00, 0x00, 0x00, 0x00, 0x00, 0x00, 0x00, 0x00, 0x00, 0x00, 0x00, 0x00, 0x00, 0x00, 0x00, 0x00, 0x00, 0x00, 0x00, 0x00, 0x00, 0x00, 0x00, 0x00, 0x00, 0x00, 0x00, 0x00, 0x00, 0x00, 0x00, 0x00, 0x00, 0x00, 0x00, 0x00, 0x00, 0x00, 0x00, 0x00, 0x00, 0x00, 0x00, 0x00, 0x00, 0x00, 0x00, 0x00, 0x00, 0x00, 0x00, 0x00, 0x00, 0x00, 0x00, 0x00, 0x00, 0x00, 0x00, 0x00, 0x00, 0x00, 0x00, 0x00, 0x00, 0x00, 0x00, 0x00, 0x00, 0x00, 0x00, 0x00, 0x00, 0x00, 0x00, 0x00, 0x00, 0x00, 0x00, 0x00, 0x00, 0x00, 0x00, 0x00, 0x00, 0x00, 0x00, 0x00, 0x00, 0x00, 0x00, 0x00, 0x00, 0x00, 0x00, 0x00, 0x00, 0x00, 0x00, 0x00, 0x00, 0x00, 0x00, 0x00, 0x00, 0x00, 0x00, 0x00, 0x00, 0x00, 0x00, 0x00, 0x00, 0x00, 0x00, 0x00, 0x00, 0x00, 0x00, 0x00, 0x00, 0x00, 0x00, 0x00, 0x00, 0x00, 0x00, 0x10, 0x00, 0x00, 0x00, 0x6a, 0xe2, 0xde, 0x38, 0xd9, 0xcb, 0x89, 0x38, 0x83, 0xa4, 0x4a, 0x38, 0x8c, 0xa4, 0xb3, 0x38, 0xc0, 0x83, 0xdf, 0x38, 0x00, 0x91, 0xe0, 0x38, 0xf8, 0xcf, 0xc0, 0x38, 0xb0, 0x9c, 0xc5, 0x38, 0xd3, 0x28, 0xe3, 0x38, 0xc0, 0x10, 0xe0, 0x38, 0xa9, 0x56, 0xea, 0x38, 0xd1, 0x9b, 0xc4, 0x38, 0xa4, 0xe1, 0xb0, 0x38, 0xf0, 0xf2, 0xbc, 0x38, 0xcf, 0x23, 0xa8, 0x38, 0x28, 0x34, 0xc3, 0x38, 0x1e, 0x00, 0x00, 0x00, 0x73, 0x65, 0x71, 0x75, 0x65, 0x6e, 0x74, 0x69, 0x61, 0x6c, 0x2f, 0x71, 0x75, 0x61, 0x6e, 0x74, 0x5f, 0x63, 0x6f, 0x6e, 0x76, 0x32, 0x64, 0x5f, 0x31, 0x2f, 0x33, 0x36, 0x33, 0x32, 0x00, 0x00, 0x01, 0x00, 0x00, 0x00, 0x10, 0x00, 0x00, 0x00, 0x5a, 0xf9, 0xff, 0xff, 0x14, 0x00, 0x00, 0x00, 0xe4, 0x00, 0x00, 0x00, 0x07, 0x00, 0x00, 0x00, 0x00, 0x00, 0x00, 0x09, 0xe0, 0x01, 0x00, 0x00, 0xac, 0xf8, 0xff, 0xff, 0x08, 0x00, 0x00, 0x00, 0x88, 0x00, 0x00, 0x00, 0x10, 0x00, 0x00, 0x00, 0x00, 0x00, 0x00, 0x00, 0x00, 0x00, 0x00, 0x00, 0x00, 0x00, 0x00, 0x00, 0x00, 0x00, 0x00, 0x00, 0x00, 0x00, 0x00, 0x00, 0x00, 0x00, 0x00, 0x00, 0x00, 0x00, 0x00, 0x00, 0x00, 0x00, 0x00, 0x00, 0x00, 0x00, 0x00, 0x00, 0x00, 0x00, 0x00, 0x00, 0x00, 0x00, 0x00, 0x00, 0x00, 0x00, 0x00, 0x00, 0x00, 0x00, 0x00, 0x00, 0x00, 0x00, 0x00, 0x00, 0x00, 0x00, 0x00, 0x00, 0x00, 0x00, 0x00, 0x00, 0x00, 0x00, 0x00, 0x00, 0x00, 0x00, 0x00, 0x00, 0x00, 0x00, 0x00, 0x00, 0x00, 0x00, 0x00, 0x00, 0x00, 0x00, 0x00, 0x00, 0x00, 0x00, 0x00, 0x00, 0x00, 0x00, 0x00, 0x00, 0x00, 0x00, 0x00, 0x00, 0x00, 0x00, 0x00, 0x00, 0x00, 0x00, 0x00, 0x00, 0x00, 0x00, 0x00, 0x00, 0x00, 0x00, 0x00, 0x00, 0x00, 0x00, 0x00, 0x00, 0x00, 0x00, 0x00, 0x00, 0x00, 0x00, 0x00, 0x00, 0x00, 0x00, 0x00, 0x00, 0x10, 0x00, 0x00, 0x00, 0xf1, 0xb6, 0x5d, 0x3c, 0xb3, 0x12, 0x09, 0x3c, 0x3c, 0x94, 0xc9, 0x3b, 0x2c, 0xb3, 0x32, 0x3c, 0x6e, 0x57, 0x5e, 0x3c, 0x45, 0x63, 0x5f, 0x3c, 0xe7, 0xcc, 0x3f, 0x3c, 0x2b, 0x93, 0x44, 0x3c, 0x9b, 0xf7, 0x61, 0x3c, 0xb0, 0xe3, 0x5e, 0x3c, 0xcc, 0x1b, 0x69, 0x3c, 0xa6, 0x93, 0x43, 0x3c, 0xfa, 0xf3, 0x2f, 0x3c, 0x0f, 0xf5, 0x3b, 0x3c, 0xe4, 0x41, 0x27, 0x3c, 0xe0, 0x2d, 0x42, 0x3c, 0x03, 0x01, 0x00, 0x00, 0x43, 0x6f, 0x6e, 0x76, 0x32, 0x44, 0x3b, 0x73, 0x65, 0x71, 0x75, 0x65, 0x6e, 0x74, 0x69, 0x61, 0x6c, 0x2f, 0x71, 0x75, 0x61, 0x6e, 0x74, 0x5f, 0x63, 0x6f, 0x6e, 0x76, 0x32, 0x64, 0x5f, 0x31, 0x2f, 0x53, 0x74, 0x61, 0x74, 0x65, 0x66, 0x75, 0x6c, 0x50, 0x61, 0x72, 0x74, 0x69, 0x74, 0x69, 0x6f, 0x6e, 0x65, 0x64, 0x43, 0x61, 0x6c, 0x6c, 0x2f, 0x53, 0x74, 0x61, 0x74, 0x65, 0x66, 0x75, 0x6c, 0x50, 0x61, 0x72, 0x74, 0x69, 0x74, 0x69, 0x6f, 0x6e, 0x65, 0x64, 0x43, 0x61, 0x6c, 0x6c, 0x2f, 0x43, 0x6f, 0x6e, 0x76, 0x32, 0x44, 0x3b, 0x4c, 0x61, 0x73, 0x74, 0x56, 0x61, 0x6c, 0x75, 0x65, 0x51, 0x75, 0x61, 0x6e, 0x74, 0x2f, 0x46, 0x61, 0x6b, 0x65, 0x51, 0x75, 0x61, 0x6e, 0x74, 0x57, 0x69, 0x74, 0x68, 0x4d, 0x69, 0x6e, 0x4d, 0x61, 0x78, 0x56, 0x61, 0x72, 0x73, 0x50, 0x65, 0x72, 0x43, 0x68, 0x61, 0x6e, 0x6e, 0x65, 0x6c, 0x3b, 0x73, 0x65, 0x71, 0x75, 0x65, 0x6e, 0x74, 0x69, 0x61, 0x6c, 0x2f, 0x71, 0x75, 0x61, 0x6e, 0x74, 0x5f, 0x63, 0x6f, 0x6e, 0x76, 0x32, 0x64, 0x5f, 0x31, 0x2f, 0x53, 0x74, 0x61, 0x74, 0x65, 0x66, 0x75, 0x6c, 0x50, 0x61, 0x72, 0x74, 0x69, 0x74, 0x69, 0x6f, 0x6e, 0x65, 0x64, 0x43, 0x61, 0x6c, 0x6c, 0x2f, 0x53, 0x74, 0x61, 0x74, 0x65, 0x66, 0x75, 0x6c, 0x50, 0x61, 0x72, 0x74, 0x69, 0x74, 0x69, 0x6f, 0x6e, 0x65, 0x64, 0x43, 0x61, 0x6c, 0x6c, 0x2f, 0x4c, 0x61, 0x73, 0x74, 0x56, 0x61, 0x6c, 0x75, 0x65, 0x51, 0x75, 0x61, 0x6e, 0x74, 0x2f, 0x46, 0x61, 0x6b, 0x65, 0x51, 0x75, 0x61, 0x6e, 0x74, 0x57, 0x69, 0x74, 0x68, 0x4d, 0x69, 0x6e, 0x4d, 0x61, 0x78, 0x56, 0x61, 0x72, 0x73, 0x50, 0x65, 0x72, 0x43, 0x68, 0x61, 0x6e, 0x6e, 0x65, 0x6c, 0x00, 0x04, 0x00, 0x00, 0x00, 0x10, 0x00, 0x00, 0x00, 0x03, 0x00, 0x00, 0x00, 0x03, 0x00, 0x00, 0x00, 0x08, 0x00, 0x00, 0x00, 0xe0, 0xfa, 0xff, 0xff, 0x18, 0x00, 0x00, 0x00, 0x28, 0x00, 0x00, 0x00, 0x44, 0x00, 0x00, 0x00, 0x06, 0x00, 0x00, 0x00, 0x00, 0x00, 0x00, 0x09, 0x8c, 0x00, 0x00, 0x00, 0x04, 0x00, 0x00, 0x00, 0xff, 0xff, 0xff, 0xff, 0x0f, 0x00, 0x00, 0x00, 0x0f, 0x00, 0x00, 0x00, 0x08, 0x00, 0x00, 0x00, 0xcc, 0xfa, 0xff, 0xff, 0x08, 0x00, 0x00, 0x00, 0x10, 0x00, 0x00, 0x00, 0x01, 0x00, 0x00, 0x00, 0x82, 0xff, 0xff, 0xff, 0xff, 0xff, 0xff, 0xff, 0x01, 0x00, 0x00, 0x00, 0xe4, 0xac, 0x00, 0x3c, 0x4e, 0x00, 0x00, 0x00, 0x4d, 0x61, 0x78, 0x50, 0x6f, 0x6f, 0x6c, 0x3b, 0x73, 0x65, 0x71, 0x75, 0x65, 0x6e, 0x74, 0x69, 0x61, 0x6c, 0x2f, 0x71, 0x75, 0x61, 0x6e, 0x74, 0x5f, 0x6d, 0x61, 0x78, 0x5f, 0x70, 0x6f, 0x6f, 0x6c, 0x69, 0x6e, 0x67, 0x32, 0x64, 0x2f, 0x50, 0x61, 0x72, 0x74, 0x69, 0x74, 0x69, 0x6f, 0x6e, 0x65, 0x64, 0x43, 0x61, 0x6c, 0x6c, 0x2f, 0x50, 0x61, 0x72, 0x74, 0x69, 0x74, 0x69, 0x6f, 0x6e, 0x65, 0x64, 0x43, 0x61, 0x6c, 0x6c, 0x2f, 0x4d, 0x61, 0x78, 0x50, 0x6f, 0x6f, 0x6c, 0x00, 0x00, 0x04, 0x00, 0x00, 0x00, 0x01, 0x00, 0x00, 0x00, 0x0f, 0x00, 0x00, 0x00, 0x0f, 0x00, 0x00, 0x00, 0x08, 0x00, 0x00, 0x00, 0x98, 0xfb, 0xff, 0xff, 0x18, 0x00, 0x00, 0x00, 0x28, 0x00, 0x00, 0x00, 0x44, 0x00, 0x00, 0x00, 0x05, 0x00, 0x00, 0x00, 0x00, 0x00, 0x00, 0x09, 0x5c, 0x01, 0x00, 0x00, 0x04, 0x00, 0x00, 0x00, 0xff, 0xff, 0xff, 0xff, 0x1e, 0x00, 0x00, 0x00, 0x1e, 0x00, 0x00, 0x00, 0x08, 0x00, 0x00, 0x00, 0x84, 0xfb, 0xff, 0xff, 0x08, 0x00, 0x00, 0x00, 0x10, 0x00, 0x00, 0x00, 0x01, 0x00, 0x00, 0x00, 0x82, 0xff, 0xff, 0xff, 0xff, 0xff, 0xff, 0xff, 0x01, 0x00, 0x00, 0x00, 0xe4, 0xac, 0x00, 0x3c, 0x1c, 0x01, 0x00, 0x00, 0x52, 0x65, 0x6c, 0x75, 0x3b, 0x73, 0x65, 0x71, 0x75, 0x65, 0x6e, 0x74, 0x69, 0x61, 0x6c, 0x2f, 0x71, 0x75, 0x61, 0x6e, 0x74, 0x5f, 0x63, 0x6f, 0x6e, 0x76, 0x32, 0x64, 0x2f, 0x53, 0x74, 0x61, 0x74, 0x65, 0x66, 0x75, 0x6c, 0x50, 0x61, 0x72, 0x74, 0x69, 0x74, 0x69, 0x6f, 0x6e, 0x65, 0x64, 0x43, 0x61, 0x6c, 0x6c, 0x2f, 0x53, 0x74, 0x61, 0x74, 0x65, 0x66, 0x75, 0x6c, 0x50, 0x61, 0x72, 0x74, 0x69, 0x74, 0x69, 0x6f, 0x6e, 0x65, 0x64, 0x43, 0x61, 0x6c, 0x6c, 0x2f, 0x52, 0x65, 0x6c, 0x75, 0x3b, 0x42, 0x69, 0x61, 0x73, 0x41, 0x64, 0x64, 0x3b, 0x73, 0x65, 0x71, 0x75, 0x65, 0x6e, 0x74, 0x69, 0x61, 0x6c, 0x2f, 0x71, 0x75, 0x61, 0x6e, 0x74, 0x5f, 0x63, 0x6f, 0x6e, 0x76, 0x32, 0x64, 0x2f, 0x53, 0x74, 0x61, 0x74, 0x65, 0x66, 0x75, 0x6c, 0x50, 0x61, 0x72, 0x74, 0x69, 0x74, 0x69, 0x6f, 0x6e, 0x65, 0x64, 0x43, 0x61, 0x6c, 0x6c, 0x2f, 0x53, 0x74, 0x61, 0x74, 0x65, 0x66, 0x75, 0x6c, 0x50, 0x61, 0x72, 0x74, 0x69, 0x74, 0x69, 0x6f, 0x6e, 0x65, 0x64, 0x43, 0x61, 0x6c, 0x6c, 0x2f, 0x42, 0x69, 0x61, 0x73, 0x41, 0x64, 0x64, 0x3b, 0x43, 0x6f, 0x6e, 0x76, 0x32, 0x44, 0x3b, 0x73, 0x65, 0x71, 0x75, 0x65, 0x6e, 0x74, 0x69, 0x61, 0x6c, 0x2f, 0x71, 0x75, 0x61, 0x6e, 0x74, 0x5f, 0x63, 0x6f, 0x6e, 0x76, 0x32, 0x64, 0x2f, 0x53, 0x74, 0x61, 0x74, 0x65, 0x66, 0x75, 0x6c, 0x50, 0x61, 0x72, 0x74, 0x69, 0x74, 0x69, 0x6f, 0x6e, 0x65, 0x64, 0x43, 0x61, 0x6c, 0x6c, 0x2f, 0x53, 0x74, 0x61, 0x74, 0x65, 0x66, 0x75, 0x6c, 0x50, 0x61, 0x72, 0x74, 0x69, 0x74, 0x69, 0x6f, 0x6e, 0x65, 0x64, 0x43, 0x61, 0x6c, 0x6c, 0x2f, 0x43, 0x6f, 0x6e, 0x76, 0x32, 0x44, 0x3b, 0x73, 0x65, 0x71, 0x75, 0x65, 0x6e, 0x74, 0x69, 0x61, 0x6c, 0x2f, 0x71, 0x75, 0x61, 0x6e, 0x74, 0x5f, 0x63, 0x6f, 0x6e, 0x76, 0x32, 0x64, 0x2f, 0x33, 0x36, 0x31, 0x37, 0x00, 0x00, 0x00, 0x00, 0x04, 0x00, 0x00, 0x00, 0x01, 0x00, 0x00, 0x00, 0x1e, 0x00, 0x00, 0x00, 0x1e, 0x00, 0x00, 0x00, 0x08, 0x00, 0x00, 0x00, 0xa2, 0xfd, 0xff, 0xff, 0x14, 0x00, 0x00, 0x00, 0x84, 0x00, 0x00, 0x00, 0x04, 0x00, 0x00, 0x00, 0x00, 0x00, 0x00, 0x02, 0x9c, 0x00, 0x00, 0x00, 0xf4, 0xfc, 0xff, 0xff, 0x08, 0x00, 0x00, 0x00, 0x48, 0x00, 0x00, 0x00, 0x08, 0x00, 0x00, 0x00, 0x00, 0x00, 0x00, 0x00, 0x00, 0x00, 0x00, 0x00, 0x00, 0x00, 0x00, 0x00, 0x00, 0x00, 0x00, 0x00, 0x00, 0x00, 0x00, 0x00, 0x00, 0x00, 0x00, 0x00, 0x00, 0x00, 0x00, 0x00, 0x00, 0x00, 0x00, 0x00, 0x00, 0x00, 0x00, 0x00, 0x00, 0x00, 0x00, 0x00, 0x00, 0x00, 0x00, 0x00, 0x00, 0x00, 0x00, 0x00, 0x00, 0x00, 0x00, 0x00, 0x00, 0x00, 0x00, 0x00, 0x00, 0x00, 0x00, 0x00, 0x00, 0x00, 0x00, 0x00, 0x08, 0x00, 0x00, 0x00, 0xde, 0x0b, 0x3c, 0x38, 0x94, 0xeb, 0x35, 0x38, 0x99, 0x86, 0xce, 0x38, 0x18, 0xcb, 0x90, 0x38, 0x0d, 0xa4, 0xb9, 0x38, 0x01, 0x87, 0xa2, 0x38, 0xf2, 0xad, 0x9c, 0x38, 0xb5, 0x5f, 0xb8, 0x38, 0x1c, 0x00, 0x00, 0x00, 0x73, 0x65, 0x71, 0x75, 0x65, 0x6e, 0x74, 0x69, 0x61, 0x6c, 0x2f, 0x71, 0x75, 0x61, 0x6e, 0x74, 0x5f, 0x63, 0x6f, 0x6e, 0x76, 0x32, 0x64, 0x2f, 0x33, 0x36, 0x31, 0x37, 0x00, 0x00, 0x00, 0x00, 0x01, 0x00, 0x00, 0x00, 0x08, 0x00, 0x00, 0x00, 0x5a, 0xfe, 0xff, 0xff, 0x14, 0x00, 0x00, 0x00, 0x84, 0x00, 0x00, 0x00, 0x03, 0x00, 0x00, 0x00, 0x00, 0x00, 0x00, 0x09, 0x7c, 0x01, 0x00, 0x00, 0xac, 0xfd, 0xff, 0xff, 0x08, 0x00, 0x00, 0x00, 0x48, 0x00, 0x00, 0x00, 0x08, 0x00, 0x00, 0x00, 0x00, 0x00, 0x00, 0x00, 0x00, 0x00, 0x00, 0x00, 0x00, 0x00, 0x00, 0x00, 0x00, 0x00, 0x00, 0x00, 0x00, 0x00, 0x00, 0x00, 0x00, 0x00, 0x00, 0x00, 0x00, 0x00, 0x00, 0x00, 0x00, 0x00, 0x00, 0x00, 0x00, 0x00, 0x00, 0x00, 0x00, 0x00, 0x00, 0x00, 0x00, 0x00, 0x00, 0x00, 0x00, 0x00, 0x00, 0x00, 0x00, 0x00, 0x00, 0x00, 0x00, 0x00, 0x00, 0x00, 0x00, 0x00, 0x00, 0x00, 0x00, 0x00, 0x00, 0x00, 0x08, 0x00, 0x00, 0x00, 0xd2, 0x4f, 0x3b, 0x3c, 0xa8, 0x35, 0x35, 0x3c, 0x12, 0xb8, 0xcd, 0x3c, 0x4d, 0x3a, 0x90, 0x3c, 0x69, 0xea, 0xb8, 0x3c, 0x7a, 0xe4, 0xa1, 0x3c, 0x45, 0x11, 0x9c, 0x3c, 0x56, 0xa7, 0xb7, 0x3c, 0xff, 0x00, 0x00, 0x00, 0x43, 0x6f, 0x6e, 0x76, 0x32, 0x44, 0x3b, 0x73, 0x65, 0x71, 0x75, 0x65, 0x6e, 0x74, 0x69, 0x61, 0x6c, 0x2f, 0x71, 0x75, 0x61, 0x6e, 0x74, 0x5f, 0x63, 0x6f, 0x6e, 0x76, 0x32, 0x64, 0x2f, 0x53, 0x74, 0x61, 0x74, 0x65, 0x66, 0x75, 0x6c, 0x50, 0x61, 0x72, 0x74, 0x69, 0x74, 0x69, 0x6f, 0x6e, 0x65, 0x64, 0x43, 0x61, 0x6c, 0x6c, 0x2f, 0x53, 0x74, 0x61, 0x74, 0x65, 0x66, 0x75, 0x6c, 0x50, 0x61, 0x72, 0x74, 0x69, 0x74, 0x69, 0x6f, 0x6e, 0x65, 0x64, 0x43, 0x61, 0x6c, 0x6c, 0x2f, 0x43, 0x6f, 0x6e, 0x76, 0x32, 0x44, 0x3b, 0x4c, 0x61, 0x73, 0x74, 0x56, 0x61, 0x6c, 0x75, 0x65, 0x51, 0x75, 0x61, 0x6e, 0x74, 0x2f, 0x46, 0x61, 0x6b, 0x65, 0x51, 0x75, 0x61, 0x6e, 0x74, 0x57, 0x69, 0x74, 0x68, 0x4d, 0x69, 0x6e, 0x4d, 0x61, 0x78, 0x56, 0x61, 0x72, 0x73, 0x50, 0x65, 0x72, 0x43, 0x68, 0x61, 0x6e, 0x6e, 0x65, 0x6c, 0x3b, 0x73, 0x65, 0x71, 0x75, 0x65, 0x6e, 0x74, 0x69, 0x61, 0x6c, 0x2f, 0x71, 0x75, 0x61, 0x6e, 0x74, 0x5f, 0x63, 0x6f, 0x6e, 0x76, 0x32, 0x64, 0x2f, 0x53, 0x74, 0x61, 0x74, 0x65, 0x66, 0x75, 0x6c, 0x50, 0x61, 0x72, 0x74, 0x69, 0x74, 0x69, 0x6f, 0x6e, 0x65, 0x64, 0x43, 0x61, 0x6c, 0x6c, 0x2f, 0x53, 0x74, 0x61, 0x74, 0x65, 0x66, 0x75, 0x6c, 0x50, 0x61, 0x72, 0x74, 0x69, 0x74, 0x69, 0x6f, 0x6e, 0x65, 0x64, 0x43, 0x61, 0x6c, 0x6c, 0x2f, 0x4c, 0x61, 0x73, 0x74, 0x56, 0x61, 0x6c, 0x75, 0x65, 0x51, 0x75, 0x61, 0x6e, 0x74, 0x2f, 0x46, 0x61, 0x6b, 0x65, 0x51, 0x75, 0x61, 0x6e, 0x74, 0x57, 0x69, 0x74, 0x68, 0x4d, 0x69, 0x6e, 0x4d, 0x61, 0x78, 0x56, 0x61, 0x72, 0x73, 0x50, 0x65, 0x72, 0x43, 0x68, 0x61, 0x6e, 0x6e, 0x65, 0x6c, 0x00, 0x04, 0x00, 0x00, 0x00, 0x08, 0x00, 0x00, 0x00, 0x03, 0x00, 0x00, 0x00, 0x03, 0x00, 0x00, 0x00, 0x01, 0x00, 0x00, 0x00, 0x00, 0x00, 0x0e, 0x00, 0x18, 0x00, 0x14, 0x00, 0x13, 0x00, 0x0c, 0x00, 0x08, 0x00, 0x04, 0x00, 0x0e, 0x00, 0x00, 0x00, 0x18, 0x00, 0x00, 0x00, 0x18, 0x00, 0x00, 0x00, 0x02, 0x00, 0x00, 0x00, 0x00, 0x00, 0x00, 0x02, 0x58, 0x00, 0x00, 0x00, 0x04, 0x00, 0x04, 0x00, 0x04, 0x00, 0x00, 0x00, 0x44, 0x00, 0x00, 0x00, 0x43, 0x6f, 0x6e, 0x73, 0x74, 0x3b, 0x73, 0x65, 0x71, 0x75, 0x65, 0x6e, 0x74, 0x69, 0x61, 0x6c, 0x2f, 0x71, 0x75, 0x61, 0x6e, 0x74, 0x5f, 0x66, 0x6c, 0x61, 0x74, 0x74, 0x65, 0x6e, 0x2f, 0x50, 0x61, 0x72, 0x74, 0x69, 0x74, 0x69, 0x6f, 0x6e, 0x65, 0x64, 0x43, 0x61, 0x6c, 0x6c, 0x2f, 0x50, 0x61, 0x72, 0x74, 0x69, 0x74, 0x69, 0x6f, 0x6e, 0x65, 0x64, 0x43, 0x61, 0x6c, 0x6c, 0x2f, 0x43, 0x6f, 0x6e, 0x73, 0x74, 0x00, 0x00, 0x00, 0x00, 0x01, 0x00, 0x00, 0x00, 0x02, 0x00, 0x00, 0x00, 0x14, 0x00, 0x1c, 0x00, 0x18, 0x00, 0x17, 0x00, 0x10, 0x00, 0x0c, 0x00, 0x08, 0x00, 0x00, 0x00, 0x00, 0x00, 0x04, 0x00, 0x14, 0x00, 0x00, 0x00, 0x18, 0x00, 0x00, 0x00, 0x34, 0x00, 0x00, 0x00, 0x50, 0x00, 0x00, 0x00, 0x01, 0x00, 0x00, 0x00, 0x00, 0x00, 0x00, 0x09, 0x50, 0x00, 0x00, 0x00, 0x04, 0x00, 0x00, 0x00, 0xff, 0xff, 0xff, 0xff, 0x20, 0x00, 0x00, 0x00, 0x20, 0x00, 0x00, 0x00, 0x01, 0x00, 0x00, 0x00, 0x0c, 0x00, 0x0c, 0x00, 0x00, 0x00, 0x00, 0x00, 0x08, 0x00, 0x04, 0x00, 0x0c, 0x00, 0x00, 0x00, 0x08, 0x00, 0x00, 0x00, 0x10, 0x00, 0x00, 0x00, 0x01, 0x00, 0x00, 0x00, 0x80, 0xff, 0xff, 0xff, 0xff, 0xff, 0xff, 0xff, 0x01, 0x00, 0x00, 0x00, 0x81, 0x80, 0x80, 0x3b, 0x07, 0x00, 0x00, 0x00, 0x69, 0x6e, 0x70, 0x75, 0x74, 0x5f, 0x31, 0x00, 0x04, 0x00, 0x00, 0x00, 0x01, 0x00, 0x00, 0x00, 0x20, 0x00, 0x00, 0x00, 0x20, 0x00, 0x00, 0x00, 0x01, 0x00, 0x00, 0x00, 0x04, 0x00, 0x00, 0x00, 0x54, 0x00, 0x00, 0x00, 0x34, 0x00, 0x00, 0x00, 0x24, 0x00, 0x00, 0x00, 0x04, 0x00, 0x00, 0x00, 0xc8, 0xff, 0xff, 0xff, 0x09, 0x00, 0x00, 0x00, 0x04, 0x00, 0x00, 0x00, 0x00, 0x00, 0x00, 0x09, 0x0c, 0x00, 0x0c, 0x00, 0x0b, 0x00, 0x00, 0x00, 0x00, 0x00, 0x04, 0x00, 0x0c, 0x00, 0x00, 0x00, 0x16, 0x00, 0x00, 0x00, 0x00, 0x00, 0x00, 0x16, 0xf0, 0xff, 0xff, 0xff, 0x11, 0x00, 0x00, 0x00, 0x02, 0x00, 0x00, 0x00, 0x00, 0x00, 0x00, 0x11, 0x0c, 0x00, 0x10, 0x00, 0x0f, 0x00, 0x00, 0x00, 0x08, 0x00, 0x04, 0x00, 0x0c, 0x00, 0x00, 0x00, 0x03, 0x00, 0x00, 0x00, 0x03, 0x00, 0x00, 0x00, 0x00, 0x00, 0x00, 0x03};
const int model_data_len = 7056;