const unsigned char model_data[] __attribute__((aligned(8))) = {0x1c, 0x00, 0x00, 0x00, 0x54, 0x46, 0x4c, 0x33, 0x14, 0x00, 0x20, 0x00, 0x1c, 0x00, 0x18, 0x00, 0x14, 0x00, 0x10, 0x00, 0x0c, 0x00, 0x00, 0x00, 0x08, 0x00, 0x04, 0x00, 0x14, 0x00, 0x00, 0x00, 0x1c, 0x00, 0x00, 0x00, 0x1c, 0x00, 0x00, 0x00, 0x4c, 0x00, 0x00, 0x00, 0x6c, 0x15, 0x00, 0x00, 0x7c, 0x15, 0x00, 0x00, 0x74, 0x2f, 0x00, 0x00, 0x03, 0x00, 0x00, 0x00, 0x00, 0x00, 0x00, 0x00, 0x01, 0x00, 0x00, 0x00, 0x0c, 0x00, 0x00, 0x00, 0x08, 0x00, 0x0c, 0x00, 0x08, 0x00, 0x04, 0x00, 0x08, 0x00, 0x00, 0x00, 0x15, 0x00, 0x00, 0x00, 0x04, 0x00, 0x00, 0x00, 0x13, 0x00, 0x00, 0x00, 0x6d, 0x69, 0x6e, 0x5f, 0x72, 0x75, 0x6e, 0x74, 0x69, 0x6d, 0x65, 0x5f, 0x76, 0x65, 0x72, 0x73, 0x69, 0x6f, 0x6e, 0x00, 0x16, 0x00, 0x00, 0x00, 0x1c, 0x15, 0x00, 0x00, 0x14, 0x15, 0x00, 0x00, 0xfc, 0x14, 0x00, 0x00, 0x9c, 0x14, 0x00, 0x00, 0x6c, 0x14, 0x00, 0x00, 0x64, 0x14, 0x00, 0x00, 0x14, 0x12, 0x00, 0x00, 0xe4, 0x11, 0x00, 0x00, 0xdc, 0x11, 0x00, 0x00, 0xd4, 0x11, 0x00, 0x00, 0x44, 0x0d, 0x00, 0x00, 0xf4, 0x0c, 0x00, 0x00, 0xec, 0x0c, 0x00, 0x00, 0xdc, 0x03, 0x00, 0x00, 0x8c, 0x03, 0x00, 0x00, 0x84, 0x03, 0x00, 0x00, 0x7c, 0x03, 0x00, 0x00, 0x74, 0x03, 0x00, 0x00, 0x44, 0x00, 0x00, 0x00, 0x2c, 0x00, 0x00, 0x00, 0x24, 0x00, 0x00, 0x00, 0x04, 0x00, 0x00, 0x00, 0x5a, 0xeb, 0xff, 0xff, 0x04, 0x00, 0x00, 0x00, 0x10, 0x00, 0x00, 0x00, 0x31, 0x2e, 0x31, 0x34, 0x2e, 0x30, 0x00, 0x00, 0x00, 0x00, 0x00, 0x00, 0x00, 0x00, 0x00, 0x00, 0x30, 0xd2, 0xff, 0xff, 0x7a, 0xeb, 0xff, 0xff, 0x04, 0x00, 0x00, 0x00, 0x08, 0x00, 0x00, 0x00, 0x62, 0xfb, 0xff, 0xff, 0x94, 0x04, 0x00, 0x00, 0x8e, 0xeb, 0xff, 0xff, 0x04, 0x00, 0x00, 0x00, 0x20, 0x03, 0x00, 0x00, 0x15, 0xff, 0x1a, 0xf5, 0xd0, 0x14, 0x05, 0xeb, 0x08, 0x26, 0xc8, 0xdf, 0x17, 0x17, 0x15, 0x0b, 0x15, 0xed, 0xff, 0xf3, 0xe6, 0xf0, 0xf8, 0xe9, 0x04, 0x27, 0xcb, 0x38, 0x18, 0x2a, 0x42, 0xfc, 0xfc, 0xf0, 0xce, 0xd1, 0x07, 0x14, 0xe5, 0xfc, 0x17, 0xe8, 0x0c, 0xf8, 0xfc, 0x42, 0x44, 0xf4, 0xf7, 0xdd, 0xf3, 0xe2, 0xe5, 0xfd, 0x03, 0x0e, 0xf7, 0xf8, 0x28, 0xe1, 0x03, 0xf6, 0x06, 0xe9, 0x06, 0xff, 0xdc, 0xf2, 0x11, 0xf9, 0xf3, 0xe7, 0xfb, 0x05, 0x2f, 0x90, 0x0e, 0xdd, 0xed, 0xf5, 0x06, 0xd8, 0xe6, 0xe6, 0xe8, 0x0c, 0xe5, 0xfa, 0x14, 0xf6, 0x04, 0xdc, 0x12, 0xf2, 0x18, 0xe5, 0xe5, 0xd5, 0xe9, 0xe6, 0xf4, 0x03, 0x02, 0xca, 0xef, 0x0f, 0x02, 0x21, 0x0f, 0x17, 0x30, 0xee, 0x0c, 0xfd, 0xf8, 0xdd, 0xf4, 0x19, 0xf9, 0xf7, 0xff, 0xe9, 0x0b, 0x01, 0xf2, 0x4a, 0x0a, 0xe1, 0x0c, 0xef, 0xe9, 0x01, 0xf6, 0xea, 0xef, 0xe3, 0x10, 0xff, 0x0a, 0xfc, 0xee, 0x2b, 0x17, 0xec, 0xef, 0xec, 0xee, 0xdd, 0x1c, 0x0a, 0xd7, 0xf1, 0xe0, 0xe7, 0x1c, 0xd0, 0xee, 0xcc, 0x1d, 0x0a, 0xfb, 0xe0, 0xe6, 0xda, 0xf5, 0xe0, 0xd0, 0xd2, 0x03, 0xe6, 0xfd, 0xdd, 0x04, 0x12, 0x15, 0xed, 0x03, 0xde, 0xf1, 0xf1, 0xeb, 0xee, 0xda, 0xe6, 0xf2, 0xf0, 0x09, 0x09, 0xff, 0x19, 0x10, 0xeb, 0xfc, 0xef, 0x08, 0xe9, 0xe2, 0x05, 0xf6, 0xe7, 0xe7, 0x0a, 0xfd, 0xeb, 0xf0, 0xf3, 0xe4, 0xfa, 0x0f, 0xfa, 0xe2, 0xeb, 0xdf, 0xe6, 0xe3, 0x08, 0x10, 0x23, 0xdb, 0x06, 0x11, 0xf2, 0x05, 0xf5, 0x07, 0xdf, 0xeb, 0xfe, 0x1b, 0x17, 0xff, 0xfd, 0xf5, 0xfd, 0x2a, 0x0d, 0xf5, 0xe3, 0x15, 0xe7, 0x0c, 0xdc, 0xf3, 0xf2, 0xf6, 0x02, 0xf2, 0xf1, 0x12, 0xd7, 0x04, 0xf4, 0xf6, 0x22, 0x13, 0xfe, 0x14, 0xfe, 0xe4, 0xee, 0xed, 0x06, 0xdd, 0xfc, 0x18, 0xd1, 0xf2, 0xff, 0x09, 0x05, 0xde, 0xe2, 0xf3, 0x16, 0xf1, 0x07, 0xf2, 0x05, 0x06, 0x06, 0xfb, 0x10, 0x1c, 0xbe, 0xe8, 0xcd, 0xe2, 0xee, 0xf6, 0x1c, 0xeb, 0xfa, 0xee, 0xf8, 0xf4, 0x0e, 0x15, 0xeb, 0xf4, 0xf5, 0xe3, 0xe3, 0x14, 0xf5, 0xf9, 0xff, 0xed, 0xe7, 0x0b, 0x05, 0xfc, 0x02, 0x13, 0xf9, 0x22, 0x0c, 0xef, 0x0d, 0xbb, 0xf5, 0x13, 0x18, 0x10, 0xf8, 0x10, 0x1a, 0xe6, 0x0b, 0xfb, 0xd4, 0xf9, 0xd9, 0x10, 0xee, 0xc3, 0x01, 0x12, 0x02, 0x1f, 0x1c, 0xe8, 0xee, 0xfb, 0x0d, 0x07, 0xe9, 0x04, 0xfc, 0xf7, 0xec, 0xfc, 0x00, 0x05, 0x08, 0xf6, 0x04, 0x0d, 0xe9, 0x10, 0x16, 0x10, 0x06, 0xd2, 0xf2, 0xe9, 0xe6, 0x0d, 0x03, 0x16, 0x00, 0xf2, 0x00, 0xfe, 0x02, 0x00, 0xe1, 0x18, 0xe9, 0xff, 0xe7, 0xff, 0x2d, 0xec, 0xff, 0xfa, 0x0c, 0x08, 0xf1, 0xec, 0xe8, 0x0c, 0xff, 0xe5, 0xec, 0xf2, 0xe6, 0x19, 0xe4, 0x94, 0xee, 0xea, 0xe4, 0x02, 0xed, 0x27, 0xf2, 0xff, 0xeb, 0x0f, 0xee, 0x4c, 0x17, 0xff, 0x06, 0xe7, 0xf2, 0x0c, 0x26, 0x0d, 0x1c, 0x2b, 0xff, 0x17, 0x14, 0xf1, 0xd3, 0x3d, 0xcf, 0x01, 0xc0, 0xec, 0x0e, 0x09, 0x10, 0x0a, 0x0a, 0xfa, 0xeb, 0x1d, 0x1e, 0xe8, 0xe9, 0xf5, 0x0e, 0x17, 0xaf, 0xbb, 0x18, 0xf3, 0xfd, 0x12, 0x0a, 0x0b, 0x03, 0xfb, 0xff, 0x14, 0xec, 0xdf, 0x16, 0xe9, 0x2e, 0xd1, 0xff, 0xef, 0x15, 0xfc, 0x21, 0xde, 0xfa, 0xf5, 0x1f, 0x0a, 0x15, 0xe6, 0x6c, 0x01, 0x47, 0x11, 0x08, 0x08, 0x16, 0x0d, 0x0e, 0xec, 0x0a, 0x06, 0x1a, 0xf2, 0xf0, 0x0d, 0x0c, 0xf8, 0xe0, 0xe8, 0xff, 0x1b, 0x18, 0x0b, 0x05, 0x01, 0xeb, 0x13, 0x11, 0xf0, 0xe9, 0xfa, 0xe2, 0x16, 0xc5, 0xd3, 0x04, 0x03, 0x2c, 0x0e, 0x12, 0x02, 0x13, 0x0b, 0x0d, 0x09, 0x03, 0xd4, 0x22, 0x0a, 0xdf, 0xcc, 0x19, 0xff, 0x08, 0x06, 0x15, 0x2b, 0xea, 0x19, 0xf8, 0xf3, 0x05, 0xf4, 0xe9, 0xfd, 0xfb, 0xd5, 0x0f, 0x0c, 0x0d, 0x05, 0xf6, 0xfe, 0xf5, 0xf9, 0x1a, 0x1e, 0x06, 0xfd, 0x0a, 0x07, 0x19, 0xf0, 0x1a, 0xec, 0x38, 0x3c, 0x38, 0x02, 0x05, 0x10, 0x16, 0xfc, 0x13, 0xf8, 0x19, 0xf6, 0xf3, 0xe8, 0x31, 0x00, 0xf6, 0x1f, 0x26, 0x07, 0x00, 0x2a, 0x2b, 0x0b, 0x06, 0x1e, 0x07, 0x02, 0xcd, 0xca, 0x15, 0x04, 0xf8, 0x08, 0xff, 0x00, 0x0f, 0xfd, 0xf9, 0x13, 0x11, 0x02, 0x23, 0x0d, 0xea, 0x25, 0x17, 0xed, 0x03, 0x13, 0xf2, 0x0b, 0xf3, 0xe8, 0xf5, 0x14, 0xfd, 0x1e, 0xce, 0x0b, 0xee, 0xe9, 0x05, 0xf5, 0x0c, 0x17, 0xfc, 0x0c, 0x0e, 0x1e, 0x22, 0x0e, 0x03, 0xc7, 0x0f, 0xf7, 0x12, 0x11, 0x19, 0x1e, 0xfa, 0x09, 0x20, 0x04, 0x11, 0x2a, 0x16, 0x15, 0x23, 0xeb, 0x18, 0xff, 0x04, 0x08, 0x2f, 0xeb, 0x03, 0xf5, 0x1c, 0x04, 0xff, 0x06, 0x0d, 0x18, 0x12, 0xf1, 0x0c, 0xf7, 0xd9, 0x05, 0x20, 0x1a, 0x09, 0x01, 0x12, 0x05, 0x1c, 0xfe, 0x14, 0xf6, 0x02, 0x06, 0x11, 0xff, 0x24, 0x2a, 0x0b, 0x09, 0x0e, 0x07, 0xff, 0x1a, 0x08, 0x07, 0xf4, 0x00, 0x01, 0x2e, 0x14, 0x1e, 0xf6, 0xdf, 0xf0, 0x14, 0x09, 0x1d, 0x02, 0x05, 0x02, 0x06, 0x11, 0x10, 0x16, 0xfb, 0x01, 0x13, 0x0c, 0x2b, 0x0a, 0x0a, 0xe7, 0xdf, 0xff, 0x0d, 0x1a, 0xf5, 0x01, 0xec, 0x26, 0x05, 0x2f, 0x1c, 0x0d, 0x42, 0xff, 0x02, 0xd3, 0x01, 0xf3, 0x1a, 0x05, 0x0a, 0x09, 0x15, 0x1e, 0x06, 0xf6, 0xf4, 0x20, 0x32, 0x00, 0x10, 0x02, 0x01, 0x03, 0x13, 0x0c, 0x11, 0x19, 0xf5, 0xfb, 0x03, 0x17, 0x12, 0x1e, 0x26, 0xf5, 0x07, 0x05, 0xee, 0x1b, 0x1a, 0xef, 0x02, 0xfd, 0x17, 0x0b, 0x1d, 0x07, 0xfb, 0x01, 0x16, 0x13, 0x10, 0x05, 0xfb, 0xf8, 0xf8, 0xe9, 0x16, 0x07, 0x1a, 0x06, 0xf9, 0x18, 0x08, 0x36, 0x7f, 0xfd, 0x74, 0xd5, 0xff, 0xff, 0x78, 0xd5, 0xff, 0xff, 0x7c, 0xd5, 0xff, 0xff, 0xc6, 0xee, 0xff, 0xff, 0x04, 0x00, 0x00, 0x00, 0x40, 0x00, 0x00, 0x00, 0xaf, 0xfa, 0xff, 0xff, 0x06, 0x01, 0x00, 0x00, 0x2d, 0x07, 0x00, 0x00, 0xf2, 0x06, 0x00, 0x00, 0x6a, 0x06, 0x00, 0x00, 0x14, 0xfd, 0xff, 0xff, 0xaf, 0x08, 0x00, 0x00, 0xad, 0x08, 0x00, 0x00, 0xfd, 0xf9, 0xff, 0xff, 0x7c, 0x07, 0x00, 0x00, 0xd2, 0x05, 0x00, 0x00, 0x5c, 0x04, 0x00, 0x00, 0xdb, 0xfb, 0xff, 0xff, 0x93, 0x08, 0x00, 0x00, 0x2a, 0x08, 0x00, 0x00, 0xe5, 0x06, 0x00, 0x00, 0x12, 0xef, 0xff, 0xff, 0x04, 0x00, 0x00, 0x00, 0x00, 0x09, 0x00, 0x00, 0x26, 0x14, 0x11, 0x26, 0xa2, 0x3b, 0xa4, 0x4f, 0x29, 0x31, 0xda, 0xf7, 0xba, 0xf8, 0x26, 0xa3, 0xa3, 0xe8, 0x11, 0x3f, 0xa5, 0x07, 0xb1, 0x4a, 0x40, 0xd4, 0xa4, 0x3b, 0x81, 0xf5, 0x11, 0x08, 0xa2, 0xcd, 0xf1, 0xf5, 0x3f, 0x3e, 0xf9, 0x0d, 0xdb, 0x30, 0x00, 0xac, 0x31, 0xd1, 0xc9, 0x0c, 0x1f, 0xdd, 0xe9, 0x9e, 0xbe, 0x25, 0x37, 0x42, 0x05, 0xdc, 0xde, 0xe2, 0xe4, 0xcf, 0x40, 0xa0, 0xc9, 0x03, 0xb3, 0x3a, 0xbc, 0x11, 0x0f, 0xbe, 0x43, 0xb7, 0xe1, 0x9a, 0x22, 0xa5, 0xeb, 0x12, 0xf1, 0xd3, 0xc8, 0xeb, 0x33, 0xca, 0xe2, 0xf9, 0x45, 0xa1, 0xe1, 0xff, 0x24, 0xca, 0xc7, 0xab, 0xdc, 0x08, 0xe3, 0x33, 0x06, 0xae, 0x49, 0xa9, 0xf0, 0x2b, 0xb5, 0x19, 0xeb, 0x0a, 0x01, 0x00, 0x3b, 0x23, 0xe7, 0x14, 0x20, 0xe3, 0xab, 0x4d, 0xec, 0x47, 0x45, 0x2f, 0xfe, 0x31, 0xe6, 0xdc, 0xcc, 0xd3, 0x4d, 0x1d, 0xdd, 0xd1, 0xdf, 0xfd, 0x0d, 0xcc, 0xeb, 0xed, 0xe8, 0xba, 0xba, 0xfb, 0x1e, 0x0e, 0x15, 0xe8, 0xef, 0xf3, 0x38, 0xf4, 0x42, 0xe7, 0x1b, 0x10, 0x97, 0x2a, 0x18, 0x10, 0x3a, 0x05, 0x0d, 0x1e, 0x13, 0x0c, 0x2b, 0x2f, 0x1d, 0xf9, 0x03, 0x23, 0xe7, 0xe9, 0xb0, 0x31, 0xfc, 0xc8, 0x07, 0x10, 0x1b, 0xf1, 0xc8, 0xda, 0xf9, 0xd4, 0x17, 0x44, 0x65, 0x3f, 0x1b, 0x03, 0xfc, 0x14, 0x21, 0x06, 0x34, 0x37, 0xc6, 0x10, 0x03, 0x24, 0x10, 0xf9, 0xef, 0x0b, 0xd5, 0x42, 0x41, 0xf4, 0xd2, 0x34, 0xf4, 0xe9, 0xc2, 0x45, 0xd3, 0xc6, 0x1e, 0x05, 0xec, 0xc0, 0x96, 0x33, 0x1a, 0x1e, 0xc8, 0xe7, 0xcc, 0x21, 0xde, 0xfd, 0xea, 0xe6, 0xc0, 0x0c, 0x55, 0xd3, 0xde, 0xf3, 0x18, 0x3a, 0x2c, 0xdd, 0x54, 0x1e, 0x36, 0x3e, 0x2c, 0x0a, 0xd7, 0xe9, 0xcf, 0xc6, 0x20, 0x45, 0xd6, 0xfb, 0x0a, 0x16, 0x3a, 0x17, 0x49, 0x2e, 0x22, 0x23, 0x13, 0xd0, 0x81, 0xc4, 0xca, 0x05, 0x16, 0x10, 0xeb, 0x04, 0xe7, 0xd7, 0x27, 0xeb, 0x28, 0xcb, 0xb1, 0xf2, 0xe3, 0xcd, 0xeb, 0xec, 0xfb, 0x13, 0x36, 0x02, 0xec, 0x15, 0x1e, 0x31, 0x0b, 0xce, 0x2c, 0xbb, 0xcf, 0xd5, 0xf6, 0xef, 0x38, 0xcd, 0x33, 0x3f, 0x00, 0x00, 0x03, 0x64, 0x47, 0x33, 0x39, 0x27, 0xd8, 0xd0, 0xbc, 0xe0, 0x33, 0x35, 0xc6, 0x43, 0x01, 0xf0, 0x47, 0x05, 0xfe, 0xd5, 0xbf, 0x07, 0x45, 0xec, 0x48, 0xdb, 0x52, 0x5d, 0x54, 0x1d, 0x68, 0xd9, 0x0b, 0xe7, 0x58, 0xe3, 0x3d, 0x32, 0xcc, 0x2b, 0x8a, 0x07, 0xce, 0xec, 0x3f, 0xd2, 0x02, 0xf9, 0x11, 0x58, 0x2a, 0x48, 0x31, 0x09, 0xe9, 0xb8, 0xaf, 0x55, 0xe9, 0x1d, 0xe9, 0xee, 0xf0, 0xfe, 0x53, 0xde, 0xd4, 0xe0, 0x40, 0x49, 0x28, 0xbb, 0x3f, 0x28, 0x30, 0x01, 0xdf, 0x14, 0x62, 0xd4, 0x59, 0xcb, 0xe3, 0x31, 0x2a, 0x17, 0xd2, 0xfd, 0x4a, 0x4a, 0xde, 0xe8, 0x2f, 0x04, 0xe1, 0x0b, 0x22, 0x31, 0x3b, 0x2e, 0x03, 0xe3, 0xde, 0xee, 0xe5, 0x0d, 0xfb, 0x02, 0x3a, 0x23, 0xe0, 0xbb, 0x0c, 0xef, 0xb5, 0x2b, 0xe3, 0xb8, 0xa5, 0x81, 0xa4, 0xec, 0x5a, 0x11, 0x02, 0xce, 0x2c, 0x22, 0x51, 0x57, 0xd9, 0x57, 0x37, 0xb2, 0x82, 0xea, 0xc3, 0x50, 0x3a, 0xe0, 0x32, 0xed, 0xe8, 0x39, 0xdf, 0x2e, 0xfb, 0xfc, 0x1f, 0x09, 0x18, 0xf6, 0xd1, 0x29, 0x20, 0xed, 0xff, 0xda, 0xc4, 0x21, 0xcf, 0x17, 0xc1, 0xfc, 0xcf, 0x7f, 0x66, 0x13, 0xf6, 0xd4, 0xf0, 0x0f, 0xdf, 0xd5, 0x43, 0x3a, 0xd0, 0x30, 0xf7, 0x54, 0x32, 0x41, 0xdb, 0x01, 0x9b, 0x18, 0x47, 0x19, 0xf5, 0xeb, 0xcc, 0x38, 0x26, 0xf8, 0xbc, 0xe1, 0x3c, 0x1d, 0xa8, 0xbd, 0x14, 0x16, 0xed, 0xd0, 0xcf, 0x2f, 0xb5, 0xc1, 0xe4, 0x10, 0xd8, 0x36, 0xd4, 0x56, 0x23, 0xba, 0x37, 0xd3, 0x36, 0x54, 0x26, 0x1e, 0x4a, 0x25, 0xfa, 0xe3, 0xc7, 0x00, 0x23, 0xf3, 0xb6, 0x06, 0x37, 0x21, 0x0d, 0xee, 0x33, 0x26, 0x07, 0x10, 0x3e, 0x18, 0xe6, 0xeb, 0x22, 0xd2, 0xbe, 0x02, 0xeb, 0xf3, 0xc5, 0xdc, 0x3b, 0xf2, 0x06, 0xbc, 0x00, 0x2c, 0xc9, 0x1b, 0xd4, 0xf4, 0xba, 0x0a, 0x32, 0x2b, 0xfc, 0x99, 0xf4, 0x22, 0xef, 0x34, 0xec, 0xe4, 0xb2, 0xcb, 0x21, 0x0c, 0x9b, 0x10, 0xf6, 0xd0, 0x25, 0x66, 0xce, 0x09, 0x02, 0x48, 0xf5, 0x69, 0x14, 0x06, 0x2c, 0x2f, 0x0c, 0xc4, 0xe8, 0xc3, 0x37, 0x38, 0x6d, 0xd7, 0x04, 0x23, 0xeb, 0x50, 0x7c, 0xf6, 0x4e, 0xd6, 0xde, 0xca, 0xdf, 0x6c, 0x8c, 0x86, 0x04, 0x09, 0xaf, 0xe3, 0xb2, 0xf6, 0xcb, 0xe3, 0xc4, 0x0e, 0x16, 0x11, 0x34, 0xc1, 0x34, 0x39, 0x0f, 0xe4, 0xf8, 0xaf, 0x40, 0xe3, 0xed, 0x25, 0x4a, 0x07, 0xb7, 0x2f, 0x36, 0xdb, 0x63, 0x64, 0x27, 0xff, 0xd1, 0xf7, 0x4a, 0x77, 0x49, 0x00, 0xd2, 0x91, 0xec, 0xb1, 0x42, 0x51, 0x19, 0xc3, 0xe4, 0x2a, 0xa4, 0xa8, 0x94, 0x9a, 0xea, 0xf0, 0xc6, 0x66, 0xcb, 0x57, 0x5e, 0x0f, 0x03, 0x2a, 0x0f, 0x12, 0xfc, 0xe4, 0x17, 0x21, 0x48, 0x32, 0x45, 0x32, 0x11, 0xcb, 0xa4, 0x56, 0x25, 0x1c, 0x58, 0x29, 0xea, 0x44, 0xf0, 0x7f, 0x3f, 0xe0, 0x42, 0xfd, 0x8d, 0xec, 0x31, 0x0e, 0xb8, 0xb9, 0x1c, 0x45, 0xec, 0xf7, 0xf5, 0x0a, 0x21, 0xa1, 0x33, 0xda, 0xb4, 0xe6, 0x33, 0x99, 0xeb, 0xe8, 0x2f, 0xb2, 0x12, 0xfd, 0x2d, 0xfa, 0xb0, 0x92, 0x97, 0x87, 0x19, 0x3a, 0xf2, 0x47, 0xf8, 0xac, 0xee, 0xf2, 0x2e, 0x2e, 0x96, 0x3e, 0x14, 0x3b, 0xc1, 0xf5, 0xb3, 0xeb, 0x1c, 0xcc, 0x50, 0x35, 0x07, 0x43, 0xc4, 0x3c, 0x8f, 0xc4, 0x25, 0x99, 0x54, 0x2e, 0x90, 0xad, 0x0e, 0x97, 0xdb, 0xcc, 0xe0, 0x2b, 0x2e, 0x4f, 0xa0, 0x05, 0x9a, 0x97, 0x28, 0xe2, 0x10, 0xbf, 0x5f, 0x08, 0x21, 0x4c, 0x97, 0x34, 0xc6, 0x97, 0xff, 0xec, 0x02, 0x44, 0x8b, 0xb5, 0xb1, 0xa9, 0xcc, 0x38, 0xf0, 0x36, 0xe4, 0x03, 0x2c, 0x59, 0x2a, 0x1e, 0xc8, 0xcc, 0x97, 0x94, 0xf2, 0xcf, 0x03, 0xa4, 0xfe, 0x40, 0xbd, 0x57, 0x81, 0x1c, 0xe4, 0x23, 0xdf, 0x2f, 0xa5, 0xb4, 0xc4, 0x88, 0x15, 0x2a, 0x41, 0x1e, 0x0d, 0xd0, 0x14, 0x0c, 0x4f, 0xcd, 0x2f, 0x1e, 0xa3, 0x98, 0x3c, 0xda, 0x04, 0xb6, 0x27, 0x11, 0xea, 0xe9, 0x13, 0x2c, 0x66, 0xec, 0xe2, 0x12, 0x53, 0x1d, 0x9d, 0xf0, 0xa5, 0x03, 0x04, 0xd1, 0x0b, 0x01, 0x2f, 0x42, 0xfb, 0xb0, 0xff, 0xed, 0x2d, 0x27, 0xcd, 0xea, 0x01, 0xfc, 0x25, 0xea, 0x16, 0xd9, 0xb3, 0xf9, 0xe2, 0x39, 0x0d, 0xcb, 0xd8, 0xda, 0xe9, 0x02, 0x50, 0x14, 0x6b, 0x50, 0x18, 0xee, 0x3a, 0xab, 0x01, 0xe2, 0x53, 0x66, 0x07, 0xd4, 0xb0, 0xf6, 0xb1, 0x0c, 0x26, 0x37, 0x3d, 0x3e, 0xcd, 0xb2, 0x05, 0x25, 0xa8, 0xf4, 0xf0, 0x0a, 0x11, 0xde, 0xc6, 0xd6, 0x3b, 0xca, 0x04, 0xe2, 0xf3, 0x29, 0xd8, 0xc3, 0xbd, 0x46, 0xf8, 0x3a, 0xb1, 0x18, 0x5e, 0x31, 0x02, 0xeb, 0xf9, 0x2e, 0x63, 0xee, 0x3b, 0xdb, 0x4e, 0xfe, 0x24, 0x47, 0xf4, 0x7f, 0x10, 0x51, 0x2a, 0xcd, 0x4f, 0x03, 0xb8, 0xdd, 0x35, 0xff, 0x03, 0x28, 0xf6, 0x2a, 0xd6, 0x1c, 0x33, 0xc4, 0x14, 0x23, 0xd5, 0xe2, 0xd4, 0x2f, 0x0e, 0xb5, 0x1d, 0xd1, 0xe2, 0x1a, 0x82, 0xa0, 0x2d, 0xf9, 0xfe, 0x17, 0x3e, 0xe5, 0x31, 0x2c, 0x4b, 0x50, 0xeb, 0x29, 0x31, 0xd7, 0xc5, 0xf6, 0x30, 0x33, 0x23, 0x3e, 0x32, 0x48, 0x05, 0xf0, 0x09, 0xec, 0xcf, 0x11, 0x07, 0xf7, 0xf9, 0x3b, 0xc7, 0x35, 0x03, 0x1d, 0x11, 0x1d, 0xc6, 0xc5, 0x23, 0xf0, 0x9a, 0xbb, 0xdf, 0x7f, 0x46, 0x0e, 0x19, 0xe5, 0x02, 0x0f, 0xdc, 0x36, 0x2e, 0xd6, 0x0e, 0x02, 0xcc, 0x29, 0x3e, 0xe2, 0xc5, 0xc3, 0x0a, 0x44, 0x08, 0xdc, 0x0a, 0xc3, 0xe2, 0xda, 0xe9, 0x2e, 0x08, 0x2c, 0x1a, 0x44, 0xac, 0x10, 0x06, 0x2d, 0xb5, 0x11, 0x15, 0xfb, 0xd8, 0xd8, 0xe6, 0xa4, 0xba, 0x2f, 0xda, 0x39, 0xfe, 0xba, 0xe8, 0xfd, 0xe6, 0x55, 0x48, 0x03, 0xf4, 0xf3, 0x07, 0x19, 0x18, 0x43, 0x1e, 0xc4, 0xbe, 0xf9, 0xb8, 0x19, 0x0a, 0x19, 0xdd, 0xf7, 0x2c, 0x2b, 0x17, 0xc2, 0x17, 0x48, 0x01, 0x2c, 0xbb, 0xc8, 0x96, 0x51, 0xb6, 0xaf, 0xf6, 0xcd, 0xcb, 0xe2, 0x10, 0xbd, 0x0a, 0x15, 0xc3, 0xdf, 0x09, 0x0f, 0x3a, 0x27, 0x9d, 0xd8, 0xe7, 0xd7, 0x9d, 0xf4, 0xcb, 0x38, 0x43, 0xa9, 0xd1, 0x8b, 0xa7, 0x07, 0x2a, 0x01, 0xae, 0xf2, 0xbf, 0xd8, 0x0e, 0xf6, 0x0d, 0x05, 0xca, 0xec, 0x56, 0x16, 0x2f, 0x0c, 0xf9, 0xfd, 0xeb, 0x9e, 0x4e, 0xda, 0xca, 0xef, 0xe5, 0x05, 0xbe, 0xef, 0x40, 0x32, 0xb1, 0x4b, 0xc9, 0x35, 0x08, 0x29, 0xf3, 0xcb, 0xbf, 0xdd, 0x00, 0xc3, 0x3d, 0xf5, 0x3b, 0xa2, 0x81, 0xcd, 0x1d, 0x98, 0x17, 0x19, 0x02, 0xbb, 0x0a, 0x48, 0xca, 0xf9, 0x9e, 0xb2, 0x26, 0xee, 0x8f, 0xe1, 0x3a, 0xe7, 0x31, 0xfe, 0xae, 0x01, 0x3b, 0xb4, 0x02, 0x9c, 0xad, 0xa6, 0xff, 0x41, 0xb5, 0xf5, 0x82, 0xd4, 0xce, 0x1a, 0xcb, 0xe0, 0xfa, 0x0f, 0xa7, 0x45, 0x13, 0x3d, 0xe4, 0xa9, 0x0a, 0x97, 0xd7, 0xbb, 0xdd, 0x32, 0xc6, 0xd4, 0x14, 0xfb, 0x01, 0x3d, 0xef, 0x36, 0xc7, 0xcc, 0x35, 0x42, 0xe5, 0x0d, 0x49, 0x1a, 0xfd, 0xd4, 0xc4, 0x15, 0x3c, 0x35, 0x06, 0xff, 0x48, 0x0c, 0x13, 0xb0, 0xcf, 0xe4, 0x55, 0x57, 0x52, 0x32, 0x38, 0xfd, 0x08, 0x3d, 0x57, 0x3e, 0x01, 0x07, 0xb7, 0x6c, 0xf5, 0x29, 0x14, 0x14, 0x02, 0x25, 0x0e, 0x59, 0x29, 0xe7, 0xc9, 0x0b, 0x58, 0xf4, 0xbe, 0x1a, 0x9c, 0xf5, 0x09, 0x05, 0xde, 0x22, 0xd5, 0x21, 0xd5, 0xba, 0x03, 0xe0, 0x0e, 0x2c, 0x2f, 0x51, 0xf5, 0x1b, 0x1e, 0xec, 0x0b, 0x36, 0x11, 0xce, 0x30, 0x0e, 0x15, 0x48, 0x4a, 0xfa, 0xe6, 0x1f, 0xb7, 0x21, 0xf9, 0xe7, 0x10, 0xf2, 0x13, 0xf2, 0x31, 0xe7, 0xd5, 0xe8, 0xd3, 0xd9, 0x0f, 0x4a, 0x09, 0xd5, 0xdb, 0x01, 0xed, 0x18, 0xf9, 0xe7, 0x0f, 0x04, 0xf3, 0x20, 0xdb, 0x0a, 0x14, 0x36, 0x30, 0xbe, 0xf3, 0xd8, 0xd5, 0x38, 0xe4, 0x1c, 0x35, 0x13, 0xee, 0xef, 0x2a, 0x41, 0xff, 0x5c, 0x22, 0x06, 0xcd, 0xfc, 0x17, 0x13, 0xde, 0x3b, 0x0c, 0xd3, 0x9e, 0xbd, 0x06, 0xf0, 0x0a, 0x2d, 0xd5, 0xdd, 0xc5, 0x9c, 0xf6, 0x1f, 0x81, 0xd9, 0xc2, 0xd6, 0xea, 0xb3, 0xb5, 0x22, 0x41, 0x35, 0x4a, 0xda, 0xf2, 0xb8, 0xe7, 0xf5, 0xba, 0xc1, 0xd9, 0xc8, 0xea, 0xc7, 0xe4, 0x0d, 0x45, 0xbd, 0x4a, 0xf4, 0xeb, 0xd8, 0xfb, 0x0b, 0xe6, 0x8f, 0x17, 0xbf, 0x0d, 0xf8, 0xe3, 0xcb, 0xed, 0xd5, 0x36, 0xe3, 0x15, 0x10, 0xf8, 0xcc, 0x25, 0x11, 0x07, 0x1d, 0x07, 0x40, 0x2c, 0xbd, 0x9d, 0x00, 0xe9, 0x06, 0xcf, 0xfb, 0xc9, 0xd1, 0xe6, 0xcd, 0xb3, 0x81, 0xc3, 0xe6, 0xec, 0x0e, 0xfb, 0xe1, 0x0b, 0x0e, 0xf0, 0x28, 0x1b, 0x02, 0x0f, 0xb2, 0x04, 0xd8, 0xce, 0x15, 0xf0, 0xee, 0xa5, 0x14, 0x24, 0xf7, 0x3d, 0x3f, 0x3a, 0xfc, 0x28, 0xfe, 0xfa, 0x4a, 0x19, 0x08, 0x18, 0xdc, 0xfd, 0x19, 0x0e, 0x32, 0xfd, 0xfd, 0xf2, 0x02, 0x1e, 0xc0, 0xe7, 0xaf, 0xf4, 0x0a, 0xe0, 0x2f, 0xec, 0x2c, 0x18, 0xfb, 0x06, 0x03, 0x30, 0xec, 0x21, 0xda, 0x02, 0xf3, 0xf1, 0x1f, 0x28, 0x12, 0x04, 0x2b, 0x03, 0x2e, 0x2a, 0xf8, 0xe8, 0x18, 0x40, 0x1c, 0x32, 0x53, 0x34, 0x0a, 0xfe, 0x07, 0xed, 0x2b, 0x10, 0x19, 0xf2, 0x28, 0x4f, 0x26, 0xff, 0x28, 0x6a, 0x09, 0xf4, 0x38, 0x06, 0xe0, 0xcf, 0x19, 0x22, 0x1d, 0xe6, 0xab, 0xd1, 0xf6, 0xc8, 0x8b, 0xf0, 0xbb, 0xa2, 0xdc, 0xb8, 0x17, 0x2b, 0x0e, 0x05, 0x0e, 0xf2, 0xba, 0xb2, 0x1f, 0x9a, 0xae, 0x00, 0xc7, 0x18, 0xbc, 0xda, 0xc5, 0xfa, 0xdf, 0xfb, 0xb7, 0x26, 0x52, 0x2b, 0x04, 0x2d, 0x12, 0x0e, 0x19, 0x13, 0x08, 0x2f, 0xed, 0xd5, 0x5d, 0xc5, 0x23, 0x16, 0xf2, 0xb9, 0x20, 0xb8, 0xfd, 0xf4, 0x89, 0x8f, 0xfa, 0x33, 0xe9, 0x1a, 0x17, 0x1e, 0x33, 0xf4, 0xc3, 0xdd, 0xcf, 0xfc, 0xf0, 0xb4, 0xa2, 0x06, 0xec, 0xdb, 0xea, 0xf4, 0x03, 0x3d, 0xf2, 0x2d, 0x16, 0x30, 0xf6, 0xf2, 0x5d, 0xf1, 0x02, 0x3d, 0xf4, 0x0b, 0xfb, 0xfd, 0x27, 0x30, 0x34, 0xe1, 0xaa, 0xe3, 0xe3, 0x03, 0xa3, 0xf9, 0x81, 0xd1, 0xd5, 0x1e, 0x41, 0x3a, 0x15, 0x2b, 0x09, 0xef, 0xcc, 0xc1, 0x19, 0xe3, 0xce, 0xa3, 0xaa, 0xc8, 0x1a, 0xda, 0xe0, 0xfc, 0xe7, 0x2c, 0x00, 0x44, 0x35, 0xb4, 0x14, 0xe7, 0xf7, 0x4d, 0xa6, 0xc4, 0xb6, 0xa6, 0xf8, 0xe6, 0x9a, 0x10, 0xcd, 0x40, 0xd5, 0xba, 0x53, 0xe6, 0x2a, 0x37, 0x49, 0xa9, 0xd1, 0x0d, 0xb3, 0xe0, 0x37, 0x29, 0xd1, 0xd2, 0xe4, 0xac, 0xf6, 0xc4, 0x01, 0xaf, 0xad, 0x18, 0xe8, 0xcf, 0x51, 0x81, 0xc1, 0xf4, 0x26, 0x51, 0xa7, 0xfb, 0xc2, 0x0e, 0x27, 0x00, 0xef, 0xf0, 0xd6, 0xfc, 0xf6, 0xeb, 0xf1, 0x4a, 0x46, 0xde, 0xf0, 0xc2, 0xa7, 0x3d, 0x4b, 0xfe, 0x4a, 0x04, 0xc4, 0xef, 0xc6, 0xaa, 0xde, 0x99, 0x01, 0x41, 0x1c, 0xa0, 0x09, 0xe5, 0xd6, 0x21, 0x17, 0xd5, 0x0a, 0x9e, 0x15, 0x0e, 0xee, 0x34, 0x4c, 0x02, 0xb0, 0x4f, 0x9e, 0xae, 0x55, 0xc6, 0xce, 0x33, 0x40, 0xc1, 0xf9, 0x04, 0xd9, 0x25, 0xa3, 0xba, 0xdc, 0xf0, 0x54, 0x01, 0x2f, 0x54, 0xb1, 0xa9, 0x30, 0xdb, 0x4b, 0xe0, 0xc8, 0xcb, 0x2c, 0x29, 0x9f, 0x55, 0x48, 0x8d, 0xe7, 0xa4, 0x28, 0x3c, 0xe5, 0x10, 0x9f, 0xcb, 0xe5, 0xe8, 0xa5, 0x10, 0xe0, 0xcd, 0xe5, 0xf9, 0x54, 0x23, 0x03, 0x07, 0x03, 0xf7, 0x43, 0x0f, 0x5a, 0xa1, 0xe0, 0x06, 0xfa, 0xf9, 0x0d, 0xe7, 0x07, 0xf5, 0xee, 0x2b, 0xe4, 0x32, 0x3b, 0x3e, 0x52, 0x99, 0xce, 0xb8, 0xaf, 0xfb, 0x17, 0xcd, 0x10, 0xdc, 0x81, 0xae, 0xb3, 0xa7, 0x30, 0x3b, 0xd8, 0xf5, 0xe1, 0xf8, 0xf9, 0xc4, 0x11, 0xe2, 0x30, 0xea, 0xf5, 0xe3, 0xfd, 0xbe, 0x23, 0x44, 0xe5, 0x9a, 0xb0, 0xdd, 0x03, 0xca, 0x44, 0xbb, 0xef, 0xe6, 0xc7, 0xe4, 0x1d, 0xb5, 0x30, 0x25, 0xd4, 0xfa, 0xd0, 0xfe, 0xc9, 0x23, 0xe9, 0xe6, 0xca, 0xd6, 0xf5, 0xdf, 0xe9, 0xb4, 0x1d, 0x1b, 0xdc, 0xea, 0x24, 0xb8, 0xd2, 0x07, 0xea, 0xc6, 0x04, 0xee, 0xd8, 0x22, 0xce, 0x9a, 0x06, 0x5e, 0x9b, 0xfb, 0xbb, 0xf6, 0x2a, 0x17, 0x39, 0x13, 0xfa, 0xde, 0xca, 0x2a, 0x2c, 0xdd, 0x0d, 0xe4, 0xd9, 0xe1, 0xf5, 0x07, 0xf9, 0x06, 0xf3, 0x0c, 0x17, 0x1c, 0x1c, 0xe1, 0x20, 0x10, 0xc2, 0xe8, 0xb8, 0xf1, 0x55, 0x36, 0x2b, 0x27, 0xdc, 0x44, 0x7a, 0x3e, 0x3d, 0x13, 0x29, 0x62, 0xb3, 0xbe, 0x6d, 0xd4, 0x51, 0x27, 0x0f, 0x43, 0x18, 0x6b, 0x39, 0x36, 0xfb, 0x2d, 0x03, 0x2c, 0xe3, 0xd2, 0x50, 0xb0, 0x2a, 0xe9, 0x02, 0xf7, 0xf7, 0xf4, 0x29, 0xcd, 0xdf, 0xc9, 0x1f, 0x20, 0xe9, 0x2e, 0x3b, 0xae, 0x12, 0xe8, 0xfa, 0xe0, 0x0b, 0x1f, 0x59, 0x1e, 0x25, 0x1a, 0xe1, 0x02, 0x2d, 0x17, 0x3a, 0xbf, 0xf3, 0xaf, 0xbd, 0xf6, 0xe4, 0xfb, 0xeb, 0xe9, 0xca, 0x0e, 0xd7, 0xf1, 0x03, 0x04, 0x60, 0xb4, 0xc0, 0xfa, 0xde, 0x05, 0xed, 0xe5, 0xfb, 0xfa, 0x96, 0xce, 0x0b, 0xd6, 0x3d, 0x15, 0x24, 0x9b, 0xd1, 0xe3, 0xb1, 0xb9, 0x11, 0xac, 0x03, 0xb3, 0x03, 0x03, 0xcb, 0x19, 0x3f, 0x29, 0x10, 0xc1, 0xea, 0xa4, 0xc1, 0xd8, 0x0c, 0x81, 0x1e, 0x05, 0xa9, 0x07, 0xdb, 0xd6, 0x24, 0x11, 0x07, 0xe2, 0x05, 0xaf, 0xa5, 0xb7, 0x09, 0xc4, 0xec, 0xfa, 0xdc, 0xae, 0x13, 0xad, 0x30, 0x5a, 0x2f, 0xb8, 0xda, 0x5a, 0x02, 0x61, 0xe7, 0x6d, 0x17, 0x4f, 0x10, 0x56, 0x41, 0x26, 0xb8, 0xcf, 0x2c, 0xd2, 0xef, 0x43, 0xe2, 0xe7, 0xd6, 0x38, 0x35, 0x43, 0xf4, 0x37, 0x17, 0x52, 0x50, 0x26, 0x33, 0xbe, 0x33, 0xdd, 0x0f, 0xe6, 0x4f, 0xc6, 0xf1, 0xc1, 0xe8, 0x05, 0xfd, 0x28, 0x39, 0x51, 0xf1, 0x07, 0x02, 0xf3, 0x4d, 0x4c, 0x02, 0x55, 0x16, 0xff, 0xec, 0x58, 0x26, 0x60, 0xea, 0x81, 0xe5, 0xda, 0x30, 0x06, 0x37, 0x37, 0xe8, 0x20, 0xd9, 0x15, 0xf5, 0xee, 0xd8, 0xda, 0xd3, 0xcb, 0xf7, 0x35, 0xc8, 0xc1, 0xfb, 0xce, 0x4a, 0xb4, 0xf9, 0x13, 0x0a, 0xdf, 0xf0, 0xf8, 0x1d, 0x0b, 0xf6, 0x16, 0xed, 0x04, 0xd5, 0x48, 0x27, 0x43, 0xdf, 0xcc, 0x12, 0xe8, 0x41, 0xaf, 0x16, 0xa1, 0x38, 0xa9, 0x2a, 0x09, 0xeb, 0xd7, 0x1c, 0xaf, 0xc1, 0xd0, 0xfe, 0xed, 0x3c, 0x13, 0xf2, 0x9d, 0xe0, 0x01, 0x13, 0x14, 0xe2, 0x18, 0xd8, 0xc5, 0x00, 0x02, 0xc0, 0x34, 0xbf, 0xc0, 0x0a, 0xd7, 0xf0, 0x40, 0x24, 0xd8, 0xde, 0xff, 0xff, 0x22, 0xf8, 0xff, 0xff, 0x04, 0x00, 0x00, 0x00, 0x40, 0x00, 0x00, 0x00, 0xef, 0x06, 0x00, 0x00, 0xdc, 0x06, 0x00, 0x00, 0x3f, 0x07, 0x00, 0x00, 0xb7, 0xf8, 0xff, 0xff, 0x39, 0x0a, 0x00, 0x00, 0xda, 0x04, 0x00, 0x00, 0xd8, 0x08, 0x00, 0x00, 0xbc, 0x07, 0x00, 0x00, 0x58, 0x08, 0x00, 0x00, 0xd0, 0x09, 0x00, 0x00, 0x6c, 0x11, 0x00, 0x00, 0xdc, 0x04, 0x00, 0x00, 0x99, 0x04, 0x00, 0x00, 0x7e, 0xff, 0xff, 0xff, 0x9b, 0x04, 0x00, 0x00, 0x3c, 0x10, 0x00, 0x00, 0x6e, 0xf8, 0xff, 0xff, 0x04, 0x00, 0x00, 0x00, 0x80, 0x04, 0x00, 0x00, 0x0d, 0x2d, 0xa5, 0xd1, 0x2f, 0x39, 0x25, 0xe5, 0x81, 0x30, 0x92, 0x0e, 0x13, 0x3c, 0x2c, 0x2f, 0xff, 0x2d, 0xd7, 0xd4, 0x0b, 0x0b, 0xd6, 0xf4, 0xff, 0xfd, 0xe1, 0x18, 0xd1, 0x3c, 0x04, 0x29, 0xc0, 0x2a, 0xa6, 0xdf, 0x1f, 0x35, 0x10, 0xd9, 0x15, 0xfe, 0x2f, 0xd4, 0x2f, 0xfc, 0x21, 0x18, 0x0c, 0xbe, 0xec, 0x0f, 0xd3, 0xff, 0xed, 0x37, 0xc6, 0xdc, 0xb9, 0xdb, 0xe9, 0xfd, 0x15, 0x10, 0xc0, 0xe5, 0xbb, 0xf8, 0x06, 0x02, 0x20, 0xdc, 0xfc, 0xfe, 0xd9, 0xd8, 0xed, 0x25, 0x25, 0x3f, 0xb4, 0xea, 0x81, 0xee, 0xfd, 0x3b, 0x37, 0x1c, 0xd4, 0xd8, 0xe0, 0x08, 0xfe, 0xe6, 0x24, 0x24, 0x26, 0x1a, 0xce, 0xde, 0x17, 0x12, 0x13, 0xf6, 0xb2, 0xe9, 0xa6, 0x10, 0x1a, 0xea, 0x1c, 0xfe, 0xfb, 0x02, 0xe5, 0x05, 0xec, 0xde, 0x2a, 0x0f, 0xfa, 0xc9, 0xb5, 0x02, 0xef, 0xf5, 0x31, 0x2d, 0xa3, 0xd1, 0xdc, 0xdc, 0x11, 0xfe, 0x20, 0x3a, 0xa6, 0x09, 0xe6, 0xe9, 0x28, 0x15, 0xf0, 0xf1, 0xe5, 0x0f, 0x81, 0x36, 0xbd, 0x02, 0xd1, 0xc6, 0xa3, 0xd4, 0xc5, 0xda, 0x06, 0x25, 0x36, 0x34, 0xc1, 0x6c, 0xc4, 0xfa, 0xc9, 0x32, 0x3e, 0xd8, 0x17, 0xc8, 0xa4, 0x10, 0x36, 0x50, 0xff, 0x32, 0x91, 0x0b, 0xee, 0xc0, 0x37, 0x4e, 0xb7, 0x53, 0xe2, 0x37, 0x2b, 0x4b, 0x15, 0xb2, 0xb6, 0xf5, 0xed, 0x0c, 0xae, 0xb8, 0x2a, 0x41, 0x2e, 0x40, 0xb9, 0x55, 0xc5, 0x4e, 0x37, 0x26, 0xbb, 0xfd, 0x1c, 0xca, 0xd3, 0xc4, 0xde, 0x41, 0x4c, 0x4b, 0xda, 0x60, 0xdb, 0x34, 0x1e, 0x95, 0xec, 0x94, 0xc2, 0x46, 0x0f, 0x1b, 0xe6, 0x96, 0xd8, 0xa7, 0xe7, 0x2b, 0x3a, 0xc8, 0x5d, 0xfd, 0xd7, 0x28, 0x2b, 0x1f, 0xd1, 0xf2, 0xc2, 0x3a, 0x2c, 0x37, 0x0e, 0x41, 0xc2, 0xfa, 0xbf, 0x40, 0xc9, 0xbb, 0xf1, 0x22, 0xe5, 0x1f, 0xdb, 0xa9, 0x0d, 0xf5, 0x97, 0x44, 0xe4, 0x20, 0xeb, 0x0b, 0x91, 0x81, 0xab, 0x46, 0xef, 0x2a, 0xef, 0x2e, 0x00, 0x8e, 0xf3, 0xce, 0x13, 0x11, 0x12, 0x12, 0xb6, 0xd2, 0xfc, 0xf1, 0x9f, 0x19, 0x00, 0x34, 0x12, 0x34, 0x81, 0x13, 0x97, 0xf5, 0xfd, 0x1e, 0x24, 0x1b, 0xf9, 0x38, 0x05, 0x13, 0xd7, 0xed, 0x14, 0x17, 0x16, 0xd3, 0xc5, 0x13, 0xf4, 0x17, 0x28, 0x17, 0x9e, 0xf3, 0x99, 0x1c, 0x0b, 0x21, 0xeb, 0x18, 0xc4, 0x07, 0xe0, 0x0e, 0x1c, 0x01, 0x21, 0x14, 0x0e, 0xcd, 0xda, 0x26, 0xf9, 0x10, 0x05, 0xff, 0x9b, 0xcb, 0xb0, 0xe3, 0x14, 0x0a, 0x41, 0x01, 0x07, 0x11, 0x02, 0x29, 0x1d, 0x19, 0x17, 0x1e, 0x96, 0xff, 0xb9, 0xf6, 0xf3, 0x06, 0x14, 0x0a, 0x81, 0xfe, 0xae, 0xd9, 0xe0, 0x0d, 0x00, 0x1e, 0xd4, 0xf4, 0xac, 0x0f, 0x0a, 0xde, 0x0d, 0x02, 0xb2, 0x41, 0xce, 0x1e, 0xf6, 0x2e, 0xe9, 0xff, 0xeb, 0x2f, 0xf4, 0x01, 0xea, 0xe8, 0x17, 0x02, 0xdf, 0x47, 0xd4, 0xf7, 0x0b, 0x22, 0x2a, 0x16, 0xd3, 0x42, 0x00, 0x0e, 0x19, 0xec, 0xe7, 0xed, 0x1d, 0x27, 0x11, 0x1b, 0xed, 0x16, 0xfd, 0x26, 0x04, 0x35, 0x30, 0x2a, 0x10, 0xee, 0x0b, 0x0f, 0x1b, 0xe1, 0xa5, 0xf2, 0x13, 0xf2, 0xec, 0x3f, 0xb0, 0xdf, 0x9b, 0x07, 0x05, 0xd5, 0x33, 0x2f, 0xe6, 0xf5, 0x50, 0x18, 0xde, 0x13, 0x07, 0xdf, 0x14, 0x0f, 0x81, 0xd8, 0x2b, 0xf8, 0xd0, 0xde, 0x92, 0x35, 0x9c, 0xca, 0xe9, 0xf1, 0xec, 0xd5, 0xe7, 0x22, 0xf6, 0xeb, 0x26, 0xf0, 0xfa, 0x29, 0x13, 0x0a, 0xdb, 0x0b, 0xff, 0x35, 0x47, 0xff, 0xa5, 0x29, 0xc3, 0xec, 0xf4, 0xe4, 0xf9, 0x1e, 0x11, 0x31, 0x1c, 0xe1, 0xdb, 0x12, 0x25, 0x19, 0xe8, 0x0f, 0xc5, 0xf4, 0x0a, 0x0b, 0x06, 0x08, 0x99, 0x1b, 0xbf, 0xf8, 0xe5, 0xf2, 0x2a, 0x1d, 0x81, 0x00, 0x89, 0xf6, 0x22, 0x27, 0x2b, 0xf8, 0xdd, 0x17, 0x1f, 0xda, 0xdb, 0x0e, 0xfb, 0x0f, 0xcc, 0x12, 0xb5, 0x11, 0x18, 0xef, 0x16, 0x12, 0x87, 0xf4, 0x96, 0xee, 0x16, 0x20, 0x23, 0xf3, 0xd2, 0xe5, 0x0a, 0x01, 0xe4, 0x13, 0xec, 0x28, 0xb0, 0xc1, 0xbb, 0xed, 0x1d, 0x0a, 0x00, 0x0e, 0xa8, 0x11, 0x90, 0x15, 0xfb, 0xfc, 0x13, 0x22, 0xe8, 0x10, 0xb4, 0xeb, 0xe1, 0x12, 0x05, 0xfd, 0x9f, 0x02, 0xc7, 0xc5, 0xfe, 0xea, 0x1b, 0x2e, 0x92, 0x0d, 0xa0, 0xf1, 0x1d, 0xea, 0x3e, 0x14, 0x1e, 0xc5, 0xc0, 0xd0, 0xce, 0x44, 0x4f, 0xde, 0x81, 0xe6, 0x96, 0xd5, 0xf5, 0xf7, 0x11, 0xeb, 0xc6, 0xf3, 0xda, 0x29, 0x28, 0x16, 0xff, 0xff, 0x2e, 0x19, 0xe3, 0xe0, 0x32, 0x01, 0xe1, 0x1a, 0x8c, 0xef, 0xf5, 0x28, 0x24, 0xfe, 0x17, 0xe3, 0xb9, 0xee, 0xbc, 0x1d, 0xf7, 0xf7, 0x45, 0xe5, 0x2e, 0xea, 0x9f, 0xe8, 0x15, 0x2d, 0x16, 0x4c, 0xb2, 0x1d, 0x81, 0x0c, 0xd7, 0xf6, 0x36, 0x2b, 0xf4, 0x22, 0xeb, 0x1b, 0x01, 0x08, 0xee, 0xf7, 0x31, 0xc5, 0xe4, 0x20, 0xf4, 0x3c, 0x12, 0x48, 0xd5, 0x13, 0xed, 0xd7, 0x15, 0x12, 0x03, 0xe2, 0x01, 0xc4, 0x32, 0xd0, 0x1f, 0x29, 0x1f, 0xcf, 0xe3, 0xc1, 0xeb, 0xe9, 0xdf, 0x1b, 0x48, 0x01, 0xbf, 0x0f, 0xf9, 0x1b, 0x29, 0x18, 0x47, 0x0f, 0xc3, 0x15, 0xb6, 0x27, 0xd0, 0x02, 0x38, 0x32, 0x1a, 0x45, 0x81, 0x42, 0xd3, 0x31, 0x0c, 0x15, 0x93, 0xee, 0x81, 0xf9, 0xee, 0xd4, 0xfd, 0x50, 0x11, 0xf0, 0xe7, 0xf8, 0xd6, 0x2f, 0xfb, 0x00, 0xe3, 0x4a, 0xb6, 0xcf, 0x21, 0x1e, 0x13, 0x5c, 0xbb, 0xeb, 0xfd, 0x18, 0xf8, 0x36, 0x36, 0x0a, 0x24, 0x69, 0x23, 0xf3, 0x10, 0xe4, 0xd0, 0x05, 0x2a, 0xc2, 0xcb, 0x3b, 0x0c, 0xeb, 0x4f, 0xe4, 0xcb, 0x2b, 0xed, 0x1d, 0x2a, 0xef, 0x03, 0xfd, 0x23, 0x07, 0x01, 0x16, 0xde, 0xcf, 0x16, 0x06, 0xf3, 0x7f, 0x11, 0xf7, 0xfc, 0x02, 0xeb, 0x18, 0x38, 0x59, 0x0a, 0xe0, 0x05, 0x0c, 0xec, 0xfe, 0x50, 0x39, 0x48, 0x20, 0xf6, 0x12, 0x12, 0xec, 0x13, 0x00, 0x37, 0x24, 0x1b, 0xe5, 0xf6, 0x04, 0x1a, 0x20, 0x1b, 0x23, 0xe6, 0xde, 0xd3, 0x03, 0x0a, 0x24, 0x14, 0xfd, 0x14, 0xe9, 0xe5, 0x11, 0x19, 0x25, 0x3e, 0x0d, 0xed, 0xfb, 0xbd, 0xf1, 0xef, 0x1c, 0xed, 0xf9, 0x0e, 0xfb, 0xd6, 0x01, 0x1b, 0xde, 0x1e, 0x09, 0xe3, 0xeb, 0xff, 0xe3, 0x2f, 0x73, 0x48, 0x0e, 0xf3, 0xd0, 0xeb, 0xef, 0x4b, 0x7f, 0x2f, 0xf4, 0x02, 0xb4, 0xe7, 0xf8, 0x1d, 0x6e, 0x05, 0xc4, 0xf4, 0x04, 0x26, 0xe7, 0x1e, 0x6f, 0x20, 0x21, 0xdd, 0xa6, 0xa0, 0xdd, 0x30, 0x2a, 0x47, 0xfa, 0xe3, 0xa4, 0xb0, 0xdd, 0x1d, 0x07, 0x43, 0x18, 0x36, 0x08, 0x12, 0xfc, 0x2d, 0x1d, 0x2d, 0xea, 0xf0, 0xc6, 0xaf, 0xa3, 0x5b, 0xef, 0x01, 0x06, 0x38, 0xc1, 0x17, 0xca, 0x30, 0xc9, 0xe4, 0xca, 0x2f, 0x10, 0x0f, 0xf9, 0xc8, 0x57, 0x9e, 0x21, 0x1c, 0x1a, 0x5a, 0x1f, 0x81, 0x39, 0xb7, 0xe6, 0x00, 0x2f, 0x32, 0x29, 0xb8, 0x29, 0xfd, 0xe8, 0xe4, 0xff, 0x1f, 0x0c, 0xf6, 0x3e, 0xce, 0x1f, 0x21, 0x3a, 0xf5, 0x39, 0xfa, 0x28, 0xe0, 0xed, 0xf7, 0xdb, 0x1c, 0x18, 0x06, 0x35, 0x08, 0xf6, 0x1c, 0xda, 0xcf, 0x19, 0x39, 0x7f, 0x31, 0x16, 0xdc, 0x22, 0xbd, 0xf1, 0x17, 0x70, 0x3b, 0xd5, 0xdb, 0x05, 0xfb, 0xe9, 0x44, 0x5b, 0x3e, 0x09, 0x17, 0xe0, 0xf5, 0x0a, 0x2f, 0xec, 0x49, 0xcb, 0xf7, 0xca, 0xfb, 0xdc, 0x33, 0x81, 0x43, 0xbc, 0x3a, 0xc2, 0xbf, 0xd4, 0xcd, 0xe8, 0x99, 0x23, 0xf3, 0x2b, 0xf8, 0xe8, 0x24, 0xfc, 0x1e, 0xf3, 0xc3, 0x14, 0xaa, 0x36, 0x1e, 0xa6, 0x32, 0x37, 0xbc, 0x29, 0x4b, 0xfd, 0x02, 0x0a, 0xc7, 0xdf, 0xc4, 0x64, 0x14, 0x37, 0x30, 0x00, 0x2d, 0xea, 0x16, 0xf9, 0x48, 0x61, 0x68, 0x26, 0x6e, 0xe0, 0x12, 0x60, 0xee, 0x4c, 0x1d, 0x2d, 0x09, 0xe0, 0x17, 0x2f, 0x0a, 0xf1, 0xe9, 0xd0, 0x81, 0x3c, 0x5c, 0x24, 0xe5, 0x0c, 0xdc, 0x4c, 0x81, 0xe4, 0x33, 0xef, 0x0d, 0x49, 0x25, 0x5e, 0x7a, 0xbc, 0xe8, 0x12, 0xd3, 0x54, 0x14, 0xc8, 0x97, 0xc7, 0xf8, 0x2e, 0x55, 0xfc, 0xed, 0x55, 0xe1, 0xde, 0xee, 0xec, 0x33, 0x23, 0x32, 0xc3, 0x31, 0xe8, 0xb8, 0xd2, 0x1b, 0xf1, 0xf7, 0xc7, 0xc1, 0xd2, 0xdc, 0x26, 0x67, 0x5a, 0xf2, 0xbd, 0x9b, 0xd9, 0xd6, 0x61, 0x60, 0x19, 0x09, 0x41, 0xe1, 0x3c, 0x4e, 0xdc, 0x09, 0xbc, 0xb4, 0xe3, 0xff, 0xff, 0xb8, 0xe3, 0xff, 0xff, 0x02, 0xfd, 0xff, 0xff, 0x04, 0x00, 0x00, 0x00, 0x20, 0x00, 0x00, 0x00, 0x35, 0x01, 0x00, 0x00, 0xad, 0x02, 0x00, 0x00, 0x12, 0x01, 0x00, 0x00, 0x05, 0xfb, 0xff, 0xff, 0x68, 0xf9, 0xff, 0xff, 0x83, 0x04, 0x00, 0x00, 0x3e, 0x05, 0x00, 0x00, 0x07, 0x04, 0x00, 0x00, 0x2e, 0xfd, 0xff, 0xff, 0x04, 0x00, 0x00, 0x00, 0x40, 0x02, 0x00, 0x00, 0x2f, 0xf2, 0x05, 0xdc, 0x01, 0xd9, 0x7b, 0x10, 0x3a, 0x3c, 0x15, 0xfd, 0x5c, 0xfd, 0x67, 0xfe, 0x46, 0xfb, 0xba, 0xfb, 0x39, 0xda, 0x7f, 0xe1, 0x45, 0xfe, 0xff, 0x0a, 0xf1, 0xeb, 0x6e, 0xfa, 0x09, 0xe4, 0x29, 0xc6, 0x12, 0xfd, 0x31, 0xf3, 0xeb, 0x34, 0xc9, 0xff, 0x39, 0x06, 0x16, 0xe5, 0x2f, 0x28, 0xdd, 0xe7, 0x01, 0x2b, 0x4e, 0x13, 0x35, 0x1e, 0xec, 0xf5, 0x3f, 0x0b, 0x3f, 0xe0, 0x0a, 0xf6, 0xbb, 0xda, 0x35, 0x1e, 0x74, 0xe3, 0xaf, 0xe7, 0x21, 0x55, 0xcb, 0xea, 0x81, 0xec, 0xaf, 0x29, 0xf0, 0x14, 0x97, 0x2f, 0xe6, 0x3e, 0xab, 0xd6, 0x1a, 0xee, 0xcb, 0x0c, 0xc4, 0xee, 0xf6, 0xf5, 0x0a, 0x3d, 0xca, 0xf8, 0xd4, 0xd7, 0xe3, 0x04, 0x15, 0x05, 0xbd, 0x0a, 0x0b, 0xc8, 0x0d, 0x06, 0xd7, 0xe3, 0xe6, 0xe1, 0x21, 0xec, 0x25, 0x36, 0xf4, 0xf6, 0x38, 0xc9, 0xde, 0xd8, 0x6a, 0x37, 0xf3, 0xe3, 0x1b, 0xed, 0xf9, 0xd8, 0x6e, 0xfc, 0xdc, 0xed, 0x69, 0x13, 0x51, 0xe7, 0xe5, 0x13, 0xc6, 0x0f, 0x1e, 0xee, 0x3a, 0x01, 0x3e, 0xf6, 0x1f, 0xf3, 0x31, 0xeb, 0x7f, 0xfc, 0x47, 0x17, 0x01, 0xf8, 0x0f, 0x1c, 0x56, 0xe6, 0x32, 0xde, 0xbb, 0x04, 0x0c, 0xd5, 0x02, 0xda, 0x45, 0x0d, 0x00, 0xd2, 0x40, 0xe9, 0x33, 0x29, 0x1c, 0x03, 0x09, 0xfb, 0x2b, 0xf3, 0x12, 0x1d, 0xf2, 0xf7, 0xee, 0x07, 0x1f, 0x05, 0x17, 0x16, 0x1a, 0xff, 0xf2, 0xf8, 0x3c, 0xe0, 0x5d, 0xe4, 0x2e, 0x2d, 0xe2, 0x23, 0x43, 0xfb, 0x6d, 0xfb, 0xd4, 0x9c, 0x42, 0xa4, 0x60, 0xa6, 0x2b, 0x93, 0xdb, 0x2b, 0x15, 0x58, 0x3d, 0xca, 0xd1, 0x15, 0xee, 0xb9, 0x90, 0xc4, 0xcd, 0xf1, 0x81, 0x92, 0x0d, 0x08, 0xd1, 0xd4, 0x81, 0xc4, 0xc6, 0x63, 0x0b, 0x8e, 0xaf, 0xf2, 0xbd, 0xc3, 0xe5, 0x33, 0xf8, 0xff, 0xa2, 0x4c, 0x50, 0xc7, 0x2a, 0xd9, 0xc7, 0x33, 0x00, 0xad, 0xa6, 0xb8, 0x28, 0xf2, 0x4d, 0xeb, 0x6c, 0x40, 0x5c, 0x15, 0x36, 0x19, 0xfe, 0x51, 0x45, 0x3a, 0xce, 0xab, 0xb0, 0x10, 0xf4, 0x5b, 0x0a, 0xb4, 0x82, 0x15, 0xb2, 0xa7, 0x33, 0x03, 0x07, 0xb0, 0x8b, 0xc5, 0x4f, 0x29, 0x3c, 0x39, 0xd3, 0xa2, 0x2e, 0x9b, 0x92, 0x89, 0xc0, 0x9e, 0x81, 0x3f, 0xb0, 0x5e, 0xfb, 0x22, 0x5e, 0xca, 0x89, 0xca, 0x19, 0xa2, 0x12, 0xbe, 0xfc, 0x8f, 0xf9, 0x24, 0x09, 0x22, 0x23, 0x41, 0x57, 0x06, 0x94, 0x50, 0x67, 0x04, 0xfe, 0xa2, 0xc9, 0x94, 0x45, 0x36, 0x9a, 0x0b, 0xfe, 0x8d, 0x27, 0x11, 0xc1, 0xce, 0x3a, 0xc8, 0xb8, 0x54, 0xf4, 0xed, 0xf2, 0xf3, 0xfb, 0xfe, 0xd8, 0xfc, 0xed, 0x09, 0xef, 0xfa, 0xe2, 0x19, 0x81, 0x1c, 0xd6, 0x05, 0xd9, 0x20, 0xb8, 0xe0, 0x8d, 0xf9, 0x0f, 0x24, 0x22, 0xf8, 0x12, 0x02, 0xf3, 0x18, 0xfd, 0x06, 0x03, 0xe6, 0xd6, 0x06, 0xa0, 0x20, 0xd9, 0x0f, 0xbc, 0x1e, 0xf7, 0xea, 0xa5, 0x13, 0x18, 0xe0, 0xe3, 0x24, 0x12, 0x18, 0xed, 0x12, 0xba, 0xf1, 0xfa, 0x18, 0xc4, 0xfa, 0x91, 0xe7, 0xda, 0x16, 0xca, 0xf7, 0xbe, 0x10, 0x9a, 0x20, 0xde, 0x16, 0x2b, 0xfe, 0x0c, 0x16, 0xf7, 0xef, 0xe5, 0xfa, 0x0b, 0xf2, 0xba, 0x29, 0x89, 0x22, 0xd9, 0xf3, 0xe0, 0x2b, 0xdc, 0x02, 0xa9, 0x19, 0x20, 0x20, 0x01, 0xed, 0xf8, 0x29, 0xc5, 0x00, 0xda, 0x08, 0x18, 0x17, 0xc6, 0x1e, 0xaf, 0x2d, 0xe2, 0xf9, 0xbf, 0xe8, 0xd8, 0x01, 0xbf, 0x05, 0x06, 0x02, 0x0d, 0xed, 0xfe, 0x25, 0xd1, 0x02, 0xd5, 0xfe, 0x07, 0x21, 0xc3, 0xe4, 0x81, 0x13, 0xe5, 0x19, 0xdf, 0x18, 0xcf, 0xfc, 0xa6, 0xe4, 0xe1, 0x05, 0xf6, 0xe9, 0x0b, 0xfb, 0x07, 0x23, 0xea, 0x28, 0x03, 0x24, 0xea, 0x21, 0x81, 0xff, 0xd8, 0xf1, 0xf0, 0xe6, 0xa9, 0x28, 0xbe, 0xda, 0x03, 0x18, 0x29, 0x2a, 0x07, 0xe9, 0xed, 0x21, 0xf7, 0x25, 0xe3, 0xf4, 0xbd, 0x27, 0xa1, 0xf3, 0xe3, 0x26, 0x0c, 0x26, 0xd8, 0x08, 0xc3, 0x20, 0x10, 0x0f, 0x0d, 0x1d, 0xf4, 0x1c, 0xe3, 0x2e, 0xc3, 0xfc, 0x05, 0x0a, 0xf2, 0xff, 0x94, 0x1c, 0xbb, 0xf2, 0xea, 0xe1, 0xbe, 0x13, 0xcd, 0x05, 0x34, 0xe6, 0xff, 0xff, 0x7e, 0xff, 0xff, 0xff, 0x04, 0x00, 0x00, 0x00, 0x20, 0x00, 0x00, 0x00, 0x6b, 0xff, 0xff, 0xff, 0x4c, 0x0c, 0x00, 0x00, 0xcf, 0x00, 0x00, 0x00, 0x4f, 0x06, 0x00, 0x00, 0x7f, 0xff, 0xff, 0xff, 0xda, 0x05, 0x00, 0x00, 0x54, 0xff, 0xff, 0xff, 0xba, 0x07, 0x00, 0x00, 0xaa, 0xff, 0xff, 0xff, 0x04, 0x00, 0x00, 0x00, 0x48, 0x00, 0x00, 0x00, 0x24, 0x4f, 0x2c, 0x4a, 0x6c, 0x3a, 0x14, 0x7f, 0x77, 0x0e, 0x12, 0x9e, 0x21, 0x35, 0xe6, 0x72, 0x7a, 0x7f, 0x2a, 0x02, 0x9b, 0x10, 0x33, 0x81, 0xee, 0x11, 0xa9, 0xa5, 0xd6, 0x1d, 0xcf, 0xde, 0xa6, 0x81, 0xe3, 0xe1, 0x3d, 0x44, 0x30, 0x44, 0x5a, 0x7f, 0x12, 0x38, 0x61, 0x2e, 0xd4, 0x89, 0x2d, 0xf4, 0x81, 0x13, 0xe6, 0xe0, 0x50, 0x73, 0x5d, 0xea, 0x55, 0x4e, 0xfe, 0x7f, 0x2f, 0x21, 0xfc, 0x01, 0x01, 0xcd, 0x08, 0x28, 0x88, 0x81, 0x00, 0x00, 0x06, 0x00, 0x08, 0x00, 0x04, 0x00, 0x06, 0x00, 0x00, 0x00, 0x04, 0x00, 0x00, 0x00, 0x08, 0x00, 0x00, 0x00, 0xff, 0xff, 0xff, 0xff, 0x90, 0x01, 0x00, 0x00, 0xd4, 0xe6, 0xff, 0xff, 0xd8, 0xe6, 0xff, 0xff, 0x0f, 0x00, 0x00, 0x00, 0x4d, 0x4c, 0x49, 0x52, 0x20, 0x43, 0x6f, 0x6e, 0x76, 0x65, 0x72, 0x74, 0x65, 0x64, 0x2e, 0x00, 0x01, 0x00, 0x00, 0x00, 0x14, 0x00, 0x00, 0x00, 0x00, 0x00, 0x0e, 0x00, 0x18, 0x00, 0x14, 0x00, 0x10, 0x00, 0x0c, 0x00, 0x08, 0x00, 0x04, 0x00, 0x0e, 0x00, 0x00, 0x00, 0x14, 0x00, 0x00, 0x00, 0x1c, 0x00, 0x00, 0x00, 0x5c, 0x02, 0x00, 0x00, 0x60, 0x02, 0x00, 0x00, 0x64, 0x02, 0x00, 0x00, 0x04, 0x00, 0x00, 0x00, 0x6d, 0x61, 0x69, 0x6e, 0x00, 0x00, 0x00, 0x00, 0x08, 0x00, 0x00, 0x00, 0xf4, 0x01, 0x00, 0x00, 0xa0, 0x01, 0x00, 0x00, 0x4c, 0x01, 0x00, 0x00, 0xf8, 0x00, 0x00, 0x00, 0xb4, 0x00, 0x00, 0x00, 0x70, 0x00, 0x00, 0x00, 0x48, 0x00, 0x00, 0x00, 0x04, 0x00, 0x00, 0x00, 0xda, 0xfe, 0xff, 0xff, 0x14, 0x00, 0x00, 0x00, 0x00, 0x00, 0x00, 0x08, 0x10, 0x00, 0x00, 0x00, 0x14, 0x00, 0x00, 0x00, 0x03, 0x00, 0x00, 0x00, 0x68, 0xe7, 0xff, 0xff, 0x01, 0x00, 0x00, 0x00, 0x13, 0x00, 0x00, 0x00, 0x03, 0x00, 0x00, 0x00, 0x10, 0x00, 0x00, 0x00, 0x11, 0x00, 0x00, 0x00, 0x12, 0x00, 0x00, 0x00, 0x00, 0x00, 0x0a, 0x00, 0x10, 0x00, 0x0c, 0x00, 0x08, 0x00, 0x04, 0x00, 0x0a, 0x00, 0x00, 0x00, 0x0c, 0x00, 0x00, 0x00, 0x10, 0x00, 0x00, 0x00, 0x02, 0x00, 0x00, 0x00, 0x01, 0x00, 0x00, 0x00, 0x10, 0x00, 0x00, 0x00, 0x02, 0x00, 0x00, 0x00, 0x0f, 0x00, 0x00, 0x00, 0x01, 0x00, 0x00, 0x00, 0x3e, 0xff, 0xff, 0xff, 0x14, 0x00, 0x00, 0x00, 0x00, 0x00, 0x00, 0x05, 0x24, 0x00, 0x00, 0x00, 0x28, 0x00, 0x00, 0x00, 0x01, 0x00, 0x00, 0x00, 0x2e, 0xff, 0xff, 0xff, 0x02, 0x00, 0x00, 0x00, 0x02, 0x00, 0x00, 0x00, 0x02, 0x00, 0x00, 0x00, 0x02, 0x00, 0x00, 0x00, 0x00, 0x00, 0x00, 0x01, 0x01, 0x00, 0x00, 0x00, 0x0f, 0x00, 0x00, 0x00, 0x01, 0x00, 0x00, 0x00, 0x0e, 0x00, 0x00, 0x00, 0xde, 0xfe, 0xff, 0xff, 0x10, 0x00, 0x00, 0x00, 0x00, 0x00, 0x00, 0x01, 0x1c, 0x00, 0x00, 0x00, 0x20, 0x00, 0x00, 0x00, 0xd0, 0xfe, 0xff, 0xff, 0x00, 0x00, 0x00, 0x01, 0x01, 0x00, 0x00, 0x00, 0x01, 0x00, 0x00, 0x00, 0x00, 0x00, 0x00, 0x01, 0x01, 0x00, 0x00, 0x00, 0x0e, 0x00, 0x00, 0x00, 0x03, 0x00, 0x00, 0x00, 0x0b, 0x00, 0x00, 0x00, 0x0c, 0x00, 0x00, 0x00, 0x0d, 0x00, 0x00, 0x00, 0x1e, 0xff, 0xff, 0xff, 0x10, 0x00, 0x00, 0x00, 0x00, 0x00, 0x00, 0x01, 0x1c, 0x00, 0x00, 0x00, 0x20, 0x00, 0x00, 0x00, 0x10, 0xff, 0xff, 0xff, 0x00, 0x00, 0x00, 0x01, 0x01, 0x00, 0x00, 0x00, 0x01, 0x00, 0x00, 0x00, 0x00, 0x00, 0x00, 0x01, 0x01, 0x00, 0x00, 0x00, 0x0b, 0x00, 0x00, 0x00, 0x03, 0x00, 0x00, 0x00, 0x08, 0x00, 0x00, 0x00, 0x09, 0x00, 0x00, 0x00, 0x0a, 0x00, 0x00, 0x00, 0x00, 0x00, 0x0e, 0x00, 0x1a, 0x00, 0x14, 0x00, 0x10, 0x00, 0x0c, 0x00, 0x0b, 0x00, 0x04, 0x00, 0x0e, 0x00, 0x00, 0x00, 0x24, 0x00, 0x00, 0x00, 0x00, 0x00, 0x00, 0x05, 0x34, 0x00, 0x00, 0x00, 0x38, 0x00, 0x00, 0x00, 0x01, 0x00, 0x00, 0x00, 0x00, 0x00, 0x0e, 0x00, 0x18, 0x00, 0x17, 0x00, 0x10, 0x00, 0x0c, 0x00, 0x08, 0x00, 0x04, 0x00, 0x0e, 0x00, 0x00, 0x00, 0x02, 0x00, 0x00, 0x00, 0x02, 0x00, 0x00, 0x00, 0x02, 0x00, 0x00, 0x00, 0x02, 0x00, 0x00, 0x00, 0x00, 0x00, 0x00, 0x01, 0x01, 0x00, 0x00, 0x00, 0x08, 0x00, 0x00, 0x00, 0x01, 0x00, 0x00, 0x00, 0x07, 0x00, 0x00, 0x00, 0xbe, 0xff, 0xff, 0xff, 0x10, 0x00, 0x00, 0x00, 0x00, 0x00, 0x00, 0x01, 0x1c, 0x00, 0x00, 0x00, 0x20, 0x00, 0x00, 0x00, 0xb0, 0xff, 0xff, 0xff, 0x00, 0x00, 0x00, 0x01, 0x01, 0x00, 0x00, 0x00, 0x01, 0x00, 0x00, 0x00, 0x00, 0x00, 0x00, 0x01, 0x01, 0x00, 0x00, 0x00, 0x07, 0x00, 0x00, 0x00, 0x03, 0x00, 0x00, 0x00, 0x04, 0x00, 0x00, 0x00, 0x05, 0x00, 0x00, 0x00, 0x06, 0x00, 0x00, 0x00, 0x00, 0x00, 0x0e, 0x00, 0x14, 0x00, 0x00, 0x00, 0x10, 0x00, 0x0c, 0x00, 0x0b, 0x00, 0x04, 0x00, 0x0e, 0x00, 0x00, 0x00, 0x1c, 0x00, 0x00, 0x00, 0x00, 0x00, 0x00, 0x01, 0x28, 0x00, 0x00, 0x00, 0x2c, 0x00, 0x00, 0x00, 0x0c, 0x00, 0x14, 0x00, 0x13, 0x00, 0x0c, 0x00, 0x08, 0x00, 0x07, 0x00, 0x0c, 0x00, 0x00, 0x00, 0x00, 0x00, 0x00, 0x01, 0x01, 0x00, 0x00, 0x00, 0x01, 0x00, 0x00, 0x00, 0x00, 0x00, 0x00, 0x01, 0x01, 0x00, 0x00, 0x00, 0x04, 0x00, 0x00, 0x00, 0x03, 0x00, 0x00, 0x00, 0x00, 0x00, 0x00, 0x00, 0x02, 0x00, 0x00, 0x00, 0x03, 0x00, 0x00, 0x00, 0x01, 0x00, 0x00, 0x00, 0x13, 0x00, 0x00, 0x00, 0x01, 0x00, 0x00, 0x00, 0x00, 0x00, 0x00, 0x00, 0x14, 0x00, 0x00, 0x00, 0xec, 0x16, 0x00, 0x00, 0x60, 0x16, 0x00, 0x00, 0xa8, 0x14, 0x00, 0x00, 0xec, 0x13, 0x00, 0x00, 0x08, 0x12, 0x00, 0x00, 0x5c, 0x10, 0x00, 0x00, 0xa0, 0x0f, 0x00, 0x00, 0x0c, 0x0e, 0x00, 0x00, 0x50, 0x0d, 0x00, 0x00, 0x44, 0x0b, 0x00, 0x00, 0x28, 0x0a, 0x00, 0x00, 0x3c, 0x08, 0x00, 0x00, 0x30, 0x06, 0x00, 0x00, 0x14, 0x05, 0x00, 0x00, 0x80, 0x03, 0x00, 0x00, 0xbc, 0x02, 0x00, 0x00, 0x10, 0x02, 0x00, 0x00, 0xd4, 0x00, 0x00, 0x00, 0x70, 0x00, 0x00, 0x00, 0x04, 0x00, 0x00, 0x00, 0x78, 0xe9, 0xff, 0xff, 0x18, 0x00, 0x00, 0x00, 0x20, 0x00, 0x00, 0x00, 0x40, 0x00, 0x00, 0x00, 0x14, 0x00, 0x00, 0x00, 0x00, 0x00, 0x00, 0x09, 0x44, 0x00, 0x00, 0x00, 0x02, 0x00, 0x00, 0x00, 0xff, 0xff, 0xff, 0xff, 0x02, 0x00, 0x00, 0x00, 0x5c, 0xe9, 0xff, 0xff, 0x08, 0x00, 0x00, 0x00, 0x14, 0x00, 0x00, 0x00, 0x01, 0x00, 0x00, 0x00, 0x06, 0x00, 0x00, 0x00, 0x00, 0x00, 0x00, 0x00, 0x00, 0x00, 0x00, 0x00, 0x01, 0x00, 0x00, 0x00, 0x81, 0x56, 0x27, 0x3d, 0x08, 0x00, 0x00, 0x00, 0x49, 0x64, 0x65, 0x6e, 0x74, 0x69, 0x74, 0x79, 0x00, 0x00, 0x00, 0x00, 0x02, 0x00, 0x00, 0x00, 0x01, 0x00, 0x00, 0x00, 0x02, 0x00, 0x00, 0x00, 0x62, 0xea, 0xff, 0xff, 0x14, 0x00, 0x00, 0x00, 0x30, 0x00, 0x00, 0x00, 0x13, 0x00, 0x00, 0x00, 0x00, 0x00, 0x00, 0x02, 0x44, 0x00, 0x00, 0x00, 0xb4, 0xe9, 0xff, 0xff, 0x08, 0x00, 0x00, 0x00, 0x10, 0x00, 0x00, 0x00, 0x01, 0x00, 0x00, 0x00, 0x00, 0x00, 0x00, 0x00, 0x00, 0x00, 0x00, 0x00, 0x01, 0x00, 0x00, 0x00, 0x8d, 0x7d, 0x44, 0x38, 0x1b, 0x00, 0x00, 0x00, 0x73, 0x65, 0x71, 0x75, 0x65, 0x6e, 0x74, 0x69, 0x61, 0x6c, 0x2f, 0x71, 0x75, 0x61, 0x6e, 0x74, 0x5f, 0x64, 0x65, 0x6e, 0x73, 0x65, 0x2f, 0x35, 0x33, 0x36, 0x34, 0x00, 0x01, 0x00, 0x00, 0x00, 0x02, 0x00, 0x00, 0x00, 0xc2, 0xea, 0xff, 0xff, 0x14, 0x00, 0x00, 0x00, 0x34, 0x00, 0x00, 0x00, 0x12, 0x00, 0x00, 0x00, 0x00, 0x00, 0x00, 0x09, 0x18, 0x01, 0x00, 0x00, 0x14, 0xea, 0xff, 0xff, 0x08, 0x00, 0x00, 0x00, 0x14, 0x00, 0x00, 0x00, 0x01, 0x00, 0x00, 0x00, 0x00, 0x00, 0x00, 0x00, 0x00, 0x00, 0x00, 0x00, 0x00, 0x00, 0x00, 0x00, 0x01, 0x00, 0x00, 0x00, 0xe3, 0x8c, 0x90, 0x3b, 0xe9, 0x00, 0x00, 0x00, 0x4d, 0x61, 0x74, 0x4d, 0x75, 0x6c, 0x3b, 0x73, 0x65, 0x71, 0x75, 0x65, 0x6e, 0x74, 0x69, 0x61, 0x6c, 0x2f, 0x71, 0x75, 0x61, 0x6e, 0x74, 0x5f, 0x64, 0x65, 0x6e, 0x73, 0x65, 0x2f, 0x53, 0x74, 0x61, 0x74, 0x65, 0x66, 0x75, 0x6c, 0x50, 0x61, 0x72, 0x74, 0x69, 0x74, 0x69, 0x6f, 0x6e, 0x65, 0x64, 0x43, 0x61, 0x6c, 0x6c, 0x2f, 0x53, 0x74, 0x61, 0x74, 0x65, 0x66, 0x75, 0x6c, 0x50, 0x61, 0x72, 0x74, 0x69, 0x74, 0x69, 0x6f, 0x6e, 0x65, 0x64, 0x43, 0x61, 0x6c, 0x6c, 0x2f, 0x4d, 0x61, 0x74, 0x4d, 0x75, 0x6c, 0x3b, 0x4c, 0x61, 0x73, 0x74, 0x56, 0x61, 0x6c, 0x75, 0x65, 0x51, 0x75, 0x61, 0x6e, 0x74, 0x2f, 0x46, 0x61, 0x6b, 0x65, 0x51, 0x75, 0x61, 0x6e, 0x74, 0x57, 0x69, 0x74, 0x68, 0x4d, 0x69, 0x6e, 0x4d, 0x61, 0x78, 0x56, 0x61, 0x72, 0x73, 0x3b, 0x73, 0x65, 0x71, 0x75, 0x65, 0x6e, 0x74, 0x69, 0x61, 0x6c, 0x2f, 0x71, 0x75, 0x61, 0x6e, 0x74, 0x5f, 0x64, 0x65, 0x6e, 0x73, 0x65, 0x2f, 0x53, 0x74, 0x61, 0x74, 0x65, 0x66, 0x75, 0x6c, 0x50, 0x61, 0x72, 0x74, 0x69, 0x74, 0x69, 0x6f, 0x6e, 0x65, 0x64, 0x43, 0x61, 0x6c, 0x6c, 0x2f, 0x53, 0x74, 0x61, 0x74, 0x65, 0x66, 0x75, 0x6c, 0x50, 0x61, 0x72, 0x74, 0x69, 0x74, 0x69, 0x6f, 0x6e, 0x65, 0x64, 0x43, 0x61, 0x6c, 0x6c, 0x2f, 0x4c, 0x61, 0x73, 0x74, 0x56, 0x61, 0x6c, 0x75, 0x65, 0x51, 0x75, 0x61, 0x6e, 0x74, 0x2f, 0x46, 0x61, 0x6b, 0x65, 0x51, 0x75, 0x61, 0x6e, 0x74, 0x57, 0x69, 0x74, 0x68, 0x4d, 0x69, 0x6e, 0x4d, 0x61, 0x78, 0x56, 0x61, 0x72, 0x73, 0x00, 0x00, 0x00, 0x02, 0x00, 0x00, 0x00, 0x02, 0x00, 0x00, 0x00, 0x90, 0x01, 0x00, 0x00, 0x78, 0xeb, 0xff, 0xff, 0x18, 0x00, 0x00, 0x00, 0x20, 0x00, 0x00, 0x00, 0x40, 0x00, 0x00, 0x00, 0x11, 0x00, 0x00, 0x00, 0x00, 0x00, 0x00, 0x09, 0x84, 0x00, 0x00, 0x00, 0x02, 0x00, 0x00, 0x00, 0xff, 0xff, 0xff, 0xff, 0x90, 0x01, 0x00, 0x00, 0x5c, 0xeb, 0xff, 0xff, 0x08, 0x00, 0x00, 0x00, 0x14, 0x00, 0x00, 0x00, 0x01, 0x00, 0x00, 0x00, 0xb9, 0xff, 0xff, 0xff, 0xff, 0xff, 0xff, 0xff, 0x00, 0x00, 0x00, 0x00, 0x01, 0x00, 0x00, 0x00, 0x42, 0xfe, 0x2d, 0x3c, 0x48, 0x00, 0x00, 0x00, 0x52, 0x65, 0x73, 0x68, 0x61, 0x70, 0x65, 0x3b, 0x73, 0x65, 0x71, 0x75, 0x65, 0x6e, 0x74, 0x69, 0x61, 0x6c, 0x2f, 0x71, 0x75, 0x61, 0x6e, 0x74, 0x5f, 0x66, 0x6c, 0x61, 0x74, 0x74, 0x65, 0x6e, 0x2f, 0x50, 0x61, 0x72, 0x74, 0x69, 0x74, 0x69, 0x6f, 0x6e, 0x65, 0x64, 0x43, 0x61, 0x6c, 0x6c, 0x2f, 0x50, 0x61, 0x72, 0x74, 0x69, 0x74, 0x69, 0x6f, 0x6e, 0x65, 0x64, 0x43, 0x61, 0x6c, 0x6c, 0x2f, 0x52, 0x65, 0x73, 0x68, 0x61, 0x70, 0x65, 0x00, 0x00, 0x00, 0x00, 0x02, 0x00, 0x00, 0x00, 0x01, 0x00, 0x00, 0x00, 0x90, 0x01, 0x00, 0x00, 0x20, 0xec, 0xff, 0xff, 0x18, 0x00, 0x00, 0x00, 0x28, 0x00, 0x00, 0x00, 0x48, 0x00, 0x00, 0x00, 0x10, 0x00, 0x00, 0x00, 0x00, 0x00, 0x00, 0x09, 0x94, 0x00, 0x00, 0x00, 0x04, 0x00, 0x00, 0x00, 0xff, 0xff, 0xff, 0xff, 0x05, 0x00, 0x00, 0x00, 0x05, 0x00, 0x00, 0x00, 0x10, 0x00, 0x00, 0x00, 0x0c, 0xec, 0xff, 0xff, 0x08, 0x00, 0x00, 0x00, 0x14, 0x00, 0x00, 0x00, 0x01, 0x00, 0x00, 0x00, 0xb9, 0xff, 0xff, 0xff, 0xff, 0xff, 0xff, 0xff, 0x00, 0x00, 0x00, 0x00, 0x01, 0x00, 0x00, 0x00, 0x42, 0xfe, 0x2d, 0x3c, 0x50, 0x00, 0x00, 0x00, 0x4d, 0x61, 0x78, 0x50, 0x6f, 0x6f, 0x6c, 0x3b, 0x73, 0x65, 0x71, 0x75, 0x65, 0x6e, 0x74, 0x69, 0x61, 0x6c, 0x2f, 0x71, 0x75, 0x61, 0x6e, 0x74, 0x5f, 0x6d, 0x61, 0x78, 0x5f, 0x70, 0x6f, 0x6f, 0x6c, 0x69, 0x6e, 0x67, 0x32, 0x64, 0x5f, 0x31, 0x2f, 0x50, 0x61, 0x72, 0x74, 0x69, 0x74, 0x69, 0x6f, 0x6e, 0x65, 0x64, 0x43, 0x61, 0x6c, 0x6c, 0x2f, 0x50, 0x61, 0x72, 0x74, 0x69, 0x74, 0x69, 0x6f, 0x6e, 0x65, 0x64, 0x43, 0x61, 0x6c, 0x6c, 0x2f, 0x4d, 0x61, 0x78, 0x50, 0x6f, 0x6f, 0x6c, 0x00, 0x00, 0x00, 0x00, 0x04, 0x00, 0x00, 0x00, 0x01, 0x00, 0x00, 0x00, 0x05, 0x00, 0x00, 0x00, 0x05, 0x00, 0x00, 0x00, 0x10, 0x00, 0x00, 0x00, 0xe0, 0xec, 0xff, 0xff, 0x18, 0x00, 0x00, 0x00, 0x28, 0x00, 0x00, 0x00, 0x44, 0x00, 0x00, 0x00, 0x0f, 0x00, 0x00, 0x00, 0x00, 0x00, 0x00, 0x09, 0x64, 0x01, 0x00, 0x00, 0x04, 0x00, 0x00, 0x00, 0xff, 0xff, 0xff, 0xff, 0x0a, 0x00, 0x00, 0x00, 0x0a, 0x00, 0x00, 0x00, 0x10, 0x00, 0x00, 0x00, 0xcc, 0xec, 0xff, 0xff, 0x08, 0x00, 0x00, 0x00, 0x10, 0x00, 0x00, 0x00, 0x01, 0x00, 0x00, 0x00, 0xb9, 0xff, 0xff, 0xff, 0xff, 0xff, 0xff, 0xff, 0x01, 0x00, 0x00, 0x00, 0x42, 0xfe, 0x2d, 0x3c, 0x24, 0x01, 0x00, 0x00, 0x52, 0x65, 0x6c, 0x75, 0x3b, 0x73, 0x65, 0x71, 0x75, 0x65, 0x6e, 0x74, 0x69, 0x61, 0x6c, 0x2f, 0x71, 0x75, 0x61, 0x6e, 0x74, 0x5f, 0x63, 0x6f, 0x6e, 0x76, 0x32, 0x64, 0x5f, 0x33, 0x2f, 0x53, 0x74, 0x61, 0x74, 0x65, 0x66, 0x75, 0x6c, 0x50, 0x61, 0x72, 0x74, 0x69, 0x74, 0x69, 0x6f, 0x6e, 0x65, 0x64, 0x43, 0x61, 0x6c, 0x6c, 0x2f, 0x53, 0x74, 0x61, 0x74, 0x65, 0x66, 0x75, 0x6c, 0x50, 0x61, 0x72, 0x74, 0x69, 0x74, 0x69, 0x6f, 0x6e, 0x65, 0x64, 0x43, 0x61, 0x6c, 0x6c, 0x2f, 0x52, 0x65, 0x6c, 0x75, 0x3b, 0x42, 0x69, 0x61, 0x73, 0x41, 0x64, 0x64, 0x3b, 0x73, 0x65, 0x71, 0x75, 0x65, 0x6e, 0x74, 0x69, 0x61, 0x6c, 0x2f, 0x71, 0x75, 0x61, 0x6e, 0x74, 0x5f, 0x63, 0x6f, 0x6e, 0x76, 0x32, 0x64, 0x5f, 0x33, 0x2f, 0x53, 0x74, 0x61, 0x74, 0x65, 0x66, 0x75, 0x6c, 0x50, 0x61, 0x72, 0x74, 0x69, 0x74, 0x69, 0x6f, 0x6e, 0x65, 0x64, 0x43, 0x61, 0x6c, 0x6c, 0x2f, 0x53, 0x74, 0x61, 0x74, 0x65, 0x66, 0x75, 0x6c, 0x50, 0x61, 0x72, 0x74, 0x69, 0x74, 0x69, 0x6f, 0x6e, 0x65, 0x64, 0x43, 0x61, 0x6c, 0x6c, 0x2f, 0x42, 0x69, 0x61, 0x73, 0x41, 0x64, 0x64, 0x3b, 0x43, 0x6f, 0x6e, 0x76, 0x32, 0x44, 0x3b, 0x73, 0x65, 0x71, 0x75, 0x65, 0x6e, 0x74, 0x69, 0x61, 0x6c, 0x2f, 0x71, 0x75, 0x61, 0x6e, 0x74, 0x5f, 0x63, 0x6f, 0x6e, 0x76, 0x32, 0x64, 0x5f, 0x33, 0x2f, 0x53, 0x74, 0x61, 0x74, 0x65, 0x66, 0x75, 0x6c, 0x50, 0x61, 0x72, 0x74, 0x69, 0x74, 0x69, 0x6f, 0x6e, 0x65, 0x64, 0x43, 0x61, 0x6c, 0x6c, 0x2f, 0x53, 0x74, 0x61, 0x74, 0x65, 0x66, 0x75, 0x6c, 0x50, 0x61, 0x72, 0x74, 0x69, 0x74, 0x69, 0x6f, 0x6e, 0x65, 0x64, 0x43, 0x61, 0x6c, 0x6c, 0x2f, 0x43, 0x6f, 0x6e, 0x76, 0x32, 0x44, 0x3b, 0x73, 0x65, 0x71, 0x75, 0x65, 0x6e, 0x74, 0x69, 0x61, 0x6c, 0x2f, 0x71, 0x75, 0x61, 0x6e, 0x74, 0x5f, 0x63, 0x6f, 0x6e, 0x76, 0x32, 0x64, 0x5f, 0x33, 0x2f, 0x35, 0x33, 0x34, 0x38, 0x00, 0x00, 0x00, 0x00, 0x04, 0x00, 0x00, 0x00, 0x01, 0x00, 0x00, 0x00, 0x0a, 0x00, 0x00, 0x00, 0x0a, 0x00, 0x00, 0x00, 0x10, 0x00, 0x00, 0x00, 0xf2, 0xee, 0xff, 0xff, 0x14, 0x00, 0x00, 0x00, 0xe4, 0x00, 0x00, 0x00, 0x0e, 0x00, 0x00, 0x00, 0x00, 0x00, 0x00, 0x02, 0xfc, 0x00, 0x00, 0x00, 0x44, 0xee, 0xff, 0xff, 0x08, 0x00, 0x00, 0x00, 0x88, 0x00, 0x00, 0x00, 0x10, 0x00, 0x00, 0x00, 0x00, 0x00, 0x00, 0x00, 0x00, 0x00, 0x00, 0x00, 0x00, 0x00, 0x00, 0x00, 0x00, 0x00, 0x00, 0x00, 0x00, 0x00, 0x00, 0x00, 0x00, 0x00, 0x00, 0x00, 0x00, 0x00, 0x00, 0x00, 0x00, 0x00, 0x00, 0x00, 0x00, 0x00, 0x00, 0x00, 0x00, 0x00, 0x00, 0x00, 0x00, 0x00, 0x00, 0x00, 0x00, 0x00, 0x00, 0x00, 0x00, 0x00, 0x00, 0x00, 0x00, 0x00, 0x00, 0x00, 0x00, 0x00, 0x00, 0x00, 0x00, 0x00, 0x00, 0x00, 0x00, 0x00, 0x00, 0x00, 0x00, 0x00, 0x00, 0x00, 0x00, 0x00, 0x00, 0x00, 0x00, 0x00, 0x00, 0x00, 0x00, 0x00, 0x00, 0x00, 0x00, 0x00, 0x00, 0x00, 0x00, 0x00, 0x00, 0x00, 0x00, 0x00, 0x00, 0x00, 0x00, 0x00, 0x00, 0x00, 0x00, 0x00, 0x00, 0x00, 0x00, 0x00, 0x00, 0x00, 0x00, 0x00, 0x00, 0x00, 0x00, 0x00, 0x00, 0x00, 0x00, 0x00, 0x00, 0x00, 0x00, 0x00, 0x00, 0x00, 0x00, 0x00, 0x00, 0x00, 0x10, 0x00, 0x00, 0x00, 0x44, 0x0b, 0x8c, 0x37, 0x9e, 0x27, 0xdf, 0x37, 0x0e, 0x31, 0xb4, 0x37, 0x80, 0xa1, 0xc9, 0x37, 0xe0, 0x0a, 0x94, 0x37, 0xfb, 0x4c, 0x7a, 0x37, 0x9e, 0x83, 0xa4, 0x37, 0x79, 0x60, 0xbe, 0x37, 0x37, 0x5c, 0x83, 0x37, 0x1d, 0x72, 0xda, 0x37, 0x12, 0x00, 0x07, 0x38, 0xba, 0x87, 0xfb, 0x37, 0x58, 0xd9, 0x84, 0x37, 0x92, 0x02, 0x05, 0x38, 0x82, 0x93, 0x03, 0x38, 0x9e, 0xda, 0xad, 0x37, 0x1e, 0x00, 0x00, 0x00, 0x73, 0x65, 0x71, 0x75, 0x65, 0x6e, 0x74, 0x69, 0x61, 0x6c, 0x2f, 0x71, 0x75, 0x61, 0x6e, 0x74, 0x5f, 0x63, 0x6f, 0x6e, 0x76, 0x32, 0x64, 0x5f, 0x33, 0x2f, 0x35, 0x33, 0x34, 0x38, 0x00, 0x00, 0x01, 0x00, 0x00, 0x00, 0x10, 0x00, 0x00, 0x00, 0x0a, 0xf0, 0xff, 0xff, 0x14, 0x00, 0x00, 0x00, 0xe4, 0x00, 0x00, 0x00, 0x0d, 0x00, 0x00, 0x00, 0x00, 0x00, 0x00, 0x09, 0xe0, 0x01, 0x00, 0x00, 0x5c, 0xef, 0xff, 0xff, 0x08, 0x00, 0x00, 0x00, 0x88, 0x00, 0x00, 0x00, 0x10, 0x00, 0x00, 0x00, 0x00, 0x00, 0x00, 0x00, 0x00, 0x00, 0x00, 0x00, 0x00, 0x00, 0x00, 0x00, 0x00, 0x00, 0x00, 0x00, 0x00, 0x00, 0x00, 0x00, 0x00, 0x00, 0x00, 0x00, 0x00, 0x00, 0x00, 0x00, 0x00, 0x00, 0x00, 0x00, 0x00, 0x00, 0x00, 0x00, 0x00, 0x00, 0x00, 0x00, 0x00, 0x00, 0x00, 0x00, 0x00, 0x00, 0x00, 0x00, 0x00, 0x00, 0x00, 0x00, 0x00, 0x00, 0x00, 0x00, 0x00, 0x00, 0x00, 0x00, 0x00, 0x00, 0x00, 0x00, 0x00, 0x00, 0x00, 0x00, 0x00, 0x00, 0x00, 0x00, 0x00, 0x00, 0x00, 0x00, 0x00, 0x00, 0x00, 0x00, 0x00, 0x00, 0x00, 0x00, 0x00, 0x00, 0x00, 0x00, 0x00, 0x00, 0x00, 0x00, 0x00, 0x00, 0x00, 0x00, 0x00, 0x00, 0x00, 0x00, 0x00, 0x00, 0x00, 0x00, 0x00, 0x00, 0x00, 0x00, 0x00, 0x00, 0x00, 0x00, 0x00, 0x00, 0x00, 0x00, 0x00, 0x00, 0x00, 0x00, 0x00, 0x00, 0x00, 0x00, 0x00, 0x00, 0x00, 0x00, 0x10, 0x00, 0x00, 0x00, 0xba, 0x09, 0xd3, 0x3a, 0xf7, 0x23, 0x28, 0x3b, 0xe0, 0xc4, 0x07, 0x3b, 0x42, 0xec, 0x17, 0x3b, 0x5c, 0x17, 0xdf, 0x3a, 0x1b, 0x98, 0xbc, 0x3a, 0xbc, 0xe9, 0xf7, 0x3a, 0x7d, 0x71, 0x0f, 0x3b, 0xb9, 0xf3, 0xc5, 0x3a, 0xa7, 0x97, 0x24, 0x3b, 0xfa, 0x6f, 0x4b, 0x3b, 0x42, 0x85, 0x3d, 0x3b, 0x10, 0x32, 0xc8, 0x3a, 0x31, 0x70, 0x48, 0x3b, 0x0c, 0x47, 0x46, 0x3b, 0x6b, 0xfe, 0x02, 0x3b, 0x03, 0x01, 0x00, 0x00, 0x43, 0x6f, 0x6e, 0x76, 0x32, 0x44, 0x3b, 0x73, 0x65, 0x71, 0x75, 0x65, 0x6e, 0x74, 0x69, 0x61, 0x6c, 0x2f, 0x71, 0x75, 0x61, 0x6e, 0x74, 0x5f, 0x63, 0x6f, 0x6e, 0x76, 0x32, 0x64, 0x5f, 0x33, 0x2f, 0x53, 0x74, 0x61, 0x74, 0x65, 0x66, 0x75, 0x6c, 0x50, 0x61, 0x72, 0x74, 0x69, 0x74, 0x69, 0x6f, 0x6e, 0x65, 0x64, 0x43, 0x61, 0x6c, 0x6c, 0x2f, 0x53, 0x74, 0x61, 0x74, 0x65, 0x66, 0x75, 0x6c, 0x50, 0x61, 0x72, 0x74, 0x69, 0x74, 0x69, 0x6f, 0x6e, 0x65, 0x64, 0x43, 0x61, 0x6c, 0x6c, 0x2f, 0x43, 0x6f, 0x6e, 0x76, 0x32, 0x44, 0x3b, 0x4c, 0x61, 0x73, 0x74, 0x56, 0x61, 0x6c, 0x75, 0x65, 0x51, 0x75, 0x61, 0x6e, 0x74, 0x2f, 0x46, 0x61, 0x6b, 0x65, 0x51, 0x75, 0x61, 0x6e, 0x74, 0x57, 0x69, 0x74, 0x68, 0x4d, 0x69, 0x6e, 0x4d, 0x61, 0x78, 0x56, 0x61, 0x72, 0x73, 0x50, 0x65, 0x72, 0x43, 0x68, 0x61, 0x6e, 0x6e, 0x65, 0x6c, 0x3b, 0x73, 0x65, 0x71, 0x75, 0x65, 0x6e, 0x74, 0x69, 0x61, 0x6c, 0x2f, 0x71, 0x75, 0x61, 0x6e, 0x74, 0x5f, 0x63, 0x6f, 0x6e, 0x76, 0x32, 0x64, 0x5f, 0x33, 0x2f, 0x53, 0x74, 0x61, 0x74, 0x65, 0x66, 0x75, 0x6c, 0x50, 0x61, 0x72, 0x74, 0x69, 0x74, 0x69, 0x6f, 0x6e, 0x65, 0x64, 0x43, 0x61, 0x6c, 0x6c, 0x2f, 0x53, 0x74, 0x61, 0x74, 0x65, 0x66, 0x75, 0x6c, 0x50, 0x61, 0x72, 0x74, 0x69, 0x74, 0x69, 0x6f, 0x6e, 0x65, 0x64, 0x43, 0x61, 0x6c, 0x6c, 0x2f, 0x4c, 0x61, 0x73, 0x74, 0x56, 0x61, 0x6c, 0x75, 0x65, 0x51, 0x75, 0x61, 0x6e, 0x74, 0x2f, 0x46, 0x61, 0x6b, 0x65, 0x51, 0x75, 0x61, 0x6e, 0x74, 0x57, 0x69, 0x74, 0x68, 0x4d, 0x69, 0x6e, 0x4d, 0x61, 0x78, 0x56, 0x61, 0x72, 0x73, 0x50, 0x65, 0x72, 0x43, 0x68, 0x61, 0x6e, 0x6e, 0x65, 0x6c, 0x00, 0x04, 0x00, 0x00, 0x00, 0x10, 0x00, 0x00, 0x00, 0x03, 0x00, 0x00, 0x00, 0x03, 0x00, 0x00, 0x00, 0x10, 0x00, 0x00, 0x00, 0x90, 0xf1, 0xff, 0xff, 0x18, 0x00, 0x00, 0x00, 0x28, 0x00, 0x00, 0x00, 0x44, 0x00, 0x00, 0x00, 0x0c, 0x00, 0x00, 0x00, 0x00, 0x00, 0x00, 0x09, 0xbc, 0x01, 0x00, 0x00, 0x04, 0x00, 0x00, 0x00, 0xff, 0xff, 0xff, 0xff, 0x0c, 0x00, 0x00, 0x00, 0x0c, 0x00, 0x00, 0x00, 0x10, 0x00, 0x00, 0x00, 0x7c, 0xf1, 0xff, 0xff, 0x08, 0x00, 0x00, 0x00, 0x10, 0x00, 0x00, 0x00, 0x01, 0x00, 0x00, 0x00, 0xba, 0xff, 0xff, 0xff, 0xff, 0xff, 0xff, 0xff, 0x01, 0x00, 0x00, 0x00, 0x6f, 0xe1, 0x29, 0x3c, 0x7c, 0x01, 0x00, 0x00, 0x52, 0x65, 0x6c, 0x75, 0x3b, 0x73, 0x65, 0x71, 0x75, 0x65, 0x6e, 0x74, 0x69, 0x61, 0x6c, 0x2f, 0x71, 0x75, 0x61, 0x6e, 0x74, 0x5f, 0x63, 0x6f, 0x6e, 0x76, 0x32, 0x64, 0x5f, 0x32, 0x2f, 0x53, 0x74, 0x61, 0x74, 0x65, 0x66, 0x75, 0x6c, 0x50, 0x61, 0x72, 0x74, 0x69, 0x74, 0x69, 0x6f, 0x6e, 0x65, 0x64, 0x43, 0x61, 0x6c, 0x6c, 0x2f, 0x53, 0x74, 0x61, 0x74, 0x65, 0x66, 0x75, 0x6c, 0x50, 0x61, 0x72, 0x74, 0x69, 0x74, 0x69, 0x6f, 0x6e, 0x65, 0x64, 0x43, 0x61, 0x6c, 0x6c, 0x2f, 0x52, 0x65, 0x6c, 0x75, 0x3b, 0x42, 0x69, 0x61, 0x73, 0x41, 0x64, 0x64, 0x3b, 0x73, 0x65, 0x71, 0x75, 0x65, 0x6e, 0x74, 0x69, 0x61, 0x6c, 0x2f, 0x71, 0x75, 0x61, 0x6e, 0x74, 0x5f, 0x63, 0x6f, 0x6e, 0x76, 0x32, 0x64, 0x5f, 0x32, 0x2f, 0x53, 0x74, 0x61, 0x74, 0x65, 0x66, 0x75, 0x6c, 0x50, 0x61, 0x72, 0x74, 0x69, 0x74, 0x69, 0x6f, 0x6e, 0x65, 0x64, 0x43, 0x61, 0x6c, 0x6c, 0x2f, 0x53, 0x74, 0x61, 0x74, 0x65, 0x66, 0x75, 0x6c, 0x50, 0x61, 0x72, 0x74, 0x69, 0x74, 0x69, 0x6f, 0x6e, 0x65, 0x64, 0x43, 0x61, 0x6c, 0x6c, 0x2f, 0x42, 0x69, 0x61, 0x73, 0x41, 0x64, 0x64, 0x3b, 0x43, 0x6f, 0x6e, 0x76, 0x32, 0x44, 0x3b, 0x73, 0x65, 0x71, 0x75, 0x65, 0x6e, 0x74, 0x69, 0x61, 0x6c, 0x2f, 0x71, 0x75, 0x61, 0x6e, 0x74, 0x5f, 0x63, 0x6f, 0x6e, 0x76, 0x32, 0x64, 0x5f, 0x33, 0x2f, 0x53, 0x74, 0x61, 0x74, 0x65, 0x66, 0x75, 0x6c, 0x50, 0x61, 0x72, 0x74, 0x69, 0x74, 0x69, 0x6f, 0x6e, 0x65, 0x64, 0x43, 0x61, 0x6c, 0x6c, 0x2f, 0x53, 0x74, 0x61, 0x74, 0x65, 0x66, 0x75, 0x6c, 0x50, 0x61, 0x72, 0x74, 0x69, 0x74, 0x69, 0x6f, 0x6e, 0x65, 0x64, 0x43, 0x61, 0x6c, 0x6c, 0x2f, 0x43, 0x6f, 0x6e, 0x76, 0x32, 0x44, 0x3b, 0x43, 0x6f, 0x6e, 0x76, 0x32, 0x44, 0x3b, 0x73, 0x65, 0x71, 0x75, 0x65, 0x6e, 0x74, 0x69, 0x61, 0x6c, 0x2f, 0x71, 0x75, 0x61, 0x6e, 0x74, 0x5f, 0x63, 0x6f, 0x6e, 0x76, 0x32, 0x64, 0x5f, 0x32, 0x2f, 0x53, 0x74, 0x61, 0x74, 0x65, 0x66, 0x75, 0x6c, 0x50, 0x61, 0x72, 0x74, 0x69, 0x74, 0x69, 0x6f, 0x6e, 0x65, 0x64, 0x43, 0x61, 0x6c, 0x6c, 0x2f, 0x53, 0x74, 0x61, 0x74, 0x65, 0x66, 0x75, 0x6c, 0x50, 0x61, 0x72, 0x74, 0x69, 0x74, 0x69, 0x6f, 0x6e, 0x65, 0x64, 0x43, 0x61, 0x6c, 0x6c, 0x2f, 0x43, 0x6f, 0x6e, 0x76, 0x32, 0x44, 0x3b, 0x73, 0x65, 0x71, 0x75, 0x65, 0x6e, 0x74, 0x69, 0x61, 0x6c, 0x2f, 0x71, 0x75, 0x61, 0x6e, 0x74, 0x5f, 0x63, 0x6f, 0x6e, 0x76, 0x32, 0x64, 0x5f, 0x32, 0x2f, 0x35, 0x33, 0x33, 0x35, 0x00, 0x00, 0x00, 0x00, 0x04, 0x00, 0x00, 0x00, 0x01, 0x00, 0x00, 0x00, 0x0c, 0x00, 0x00, 0x00, 0x0c, 0x00, 0x00, 0x00, 0x10, 0x00, 0x00, 0x00, 0xfa, 0xf3, 0xff, 0xff, 0x14, 0x00, 0x00, 0x00, 0xe4, 0x00, 0x00, 0x00, 0x0b, 0x00, 0x00, 0x00, 0x00, 0x00, 0x00, 0x02, 0xfc, 0x00, 0x00, 0x00, 0x4c, 0xf3, 0xff, 0xff, 0x08, 0x00, 0x00, 0x00, 0x88, 0x00, 0x00, 0x00, 0x10, 0x00, 0x00, 0x00, 0x00, 0x00, 0x00, 0x00, 0x00, 0x00, 0x00, 0x00, 0x00, 0x00, 0x00, 0x00, 0x00, 0x00, 0x00, 0x00, 0x00, 0x00, 0x00, 0x00, 0x00, 0x00, 0x00, 0x00, 0x00, 0x00, 0x00, 0x00, 0x00, 0x00, 0x00, 0x00, 0x00, 0x00, 0x00, 0x00, 0x00, 0x00, 0x00, 0x00, 0x00, 0x00, 0x00, 0x00, 0x00, 0x00, 0x00, 0x00, 0x00, 0x00, 0x00, 0x00, 0x00, 0x00, 0x00, 0x00, 0x00, 0x00, 0x00, 0x00, 0x00, 0x00, 0x00, 0x00, 0x00, 0x00, 0x00, 0x00, 0x00, 0x00, 0x00, 0x00, 0x00, 0x00, 0x00, 0x00, 0x00, 0x00, 0x00, 0x00, 0x00, 0x00, 0x00, 0x00, 0x00, 0x00, 0x00, 0x00, 0x00, 0x00, 0x00, 0x00, 0x00, 0x00, 0x00, 0x00, 0x00, 0x00, 0x00, 0x00, 0x00, 0x00, 0x00, 0x00, 0x00, 0x00, 0x00, 0x00, 0x00, 0x00, 0x00, 0x00, 0x00, 0x00, 0x00, 0x00, 0x00, 0x00, 0x00, 0x00, 0x00, 0x00, 0x00, 0x00, 0x00, 0x00, 0x00, 0x00, 0x10, 0x00, 0x00, 0x00, 0x8d, 0x31, 0xf6, 0x37, 0xc2, 0x00, 0x07, 0x38, 0x52, 0x71, 0x93, 0x37, 0xe4, 0x9f, 0x78, 0x37, 0x14, 0x87, 0x14, 0x38, 0x8a, 0x5e, 0x14, 0x38, 0x0a, 0x0f, 0xda, 0x37, 0x99, 0x28, 0x21, 0x38, 0xc0, 0xeb, 0xcf, 0x37, 0x05, 0x6a, 0xd1, 0x37, 0x14, 0x14, 0xb0, 0x37, 0x24, 0x02, 0x0a, 0x38, 0x27, 0x65, 0xd1, 0x37, 0x89, 0xe1, 0x0c, 0x38, 0xda, 0x28, 0xb2, 0x37, 0x18, 0x19, 0x8f, 0x37, 0x1e, 0x00, 0x00, 0x00, 0x73, 0x65, 0x71, 0x75, 0x65, 0x6e, 0x74, 0x69, 0x61, 0x6c, 0x2f, 0x71, 0x75, 0x61, 0x6e, 0x74, 0x5f, 0x63, 0x6f, 0x6e, 0x76, 0x32, 0x64, 0x5f, 0x32, 0x2f, 0x35, 0x33, 0x33, 0x35, 0x00, 0x00, 0x01, 0x00, 0x00, 0x00, 0x10, 0x00, 0x00, 0x00, 0x12, 0xf5, 0xff, 0xff, 0x14, 0x00, 0x00, 0x00, 0xe4, 0x00, 0x00, 0x00, 0x0a, 0x00, 0x00, 0x00, 0x00, 0x00, 0x00, 0x09, 0xe0, 0x01, 0x00, 0x00, 0x64, 0xf4, 0xff, 0xff, 0x08, 0x00, 0x00, 0x00, 0x88, 0x00, 0x00, 0x00, 0x10, 0x00, 0x00, 0x00, 0x00, 0x00, 0x00, 0x00, 0x00, 0x00, 0x00, 0x00, 0x00, 0x00, 0x00, 0x00, 0x00, 0x00, 0x00, 0x00, 0x00, 0x00, 0x00, 0x00, 0x00, 0x00, 0x00, 0x00, 0x00, 0x00, 0x00, 0x00, 0x00, 0x00, 0x00, 0x00, 0x00, 0x00, 0x00, 0x00, 0x00, 0x00, 0x00, 0x00, 0x00, 0x00, 0x00, 0x00, 0x00, 0x00, 0x00, 0x00, 0x00, 0x00, 0x00, 0x00, 0x00, 0x00, 0x00, 0x00, 0x00, 0x00, 0x00, 0x00, 0x00, 0x00, 0x00, 0x00, 0x00, 0x00, 0x00, 0x00, 0x00, 0x00, 0x00, 0x00, 0x00, 0x00, 0x00, 0x00, 0x00, 0x00, 0x00, 0x00, 0x00, 0x00, 0x00, 0x00, 0x00, 0x00, 0x00, 0x00, 0x00, 0x00, 0x00, 0x00, 0x00, 0x00, 0x00, 0x00, 0x00, 0x00, 0x00, 0x00, 0x00, 0x00, 0x00, 0x00, 0x00, 0x00, 0x00, 0x00, 0x00, 0x00, 0x00, 0x00, 0x00, 0x00, 0x00, 0x00, 0x00, 0x00, 0x00, 0x00, 0x00, 0x00, 0x00, 0x00, 0x00, 0x00, 0x00, 0x00, 0x10, 0x00, 0x00, 0x00, 0x96, 0xf0, 0x5a, 0x3b, 0xb8, 0x1d, 0x70, 0x3b, 0xe4, 0x1e, 0x03, 0x3b, 0x08, 0x1a, 0xdd, 0x3a, 0xe7, 0x15, 0x84, 0x3b, 0xda, 0xf1, 0x83, 0x3b, 0x66, 0xeb, 0x41, 0x3b, 0x78, 0x51, 0x8f, 0x3b, 0x68, 0xe7, 0x38, 0x3b, 0x5c, 0x3b, 0x3a, 0x3b, 0x21, 0x96, 0x1c, 0x3b, 0x26, 0x76, 0x75, 0x3b, 0x08, 0x37, 0x3a, 0x3b, 0x1f, 0x92, 0x7a, 0x3b, 0xed, 0x6f, 0x1e, 0x3b, 0x94, 0x83, 0xfe, 0x3a, 0x03, 0x01, 0x00, 0x00, 0x43, 0x6f, 0x6e, 0x76, 0x32, 0x44, 0x3b, 0x73, 0x65, 0x71, 0x75, 0x65, 0x6e, 0x74, 0x69, 0x61, 0x6c, 0x2f, 0x71, 0x75, 0x61, 0x6e, 0x74, 0x5f, 0x63, 0x6f, 0x6e, 0x76, 0x32, 0x64, 0x5f, 0x32, 0x2f, 0x53, 0x74, 0x61, 0x74, 0x65, 0x66, 0x75, 0x6c, 0x50, 0x61, 0x72, 0x74, 0x69, 0x74, 0x69, 0x6f, 0x6e, 0x65, 0x64, 0x43, 0x61, 0x6c, 0x6c, 0x2f, 0x53, 0x74, 0x61, 0x74, 0x65, 0x66, 0x75, 0x6c, 0x50, 0x61, 0x72, 0x74, 0x69, 0x74, 0x69, 0x6f, 0x6e, 0x65, 0x64, 0x43, 0x61, 0x6c, 0x6c, 0x2f, 0x43, 0x6f, 0x6e, 0x76, 0x32, 0x44, 0x3b, 0x4c, 0x61, 0x73, 0x74, 0x56, 0x61, 0x6c, 0x75, 0x65, 0x51, 0x75, 0x61, 0x6e, 0x74, 0x2f, 0x46, 0x61, 0x6b, 0x65, 0x51, 0x75, 0x61, 0x6e, 0x74, 0x57, 0x69, 0x74, 0x68, 0x4d, 0x69, 0x6e, 0x4d, 0x61, 0x78, 0x56, 0x61, 0x72, 0x73, 0x50, 0x65, 0x72, 0x43, 0x68, 0x61, 0x6e, 0x6e, 0x65, 0x6c, 0x3b, 0x73, 0x65, 0x71, 0x75, 0x65, 0x6e, 0x74, 0x69, 0x61, 0x6c, 0x2f, 0x71, 0x75, 0x61, 0x6e, 0x74, 0x5f, 0x63, 0x6f, 0x6e, 0x76, 0x32, 0x64, 0x5f, 0x32, 0x2f, 0x53, 0x74, 0x61, 0x74, 0x65, 0x66, 0x75, 0x6c, 0x50, 0x61, 0x72, 0x74, 0x69, 0x74, 0x69, 0x6f, 0x6e, 0x65, 0x64, 0x43, 0x61, 0x6c, 0x6c, 0x2f, 0x53, 0x74, 0x61, 0x74, 0x65, 0x66, 0x75, 0x6c, 0x50, 0x61, 0x72, 0x74, 0x69, 0x74, 0x69, 0x6f, 0x6e, 0x65, 0x64, 0x43, 0x61, 0x6c, 0x6c, 0x2f, 0x4c, 0x61, 0x73, 0x74, 0x56, 0x61, 0x6c, 0x75, 0x65, 0x51, 0x75, 0x61, 0x6e, 0x74, 0x2f, 0x46, 0x61, 0x6b, 0x65, 0x51, 0x75, 0x61, 0x6e, 0x74, 0x57, 0x69, 0x74, 0x68, 0x4d, 0x69, 0x6e, 0x4d, 0x61, 0x78, 0x56, 0x61, 0x72, 0x73, 0x50, 0x65, 0x72, 0x43, 0x68, 0x61, 0x6e, 0x6e, 0x65, 0x6c, 0x00, 0x04, 0x00, 0x00, 0x00, 0x10, 0x00, 0x00, 0x00, 0x03, 0x00, 0x00, 0x00, 0x03, 0x00, 0x00, 0x00, 0x08, 0x00, 0x00, 0x00, 0x98, 0xf6, 0xff, 0xff, 0x18, 0x00, 0x00, 0x00, 0x28, 0x00, 0x00, 0x00, 0x44, 0x00, 0x00, 0x00, 0x09, 0x00, 0x00, 0x00, 0x00, 0x00, 0x00, 0x09, 0x8c, 0x00, 0x00, 0x00, 0x04, 0x00, 0x00, 0x00, 0xff, 0xff, 0xff, 0xff, 0x0e, 0x00, 0x00, 0x00, 0x0e, 0x00, 0x00, 0x00, 0x08, 0x00, 0x00, 0x00, 0x84, 0xf6, 0xff, 0xff, 0x08, 0x00, 0x00, 0x00, 0x10, 0x00, 0x00, 0x00, 0x01, 0x00, 0x00, 0x00, 0xc4, 0xff, 0xff, 0xff, 0xff, 0xff, 0xff, 0xff, 0x01, 0x00, 0x00, 0x00, 0xfb, 0xee, 0x0f, 0x3c, 0x4e, 0x00, 0x00, 0x00, 0x4d, 0x61, 0x78, 0x50, 0x6f, 0x6f, 0x6c, 0x3b, 0x73, 0x65, 0x71, 0x75, 0x65, 0x6e, 0x74, 0x69, 0x61, 0x6c, 0x2f, 0x71, 0x75, 0x61, 0x6e, 0x74, 0x5f, 0x6d, 0x61, 0x78, 0x5f, 0x70, 0x6f, 0x6f, 0x6c, 0x69, 0x6e, 0x67, 0x32, 0x64, 0x2f, 0x50, 0x61, 0x72, 0x74, 0x69, 0x74, 0x69, 0x6f, 0x6e, 0x65, 0x64, 0x43, 0x61, 0x6c, 0x6c, 0x2f, 0x50, 0x61, 0x72, 0x74, 0x69, 0x74, 0x69, 0x6f, 0x6e, 0x65, 0x64, 0x43, 0x61, 0x6c, 0x6c, 0x2f, 0x4d, 0x61, 0x78, 0x50, 0x6f, 0x6f, 0x6c, 0x00, 0x00, 0x04, 0x00, 0x00, 0x00, 0x01, 0x00, 0x00, 0x00, 0x0e, 0x00, 0x00, 0x00, 0x0e, 0x00, 0x00, 0x00, 0x08, 0x00, 0x00, 0x00, 0x50, 0xf7, 0xff, 0xff, 0x18, 0x00, 0x00, 0x00, 0x28, 0x00, 0x00, 0x00, 0x44, 0x00, 0x00, 0x00, 0x08, 0x00, 0x00, 0x00, 0x00, 0x00, 0x00, 0x09, 0x64, 0x01, 0x00, 0x00, 0x04, 0x00, 0x00, 0x00, 0xff, 0xff, 0xff, 0xff, 0x1c, 0x00, 0x00, 0x00, 0x1c, 0x00, 0x00, 0x00, 0x08, 0x00, 0x00, 0x00, 0x3c, 0xf7, 0xff, 0xff, 0x08, 0x00, 0x00, 0x00, 0x10, 0x00, 0x00, 0x00, 0x01, 0x00, 0x00, 0x00, 0xc4, 0xff, 0xff, 0xff, 0xff, 0xff, 0xff, 0xff, 0x01, 0x00, 0x00, 0x00, 0xfb, 0xee, 0x0f, 0x3c, 0x24, 0x01, 0x00, 0x00, 0x52, 0x65, 0x6c, 0x75, 0x3b, 0x73, 0x65, 0x71, 0x75, 0x65, 0x6e, 0x74, 0x69, 0x61, 0x6c, 0x2f, 0x71, 0x75, 0x61, 0x6e, 0x74, 0x5f, 0x63, 0x6f, 0x6e, 0x76, 0x32, 0x64, 0x5f, 0x31, 0x2f, 0x53, 0x74, 0x61, 0x74, 0x65, 0x66, 0x75, 0x6c, 0x50, 0x61, 0x72, 0x74, 0x69, 0x74, 0x69, 0x6f, 0x6e, 0x65, 0x64, 0x43, 0x61, 0x6c, 0x6c, 0x2f, 0x53, 0x74, 0x61, 0x74, 0x65, 0x66, 0x75, 0x6c, 0x50, 0x61, 0x72, 0x74, 0x69, 0x74, 0x69, 0x6f, 0x6e, 0x65, 0x64, 0x43, 0x61, 0x6c, 0x6c, 0x2f, 0x52, 0x65, 0x6c, 0x75, 0x3b, 0x42, 0x69, 0x61, 0x73, 0x41, 0x64, 0x64, 0x3b, 0x73, 0x65, 0x71, 0x75, 0x65, 0x6e, 0x74, 0x69, 0x61, 0x6c, 0x2f, 0x71, 0x75, 0x61, 0x6e, 0x74, 0x5f, 0x63, 0x6f, 0x6e, 0x76, 0x32, 0x64, 0x5f, 0x31, 0x2f, 0x53, 0x74, 0x61, 0x74, 0x65, 0x66, 0x75, 0x6c, 0x50, 0x61, 0x72, 0x74, 0x69, 0x74, 0x69, 0x6f, 0x6e, 0x65, 0x64, 0x43, 0x61, 0x6c, 0x6c, 0x2f, 0x53, 0x74, 0x61, 0x74, 0x65, 0x66, 0x75, 0x6c, 0x50, 0x61, 0x72, 0x74, 0x69, 0x74, 0x69, 0x6f, 0x6e, 0x65, 0x64, 0x43, 0x61, 0x6c, 0x6c, 0x2f, 0x42, 0x69, 0x61, 0x73, 0x41, 0x64, 0x64, 0x3b, 0x43, 0x6f, 0x6e, 0x76, 0x32, 0x44, 0x3b, 0x73, 0x65, 0x71, 0x75, 0x65, 0x6e, 0x74, 0x69, 0x61, 0x6c, 0x2f, 0x71, 0x75, 0x61, 0x6e, 0x74, 0x5f, 0x63, 0x6f, 0x6e, 0x76, 0x32, 0x64, 0x5f, 0x31, 0x2f, 0x53, 0x74, 0x61, 0x74, 0x65, 0x66, 0x75, 0x6c, 0x50, 0x61, 0x72, 0x74, 0x69, 0x74, 0x69, 0x6f, 0x6e, 0x65, 0x64, 0x43, 0x61, 0x6c, 0x6c, 0x2f, 0x53, 0x74, 0x61, 0x74, 0x65, 0x66, 0x75, 0x6c, 0x50, 0x61, 0x72, 0x74, 0x69, 0x74, 0x69, 0x6f, 0x6e, 0x65, 0x64, 0x43, 0x61, 0x6c, 0x6c, 0x2f, 0x43, 0x6f, 0x6e, 0x76, 0x32, 0x44, 0x3b, 0x73, 0x65, 0x71, 0x75, 0x65, 0x6e, 0x74, 0x69, 0x61, 0x6c, 0x2f, 0x71, 0x75, 0x61, 0x6e, 0x74, 0x5f, 0x63, 0x6f, 0x6e, 0x76, 0x32, 0x64, 0x5f, 0x31, 0x2f, 0x35, 0x33, 0x32, 0x30, 0x00, 0x00, 0x00, 0x00, 0x04, 0x00, 0x00, 0x00, 0x01, 0x00, 0x00, 0x00, 0x1c, 0x00, 0x00, 0x00, 0x1c, 0x00, 0x00, 0x00, 0x08, 0x00, 0x00, 0x00, 0x62, 0xf9, 0xff, 0xff, 0x14, 0x00, 0x00, 0x00, 0x84, 0x00, 0x00, 0x00, 0x07, 0x00, 0x00, 0x00, 0x00, 0x00, 0x00, 0x02, 0x9c, 0x00, 0x00, 0x00, 0xb4, 0xf8, 0xff, 0xff, 0x08, 0x00, 0x00, 0x00, 0x48, 0x00, 0x00, 0x00, 0x08, 0x00, 0x00, 0x00, 0x00, 0x00, 0x00, 0x00, 0x00, 0x00, 0x00, 0x00, 0x00, 0x00, 0x00, 0x00, 0x00, 0x00, 0x00, 0x00, 0x00, 0x00, 0x00, 0x00, 0x00, 0x00, 0x00, 0x00, 0x00, 0x00, 0x00, 0x00, 0x00, 0x00, 0x00, 0x00, 0x00, 0x00, 0x00, 0x00, 0x00, 0x00, 0x00, 0x00, 0x00, 0x00, 0x00, 0x00, 0x00, 0x00, 0x00, 0x00, 0x00, 0x00, 0x00, 0x00, 0x00, 0x00, 0x00, 0x00, 0x00, 0x00, 0x00, 0x00, 0x00, 0x00, 0x00, 0x00, 0x08, 0x00, 0x00, 0x00, 0xc8, 0x9a, 0x00, 0x38, 0x60, 0xaa, 0xf1, 0x37, 0xc3, 0xe6, 0x1e, 0x38, 0xb7, 0x10, 0x5b, 0x37, 0x87, 0x82, 0x51, 0x37, 0x1f, 0xc4, 0x36, 0x38, 0x9f, 0x27, 0x22, 0x38, 0xc1, 0xbf, 0x26, 0x38, 0x1e, 0x00, 0x00, 0x00, 0x73, 0x65, 0x71, 0x75, 0x65, 0x6e, 0x74, 0x69, 0x61, 0x6c, 0x2f, 0x71, 0x75, 0x61, 0x6e, 0x74, 0x5f, 0x63, 0x6f, 0x6e, 0x76, 0x32, 0x64, 0x5f, 0x31, 0x2f, 0x35, 0x33, 0x32, 0x30, 0x00, 0x00, 0x01, 0x00, 0x00, 0x00, 0x08, 0x00, 0x00, 0x00, 0x1a, 0xfa, 0xff, 0xff, 0x14, 0x00, 0x00, 0x00, 0x84, 0x00, 0x00, 0x00, 0x06, 0x00, 0x00, 0x00, 0x00, 0x00, 0x00, 0x09, 0x80, 0x01, 0x00, 0x00, 0x6c, 0xf9, 0xff, 0xff, 0x08, 0x00, 0x00, 0x00, 0x48, 0x00, 0x00, 0x00, 0x08, 0x00, 0x00, 0x00, 0x00, 0x00, 0x00, 0x00, 0x00, 0x00, 0x00, 0x00, 0x00, 0x00, 0x00, 0x00, 0x00, 0x00, 0x00, 0x00, 0x00, 0x00, 0x00, 0x00, 0x00, 0x00, 0x00, 0x00, 0x00, 0x00, 0x00, 0x00, 0x00, 0x00, 0x00, 0x00, 0x00, 0x00, 0x00, 0x00, 0x00, 0x00, 0x00, 0x00, 0x00, 0x00, 0x00, 0x00, 0x00, 0x00, 0x00, 0x00, 0x00, 0x00, 0x00, 0x00, 0x00, 0x00, 0x00, 0x00, 0x00, 0x00, 0x00, 0x00, 0x00, 0x00, 0x00, 0x00, 0x08, 0x00, 0x00, 0x00, 0x03, 0xd5, 0x86, 0x3b, 0x27, 0x5e, 0x7d, 0x3b, 0x91, 0x98, 0xa6, 0x3b, 0x55, 0xac, 0xe5, 0x3a, 0xb1, 0xa7, 0xdb, 0x3a, 0xc3, 0x9d, 0xbf, 0x3b, 0xc2, 0x01, 0xaa, 0x3b, 0xd7, 0xd2, 0xae, 0x3b, 0x03, 0x01, 0x00, 0x00, 0x43, 0x6f, 0x6e, 0x76, 0x32, 0x44, 0x3b, 0x73, 0x65, 0x71, 0x75, 0x65, 0x6e, 0x74, 0x69, 0x61, 0x6c, 0x2f, 0x71, 0x75, 0x61, 0x6e, 0x74, 0x5f, 0x63, 0x6f, 0x6e, 0x76, 0x32, 0x64, 0x5f, 0x31, 0x2f, 0x53, 0x74, 0x61, 0x74, 0x65, 0x66, 0x75, 0x6c, 0x50, 0x61, 0x72, 0x74, 0x69, 0x74, 0x69, 0x6f, 0x6e, 0x65, 0x64, 0x43, 0x61, 0x6c, 0x6c, 0x2f, 0x53, 0x74, 0x61, 0x74, 0x65, 0x66, 0x75, 0x6c, 0x50, 0x61, 0x72, 0x74, 0x69, 0x74, 0x69, 0x6f, 0x6e, 0x65, 0x64, 0x43, 0x61, 0x6c, 0x6c, 0x2f, 0x43, 0x6f, 0x6e, 0x76, 0x32, 0x44, 0x3b, 0x4c, 0x61, 0x73, 0x74, 0x56, 0x61, 0x6c, 0x75, 0x65, 0x51, 0x75, 0x61, 0x6e, 0x74, 0x2f, 0x46, 0x61, 0x6b, 0x65, 0x51, 0x75, 0x61, 0x6e, 0x74, 0x57, 0x69, 0x74, 0x68, 0x4d, 0x69, 0x6e, 0x4d, 0x61, 0x78, 0x56, 0x61, 0x72, 0x73, 0x50, 0x65, 0x72, 0x43, 0x68, 0x61, 0x6e, 0x6e, 0x65, 0x6c, 0x3b, 0x73, 0x65, 0x71, 0x75, 0x65, 0x6e, 0x74, 0x69, 0x61, 0x6c, 0x2f, 0x71, 0x75, 0x61, 0x6e, 0x74, 0x5f, 0x63, 0x6f, 0x6e, 0x76, 0x32, 0x64, 0x5f, 0x31, 0x2f, 0x53, 0x74, 0x61, 0x74, 0x65, 0x66, 0x75, 0x6c, 0x50, 0x61, 0x72, 0x74, 0x69, 0x74, 0x69, 0x6f, 0x6e, 0x65, 0x64, 0x43, 0x61, 0x6c, 0x6c, 0x2f, 0x53, 0x74, 0x61, 0x74, 0x65, 0x66, 0x75, 0x6c, 0x50, 0x61, 0x72, 0x74, 0x69, 0x74, 0x69, 0x6f, 0x6e, 0x65, 0x64, 0x43, 0x61, 0x6c, 0x6c, 0x2f, 0x4c, 0x61, 0x73, 0x74, 0x56, 0x61, 0x6c, 0x75, 0x65, 0x51, 0x75, 0x61, 0x6e, 0x74, 0x2f, 0x46, 0x61, 0x6b, 0x65, 0x51, 0x75, 0x61, 0x6e, 0x74, 0x57, 0x69, 0x74, 0x68, 0x4d, 0x69, 0x6e, 0x4d, 0x61, 0x78, 0x56, 0x61, 0x72, 0x73, 0x50, 0x65, 0x72, 0x43, 0x68, 0x61, 0x6e, 0x6e, 0x65, 0x6c, 0x00, 0x04, 0x00, 0x00, 0x00, 0x08, 0x00, 0x00, 0x00, 0x03, 0x00, 0x00, 0x00, 0x03, 0x00, 0x00, 0x00, 0x08, 0x00, 0x00, 0x00, 0x40, 0xfb, 0xff, 0xff, 0x18, 0x00, 0x00, 0x00, 0x28, 0x00, 0x00, 0x00, 0x44, 0x00, 0x00, 0x00, 0x05, 0x00, 0x00, 0x00, 0x00, 0x00, 0x00, 0x09, 0xb4, 0x01, 0x00, 0x00, 0x04, 0x00, 0x00, 0x00, 0xff, 0xff, 0xff, 0xff, 0x1e, 0x00, 0x00, 0x00, 0x1e, 0x00, 0x00, 0x00, 0x08, 0x00, 0x00, 0x00, 0x2c, 0xfb, 0xff, 0xff, 0x08, 0x00, 0x00, 0x00, 0x10, 0x00, 0x00, 0x00, 0x01, 0x00, 0x00, 0x00, 0xd1, 0xff, 0xff, 0xff, 0xff, 0xff, 0xff, 0xff, 0x01, 0x00, 0x00, 0x00, 0x19, 0x2d, 0xf4, 0x3b, 0x74, 0x01, 0x00, 0x00, 0x52, 0x65, 0x6c, 0x75, 0x3b, 0x73, 0x65, 0x71, 0x75, 0x65, 0x6e, 0x74, 0x69, 0x61, 0x6c, 0x2f, 0x71, 0x75, 0x61, 0x6e, 0x74, 0x5f, 0x63, 0x6f, 0x6e, 0x76, 0x32, 0x64, 0x2f, 0x53, 0x74, 0x61, 0x74, 0x65, 0x66, 0x75, 0x6c, 0x50, 0x61, 0x72, 0x74, 0x69, 0x74, 0x69, 0x6f, 0x6e, 0x65, 0x64, 0x43, 0x61, 0x6c, 0x6c, 0x2f, 0x53, 0x74, 0x61, 0x74, 0x65, 0x66, 0x75, 0x6c, 0x50, 0x61, 0x72, 0x74, 0x69, 0x74, 0x69, 0x6f, 0x6e, 0x65, 0x64, 0x43, 0x61, 0x6c, 0x6c, 0x2f, 0x52, 0x65, 0x6c, 0x75, 0x3b, 0x42, 0x69, 0x61, 0x73, 0x41, 0x64, 0x64, 0x3b, 0x73, 0x65, 0x71, 0x75, 0x65, 0x6e, 0x74, 0x69, 0x61, 0x6c, 0x2f, 0x71, 0x75, 0x61, 0x6e, 0x74, 0x5f, 0x63, 0x6f, 0x6e, 0x76, 0x32, 0x64, 0x2f, 0x53, 0x74, 0x61, 0x74, 0x65, 0x66, 0x75, 0x6c, 0x50, 0x61, 0x72, 0x74, 0x69, 0x74, 0x69, 0x6f, 0x6e, 0x65, 0x64, 0x43, 0x61, 0x6c, 0x6c, 0x2f, 0x53, 0x74, 0x61, 0x74, 0x65, 0x66, 0x75, 0x6c, 0x50, 0x61, 0x72, 0x74, 0x69, 0x74, 0x69, 0x6f, 0x6e, 0x65, 0x64, 0x43, 0x61, 0x6c, 0x6c, 0x2f, 0x42, 0x69, 0x61, 0x73, 0x41, 0x64, 0x64, 0x3b, 0x43, 0x6f, 0x6e, 0x76, 0x32, 0x44, 0x3b, 0x73, 0x65, 0x71, 0x75, 0x65, 0x6e, 0x74, 0x69, 0x61, 0x6c, 0x2f, 0x71, 0x75, 0x61, 0x6e, 0x74, 0x5f, 0x63, 0x6f, 0x6e, 0x76, 0x32, 0x64, 0x5f, 0x31, 0x2f, 0x53, 0x74, 0x61, 0x74, 0x65, 0x66, 0x75, 0x6c, 0x50, 0x61, 0x72, 0x74, 0x69, 0x74, 0x69, 0x6f, 0x6e, 0x65, 0x64, 0x43, 0x61, 0x6c, 0x6c, 0x2f, 0x53, 0x74, 0x61, 0x74, 0x65, 0x66, 0x75, 0x6c, 0x50, 0x61, 0x72, 0x74, 0x69, 0x74, 0x69, 0x6f, 0x6e, 0x65, 0x64, 0x43, 0x61, 0x6c, 0x6c, 0x2f, 0x43, 0x6f, 0x6e, 0x76, 0x32, 0x44, 0x3b, 0x43, 0x6f, 0x6e, 0x76, 0x32, 0x44, 0x3b, 0x73, 0x65, 0x71, 0x75, 0x65, 0x6e, 0x74, 0x69, 0x61, 0x6c, 0x2f, 0x71, 0x75, 0x61, 0x6e, 0x74, 0x5f, 0x63, 0x6f, 0x6e, 0x76, 0x32, 0x64, 0x2f, 0x53, 0x74, 0x61, 0x74, 0x65, 0x66, 0x75, 0x6c, 0x50, 0x61, 0x72, 0x74, 0x69, 0x74, 0x69, 0x6f, 0x6e, 0x65, 0x64, 0x43, 0x61, 0x6c, 0x6c, 0x2f, 0x53, 0x74, 0x61, 0x74, 0x65, 0x66, 0x75, 0x6c, 0x50, 0x61, 0x72, 0x74, 0x69, 0x74, 0x69, 0x6f, 0x6e, 0x65, 0x64, 0x43, 0x61, 0x6c, 0x6c, 0x2f, 0x43, 0x6f, 0x6e, 0x76, 0x32, 0x44, 0x3b, 0x73, 0x65, 0x71, 0x75, 0x65, 0x6e, 0x74, 0x69, 0x61, 0x6c, 0x2f, 0x71, 0x75, 0x61, 0x6e, 0x74, 0x5f, 0x63, 0x6f, 0x6e, 0x76, 0x32, 0x64, 0x2f, 0x35, 0x33, 0x30, 0x37, 0x00, 0x00, 0x00, 0x00, 0x04, 0x00, 0x00, 0x00, 0x01, 0x00, 0x00, 0x00, 0x1e, 0x00, 0x00, 0x00, 0x1e, 0x00, 0x00, 0x00, 0x08, 0x00, 0x00, 0x00, 0xa2, 0xfd, 0xff, 0xff, 0x14, 0x00, 0x00, 0x00, 0x84, 0x00, 0x00, 0x00, 0x04, 0x00, 0x00, 0x00, 0x00, 0x00, 0x00, 0x02, 0x9c, 0x00, 0x00, 0x00, 0xf4, 0xfc, 0xff, 0xff, 0x08, 0x00, 0x00, 0x00, 0x48, 0x00, 0x00, 0x00, 0x08, 0x00, 0x00, 0x00, 0x00, 0x00, 0x00, 0x00, 0x00, 0x00, 0x00, 0x00, 0x00, 0x00, 0x00, 0x00, 0x00, 0x00, 0x00, 0x00, 0x00, 0x00, 0x00, 0x00, 0x00, 0x00, 0x00, 0x00, 0x00, 0x00, 0x00, 0x00, 0x00, 0x00, 0x00, 0x00, 0x00, 0x00, 0x00, 0x00, 0x00, 0x00, 0x00, 0x00, 0x00, 0x00, 0x00, 0x00, 0x00, 0x00, 0x00, 0x00, 0x00, 0x00, 0x00, 0x00, 0x00, 0x00, 0x00, 0x00, 0x00, 0x00, 0x00, 0x00, 0x00, 0x00, 0x00, 0x00, 0x08, 0x00, 0x00, 0x00, 0xca, 0x76, 0x81, 0x37, 0xae, 0xe5, 0x09, 0x37, 0xb9, 0x1e, 0xdb, 0x37, 0x7b, 0x63, 0x86, 0x37, 0x82, 0x5b, 0x94, 0x37, 0xc4, 0x6c, 0x93, 0x37, 0x74, 0x25, 0xa9, 0x37, 0xe3, 0x30, 0x87, 0x37, 0x1c, 0x00, 0x00, 0x00, 0x73, 0x65, 0x71, 0x75, 0x65, 0x6e, 0x74, 0x69, 0x61, 0x6c, 0x2f, 0x71, 0x75, 0x61, 0x6e, 0x74, 0x5f, 0x63, 0x6f, 0x6e, 0x76, 0x32, 0x64, 0x2f, 0x35, 0x33, 0x30, 0x37, 0x00, 0x00, 0x00, 0x00, 0x01, 0x00, 0x00, 0x00, 0x08, 0x00, 0x00, 0x00, 0x5a, 0xfe, 0xff, 0xff, 0x14, 0x00, 0x00, 0x00, 0x84, 0x00, 0x00, 0x00, 0x03, 0x00, 0x00, 0x00, 0x00, 0x00, 0x00, 0x09, 0x7c, 0x01, 0x00, 0x00, 0xac, 0xfd, 0xff, 0xff, 0x08, 0x00, 0x00, 0x00, 0x48, 0x00, 0x00, 0x00, 0x08, 0x00, 0x00, 0x00, 0x00, 0x00, 0x00, 0x00, 0x00, 0x00, 0x00, 0x00, 0x00, 0x00, 0x00, 0x00, 0x00, 0x00, 0x00, 0x00, 0x00, 0x00, 0x00, 0x00, 0x00, 0x00, 0x00, 0x00, 0x00, 0x00, 0x00, 0x00, 0x00, 0x00, 0x00, 0x00, 0x00, 0x00, 0x00, 0x00, 0x00, 0x00, 0x00, 0x00, 0x00, 0x00, 0x00, 0x00, 0x00, 0x00, 0x00, 0x00, 0x00, 0x00, 0x00, 0x00, 0x00, 0x00, 0x00, 0x00, 0x00, 0x00, 0x00, 0x00, 0x00, 0x00, 0x00, 0x00, 0x08, 0x00, 0x00, 0x00, 0x54, 0xf5, 0x80, 0x3b, 0xc9, 0x5b, 0x09, 0x3b, 0x9a, 0x43, 0xda, 0x3b, 0x17, 0xdd, 0x85, 0x3b, 0x26, 0xc7, 0x93, 0x3b, 0x58, 0xd9, 0x92, 0x3b, 0x4f, 0x7c, 0xa8, 0x3b, 0xb2, 0xa9, 0x86, 0x3b, 0xff, 0x00, 0x00, 0x00, 0x43, 0x6f, 0x6e, 0x76, 0x32, 0x44, 0x3b, 0x73, 0x65, 0x71, 0x75, 0x65, 0x6e, 0x74, 0x69, 0x61, 0x6c, 0x2f, 0x71, 0x75, 0x61, 0x6e, 0x74, 0x5f, 0x63, 0x6f, 0x6e, 0x76, 0x32, 0x64, 0x2f, 0x53, 0x74, 0x61, 0x74, 0x65, 0x66, 0x75, 0x6c, 0x50, 0x61, 0x72, 0x74, 0x69, 0x74, 0x69, 0x6f, 0x6e, 0x65, 0x64, 0x43, 0x61, 0x6c, 0x6c, 0x2f, 0x53, 0x74, 0x61, 0x74, 0x65, 0x66, 0x75, 0x6c, 0x50, 0x61, 0x72, 0x74, 0x69, 0x74, 0x69, 0x6f, 0x6e, 0x65, 0x64, 0x43, 0x61, 0x6c, 0x6c, 0x2f, 0x43, 0x6f, 0x6e, 0x76, 0x32, 0x44, 0x3b, 0x4c, 0x61, 0x73, 0x74, 0x56, 0x61, 0x6c, 0x75, 0x65, 0x51, 0x75, 0x61, 0x6e, 0x74, 0x2f, 0x46, 0x61, 0x6b, 0x65, 0x51, 0x75, 0x61, 0x6e, 0x74, 0x57, 0x69, 0x74, 0x68, 0x4d, 0x69, 0x6e, 0x4d, 0x61, 0x78, 0x56, 0x61, 0x72, 0x73, 0x50, 0x65, 0x72, 0x43, 0x68, 0x61, 0x6e, 0x6e, 0x65, 0x6c, 0x3b, 0x73, 0x65, 0x71, 0x75, 0x65, 0x6e, 0x74, 0x69, 0x61, 0x6c, 0x2f, 0x71, 0x75, 0x61, 0x6e, 0x74, 0x5f, 0x63, 0x6f, 0x6e, 0x76, 0x32, 0x64, 0x2f, 0x53, 0x74, 0x61, 0x74, 0x65, 0x66, 0x75, 0x6c, 0x50, 0x61, 0x72, 0x74, 0x69, 0x74, 0x69, 0x6f, 0x6e, 0x65, 0x64, 0x43, 0x61, 0x6c, 0x6c, 0x2f, 0x53, 0x74, 0x61, 0x74, 0x65, 0x66, 0x75, 0x6c, 0x50, 0x61, 0x72, 0x74, 0x69, 0x74, 0x69, 0x6f, 0x6e, 0x65, 0x64, 0x43, 0x61, 0x6c, 0x6c, 0x2f, 0x4c, 0x61, 0x73, 0x74, 0x56, 0x61, 0x6c, 0x75, 0x65, 0x51, 0x75, 0x61, 0x6e, 0x74, 0x2f, 0x46, 0x61, 0x6b, 0x65, 0x51, 0x75, 0x61, 0x6e, 0x74, 0x57, 0x69, 0x74, 0x68, 0x4d, 0x69, 0x6e, 0x4d, 0x61, 0x78, 0x56, 0x61, 0x72, 0x73, 0x50, 0x65, 0x72, 0x43, 0x68, 0x61, 0x6e, 0x6e, 0x65, 0x6c, 0x00, 0x04, 0x00, 0x00, 0x00, 0x08, 0x00, 0x00, 0x00, 0x03, 0x00, 0x00, 0x00, 0x03, 0x00, 0x00, 0x00, 0x01, 0x00, 0x00, 0x00, 0x00, 0x00, 0x0e, 0x00, 0x18, 0x00, 0x14, 0x00, 0x13, 0x00, 0x0c, 0x00, 0x08, 0x00, 0x04, 0x00, 0x0e, 0x00, 0x00, 0x00, 0x18, 0x00, 0x00, 0x00, 0x18, 0x00, 0x00, 0x00, 0x02, 0x00, 0x00, 0x00, 0x00, 0x00, 0x00, 0x02, 0x58, 0x00, 0x00, 0x00, 0x04, 0x00, 0x04, 0x00, 0x04, 0x00, 0x00, 0x00, 0x44, 0x00, 0x00, 0x00, 0x43, 0x6f, 0x6e, 0x73, 0x74, 0x3b, 0x73, 0x65, 0x71, 0x75, 0x65, 0x6e, 0x74, 0x69, 0x61, 0x6c, 0x2f, 0x71, 0x75, 0x61, 0x6e, 0x74, 0x5f, 0x66, 0x6c, 0x61, 0x74, 0x74, 0x65, 0x6e, 0x2f, 0x50, 0x61, 0x72, 0x74, 0x69, 0x74, 0x69, 0x6f, 0x6e, 0x65, 0x64, 0x43, 0x61, 0x6c, 0x6c, 0x2f, 0x50, 0x61, 0x72, 0x74, 0x69, 0x74, 0x69, 0x6f, 0x6e, 0x65, 0x64, 0x43, 0x61, 0x6c, 0x6c, 0x2f, 0x43, 0x6f, 0x6e, 0x73, 0x74, 0x00, 0x00, 0x00, 0x00, 0x01, 0x00, 0x00, 0x00, 0x02, 0x00, 0x00, 0x00, 0x14, 0x00, 0x1c, 0x00, 0x18, 0x00, 0x17, 0x00, 0x10, 0x00, 0x0c, 0x00, 0x08, 0x00, 0x00, 0x00, 0x00, 0x00, 0x04, 0x00, 0x14, 0x00, 0x00, 0x00, 0x18, 0x00, 0x00, 0x00, 0x34, 0x00, 0x00, 0x00, 0x50, 0x00, 0x00, 0x00, 0x01, 0x00, 0x00, 0x00, 0x00, 0x00, 0x00, 0x09, 0x50, 0x00, 0x00, 0x00, 0x04, 0x00, 0x00, 0x00, 0xff, 0xff, 0xff, 0xff, 0x20, 0x00, 0x00, 0x00, 0x20, 0x00, 0x00, 0x00, 0x01, 0x00, 0x00, 0x00, 0x0c, 0x00, 0x0c, 0x00, 0x00, 0x00, 0x00, 0x00, 0x08, 0x00, 0x04, 0x00, 0x0c, 0x00, 0x00, 0x00, 0x08, 0x00, 0x00, 0x00, 0x10, 0x00, 0x00, 0x00, 0x01, 0x00, 0x00, 0x00, 0x80, 0xff, 0xff, 0xff, 0xff, 0xff, 0xff, 0xff, 0x01, 0x00, 0x00, 0x00, 0x81, 0x80, 0x80, 0x3b, 0x07, 0x00, 0x00, 0x00, 0x69, 0x6e, 0x70, 0x75, 0x74, 0x5f, 0x31, 0x00, 0x04, 0x00, 0x00, 0x00, 0x01, 0x00, 0x00, 0x00, 0x20, 0x00, 0x00, 0x00, 0x20, 0x00, 0x00, 0x00, 0x01, 0x00, 0x00, 0x00, 0x04, 0x00, 0x00, 0x00, 0x54, 0x00, 0x00, 0x00, 0x34, 0x00, 0x00, 0x00, 0x24, 0x00, 0x00, 0x00, 0x04, 0x00, 0x00, 0x00, 0xc8, 0xff, 0xff, 0xff, 0x09, 0x00, 0x00, 0x00, 0x04, 0x00, 0x00, 0x00, 0x00, 0x00, 0x00, 0x09, 0x0c, 0x00, 0x0c, 0x00, 0x0b, 0x00, 0x00, 0x00, 0x00, 0x00, 0x04, 0x00, 0x0c, 0x00, 0x00, 0x00, 0x16, 0x00, 0x00, 0x00, 0x00, 0x00, 0x00, 0x16, 0xf0, 0xff, 0xff, 0xff, 0x11, 0x00, 0x00, 0x00, 0x02, 0x00, 0x00, 0x00, 0x00, 0x00, 0x00, 0x11, 0x0c, 0x00, 0x10, 0x00, 0x0f, 0x00, 0x00, 0x00, 0x08, 0x00, 0x04, 0x00, 0x0c, 0x00, 0x00, 0x00, 0x03, 0x00, 0x00, 0x00, 0x03, 0x00, 0x00, 0x00, 0x00, 0x00, 0x00, 0x03};
const int model_data_len = 12304;